<pad>	0
<s>	0
</s>	0
<unk>	0
▁the	-2.86913
▁of	-3.30882
,	-3.31616
.	-3.49882
▁and	-3.57063
▁to	-3.76976
s	-4.00805
▁in	-4.07409
▁a	-4.49789
▁for	-4.71612
-	-4.82595
▁on	-4.87866
▁that	-4.91618
▁The	-5.03928
▁(	-5.14896
▁is	-5.21435
▁with	-5.2906
▁by	-5.33182
▁be	-5.41314
)	-5.45943
▁as	-5.46761
'	-5.48377
▁was	-5.77437
▁are	-5.80524
ing	-5.81734
;	-5.82953
▁its	-5.86511
▁at	-5.87684
▁or	-5.91981
▁from	-5.94522
ed	-5.98621
▁it	-5.9914
▁I	-5.99242
▁United	-6.0205
▁have	-6.07466
▁an	-6.08124
▁not	-6.08249
:	-6.13289
d	-6.17135
▁Nations	-6.18096
▁their	-6.19701
▁has	-6.20145
▁which	-6.22378
▁In	-6.23214
▁this	-6.27427
▁	-6.29221
▁all	-6.29243
/	-6.31253
▁A	-6.34579
▁will	-6.35808
▁Committee	-6.38767
▁had	-6.45569
▁you	-6.46279
▁been	-6.47303
▁"	-6.4775
▁also	-6.4969
t	-6.49735
▁States	-6.50382
▁were	-6.52684
▁other	-6.54079
▁international	-6.54484
▁development	-6.60599
ly	-6.62071
▁should	-6.62674
▁would	-6.70377
▁countries	-6.72962
a	-6.73776
▁rights	-6.77146
▁It	-6.79267
▁Council	-6.7981
▁under	-6.82676
▁report	-6.83922
e	-6.84504
▁his	-6.85283
▁such	-6.8813
▁work	-6.89056
▁can	-6.8988
▁including	-6.91417
▁more	-6.9142
▁he	-6.91772
▁human	-6.94768
▁women	-6.94858
▁support	-6.97504
▁national	-6.97601
▁one	-6.98309
m	-6.9935
b	-6.9976
▁information	-7.00325
▁resolution	-7.01119
y	-7.03315
▁State	-7.03367
er	-7.0411
▁into	-7.04717
▁out	-7.04864
▁General	-7.05501
▁they	-7.07015
▁-	-7.07076
▁Assembly	-7.09011
▁but	-7.10802
▁we	-7.12126
▁made	-7.12921
?	-7.14777
▁new	-7.14808
▁system	-7.16479
▁session	-7.17172
c	-7.17179
n	-7.17368
General	-7.17853
▁implementation	-7.18072
▁Convention	-7.18712
▁Government	-7.19681
▁through	-7.20734
A	-7.20845
al	-7.20879
▁people	-7.21526
▁time	-7.22204
"	-7.22221
▁per	-7.22283
▁well	-7.22566
▁Secretary	-7.22719
▁activities	-7.22811
▁S	-7.22819
▁between	-7.23368
▁any	-7.24058
re	-7.25069
▁against	-7.25937
▁those	-7.2644
i	-7.26668
▁International	-7.27238
▁no	-7.27761
▁Commission	-7.28935
▁who	-7.29225
▁law	-7.29552
▁up	-7.29628
▁so	-7.3096
▁may	-7.31498
▁1	-7.32039
▁country	-7.32725
▁He	-7.34067
▁This	-7.34512
▁about	-7.35314
▁than	-7.3712
r	-7.37132
▁Mr	-7.38193
or	-7.38484
),	-7.38596
▁there	-7.38751
▁two	-7.39081
▁meeting	-7.39326
▁measures	-7.40621
▁some	-7.40716
▁these	-7.42351
▁shall	-7.42537
▁could	-7.43353
▁security	-7.43759
▁We	-7.43927
▁Republic	-7.4393
▁use	-7.44245
▁over	-7.44316
C	-7.44394
S	-7.44459
▁your	-7.44584
▁cooperation	-7.45514
▁children	-7.45518
▁organizations	-7.45732
▁do	-7.46159
).	-7.46291
es	-7.46833
▁economic	-7.47006
▁Conference	-7.47576
▁C	-7.48546
▁need	-7.48988
▁order	-7.49341
▁only	-7.49666
▁said	-7.49722
▁number	-7.49898
▁efforts	-7.49957
▁them	-7.50239
▁resources	-7.5038
in	-7.50889
▁our	-7.5113
▁my	-7.51241
▁programme	-7.51316
▁her	-7.51425
▁non	-7.51876
▁right	-7.5219
▁process	-7.52249
▁provide	-7.53298
▁Development	-7.53353
▁cent	-7.53541
▁financial	-7.53803
▁social	-7.55788
▁take	-7.56371
▁regional	-7.56693
▁re	-7.56885
▁me	-7.57414
▁if	-7.5791
▁Security	-7.58446
▁ensure	-7.58498
▁years	-7.58631
▁must	-7.58817
▁B	-7.58973
▁public	-7.59319
▁draft	-7.59355
▁when	-7.59365
th	-7.59457
▁services	-7.59882
▁Rights	-7.60761
▁To	-7.62624
▁first	-7.62753
▁issues	-7.62969
▁assistance	-7.63193
▁further	-7.63293
▁management	-7.63817
▁Group	-7.64932
g	-7.65068
▁within	-7.6741
▁3	-7.68052
▁make	-7.68078
▁members	-7.68876
▁party	-7.69929
▁paragraph	-7.69985
▁health	-7.70079
▁Office	-7.701
▁2	-7.70149
▁P	-7.70208
▁provided	-7.70582
L	-7.70802
▁level	-7.71238
▁relevant	-7.7141
▁during	-7.71995
▁developing	-7.72191
▁Human	-7.7249
▁article	-7.72491
▁most	-7.72541
▁areas	-7.72916
▁period	-7.72999
▁As	-7.73108
▁year	-7.73381
▁world	-7.73561
▁Special	-7.73863
▁China	-7.74267
▁E	-7.74349
▁decision	-7.75008
▁particular	-7.75297
▁staff	-7.755
▁being	-7.7616
▁education	-7.76899
▁programmes	-7.77369
▁At	-7.78313
▁important	-7.78572
▁like	-7.78578
▁many	-7.79735
o	-7.81074
▁political	-7.81098
▁part	-7.8122
▁December	-7.82272
▁held	-7.83092
▁policy	-7.84039
▁legal	-7.8423
▁protection	-7.84492
▁review	-7.84799
▁persons	-7.85053
▁training	-7.85125
▁before	-7.8693
▁de	-7.87312
▁action	-7.87511
▁where	-7.87637
▁following	-7.88255
▁both	-7.88505
▁special	-7.89345
▁adopted	-7.89455
▁situation	-7.90178
ers	-7.90208
▁regard	-7.90359
▁continue	-7.90843
▁parties	-7.91141
▁Organization	-7.91321
▁after	-7.91463
ation	-7.91594
▁among	-7.916
▁access	-7.91959
▁capacity	-7.92089
▁Programme	-7.92518
▁10	-7.92744
▁what	-7.93007
▁taken	-7.93014
▁respect	-7.93189
E	-7.93207
▁community	-7.93228
▁peace	-7.93704
▁accordance	-7.94169
▁President	-7.94229
▁him	-7.9469
▁effective	-7.94915
▁high	-7.94916
▁three	-7.94962
▁p	-7.95709
▁F	-7.95829
f	-7.9614
▁she	-7.96267
▁No	-7.96445
▁set	-7.96537
▁global	-7.96595
▁same	-7.96638
▁role	-7.96938
▁Member	-7.97495
▁present	-7.98338
▁agenda	-7.9864
▁Article	-8.00049
▁related	-8.00188
▁established	-8.00474
▁used	-8.00669
▁5	-8.0096
▁recommendations	-8.00974
▁end	-8.00999
▁D	-8.01005
▁progress	-8.01423
▁4	-8.01489
▁very	-8.01619
▁view	-8.01656
B	-8.02309
▁15	-8.02348
▁19	-8.03004
▁million	-8.03627
▁now	-8.03832
▁without	-8.04142
h	-8.04304
▁6	-8.04719
▁good	-8.04775
▁full	-8.04987
▁data	-8.05151
▁Africa	-8.05207
▁working	-8.05218
▁technical	-8.055
on	-8.05584
▁way	-8.05863
I	-8.06023
l	-8.06025
▁For	-8.0649
▁life	-8.06979
▁budget	-8.0729
▁local	-8.07334
▁National	-8.07438
▁June	-8.0751
▁reports	-8.07915
▁each	-8.08182
▁trade	-8.0845
▁G	-8.0864
▁World	-8.08783
ll	-8.08791
▁nuclear	-8.09234
ity	-8.09259
▁appropriate	-8.09701
▁case	-8.09704
▁necessary	-8.10088
▁violence	-8.1023
▁basis	-8.1041
▁long	-8.10736
▁gender	-8.11139
▁s	-8.11193
able	-8.11362
▁Board	-8.11739
▁On	-8.118
▁while	-8.12234
P	-8.12287
▁They	-8.12478
▁institutions	-8.12502
▁place	-8.12659
▁20	-8.12775
▁how	-8.12942
▁New	-8.13483
▁But	-8.13591
▁since	-8.13618
▁general	-8.13818
▁possible	-8.13886
▁policies	-8.14747
▁cases	-8.15319
▁control	-8.15517
▁Social	-8.15691
an	-8.15858
▁area	-8.15905
▁Economic	-8.15937
▁There	-8.15965
▁groups	-8.16233
▁group	-8.16333
▁increase	-8.16448
▁un	-8.16641
▁Parties	-8.16653
▁7	-8.16718
k	-8.16821
▁item	-8.17174
▁water	-8.17502
▁18	-8.17892
▁based	-8.18277
D	-8.18293
▁include	-8.18486
▁account	-8.19224
▁African	-8.1926
▁region	-8.19426
▁needs	-8.20522
▁July	-8.20522
▁30	-8.20935
’	-8.21052
▁upon	-8.21128
▁provisions	-8.21346
▁know	-8.22184
▁promote	-8.22448
▁just	-8.22535
▁available	-8.22554
▁did	-8.22665
▁project	-8.22881
▁because	-8.23121
▁14	-8.23456
▁And	-8.23539
up	-8.23641
▁12	-8.23905
▁If	-8.23931
▁plan	-8.23946
▁meetings	-8.23952
▁Fund	-8.24002
▁issue	-8.24072
!	-8.24324
▁You	-8.24536
st	-8.24575
▁developed	-8.24649
▁2.	-8.24747
▁field	-8.24789
▁society	-8.24832
en	-8.24833
▁T	-8.25044
▁[	-8.25117
▁M	-8.25119
▁government	-8.25284
ic	-8.25697
▁concerned	-8.25908
▁consideration	-8.25935
▁May	-8.25964
▁proposed	-8.26207
F	-8.26757
▁help	-8.26804
▁framework	-8.27532
▁change	-8.27608
M	-8.28283
▁European	-8.2833
▁inter	-8.2837
▁current	-8.28543
▁Court	-8.28602
▁child	-8.28721
▁future	-8.28851
);	-8.28969
▁Re	-8.29013
it	-8.29106
2	-8.29223
▁specific	-8.29738
▁Law	-8.29993
▁different	-8.30629
T	-8.30696
▁8	-8.30697
]	-8.3072
▁Department	-8.30763
▁She	-8.30862
▁military	-8.30862
▁still	-8.30899
▁importance	-8.31204
▁--	-8.31258
▁various	-8.31395
G	-8.31596
▁address	-8.31596
▁levels	-8.31647
ment	-8.3167
▁1.	-8.31788
u	-8.31798
▁considered	-8.31938
▁required	-8.32188
▁sector	-8.32277
▁N	-8.32336
le	-8.32544
▁sustainable	-8.32801
▁16	-8.32898
▁see	-8.33058
ive	-8.33071
▁requirements	-8.33656
▁Working	-8.33846
▁particularly	-8.33921
▁technology	-8.34017
▁October	-8.34372
▁South	-8.34745
▁September	-8.34833
▁above	-8.3501
▁civil	-8.35236
▁noted	-8.35314
▁November	-8.35444
▁9	-8.35693
▁even	-8.3575
▁own	-8.35825
to	-8.3602
un	-8.36059
▁delegation	-8.36147
▁Women	-8.36268
▁day	-8.36371
▁However	-8.36524
▁us	-8.36627
▁Action	-8.36953
▁operations	-8.37094
▁addition	-8.37304
▁major	-8.37578
▁participation	-8.37808
▁authorities	-8.37915
▁bodies	-8.37936
▁given	-8.37977
▁Secretariat	-8.3823
▁conditions	-8.3823
▁much	-8.38468
▁humanitarian	-8.38726
▁approach	-8.38934
▁land	-8.38955
▁means	-8.39017
▁17	-8.39109
ve	-8.39112
1	-8.39501
▁population	-8.39589
▁small	-8.39819
▁Mission	-8.39949
▁Union	-8.40123
▁agencies	-8.40559
▁submitted	-8.40584
▁last	-8.40621
p	-8.40807
ur	-8.40891
▁poverty	-8.4097
▁impact	-8.4108
▁document	-8.41097
▁police	-8.41139
▁conflict	-8.41139
▁total	-8.41238
▁family	-8.41623
▁projects	-8.41789
▁11	-8.41921
▁environment	-8.42172
ion	-8.42225
▁post	-8.42282
▁result	-8.4237
▁business	-8.42659
▁go	-8.42737
▁service	-8.42931
▁March	-8.42947
▁men	-8.43248
▁second	-8.43369
▁note	-8.43572
▁additional	-8.43583
▁private	-8.43712
▁get	-8.43759
at	-8.43782
▁H	-8.43889
▁question	-8.44177
▁context	-8.44216
▁criminal	-8.44559
ar	-8.44798
▁does	-8.45009
▁food	-8.45209
▁continued	-8.45296
il	-8.453
▁All	-8.45412
▁High	-8.45534
▁results	-8.45818
▁towards	-8.46115
▁market	-8.46121
▁person	-8.4637
▁attention	-8.46431
5	-8.46493
▁organization	-8.46553
▁3.	-8.46705
▁weapons	-8.46768
▁research	-8.46963
▁13	-8.47009
▁establishment	-8.47076
,000	-8.47466
▁cost	-8.47806
▁key	-8.47898
▁21	-8.47995
▁requested	-8.48034
▁force	-8.48578
▁concern	-8.49106
.1	-8.49264
▁down	-8.49487
▁risk	-8.49546
▁agreed	-8.49771
▁April	-8.49836
▁improve	-8.49885
▁An	-8.49919
▁status	-8.50254
▁member	-8.50294
▁Report	-8.5031
▁whether	-8.50535
▁request	-8.50914
▁mandate	-8.50921
▁application	-8.50994
▁domestic	-8.50996
▁better	-8.51422
▁e	-8.51446
▁Act	-8.51478
▁man	-8.51825
▁found	-8.51839
4	-8.51917
▁resolutions	-8.52316
▁January	-8.52557
▁That	-8.52684
▁growth	-8.52984
▁Protocol	-8.53192
▁representatives	-8.53226
▁systems	-8.53386
▁personnel	-8.53563
▁received	-8.5363
ne	-8.53692
▁comprehensive	-8.53745
▁These	-8.53753
▁especially	-8.53862
▁Governments	-8.54043
▁might	-8.54172
▁costs	-8.54282
▁back	-8.54548
▁With	-8.54847
▁increased	-8.55005
▁consider	-8.55052
▁care	-8.55088
▁Affairs	-8.55108
▁fact	-8.55635
▁give	-8.5597
▁UN	-8.55988
▁monitoring	-8.56066
▁contained	-8.56128
▁R	-8.56158
6	-8.56303
▁representative	-8.56355
▁Declaration	-8.56633
▁strengthen	-8.56677
▁America	-8.56816
▁existing	-8.56864
▁rules	-8.57002
▁justice	-8.57033
el	-8.57072
▁concerning	-8.57264
▁Rapporteur	-8.57411
O	-8.57511
ro	-8.57721
▁31	-8.57828
ry	-8.57858
▁implement	-8.579
▁subject	-8.58009
H	-8.58047
▁II	-8.58085
ate	-8.58106
▁legislation	-8.58131
ent	-8.58155
▁provision	-8.58267
▁best	-8.58274
▁Executive	-8.58299
us	-8.58401
▁study	-8.58575
see	-8.58583
ness	-8.58606
the	-8.58858
▁d	-8.58909
▁coordination	-8.58931
▁4.	-8.59085
▁Chinese	-8.59397
▁develop	-8.5943
▁O	-8.59519
▁environmental	-8.5953
▁every	-8.59592
▁standards	-8.59789
▁several	-8.59833
▁K	-8.5984
▁problems	-8.59998
▁production	-8.60087
7	-8.60137
▁relating	-8.60342
▁put	-8.60393
▁dis	-8.60423
▁statement	-8.60437
▁reporting	-8.60604
▁terms	-8.60738
▁discrimination	-8.60823
▁amount	-8.60887
3	-8.61058
▁responsibility	-8.61079
▁therefore	-8.61277
▁common	-8.61335
▁Arab	-8.61456
▁foreign	-8.61457
▁main	-8.61543
te	-8.61605
▁rule	-8.61825
ization	-8.61914
0	-8.61936
▁::	-8.62114
▁space	-8.62462
▁procedures	-8.62547
▁become	-8.62553
▁taking	-8.62562
▁rate	-8.62594
▁example	-8.6266
▁funds	-8.62765
▁included	-8.62826
▁next	-8.63068
de	-8.63267
▁lack	-8.63311
▁great	-8.63956
▁light	-8.63975
▁L	-8.64092
▁expressed	-8.64106
▁least	-8.64224
▁22	-8.64238
▁mechanisms	-8.64263
▁fully	-8.6434
▁large	-8.64351
▁recent	-8.64526
U	-8.6461
▁quality	-8.64718
▁five	-8.64844
▁co	-8.64913
▁response	-8.64951
▁principles	-8.65011
▁four	-8.65073
▁administrative	-8.65244
▁practices	-8.65301
▁.	-8.65311
▁another	-8.65398
▁problem	-8.65662
based	-8.6568
▁come	-8.6604
▁due	-8.66063
▁reform	-8.66193
▁agreement	-8.66349
▁entitled	-8.66446
▁energy	-8.66523
".	-8.66613
▁25	-8.66848
▁already	-8.66978
▁school	-8.67271
▁state	-8.67305
▁called	-8.67358
▁follow	-8.67588
.2	-8.6807
▁meet	-8.68133
ary	-8.68163
▁24	-8.68296
▁then	-8.68455
▁past	-8.68483
▁armed	-8.68624
▁providing	-8.68744
▁challenges	-8.68768
▁decided	-8.68932
▁think	-8.69544
▁Ministry	-8.69641
as	-8.69709
▁form	-8.69773
▁investment	-8.70067
▁often	-8.70127
▁obligations	-8.70284
▁People	-8.70684
▁together	-8.70942
▁regarding	-8.71017
▁assessment	-8.71288
▁secretariat	-8.71392
ist	-8.71408
▁performance	-8.71421
term	-8.7164
▁August	-8.72027
▁clear	-8.72061
▁23	-8.72102
▁don	-8.72331
▁equipment	-8.72397
▁effect	-8.72467
▁b	-8.72492
▁c	-8.72521
▁When	-8.72553
▁“	-8.72575
N	-8.72732
▁addressed	-8.7278
▁home	-8.72865
▁planning	-8.72899
▁contributions	-8.73112
▁practice	-8.73143
▁reported	-8.73396
▁treatment	-8.73403
▁Service	-8.7355
▁strategy	-8.73579
▁took	-8.7371
▁power	-8.73827
▁significant	-8.7386
▁adoption	-8.7397
▁value	-8.73973
▁Advisory	-8.7403
▁analysis	-8.74041
age	-8.74176
▁con	-8.74177
▁individual	-8.74323
z	-8.74363
▁What	-8.74368
▁February	-8.74395
▁cultural	-8.74496
est	-8.7476
▁Palestinian	-8.74768
▁5.	-8.7484
▁strengthening	-8.75183
▁sub	-8.75354
▁matter	-8.7538
▁days	-8.75447
▁pre	-8.75559
▁position	-8.75595
▁provides	-8.75657
▁V	-8.75743
▁2005	-8.76011
ated	-8.76237
▁income	-8.76481
▁2008	-8.7653
▁One	-8.76781
▁Centre	-8.7679
▁want	-8.76807
▁off	-8.76993
▁third	-8.77116
▁decisions	-8.77129
▁paper	-8.77143
governmental	-8.77211
▁open	-8.77218
▁author	-8.77288
▁office	-8.77619
▁however	-8.77768
▁free	-8.77956
▁prevent	-8.78034
▁mission	-8.78058
▁victims	-8.78088
▁indigenous	-8.78142
▁early	-8.78224
building	-8.7848
▁Asia	-8.78603
▁commitment	-8.78725
▁date	-8.78751
▁self	-8.78758
man	-8.78791
▁U	-8.79001
▁His	-8.79018
li	-8.7915
▁consultations	-8.792
▁While	-8.792
▁interest	-8.79273
▁here	-8.79351
id	-8.79399
▁line	-8.79415
9	-8.79477
▁establish	-8.79566
▁prevention	-8.796
ant	-8.79603
▁economy	-8.79672
ta	-8.79718
▁6.	-8.79749
▁dialogue	-8.79875
▁regular	-8.79881
8	-8.80033
▁less	-8.80122
▁age	-8.8013
se	-8.80219
▁focus	-8.80411
▁certain	-8.80457
▁So	-8.80542
▁Information	-8.80548
The	-8.8064
▁employment	-8.80661
”	-8.80744
▁far	-8.80795
w	-8.80842
W	-8.80855
la	-8.81005
▁war	-8.81079
▁am	-8.81147
▁UNDP	-8.81296
▁annex	-8.81449
ance	-8.81678
▁property	-8.8171
▁initiatives	-8.81823
▁serious	-8.81838
▁De	-8.81844
ma	-8.81976
▁equality	-8.82152
et	-8.8228
▁knowledge	-8.82294
▁disarmament	-8.82308
▁too	-8.82684
▁needed	-8.82933
▁crime	-8.82946
▁Israel	-8.82966
v	-8.82972
▁East	-8.83127
▁28	-8.83143
▁company	-8.83179
▁able	-8.83257
▁promotion	-8.83396
▁documents	-8.83409
▁peacekeeping	-8.8341
▁hand	-8.83449
▁Representative	-8.8368
▁around	-8.83825
▁matters	-8.84124
▁2006	-8.84144
▁always	-8.8419
▁point	-8.84454
▁para	-8.84579
▁natural	-8.84985
▁operational	-8.84989
R	-8.85205
▁basic	-8.85243
▁actions	-8.85466
is	-8.85527
▁missions	-8.85622
▁annual	-8.85628
▁Central	-8.85683
▁Director	-8.8571
▁26	-8.85795
▁body	-8.86042
ter	-8.86084
▁say	-8.86193
▁responsible	-8.86424
▁exchange	-8.86536
▁Al	-8.86658
▁achieve	-8.86694
▁living	-8.86761
ra	-8.8696
▁building	-8.87019
▁Bank	-8.8704
▁Other	-8.87122
▁Some	-8.87222
▁forces	-8.87252
lo	-8.87346
▁Iraq	-8.87424
▁2007	-8.87503
▁young	-8.87678
▁behalf	-8.87689
ine	-8.8771
▁joint	-8.87773
▁27	-8.87857
▁2010	-8.8792
ul	-8.88035
▁principle	-8.88266
▁little	-8.88417
▁biennium	-8.88418
▁Ms	-8.88516
(	-8.88666
▁procedure	-8.88848
▁experience	-8.88905
▁g	-8.88998
ling	-8.89076
▁sexual	-8.89083
ating	-8.8915
ism	-8.89261
▁funding	-8.89308
▁arms	-8.89427
ir	-8.8955
▁trafficking	-8.89797
▁low	-8.89802
▁plans	-8.89877
▁reduction	-8.89924
▁again	-8.90231
▁potential	-8.90401
na	-8.90481
▁priority	-8.9057
▁'	-8.9062
▁enhance	-8.90621
▁HIV	-8.90773
▁making	-8.90811
▁W	-8.90833
▁official	-8.90859
▁few	-8.90918
ad	-8.90971
▁forward	-8.90973
▁requests	-8.90973
▁US	-8.91056
▁section	-8.91143
Add	-8.91163
▁st	-8.91311
▁promoting	-8.91375
▁partners	-8.91543
▁act	-8.91551
▁course	-8.91574
▁yet	-8.91641
▁strategic	-8.91705
▁violations	-8.91852
▁strategies	-8.91959
▁Plan	-8.92149
▁involved	-8.92214
▁expected	-8.92233
▁2009	-8.92443
▁communication	-8.92723
▁facilitate	-8.92741
▁months	-8.92987
▁discussion	-8.93063
▁conduct	-8.93084
▁greater	-8.93118
▁list	-8.93141
▁workers	-8.93294
ce	-8.93406
▁using	-8.93414
level	-8.93668
30	-8.93694
am	-8.93807
▁2000	-8.94036
▁previous	-8.9404
▁money	-8.94186
▁Democratic	-8.94205
▁exercise	-8.94269
▁carried	-8.94397
▁nature	-8.94397
▁never	-8.94444
▁laws	-8.94467
▁mechanism	-8.94544
▁evaluation	-8.94587
▁recommended	-8.94591
▁approved	-8.94652
▁29	-8.94697
▁Commissioner	-8.94757
▁Tribunal	-8.94759
▁awareness	-8.94794
co	-8.94816
▁higher	-8.94829
▁treaty	-8.94836
▁2004	-8.94919
▁according	-8.95149
▁protect	-8.95162
▁pay	-8.95185
▁facilities	-8.95363
▁court	-8.95365
▁steps	-8.95473
▁face	-8.95483
▁capital	-8.95585
K	-8.95695
▁girls	-8.95713
▁forms	-8.95872
▁bring	-8.95901
▁purpose	-8.9591
▁call	-8.96085
▁contribute	-8.962
▁agreements	-8.96229
▁media	-8.96401
▁until	-8.96468
▁Division	-8.96494
ia	-8.96586
▁During	-8.96671
▁crisis	-8.96689
▁organized	-8.96734
V	-8.96797
▁acts	-8.9686
▁find	-8.96863
ri	-8.96905
ized	-8.96946
ol	-8.96959
▁cannot	-8.96973
▁direct	-8.97109
▁Covenant	-8.97164
▁understanding	-8.97237
▁implementing	-8.97302
▁design	-8.97321
▁Minister	-8.9746
.3	-8.97466
▁essential	-8.97549
▁climate	-8.97735
▁having	-8.97762
▁statements	-8.97839
ty	-8.97956
▁air	-8.9805
▁supported	-8.98081
▁assist	-8.98207
▁issued	-8.98223
▁t	-8.98226
▁aimed	-8.98281
▁peoples	-8.98441
mo	-8.98508
▁notes	-8.98562
▁return	-8.98617
▁instruments	-8.98797
▁Under	-8.98929
▁objectives	-8.98949
▁committed	-8.9919
▁Trade	-8.99235
▁opportunities	-8.99281
▁material	-8.99329
▁implemented	-8.99348
▁2003	-8.99406
▁officials	-8.99413
▁six	-8.99502
▁products	-8.99528
▁equal	-8.99596
▁terrorism	-8.99607
▁rural	-8.99655
ous	-8.99765
▁adequate	-8.99846
▁play	-8.99864
▁communities	-8.999
▁whole	-8.99965
▁changes	-8.99987
▁reference	-9.00051
▁evidence	-9.00088
▁real	-9.00092
▁Management	-9.00342
",	-9.00378
▁limited	-9.00432
▁Treaty	-9.00613
▁today	-9.0063
▁done	-9.00641
▁$1	-9.00729
▁administration	-9.00889
ge	-9.01011
▁love	-9.01507
▁offices	-9.01566
▁Europe	-9.01626
▁transfer	-9.01794
▁affected	-9.01866
▁strong	-9.01905
▁7.	-9.02019
▁arrangements	-9.02228
▁increasing	-9.02558
▁experts	-9.02746
ies	-9.02809
▁reduce	-9.02897
▁Support	-9.02945
▁thus	-9.03209
▁2002	-9.03295
▁safety	-9.03513
▁final	-9.03568
▁2011	-9.03633
▁Japan	-9.03713
▁prepared	-9.03747
rs	-9.03801
um	-9.03828
▁posts	-9.03861
▁close	-9.04023
iv	-9.04035
▁American	-9.04131
▁ensuring	-9.04215
▁fundamental	-9.0425
▁submit	-9.04323
▁car	-9.04426
▁functions	-9.04534
▁old	-9.04574
▁Millennium	-9.04668
▁benefits	-9.04684
▁Global	-9.04711
▁Russian	-9.04722
▁Panel	-9.0488
▁processes	-9.0492
▁proposals	-9.04994
▁1998	-9.05217
▁Permanent	-9.05232
▁ex	-9.05325
▁medical	-9.05356
Y	-9.05385
▁team	-9.05585
▁manner	-9.05591
▁others	-9.05641
▁independent	-9.05654
▁Federation	-9.05658
▁York	-9.05696
▁labour	-9.057
ak	-9.05737
▁goals	-9.05877
▁short	-9.05915
and	-9.0609
x	-9.06138
▁overall	-9.06191
▁travel	-9.06193
▁individuals	-9.06509
▁remain	-9.06809
▁informed	-9.06813
ang	-9.06835
▁Meeting	-9.06909
▁presented	-9.06961
▁guidelines	-9.07103
▁below	-9.07114
▁authority	-9.07129
▁recommendation	-9.07188
▁aspects	-9.07222
▁opportunity	-9.07234
▁text	-9.07246
ch	-9.0731
▁operation	-9.07452
▁Public	-9.0747
▁former	-9.07479
go	-9.07586
▁share	-9.07614
be	-9.07641
▁Ma	-9.07737
▁My	-9.07887
▁Review	-9.07989
▁proposal	-9.08149
me	-9.08222
▁infrastructure	-9.08254
▁Criminal	-9.08382
▁stated	-9.08587
▁undertaken	-9.08806
▁hours	-9.08924
.5	-9.08956
▁conducted	-9.09002
▁poor	-9.09009
ize	-9.09066
.4	-9.09358
▁financing	-9.09405
▁freedom	-9.09439
less	-9.09608
▁Con	-9.09653
tergovernmental	-9.09667
▁mind	-9.09764
▁connection	-9.0979
▁going	-9.09901
im	-9.10087
ti	-9.10098
▁Non	-9.10224
▁resource	-9.10379
▁demand	-9.10523
vi	-9.10618
▁wish	-9.10692
▁Chairman	-9.10772
▁Cooperation	-9.10775
▁Geneva	-9.10825
▁death	-9.10998
▁model	-9.11
▁currently	-9.11065
year	-9.11273
▁deal	-9.11283
di	-9.11331
▁2001	-9.11387
▁anti	-9.11427
ian	-9.11525
▁III	-9.11579
▁term	-9.11656
▁Charter	-9.11726
▁look	-9.12005
▁Agreement	-9.12374
▁negotiations	-9.12433
nd	-9.12598
▁50	-9.12792
▁8.	-9.12905
▁Kingdom	-9.12931
▁lead	-9.13066
▁Co	-9.13205
▁internal	-9.13266
▁English	-9.13275
related	-9.13327
▁benefit	-9.13436
▁pursuant	-9.13512
▁questions	-9.13609
▁remains	-9.13629
▁contribution	-9.13647
▁drug	-9.13694
▁enable	-9.13733
▁Justice	-9.13755
▁regulations	-9.13766
▁Agenda	-9.13844
▁hope	-9.13935
▁debt	-9.14243
▁keep	-9.14299
▁Unit	-9.14353
▁met	-9.14399
▁Implementation	-9.14487
▁Israeli	-9.14514
▁live	-9.14655
▁integrated	-9.14658
▁primary	-9.14709
▁effects	-9.14712
▁recognized	-9.14729
▁dated	-9.1475
▁structure	-9.14879
▁sea	-9.14919
▁detention	-9.14948
▁vote	-9.14997
▁create	-9.15035
▁2012	-9.15079
▁method	-9.15216
▁materials	-9.15276
▁away	-9.15294
▁positive	-9.15412
▁recommends	-9.15425
▁Sudan	-9.15757
▁students	-9.15794
▁Do	-9.15819
▁preparation	-9.15894
▁Health	-9.16179
▁communications	-9.16258
▁believe	-9.1629
▁officers	-9.16305
▁conference	-9.16322
ting	-9.16329
▁delegations	-9.16442
▁Korea	-9.1647
▁institutional	-9.16549
▁J	-9.1656
▁participate	-9.16582
▁once	-9.16696
▁By	-9.16884
▁pro	-9.17002
▁range	-9.17109
▁language	-9.17109
▁concerns	-9.17188
▁companies	-9.17351
▁kind	-9.1743
▁items	-9.17593
▁contract	-9.17852
▁regions	-9.17876
▁rates	-9.1813
▁Forum	-9.18148
▁Since	-9.18216
ities	-9.18286
▁entities	-9.18287
▁multilateral	-9.18308
▁9.	-9.18431
▁identified	-9.18436
▁letter	-9.18471
▁commitments	-9.18574
00	-9.18625
▁table	-9.18689
▁Regional	-9.18827
▁allow	-9.1897
▁outcome	-9.19009
line	-9.19147
▁itself	-9.19152
▁Crime	-9.19247
led	-9.19408
▁referred	-9.19484
▁effectively	-9.19503
▁transport	-9.19512
▁difficult	-9.19689
▁active	-9.19713
▁Code	-9.19734
▁di	-9.19788
▁refugees	-9.19801
▁–	-9.19984
ful	-9.20042
ci	-9.20169
▁methods	-9.20252
▁industry	-9.20253
▁central	-9.20344
▁introduced	-9.20363
▁similar	-9.20412
▁construction	-9.20495
/2	-9.20502
▁1999	-9.20535
▁things	-9.20563
▁i	-9.20568
▁crimes	-9.20849
▁India	-9.20886
é	-9.21014
▁effort	-9.21088
▁multi	-9.21176
▁critical	-9.21209
▁articles	-9.21254
ton	-9.21267
▁achieved	-9.21539
con	-9.21656
▁rather	-9.21659
▁After	-9.217
▁Institute	-9.21727
▁standard	-9.21742
▁head	-9.21743
▁integration	-9.21808
▁objective	-9.21815
▁show	-9.21881
▁enforcement	-9.22141
▁audit	-9.22232
▁export	-9.22253
▁improving	-9.22367
▁came	-9.22506
▁build	-9.22662
▁informal	-9.2272
ot	-9.2274
▁outside	-9.22802
▁Kong	-9.2288
▁Summit	-9.22958
▁leave	-9.22976
▁purposes	-9.2316
▁receive	-9.23214
▁Protection	-9.23281
▁universal	-9.23335
▁judicial	-9.23636
▁job	-9.23712
▁Section	-9.23731
▁asked	-9.23746
▁Hong	-9.23759
▁Ra	-9.23819
▁territory	-9.2383
▁directly	-9.23925
▁circumstances	-9.23928
▁ways	-9.24001
▁interests	-9.2403
▁throughout	-9.24044
):	-9.24061
▁families	-9.24151
▁debate	-9.24414
▁maintain	-9.24558
▁assets	-9.24614
▁across	-9.25008
▁provisional	-9.25023
ck	-9.25034
▁thought	-9.25067
▁got	-9.25209
▁indicated	-9.25251
▁themselves	-9.25334
ru	-9.2537
ning	-9.25446
▁require	-9.25531
▁compliance	-9.25573
20	-9.25581
▁alia	-9.25668
▁left	-9.25731
▁name	-9.25831
▁governance	-9.25881
▁f	-9.25951
tra	-9.26234
▁Such	-9.26234
▁substantive	-9.26251
▁views	-9.26343
▁University	-9.2635
▁fifty	-9.26418
▁activity	-9.26528
▁claims	-9.26898
▁First	-9.26913
ted	-9.26951
▁relations	-9.26992
▁soon	-9.26994
▁ongoing	-9.2708
▁Be	-9.27085
▁torture	-9.27271
▁start	-9.27282
▁abuse	-9.27283
▁goods	-9.27283
▁Services	-9.27302
▁culture	-9.27325
▁oil	-9.27334
▁physical	-9.27392
ite	-9.27395
tic	-9.274
pe	-9.27419
▁disabilities	-9.27528
▁apply	-9.27544
50	-9.27744
▁half	-9.27744
▁schools	-9.27906
▁Party	-9.27966
▁Force	-9.28186
▁supply	-9.28231
▁Canada	-9.28281
▁price	-9.2863
▁words	-9.2869
▁10.	-9.28801
▁room	-9.28866
▁side	-9.29032
▁Foreign	-9.29175
land	-9.29224
▁la	-9.29322
ence	-9.29345
▁balance	-9.29349
▁billion	-9.29364
▁hold	-9.29364
▁whose	-9.29365
▁brought	-9.29429
▁elements	-9.29447
▁According	-9.29522
▁expert	-9.29733
▁Inter	-9.29749
▁Agency	-9.29755
▁read	-9.29946
▁UNICEF	-9.29991
▁network	-9.30028
▁claim	-9.30076
▁phase	-9.30089
▁centres	-9.30227
▁Congo	-9.30299
▁technologies	-9.30397
▁Constitution	-9.30444
▁UNCTAD	-9.30478
▁fund	-9.3051
▁participants	-9.30526
▁complete	-9.30695
▁How	-9.30818
▁v	-9.3089
▁says	-9.30992
AC	-9.3111
▁guidance	-9.31175
▁Political	-9.31219
▁factors	-9.31298
▁aid	-9.31408
10	-9.31429
ally	-9.31515
▁later	-9.31546
AIDS	-9.31546
▁let	-9.31587
▁maintenance	-9.31607
▁peaceful	-9.31767
ag	-9.31825
▁combat	-9.31836
▁en	-9.31947
▁sources	-9.32022
▁estimated	-9.32094
▁stakeholders	-9.32256
▁civilian	-9.32293
▁jurisdiction	-9.32325
▁ground	-9.32525
▁house	-9.32585
▁applied	-9.32615
▁personal	-9.33483
do	-9.33643
▁distribution	-9.33684
▁stability	-9.33745
▁Also	-9.3392
▁effectiveness	-9.33954
▁improved	-9.33975
▁welcomed	-9.34
▁Children	-9.34027
▁2013	-9.34141
▁practical	-9.34172
▁proceedings	-9.34212
▁events	-9.34248
▁delivery	-9.34314
ial	-9.34488
▁lower	-9.34511
CN	-9.34568
▁initiative	-9.34573
▁revised	-9.34672
▁heart	-9.3507
one	-9.35096
▁along	-9.35121
IS	-9.35326
izing	-9.35366
▁System	-9.35376
UN	-9.35421
ure	-9.35516
▁average	-9.35557
▁relation	-9.35574
j	-9.3558
▁collaboration	-9.35581
▁efficiency	-9.35614
▁scope	-9.35654
▁step	-9.35703
▁traditional	-9.35884
▁prior	-9.36017
responsibilities	-9.36153
▁discussions	-9.36165
▁success	-9.36247
▁week	-9.36295
▁1997	-9.36376
▁hard	-9.36468
▁Administrative	-9.36562
▁St	-9.36588
▁includes	-9.367
▁Afghanistan	-9.36713
▁priorities	-9.36749
va	-9.3675
▁40	-9.36811
▁turn	-9.36838
▁either	-9.36858
▁adopt	-9.36858
▁associated	-9.36862
▁sessions	-9.36891
▁Mo	-9.36898
▁sectors	-9.36966
▁led	-9.37163
▁investigation	-9.37194
▁run	-9.37314
▁single	-9.37331
▁indicators	-9.37513
▁times	-9.3755
▁France	-9.376
▁11.	-9.37652
making	-9.37692
▁Education	-9.37724
▁Environment	-9.37753
▁Goals	-9.3781
▁Annex	-9.37914
▁periodic	-9.37934
▁paid	-9.3794
▁Second	-9.37995
▁task	-9.38163
▁encourage	-9.38168
▁situations	-9.38435
ap	-9.38501
▁points	-9.38581
red	-9.38646
▁really	-9.38662
ga	-9.38683
▁relationship	-9.38841
▁legislative	-9.38925
▁transition	-9.38964
▁Li	-9.3922
▁Civil	-9.39231
▁carry	-9.39314
▁achieving	-9.39332
▁paragraphs	-9.39354
▁leaders	-9.39365
▁city	-9.3941
▁reason	-9.39554
▁scientific	-9.39572
▁class	-9.39716
▁seen	-9.39779
▁feel	-9.39787
▁Pacific	-9.39968
▁Iran	-9.4012
15	-9.40253
▁THE	-9.40293
▁challenge	-9.40346
▁something	-9.4039
▁Caribbean	-9.40419
▁cause	-9.40512
▁calls	-9.40575
▁extent	-9.40673
▁why	-9.40802
▁urban	-9.40876
min	-9.40909
▁North	-9.40939
▁ability	-9.41014
▁threat	-9.41047
▁Peace	-9.41094
▁identify	-9.41143
▁markets	-9.41218
▁1996	-9.41359
11	-9.41429
▁female	-9.41513
▁vulnerable	-9.41558
▁OF	-9.41588
▁source	-9.41615
▁discussed	-9.41798
bo	-9.41829
▁parts	-9.4184
ie	-9.41993
▁specialized	-9.42027
▁ever	-9.42056
▁Ad	-9.4206
▁goal	-9.42071
▁sound	-9.42079
out	-9.42174
▁economies	-9.42223
▁La	-9.42262
▁move	-9.42269
▁trust	-9.42291
▁likely	-9.42334
▁visit	-9.42363
▁violation	-9.42368
▁longer	-9.4242
▁seek	-9.42444
▁continuing	-9.42489
▁base	-9.42603
▁test	-9.42653
ni	-9.42697
▁wide	-9.42741
▁addressing	-9.42858
▁emergency	-9.42887
▁studies	-9.42927
▁Furthermore	-9.42956
▁comments	-9.42978
▁went	-9.43101
▁reached	-9.43222
▁invited	-9.43331
▁elections	-9.43365
▁1995	-9.43451
▁twenty	-9.43486
▁states	-9.43533
▁citizens	-9.43629
▁permanent	-9.43638
no	-9.43683
▁core	-9.43692
▁cross	-9.437
ish	-9.43706
art	-9.43885
▁consultation	-9.4394
ative	-9.43957
▁1,	-9.43966
ex	-9.44104
▁credit	-9.44131
▁sixty	-9.44177
▁opinion	-9.44272
▁completed	-9.44278
▁night	-9.44413
▁partnership	-9.44441
▁Germany	-9.44454
▁voluntary	-9.44459
▁Joint	-9.44465
▁compensation	-9.44469
▁Headquarters	-9.44479
▁professional	-9.44591
▁external	-9.44636
▁12.	-9.44771
▁housing	-9.44818
▁Association	-9.44921
▁damage	-9.4507
▁units	-9.45074
▁Although	-9.45262
▁function	-9.45308
▁monitor	-9.45381
▁aim	-9.45409
▁safe	-9.45471
▁loss	-9.45475
▁ethnic	-9.45602
▁continues	-9.45728
▁unit	-9.45887
▁religious	-9.45943
▁Many	-9.45984
▁known	-9.46001
▁Child	-9.46029
▁approval	-9.46103
▁Countries	-9.46207
ac	-9.46281
▁supporting	-9.46459
▁advice	-9.46482
sh	-9.46484
▁type	-9.46571
▁road	-9.4669
ah	-9.46706
use	-9.46729
▁sent	-9.4674
▁2014	-9.46799
▁establishing	-9.46833
om	-9.46887
▁beyond	-9.46928
▁1990	-9.47017
▁appreciation	-9.47078
▁tax	-9.47203
▁obligation	-9.47255
▁encouraged	-9.4726
▁Me	-9.47335
▁youth	-9.47383
▁Room	-9.47401
▁successful	-9.4742
▁month	-9.47434
ut	-9.47453
▁designed	-9.4749
he	-9.47518
▁stage	-9.47553
▁solution	-9.4756
for	-9.47573
▁commercial	-9.47592
ability	-9.47605
ba	-9.47665
▁m	-9.4785
ical	-9.47918
nt	-9.48061
▁1994	-9.48125
12	-9.48165
▁tell	-9.48203
▁Administration	-9.4823
▁avoid	-9.48404
▁Latin	-9.48487
▁West	-9.48532
▁event	-9.48574
▁creation	-9.48589
▁UNHCR	-9.48678
▁reasons	-9.48704
▁Le	-9.48733
▁science	-9.48757
▁bank	-9.48785
▁positions	-9.48838
▁Sustainable	-9.48865
son	-9.48891
▁growing	-9.48921
▁counter	-9.4895
ner	-9.48963
▁prices	-9.49144
▁serve	-9.49357
▁host	-9.49362
▁Syrian	-9.49433
▁enough	-9.49495
ong	-9.49585
▁cover	-9.49611
14	-9.49664
▁bilateral	-9.49782
▁Disarmament	-9.49789
▁French	-9.49819
▁mother	-9.49938
▁IV	-9.50023
▁regime	-9.50026
▁initial	-9.50043
▁respective	-9.5006
▁Beijing	-9.50101
ft	-9.50147
▁mass	-9.5018
▁Cuba	-9.50201
▁Recalling	-9.50333
▁Z	-9.50436
▁computer	-9.50476
▁lot	-9.50502
ide	-9.50531
17	-9.50596
▁woman	-9.5062
▁Persons	-9.50796
ship	-9.50968
der	-9.50972
J	-9.51
▁consensus	-9.51007
▁reach	-9.51145
▁Please	-9.51226
▁sh	-9.51241
▁island	-9.51293
▁applicable	-9.51333
▁educational	-9.51347
po	-9.51366
▁raised	-9.51378
qui	-9.51541
▁almost	-9.51554
▁formal	-9.51639
pro	-9.51669
▁fight	-9.51711
▁leadership	-9.51825
▁recovery	-9.51887
▁recently	-9.51888
▁UNEP	-9.51929
▁origin	-9.51955
▁Mexico	-9.52158
/1	-9.52216
▁achievement	-9.52276
ha	-9.52294
▁displaced	-9.52332
▁Discrimination	-9.52444
▁treaties	-9.52554
▁content	-9.52671
ho	-9.52682
▁Australia	-9.52744
▁expenditure	-9.52909
▁concept	-9.52918
▁negative	-9.53063
org	-9.53107
▁majority	-9.53147
▁remained	-9.53206
▁Guinea	-9.53292
▁Pakistan	-9.53303
▁follows	-9.53339
18	-9.53484
ile	-9.5355
▁Bo	-9.53578
▁requires	-9.53703
▁created	-9.53881
▁settlement	-9.5401
▁scale	-9.54131
▁signed	-9.54142
▁illegal	-9.54355
▁detailed	-9.54428
▁caused	-9.54431
▁skills	-9.54545
▁Middle	-9.54546
▁Draft	-9.54739
▁understand	-9.54744
▁broad	-9.54768
▁mis	-9.54777
▁plenary	-9.54794
▁disaster	-9.54827
▁concluded	-9.54889
▁El	-9.54897
▁Sa	-9.55077
pi	-9.55143
▁Requests	-9.55207
▁dollars	-9.55326
▁terrorist	-9.5546
au	-9.55475
ud	-9.55687
▁record	-9.55693
men	-9.55732
ke	-9.55748
▁covered	-9.5583
25	-9.55852
▁big	-9.55927
▁Chair	-9.55932
▁Moreover	-9.5603
▁although	-9.56046
1.	-9.56096
▁contact	-9.56145
▁improvement	-9.56217
▁Optional	-9.56231
▁)	-9.56239
▁accountability	-9.56258
▁enterprises	-9.56302
▁Ba	-9.56412
▁destruction	-9.56424
▁finance	-9.56431
▁$2	-9.56515
▁net	-9.56587
▁Prevention	-9.56592
▁statistics	-9.56668
16	-9.56701
▁sex	-9.56709
▁actors	-9.56733
▁presence	-9.56753
▁100	-9.56817
▁consistent	-9.56985
▁movement	-9.57243
ab	-9.57293
▁fire	-9.57323
tion	-9.57349
▁product	-9.57368
▁round	-9.57388
▁reflected	-9.57415
▁Of	-9.57468
os	-9.57553
▁beginning	-9.57625
▁sufficient	-9.57666
▁pressure	-9.57668
▁definition	-9.57669
▁compared	-9.57831
▁courts	-9.57943
AR	-9.57991
ER	-9.58092
▁duty	-9.58092
▁offer	-9.58114
▁Ro	-9.58176
tro	-9.58291
▁clearly	-9.58337
40	-9.58354
▁near	-9.58359
▁Asian	-9.58497
▁appeal	-9.58541
▁rest	-9.58685
▁makes	-9.58704
▁Great	-9.5877
▁history	-9.58828
▁13.	-9.58871
▁leading	-9.5896
▁respond	-9.59018
▁insurance	-9.59112
▁border	-9.59144
time	-9.59176
▁al	-9.59193
▁suggested	-9.59227
▁Federal	-9.59231
▁conferences	-9.59233
▁procurement	-9.59244
▁temporary	-9.59269
▁survey	-9.59339
▁approaches	-9.59415
▁electronic	-9.59489
▁resulting	-9.59579
▁produce	-9.59612
end	-9.59626
▁determine	-9.5963
lu	-9.59673
▁raise	-9.5968
ii	-9.59701
▁1993	-9.59721
▁doing	-9.59768
▁Lebanon	-9.59819
X	-9.59858
▁Brazil	-9.5992
▁operating	-9.60026
▁submission	-9.60054
▁o	-9.6023
ou	-9.60345
▁tools	-9.60353
▁implications	-9.6049
▁ad	-9.60671
▁agricultural	-9.60713
▁complex	-9.60726
ding	-9.60881
13	-9.60884
▁began	-9.60901
ging	-9.61047
▁father	-9.6109
▁target	-9.61096
▁Ireland	-9.61265
▁sp	-9.61356
▁lives	-9.61425
per	-9.6165
▁parents	-9.61679
▁measure	-9.617
▁Research	-9.61714
▁instrument	-9.61721
▁judges	-9.6176
▁Coordination	-9.61763
ow	-9.61908
op	-9.61934
▁Legal	-9.61959
▁mainly	-9.62045
▁reflect	-9.62206
com	-9.62271
▁heard	-9.62286
▁Table	-9.62418
rd	-9.62475
▁involving	-9.62486
▁thing	-9.62498
▁confidence	-9.62518
▁Can	-9.62631
▁2008,	-9.62703
▁Islamic	-9.62857
▁written	-9.62964
▁enjoy	-9.63034
▁series	-9.63105
▁focused	-9.63265
▁fall	-9.63305
▁illicit	-9.6341
▁Internet	-9.63426
by	-9.63548
▁fair	-9.63552
▁Police	-9.63589
▁payment	-9.63601
▁competition	-9.63621
les	-9.63622
▁Vienna	-9.63663
our	-9.63691
▁cash	-9.63708
▁prepare	-9.63818
▁Financial	-9.63855
▁partnerships	-9.63891
▁criteria	-9.63893
EC	-9.63897
▁exploitation	-9.63915
▁Note	-9.63976
▁prison	-9.63977
▁applications	-9.64026
▁senior	-9.64035
▁though	-9.64036
▁collection	-9.6405
▁sanctions	-9.64119
▁capacities	-9.64122
▁site	-9.64214
▁direction	-9.64225
▁rise	-9.64319
2.	-9.64332
▁Somalia	-9.64337
▁14.	-9.6437
▁Mar	-9.64379
▁consequences	-9.64408
▁useful	-9.64412
▁God	-9.64487
of	-9.64656
▁observations	-9.64806
▁cut	-9.65022
▁told	-9.6503
▁committee	-9.65127
▁ca	-9.65224
▁accept	-9.6524
▁inform	-9.65324
▁marriage	-9.65329
hi	-9.65331
▁closely	-9.65401
ise	-9.65425
▁2009,	-9.65555
▁2,	-9.65601
▁2006,	-9.65753
em	-9.65807
▁independence	-9.65809
▁Our	-9.65858
▁art	-9.65902
▁Na	-9.65948
▁forest	-9.65976
tal	-9.66072
▁industrial	-9.66118
▁mentioned	-9.6612
ca	-9.66191
▁book	-9.66292
▁Ex	-9.66344
▁timely	-9.66365
▁advance	-9.664
▁Labour	-9.66424
▁Nuclear	-9.66444
▁Technology	-9.66554
ung	-9.66556
▁sure	-9.66569
▁ten	-9.66675
▁efficient	-9.66743
▁types	-9.66752
▁late	-9.66771
▁Community	-9.66929
▁Western	-9.66951
▁election	-9.66997
▁Third	-9.67021
▁2007,	-9.67032
▁Elimination	-9.67046
▁Indonesia	-9.67058
▁modern	-9.67076
▁entry	-9.67097
▁conclusion	-9.67168
▁cooperate	-9.67193
▁Bureau	-9.6721
.6	-9.67213
way	-9.67234
▁ago	-9.67331
▁alternative	-9.67334
▁concrete	-9.67348
▁democratic	-9.67481
▁failure	-9.67542
*	-9.67636
▁subregional	-9.67662
mon	-9.67795
▁UNFPA	-9.67836
▁2005,	-9.68004
side	-9.68019
od	-9.68061
▁Ha	-9.68116
▁described	-9.68163
▁transparency	-9.68174
▁please	-9.68179
▁reduced	-9.68193
▁mine	-9.68248
▁60	-9.68264
▁undertake	-9.68298
IC	-9.68369
▁expression	-9.68404
▁Chief	-9.6843
▁agree	-9.68482
bi	-9.68492
▁seven	-9.68653
▁registration	-9.68674
▁generally	-9.68678
▁minimum	-9.68698
▁fuel	-9.68715
▁medium	-9.68887
▁waste	-9.68896
gu	-9.68986
▁launched	-9.69072
▁Officer	-9.69191
▁actual	-9.6926
▁mean	-9.69322
▁trial	-9.69449
▁:	-9.69452
▁Further	-9.69606
▁draw	-9.69632
▁X	-9.69642
▁2010,	-9.69647
▁Sub	-9.69677
▁1992	-9.69733
▁shown	-9.69805
▁developments	-9.69878
▁Authority	-9.69923
▁affect	-9.70042
▁actively	-9.70142
▁difficulties	-9.7017
▁Policy	-9.70218
▁conflicts	-9.70272
▁From	-9.70364
▁degree	-9.70413
ever	-9.7051
▁deployment	-9.70531
ig	-9.70722
tain	-9.70766
▁l	-9.70786
▁setting	-9.708
▁stressed	-9.70926
▁Territory	-9.70946
▁nothing	-9.70992
▁relief	-9.71114
▁followed	-9.71174
▁gas	-9.71239
▁religion	-9.71273
▁deep	-9.71469
▁Those	-9.71478
ring	-9.71522
▁added	-9.71554
▁departments	-9.71733
▁component	-9.71734
▁Her	-9.71741
▁causes	-9.71766
▁absence	-9.71839
tu	-9.71948
▁risks	-9.72112
3.	-9.72118
▁enhancing	-9.72122
▁check	-9.72163
▁urgent	-9.72179
▁Operations	-9.72316
▁aircraft	-9.72362
da	-9.72413
▁planned	-9.72678
▁centre	-9.72733
▁character	-9.72736
resolution	-9.72937
▁determined	-9.73073
▁top	-9.73155
▁elected	-9.73199
▁examination	-9.73233
▁mutual	-9.73327
▁sense	-9.73408
▁enterprise	-9.73425
▁intended	-9.73433
▁stay	-9.7344
▁Training	-9.7344
▁takes	-9.73456
▁department	-9.73499
weapon	-9.73514
▁gave	-9.73537
▁Lo	-9.73572
▁donors	-9.73695
first	-9.7378
▁learning	-9.73841
▁son	-9.73917
port	-9.73985
day	-9.74017
ver	-9.74033
▁15.	-9.74156
▁summary	-9.74173
▁Egypt	-9.74255
ee	-9.74296
▁website	-9.74369
▁Where	-9.74375
▁executive	-9.74404
▁Technical	-9.74472
ka	-9.74494
▁recognition	-9.74665
▁extended	-9.74689
▁database	-9.74848
▁Rwanda	-9.74925
▁possibility	-9.7494
▁Islands	-9.74967
▁despite	-9.74998
▁16.	-9.75063
▁Item	-9.7508
▁eight	-9.75118
▁charge	-9.75126
▁word	-9.75156
%	-9.75257
▁banks	-9.75293
▁immediate	-9.7532
▁release	-9.75375
▁Strategy	-9.75404
▁Rules	-9.75445
▁governments	-9.75727
▁Turkey	-9.75741
▁entire	-9.75747
▁immediately	-9.75804
▁San	-9.75811
▁affairs	-9.75892
▁coming	-9.75994
que	-9.76005
lin	-9.76059
▁Bosnia	-9.76184
▁languages	-9.76203
▁discuss	-9.76223
ler	-9.76299
▁occupation	-9.76299
▁true	-9.76319
▁enhanced	-9.7632
▁involvement	-9.76391
▁welcome	-9.76394
▁increasingly	-9.76419
▁stop	-9.76448
▁UNIDO	-9.76465
4.	-9.76514
▁reducing	-9.76654
▁civilians	-9.76719
ng	-9.76735
▁Objective	-9.76838
▁expertise	-9.76898
▁saw	-9.76939
▁Now	-9.7695
▁honour	-9.76967
▁search	-9.77039
▁defined	-9.77091
▁code	-9.77145
▁placed	-9.77215
▁holding	-9.7722
▁idea	-9.77247
mer	-9.77287
▁2004,	-9.77296
▁owing	-9.77351
▁48	-9.77399
▁migration	-9.7744
▁Sea	-9.77544
▁mandates	-9.77545
ations	-9.77848
ended	-9.77965
▁rehabilitation	-9.78009
▁bad	-9.78028
▁2011,	-9.78113
▁emerging	-9.78163
7.	-9.78177
▁Italy	-9.78179
ster	-9.78276
▁influence	-9.783
▁consumption	-9.78367
▁begin	-9.78383
▁workshops	-9.78418
▁Kuwait	-9.78419
▁35	-9.78462
▁lost	-9.78523
▁Assistance	-9.78661
▁allowed	-9.78695
lic	-9.78771
▁engaged	-9.78774
▁se	-9.78796
▁published	-9.78796
third	-9.78865
▁organs	-9.78871
▁attacks	-9.78917
▁racial	-9.78942
▁Car	-9.7898
▁highest	-9.79055
▁birth	-9.79107
▁shared	-9.79156
▁forced	-9.79192
▁assess	-9.79192
▁welcomes	-9.79278
ach	-9.79296
▁chapter	-9.79376
ration	-9.79429
United	-9.7947
▁accepted	-9.79476
▁Hu	-9.79478
▁press	-9.79491
▁representation	-9.79494
▁try	-9.79495
▁favour	-9.79507
▁guarantee	-9.79531
wa	-9.7954
▁recruitment	-9.79545
▁assessments	-9.79577
▁nor	-9.79606
▁conclusions	-9.79754
▁membership	-9.79855
▁Zealand	-9.80124
▁solutions	-9.80139
—	-9.80151
▁documentation	-9.80162
▁Cultural	-9.80172
45	-9.80302
▁express	-9.80365
ble	-9.80419
▁workshop	-9.80495
▁dealing	-9.8055
▁Experts	-9.80585
▁size	-9.80693
▁extend	-9.80779
▁options	-9.80812
▁Members	-9.80814
▁percent	-9.80867
19	-9.80937
▁Sha	-9.80988
▁2003,	-9.81072
▁Any	-9.81078
AN	-9.8123
▁fear	-9.81246
ay	-9.81388
▁urged	-9.81459
▁strengthened	-9.81473
▁Chamber	-9.81494
▁ask	-9.81574
$	-9.81623
ions	-9.81633
▁Most	-9.81639
6.	-9.81649
▁reviewed	-9.81735
▁condition	-9.81801
▁`	-9.81813
▁learn	-9.81865
ably	-9.81981
▁2015	-9.81998
▁produced	-9.82041
▁17.	-9.82048
▁70	-9.82086
▁Vice	-9.82163
▁democracy	-9.8218
▁participated	-9.82223
ran	-9.82224
▁imposed	-9.82285
io	-9.82399
▁2002,	-9.82467
▁Dr	-9.82563
▁Control	-9.82666
▁spirit	-9.8267
▁Spain	-9.82683
▁encourages	-9.82684
▁station	-9.82689
▁refugee	-9.82718
▁Liberia	-9.82799
21	-9.82865
▁accounts	-9.82924
▁Leone	-9.83084
▁separate	-9.83114
▁shows	-9.83221
▁choice	-9.83287
▁enter	-9.83317
▁occupied	-9.83329
▁0	-9.83331
▁77	-9.83368
▁estimates	-9.83406
▁Space	-9.83415
▁fourth	-9.83484
ill	-9.83502
▁Congress	-9.83531
ice	-9.8357
▁board	-9.83676
lar	-9.83719
▁flow	-9.83752
▁coordinated	-9.83804
▁speak	-9.83839
▁NGOs	-9.83891
▁proportion	-9.83896
▁respectively	-9.83944
▁Gender	-9.83947
▁crucial	-9.83967
▁remaining	-9.84033
▁started	-9.84065
▁Palestine	-9.8407
▁Sierra	-9.8407
ward	-9.8408
▁conventions	-9.84099
fe	-9.84111
▁War	-9.84168
▁constitute	-9.84279
mi	-9.84321
▁ill	-9.84369
che	-9.84397
▁inclusion	-9.84404
sp	-9.84426
27	-9.84432
▁Weapons	-9.84482
▁punishment	-9.84508
▁Staff	-9.84532
26	-9.84538
▁Ge	-9.84593
tor	-9.84602
AL	-9.84602
▁became	-9.84632
▁18.	-9.84635
▁Framework	-9.84767
▁campaign	-9.84885
▁Project	-9.84909
▁moment	-9.84952
▁fields	-9.84955
▁etc	-9.85193
ten	-9.85203
▁1991	-9.85253
▁learned	-9.85266
23	-9.85371
▁didn	-9.85393
▁perspective	-9.85447
▁Year	-9.85524
▁limit	-9.85571
▁answer	-9.8565
▁Population	-9.85725
/4	-9.85768
▁stand	-9.85803
▁2012,	-9.8583
8.	-9.85873
▁door	-9.85889
▁Food	-9.85894
▁emphasis	-9.8592
▁emphasized	-9.85999
ja	-9.86004
▁Fifth	-9.86021
▁Then	-9.86266
▁add	-9.86285
▁himself	-9.86313
▁targets	-9.86403
▁morning	-9.86457
▁Switzerland	-9.86482
▁strength	-9.86554
▁accounting	-9.86601
/3	-9.86609
all	-9.86693
ual	-9.86782
▁Ka	-9.8679
ious	-9.86802
▁Netherlands	-9.86853
her	-9.86853
ium	-9.86896
▁Don	-9.86897
ard	-9.86928
9.	-9.8693
▁$3	-9.86958
we	-9.86996
▁ha	-9.87004
▁Colombia	-9.87112
▁fine	-9.87161
22	-9.87183
▁tool	-9.87249
▁headquarters	-9.87327
▁ready	-9.8743
▁represented	-9.87488
proliferation	-9.87528
▁Kosovo	-9.87537
▁intention	-9.87601
▁eliminate	-9.87608
▁usually	-9.87643
para	-9.87682
ki	-9.87725
▁values	-9.87731
▁Or	-9.87766
▁commission	-9.87802
▁li	-9.87811
▁combating	-9.87902
▁won	-9.87972
▁Cyprus	-9.88059
▁Burundi	-9.8814
▁32	-9.88183
▁resulted	-9.8824
▁structures	-9.88243
▁cycle	-9.8829
▁engage	-9.88304
▁Even	-9.88311
▁34	-9.88358
▁Power	-9.88388
▁33	-9.88395
/19	-9.88403
ny	-9.88417
over	-9.8842
▁requirement	-9.8842
▁highly	-9.8842
▁ratification	-9.8843
▁Therefore	-9.88433
▁Peacekeeping	-9.88433
▁object	-9.88456
▁Let	-9.88533
▁networks	-9.88601
▁36	-9.88654
▁declaration	-9.88657
vo	-9.88673
form	-9.88735
▁gra	-9.88811
▁disease	-9.88824
▁45	-9.88842
▁subprogramme	-9.88865
▁integrity	-9.88885
▁Haiti	-9.88964
CP	-9.89
ev	-9.89073
▁opening	-9.89167
▁stock	-9.89192
▁attack	-9.89211
▁Q	-9.89219
▁allocation	-9.8923
▁donor	-9.89232
▁Vi	-9.89239
▁corruption	-9.89241
▁Britain	-9.89293
▁earlier	-9.89307
▁break	-9.8938
▁findings	-9.8939
29	-9.89391
▁Use	-9.89473
▁Man	-9.89562
▁collective	-9.89562
5.	-9.89584
pa	-9.89631
▁authorized	-9.89773
▁records	-9.8982
▁offences	-9.89841
▁factor	-9.89843
▁Territories	-9.89884
▁competent	-9.89889
▁Ambassador	-9.89906
▁freedoms	-9.89929
▁participating	-9.89933
▁places	-9.89996
IN	-9.90051
▁friends	-9.90086
▁subsequent	-9.90112
▁namely	-9.90154
▁observers	-9.90201
▁w	-9.90217
▁37	-9.90265
ron	-9.90298
king	-9.90331
▁Their	-9.90382
▁eyes	-9.90438
ping	-9.90514
▁Northern	-9.90589
▁alone	-9.90611
▁vital	-9.90613
.7	-9.90818
▁institution	-9.90819
▁Norway	-9.90821
▁behind	-9.90851
▁bar	-9.90906
▁forty	-9.90969
▁consent	-9.91004
▁floor	-9.91028
▁Work	-9.91067
▁defence	-9.91134
han	-9.91193
24	-9.91207
▁Two	-9.91231
▁Day	-9.91424
▁Argentina	-9.91514
▁statistical	-9.9157
▁Pro	-9.91655
▁appointed	-9.91682
ral	-9.91694
▁obtain	-9.91714
▁components	-9.91714
▁grounds	-9.91781
sion	-9.91975
▁organizational	-9.92022
▁mid	-9.92056
▁easy	-9.92057
▁Nigeria	-9.92063
▁secure	-9.92097
▁girl	-9.92153
▁listed	-9.922
▁urges	-9.92296
▁indicate	-9.92304
▁internationally	-9.92375
▁victim	-9.92401
wide	-9.92509
▁felt	-9.92564
▁speed	-9.92643
qu	-9.92657
▁candidates	-9.92733
int	-9.92747
▁80	-9.92766
▁chemical	-9.92785
South	-9.92826
tri	-9.92827
▁tasks	-9.92888
▁Herzegovina	-9.92898
▁agriculture	-9.92952
▁threats	-9.92956
Ivoire	-9.93014
▁whom	-9.93027
za	-9.93034
▁Letter	-9.93038
▁Assistant	-9.93064
▁Ca	-9.93072
▁specifically	-9.93091
▁import	-9.9311
▁interested	-9.93121
▁contributed	-9.93274
▁registered	-9.93372
ear	-9.93602
ound	-9.93608
▁47	-9.93766
ens	-9.93841
▁Another	-9.93848
▁creating	-9.93863
▁category	-9.93866
ification	-9.93869
▁inspection	-9.9389
▁coordinate	-9.93897
▁outcomes	-9.93947
▁Chapter	-9.93968
▁approximately	-9.93988
▁delay	-9.94027
▁Da	-9.94072
▁hear	-9.9409
▁2000,	-9.94093
▁drugs	-9.94118
▁mo	-9.9413
▁zone	-9.94193
▁looked	-9.94275
▁offered	-9.94286
▁Field	-9.94418
▁weeks	-9.94459
dy	-9.94469
ants	-9.94483
▁21.	-9.94484
xi	-9.94521
▁voice	-9.94561
▁territories	-9.94628
▁wife	-9.94646
▁19.	-9.94647
In	-9.94661
ier	-9.94684
dic	-9.9473
▁imp	-9.94745
▁Internal	-9.94756
▁Total	-9.94764
▁Jo	-9.94799
▁contains	-9.94866
▁ch	-9.94868
▁contracts	-9.95009
▁observed	-9.95104
▁highlighted	-9.95122
▁r	-9.9514
▁Ukraine	-9.95175
-2	-9.95191
▁EU	-9.95218
▁gross	-9.95268
▁comment	-9.95302
ons	-9.95342
▁looking	-9.95386
▁marine	-9.95403
60	-9.95582
▁inclusive	-9.95668
▁original	-9.95699
01	-9.95701
den	-9.95717
.1)	-9.95744
amp	-9.95874
▁arrest	-9.95921
▁Part	-9.96004
▁join	-9.96015
▁quite	-9.96032
▁sought	-9.96037
▁advisory	-9.96132
▁recognize	-9.96134
-4	-9.96237
▁More	-9.96276
fa	-9.96343
ory	-9.9635
▁Ar	-9.96355
▁guide	-9.96355
▁trends	-9.9642
▁minorities	-9.96486
35	-9.96505
▁sharing	-9.96509
▁comply	-9.96511
▁diseases	-9.96521
▁categories	-9.9659
▁software	-9.96595
▁radio	-9.96637
▁simple	-9.96691
▁complainant	-9.96691
▁daily	-9.96775
ible	-9.96778
▁Austria	-9.96782
▁En	-9.96945
▁ICT	-9.96949
▁users	-9.96989
▁Decides	-9.97049
Q	-9.97068
▁employees	-9.97105
▁Po	-9.97253
▁purchase	-9.97276
▁alleged	-9.97306
▁entered	-9.97357
wi	-9.97371
28	-9.97402
▁giving	-9.97435
▁Finally	-9.97552
EN	-9.97567
▁century	-9.97578
▁element	-9.97633
▁faced	-9.97641
oc	-9.97684
▁Bi	-9.97712
▁Thus	-9.97715
▁prosecution	-9.9773
▁significantly	-9.9774
▁sign	-9.97753
▁played	-9.97786
▁spread	-9.97786
▁90	-9.97799
▁vehicles	-9.978
▁Parliament	-9.97811
▁appointment	-9.97873
▁front	-9.97888
▁2001,	-9.97932
▁attend	-9.97934
▁outstanding	-9.98001
▁panel	-9.98002
▁VI	-9.98008
▁ma	-9.98055
▁Azerbaijan	-9.98061
▁Deputy	-9.98064
let	-9.98073
▁sites	-9.98133
▁reforms	-9.98164
▁trying	-9.98218
▁See	-9.9836
-1	-9.98426
fi	-9.98439
eng	-9.98466
▁identification	-9.98472
▁20.	-9.98478
▁completion	-9.98546
▁rapid	-9.98573
▁Côte	-9.986
▁AND	-9.98628
▁courses	-9.98767
▁Su	-9.98775
▁obtained	-9.98775
▁red	-9.98846
▁le	-9.98916
ko	-9.98926
▁failed	-9.98953
▁comp	-9.98985
▁unless	-9.99007
▁Sweden	-9.99015
▁widely	-9.99042
▁lessons	-9.99068
▁path	-9.99098
▁expansion	-9.99109
▁investigations	-9.9916
ery	-9.99163
af	-9.99168
▁processing	-9.99174
▁decide	-9.99247
ub	-9.99264
▁existence	-9.993
second	-9.99322
▁granted	-9.99339
▁worked	-9.99351
▁allegations	-9.99433
▁wall	-9.99465
▁decrease	-9.9948
▁nations	-9.99506
ef	-9.99566
row	-9.99609
▁migrants	-9.99635
▁Not	-9.99638
▁topic	-9.99661
▁Humanitarian	-9.9968
AS	-9.99713
▁bi	-9.99716
▁Trust	-9.99773
▁cities	-9.9982
▁39	-9.99826
▁exist	-9.9986
▁substantial	-9.99887
▁interpretation	-9.9989
▁advantage	-9.99937
▁engagement	-9.99956
q	-10.001
▁normal	-10.0014
ists	-10.0025
▁Croatia	-10.0027
▁Financing	-10.003
ology	-10.0038
▁norms	-10.0038
▁mental	-10.0041
▁percentage	-10.0046
▁visits	-10.0052
▁Kenya	-10.0055
▁forum	-10.0056
▁territorial	-10.0059
eg	-10.0063
old	-10.0073
ult	-10.0074
ov	-10.008
▁secondary	-10.0092
▁OHCHR	-10.0094
▁Ho	-10.0096
▁teaching	-10.0097
▁seems	-10.0098
▁agency	-10.0099
▁Pre	-10.0102
▁Partnership	-10.0107
▁responses	-10.0111
▁Status	-10.0115
▁plant	-10.0116
▁proper	-10.0117
▁blood	-10.0122
▁hands	-10.0125
▁fish	-10.0131
▁losses	-10.0136
▁Introduction	-10.014
SA	-10.0147
▁(1)	-10.0149
act	-10.015
▁sovereignty	-10.0156
▁Ch	-10.0168
▁supplies	-10.0169
▁Yugoslavia	-10.0175
▁talk	-10.0176
off	-10.0182
▁Indigenous	-10.0184
▁Prosecutor	-10.0184
hu	-10.0185
ell	-10.0186
▁preventing	-10.0192
▁otherwise	-10.0199
▁Gaza	-10.0199
OS	-10.0203
▁formulation	-10.0207
▁22.	-10.0212
▁details	-10.0212
ES	-10.0213
▁Initiative	-10.0218
▁firm	-10.0221
▁specified	-10.0228
▁emissions	-10.0231
▁race	-10.0231
-3	-10.0238
▁em	-10.0246
val	-10.0249
08	-10.0252
▁recorded	-10.0254
CE	-10.0255
▁Chile	-10.0258
▁background	-10.0268
▁complaints	-10.0277
▁availability	-10.0282
ric	-10.0286
▁attempt	-10.0288
▁expenses	-10.0288
▁Following	-10.029
▁rich	-10.0296
▁manufacture	-10.0298
bu	-10.0299
▁experiences	-10.03
▁regulatory	-10.03
▁Ministers	-10.0301
▁traffic	-10.0304
▁Pa	-10.0309
▁49	-10.0313
▁belief	-10.0318
▁realization	-10.0327
▁appear	-10.0333
▁burden	-10.0336
▁micro	-10.0342
▁bear	-10.0344
▁Regulations	-10.0348
▁regulation	-10.035
▁machine	-10.0351
▁everyone	-10.0354
▁principal	-10.0354
,"	-10.0354
free	-10.0359
▁Thailand	-10.0371
▁thank	-10.0371
▁Rule	-10.0372
▁grave	-10.0374
Z	-10.038
fourth	-10.0381
▁train	-10.0384
▁enjoyment	-10.0384
so	-10.0385
▁British	-10.0388
aw	-10.0389
▁trend	-10.0391
▁Several	-10.0392
▁facing	-10.0393
▁Se	-10.0397
▁version	-10.0397
mp	-10.04
▁anything	-10.0407
▁elimination	-10.0409
orn	-10.0415
▁reintegration	-10.0416
▁Ethiopia	-10.0425
▁dispute	-10.0434
▁Decade	-10.0435
ep	-10.0435
▁pension	-10.0435
▁23.	-10.0445
▁expenditures	-10.0445
▁(19	-10.0447
▁minority	-10.0451
▁fulfil	-10.0451
▁42	-10.0458
▁Uganda	-10.0462
▁ho	-10.0466
du	-10.047
▁Well	-10.0475
▁judge	-10.0476
▁expect	-10.0476
▁slow	-10.048
▁instance	-10.0481
90	-10.0488
▁determination	-10.0488
▁selected	-10.0501
▁clean	-10.0503
▁Ju	-10.0503
▁carrying	-10.0506
fer	-10.0508
▁manage	-10.0509
▁fl	-10.051
▁perform	-10.0513
31	-10.0526
▁considering	-10.0528
▁reproductive	-10.0529
▁Adoption	-10.0529
ker	-10.0537
▁functioning	-10.0539
▁Darfur	-10.0545
▁aware	-10.0546
▁constitutional	-10.0546
▁reconciliation	-10.0547
▁Your	-10.0547
▁nine	-10.0554
▁duties	-10.0557
37	-10.056
▁Morocco	-10.0561
▁electoral	-10.0567
▁dissemination	-10.0568
▁nationality	-10.0569
▁Science	-10.0574
▁Algeria	-10.0577
▁actually	-10.0587
ai	-10.0587
▁bill	-10.0589
▁offence	-10.0593
tan	-10.0594
gg	-10.0595
▁writing	-10.0595
ient	-10.0606
▁Ja	-10.0614
▁lo	-10.0615
▁doubt	-10.0624
▁technological	-10.0625
▁diplomatic	-10.0636
istic	-10.0642
▁seem	-10.0642
▁killed	-10.0643
vent	-10.0645
▁examine	-10.0651
▁maintained	-10.0661
▁sun	-10.0665
▁update	-10.0665
▁Ne	-10.0671
▁Despite	-10.0674
▁largest	-10.068
▁comes	-10.0687
▁buy	-10.0691
▁identity	-10.0695
▁51	-10.0698
▁Jordan	-10.0703
▁sometimes	-10.0704
▁introduce	-10.0705
▁map	-10.0707
▁Prime	-10.0708
▁seeking	-10.0708
▁previously	-10.0711
▁considers	-10.0713
▁opened	-10.0714
▁worth	-10.0714
▁star	-10.0722
▁announced	-10.0724
ber	-10.0727
fifth	-10.0728
▁presentation	-10.0731
ox	-10.0737
▁46	-10.0738
▁subsidiary	-10.0741
▁2013,	-10.0756
pt	-10.0757
▁contain	-10.0761
▁jobs	-10.0765
▁satellite	-10.0766
▁teachers	-10.0767
▁24.	-10.0767
▁boy	-10.077
▁sentence	-10.0772
▁endorsed	-10.0776
work	-10.0778
ator	-10.0779
▁sale	-10.078
.8	-10.0781
▁Summary	-10.0784
33	-10.0788
▁coverage	-10.0794
serv	-10.0795
▁considerable	-10.0797
▁containing	-10.0808
▁program	-10.0815
lor	-10.0816
▁teams	-10.0816
cur	-10.0828
▁Supreme	-10.0837
▁segment	-10.0841
ick	-10.0844
▁speaking	-10.0846
▁ship	-10.0852
▁Air	-10.0852
▁Malaysia	-10.0853
▁innovation	-10.0857
▁Questions	-10.0861
▁unable	-10.0866
▁38	-10.0868
gi	-10.0873
▁extensive	-10.0874
▁restrictions	-10.0875
▁strongly	-10.0878
▁surface	-10.0887
▁Sp	-10.0889
▁Eritrea	-10.0891
▁oversight	-10.0891
▁except	-10.0893
▁explain	-10.0898
▁Ga	-10.0902
▁send	-10.0904
▁reasonable	-10.0907
▁socio	-10.0908
su	-10.0909
▁friend	-10.0911
48	-10.0912
▁Chairperson	-10.0912
▁introduction	-10.0915
▁disability	-10.0919
▁Georgia	-10.0919
▁deliver	-10.0923
▁nation	-10.0924
▁partner	-10.0928
ple	-10.0931
▁Gu	-10.0932
▁Add	-10.0933
ug	-10.0936
▁sustained	-10.0939
▁pointed	-10.094
▁maintaining	-10.0944
▁thematic	-10.0946
cept	-10.0949
▁thirty	-10.095
▁linked	-10.0951
▁male	-10.0964
▁arising	-10.0966
under	-10.0968
▁convention	-10.0971
▁inside	-10.0974
ther	-10.0976
▁Monitoring	-10.098
▁happen	-10.0989
▁Mu	-10.099
▁street	-10.0993
▁grant	-10.0998
▁Myanmar	-10.1005
▁ownership	-10.1006
▁disasters	-10.1008
▁Philippines	-10.101
▁notice	-10.1011
seventh	-10.1011
▁characteristics	-10.1024
▁64	-10.1031
▁assessed	-10.1031
▁refer	-10.1031
▁showed	-10.1036
ON	-10.1037
IT	-10.1039
▁pilot	-10.1042
eighth	-10.1046
80	-10.105
▁satisfaction	-10.1051
▁advanced	-10.1054
cent	-10.1055
▁husband	-10.1057
▁unique	-10.106
ition	-10.106
▁Fourth	-10.1061
>	-10.1064
▁Governing	-10.1067
▁44	-10.1071
▁investigate	-10.1072
▁differences	-10.1073
▁sales	-10.1076
▁Network	-10.1086
▁equitable	-10.109
SR	-10.1094
ninth	-10.1103
▁flows	-10.1106
▁music	-10.1107
▁Drugs	-10.1109
cra	-10.111
ned	-10.111
▁Resources	-10.1115
▁payments	-10.1115
▁1999,	-10.1119
ec	-10.1124
▁pursue	-10.1126
▁54	-10.113
▁updated	-10.113
▁middle	-10.114
item	-10.1149
▁latest	-10.116
▁(2)	-10.1165
▁internally	-10.1174
▁maximum	-10.1177
▁stations	-10.1181
nch	-10.1184
▁encouraging	-10.1184
▁fast	-10.1188
RI	-10.1188
▁port	-10.1189
▁Peru	-10.119
▁platform	-10.119
▁concluding	-10.1191
▁COP	-10.1192
▁designated	-10.1201
▁penalty	-10.1202
▁Y	-10.1203
▁Fa	-10.1204
economic	-10.1209
▁populations	-10.122
▁closed	-10.1221
▁wishes	-10.1221
▁targeted	-10.1221
▁correct	-10.1228
▁25.	-10.1234
▁41	-10.1238
▁62	-10.124
44	-10.1245
▁Developing	-10.1245
▁Over	-10.1246
▁Lu	-10.1252
▁Each	-10.1253
▁Red	-10.1254
▁built	-10.1257
PA	-10.1258
▁confirmed	-10.1258
rt	-10.1262
▁transportation	-10.1272
▁geographical	-10.1273
▁receiving	-10.1273
▁IAEA	-10.1274
▁po	-10.1276
▁heavy	-10.1276
▁amendments	-10.1277
38	-10.128
▁District	-10.1284
▁allowance	-10.1291
▁troop	-10.1292
▁chance	-10.1292
▁/	-10.1301
▁Am	-10.1301
▁enabling	-10.1306
▁mortality	-10.1317
▁someone	-10.1325
▁worldwide	-10.1326
▁Principles	-10.1329
▁asylum	-10.1333
▁Qu	-10.1333
▁ideas	-10.1333
▁Energy	-10.1334
▁minutes	-10.1334
▁delivered	-10.1337
▁26.	-10.134
,500	-10.1343
▁k	-10.1343
32	-10.1343
▁fa	-10.1355
▁link	-10.136
▁1998,	-10.136
▁$4	-10.1363
sixth	-10.1365
47	-10.1365
▁Lebanese	-10.1367
▁globalization	-10.1369
34	-10.1369
▁film	-10.1371
▁diversity	-10.1375
▁Go	-10.1375
▁instead	-10.1376
ns	-10.1378
▁List	-10.1387
▁trading	-10.139
▁located	-10.1391
▁resolve	-10.1393
bb	-10.1394
comp	-10.1396
ji	-10.1401
ign	-10.1403
ina	-10.1408
▁Good	-10.1408
▁Belarus	-10.1409
ip	-10.1413
iii	-10.1416
▁latter	-10.1417
▁master	-10.1418
▁Resolution	-10.142
▁dead	-10.1423
▁white	-10.1427
▁everything	-10.1429
▁eradication	-10.143
duce	-10.1432
▁Scientific	-10.1434
▁troops	-10.1446
▁Cambodia	-10.1449
▁preparing	-10.1452
▁stress	-10.1453
39	-10.1453
▁amended	-10.1456
▁56	-10.1458
▁Timor	-10.1458
▁Movement	-10.1462
▁Saudi	-10.1469
▁primarily	-10.1474
▁governing	-10.1477
▁constructive	-10.1478
▁cold	-10.1478
▁gain	-10.1479
3)	-10.1487
▁fixed	-10.1496
▁systematic	-10.1502
▁numerous	-10.1505
▁quickly	-10.1508
▁secret	-10.1509
▁reservations	-10.1509
▁Land	-10.1515
▁aims	-10.1518
▁commissions	-10.1522
▁danger	-10.1522
▁amounts	-10.1527
▁entity	-10.1529
▁protected	-10.153
▁transparent	-10.1531
▁green	-10.1534
▁extension	-10.1535
▁publication	-10.1535
vis	-10.1544
▁hearing	-10.1544
▁Bangladesh	-10.1546
▁58	-10.1549
▁happy	-10.155
▁attended	-10.1551
ari	-10.1551
▁Family	-10.1556
▁investments	-10.1558
▁ratified	-10.1558
▁Angola	-10.156
▁outer	-10.1561
▁Why	-10.1563
cing	-10.1565
▁productive	-10.157
▁nearly	-10.1583
hold	-10.1587
care	-10.1589
▁simply	-10.1592
lan	-10.1594
We	-10.1594
▁expand	-10.1598
▁Ki	-10.1599
▁older	-10.1602
46	-10.1602
▁Rica	-10.1605
70	-10.1607
tar	-10.1609
ified	-10.1612
▁operate	-10.162
▁exception	-10.1623
ction	-10.1623
▁black	-10.1629
▁dream	-10.1634
▁budgetary	-10.1635
▁shift	-10.1636
▁Refugees	-10.1639
ators	-10.1639
▁picture	-10.1643
▁figure	-10.1647
▁Guatemala	-10.1648
mail	-10.1653
▁gap	-10.1654
▁launch	-10.1655
▁Har	-10.166
ren	-10.1662
8)	-10.1664
▁Un	-10.1669
▁works	-10.1673
▁conclude	-10.1681
▁empowerment	-10.1683
36	-10.1684
determination	-10.1688
▁thereby	-10.1694
▁returned	-10.17
▁heads	-10.1704
▁wanted	-10.1706
▁tried	-10.1707
▁quarter	-10.1712
▁transit	-10.1715
▁verification	-10.1717
▁difference	-10.1725
▁kept	-10.1726
▁mainstreaming	-10.173
▁online	-10.1732
ze	-10.1733
▁facilitating	-10.1733
▁Iraqi	-10.1735
▁Saint	-10.1736
▁protecting	-10.1742
mm	-10.1743
▁3,	-10.1743
▁legitimate	-10.1743
▁managers	-10.1754
▁IN	-10.1757
▁warm	-10.1757
▁initiated	-10.1761
Rev	-10.1764
▁represent	-10.1767
ale	-10.1773
CA	-10.1773
▁popular	-10.1778
rate	-10.1782
▁City	-10.1785
▁harm	-10.1786
▁funded	-10.1789
▁eat	-10.1797
▁occurred	-10.1799
▁conformity	-10.18
▁bit	-10.1801
tre	-10.1802
▁Change	-10.1805
▁vi	-10.1816
▁vision	-10.182
▁Professional	-10.1827
cy	-10.1827
▁wrong	-10.1836
▁achievements	-10.1838
▁Forms	-10.184
▁unemployment	-10.1843
▁Universal	-10.1845
▁changed	-10.1846
▁hospital	-10.1848
▁Bar	-10.1848
▁academic	-10.1852
▁th	-10.1853
▁Noting	-10.1854
▁Because	-10.1855
▁count	-10.1859
▁meaning	-10.1863
uc	-10.1872
▁27.	-10.1873
▁racism	-10.1873
▁75	-10.1874
▁undertaking	-10.1874
▁theory	-10.1875
▁Monday	-10.1875
▁dynamic	-10.1889
sis	-10.1898
▁cluster	-10.1899
gen	-10.1901
▁recommend	-10.1904
▁names	-10.1906
▁corporate	-10.1906
▁Finland	-10.1908
▁jointly	-10.1909
▁structural	-10.1911
▁hot	-10.1914
▁combined	-10.1915
but	-10.1916
▁volume	-10.1921
▁tend	-10.1923
▁forth	-10.1924
▁57	-10.1931
▁north	-10.1933
▁liability	-10.1937
sk	-10.1939
▁rain	-10.1941
▁selection	-10.1941
▁Military	-10.1942
-19	-10.1946
▁Di	-10.195
▁Spanish	-10.1953
▁wind	-10.1962
▁UNODC	-10.1966
continued	-10.1969
▁package	-10.1972
ew	-10.1974
▁amendment	-10.1975
▁adaptation	-10.1977
▁becoming	-10.1978
▁moral	-10.1979
/5	-10.1979
ect	-10.1991
raising	-10.1993
▁sustainability	-10.1994
▁schedule	-10.1996
▁sc	-10.2
▁incidents	-10.2001
▁ban	-10.2016
▁publications	-10.2018
▁obstacles	-10.2029
▁remember	-10.2029
▁rose	-10.2036
▁village	-10.2039
rit	-10.204
▁grow	-10.2045
▁relatively	-10.2046
▁accused	-10.2047
▁variety	-10.205
▁Its	-10.2051
▁getting	-10.2053
▁paras	-10.2055
CO	-10.2055
▁helped	-10.2056
▁fifth	-10.2058
lt	-10.206
mark	-10.2062
▁Coordinator	-10.2072
▁game	-10.2072
▁contributing	-10.2091
▁multiple	-10.2093
▁theme	-10.2094
ana	-10.21
▁(1	-10.2102
▁substances	-10.2105
ea	-10.2105
▁root	-10.2108
CC	-10.2109
▁Subcommittee	-10.2109
▁image	-10.2109
▁Russia	-10.2111
▁43	-10.2112
▁weight	-10.2118
▁Friday	-10.212
▁saying	-10.212
▁regularly	-10.2121
▁Poland	-10.2128
PC	-10.214
▁deposit	-10.2142
▁drop	-10.2148
▁south	-10.2149
▁valid	-10.2152
▁Ta	-10.2153
▁explore	-10.2153
▁preliminary	-10.2154
▁Sal	-10.2156
ged	-10.2158
▁depend	-10.2174
▁generation	-10.2176
▁allocated	-10.2178
▁Jerusalem	-10.2195
▁Ko	-10.2195
▁Promotion	-10.2198
▁chemicals	-10.2201
▁61	-10.2204
agency	-10.2214
▁Ni	-10.2215
▁reconstruction	-10.2217
▁suffering	-10.222
▁Nepal	-10.222
▁decline	-10.2223
▁Lanka	-10.2229
ace	-10.2231
▁ratio	-10.2232
str	-10.2233
▁double	-10.2239
▁Czech	-10.224
▁passed	-10.2245
Secretary	-10.2247
▁frameworks	-10.2252
▁drawn	-10.2252
ven	-10.2257
▁innovative	-10.226
▁reservation	-10.226
▁Venezuela	-10.2261
▁sides	-10.2262
▁hi	-10.2265
▁ba	-10.2277
▁track	-10.2283
▁speakers	-10.2284
▁Small	-10.2286
ix	-10.2292
▁affecting	-10.2292
UR	-10.2296
▁pass	-10.2301
▁location	-10.2303
mar	-10.2304
It	-10.2309
▁im	-10.2312
▁uses	-10.2314
▁organize	-10.2317
▁released	-10.2319
▁...	-10.2321
▁capabilities	-10.2323
▁changing	-10.2325
▁solve	-10.2331
▁committees	-10.2336
ight	-10.234
▁Paris	-10.2343
▁fell	-10.2346
▁28.	-10.2347
▁declared	-10.2351
▁&	-10.2352
ris	-10.2355
DP	-10.2357
MO	-10.2357
▁pollution	-10.2364
▁Based	-10.2365
▁School	-10.2374
owned	-10.2375
▁Eastern	-10.2378
▁Comp	-10.238
▁drafting	-10.2381
▁Mechanism	-10.2385
tern	-10.2386
▁believes	-10.2387
▁division	-10.2401
▁brother	-10.2402
▁Ecuador	-10.2406
▁identifying	-10.2408
iz	-10.2409
ID	-10.2414
▁Expert	-10.2417
▁John	-10.2419
▁Task	-10.2419
▁55	-10.2421
▁Singapore	-10.2423
point	-10.2426
▁believed	-10.2427
▁sleep	-10.2428
▁contingent	-10.2431
▁Calls	-10.2435
ates	-10.244
▁foster	-10.2442
▁lines	-10.246
66	-10.2465
99	-10.2466
▁Strategic	-10.2484
▁truth	-10.2486
▁hoped	-10.2495
.9	-10.2506
▁Sri	-10.2508
▁Planning	-10.251
55	-10.2517
▁doesn	-10.2517
▁exports	-10.2524
▁web	-10.2527
gre	-10.2534
▁lay	-10.2538
▁choose	-10.254
▁Corr	-10.254
96	-10.2544
▁option	-10.2545
▁message	-10.2547
▁demonstrate	-10.2548
▁length	-10.2562
▁remote	-10.2564
▁Island	-10.2567
▁explanation	-10.2568
SP	-10.2569
▁transactions	-10.257
▁29.	-10.2572
▁beautiful	-10.2575
▁charges	-10.2576
▁recalled	-10.2577
AP	-10.2587
95	-10.2589
▁acquisition	-10.2589
▁figures	-10.2591
▁sanitation	-10.2596
▁historical	-10.26
▁prisoners	-10.26
▁organ	-10.2605
AT	-10.2607
▁reiterated	-10.261
RA	-10.2611
ection	-10.2615
▁migrant	-10.2621
▁sw	-10.2622
▁revision	-10.2628
▁abroad	-10.2628
▁stable	-10.2631
▁invitation	-10.2634
65	-10.2642
▁Du	-10.2645
▁observer	-10.2646
▁remedies	-10.2646
▁expanded	-10.2647
▁hit	-10.2648
-5	-10.265
▁Mon	-10.2651
▁London	-10.2652
▁binding	-10.2657
▁Provision	-10.266
class	-10.266
▁Mali	-10.2661
▁extreme	-10.2661
▁preparatory	-10.2665
▁severe	-10.2666
▁yourself	-10.2669
03	-10.267
▁disputes	-10.2676
▁flight	-10.2685
05	-10.2687
▁Foundation	-10.2689
58	-10.2698
▁ra	-10.27
▁Water	-10.2702
▁violated	-10.2704
▁phone	-10.2708
▁Region	-10.2709
▁Safety	-10.271
▁president	-10.271
▁warning	-10.2717
▁color	-10.2719
▁write	-10.272
▁65	-10.2727
▁safeguards	-10.2732
▁32.	-10.2739
mit	-10.2743
cl	-10.2745
if	-10.2748
▁sum	-10.2748
51	-10.2749
▁Greece	-10.2753
▁Comprehensive	-10.2753
▁53	-10.2753
▁command	-10.2759
▁occasion	-10.276
▁scheduled	-10.2767
▁match	-10.2775
▁vehicle	-10.2776
ps	-10.2778
▁constraints	-10.2782
▁preventive	-10.2783
▁na	-10.2785
▁turned	-10.2786
▁tourism	-10.2789
▁consultative	-10.2791
▁hoc	-10.2792
▁fit	-10.2793
tch	-10.2798
▁attached	-10.2809
▁app	-10.2811
ff	-10.2813
▁Both	-10.2817
▁leaving	-10.2817
▁patients	-10.2817
▁joined	-10.2819
len	-10.2821
▁Belgium	-10.2823
scale	-10.2823
ED	-10.2826
▁television	-10.2828
▁examined	-10.2832
▁bringing	-10.2839
▁tri	-10.2844
▁Budgetary	-10.2845
▁ju	-10.2851
▁Arabia	-10.2855
▁鈥	-10.2857
▁interim	-10.2859
▁window	-10.2863
▁association	-10.2864
pl	-10.2871
▁improvements	-10.2874
▁Procedure	-10.2874
▁chief	-10.2876
▁welfare	-10.288
▁perpetrators	-10.288
wer	-10.2883
room	-10.2888
▁Accordingly	-10.2891
▁suit	-10.2893
▁Statistics	-10.2898
▁pending	-10.29
▁earth	-10.2902
▁block	-10.2903
ute	-10.2904
aries	-10.2906
US	-10.2907
▁Today	-10.2909
pre	-10.2911
▁Bu	-10.2913
▁Lord	-10.2913
▁Given	-10.2913
hy	-10.2914
▁Denmark	-10.2915
cc	-10.292
▁investors	-10.2923
▁card	-10.2924
▁impacts	-10.2925
98	-10.293
tter	-10.2932
ped	-10.2937
▁Pe	-10.294
▁valuable	-10.2941
chi	-10.2943
▁Informal	-10.2947
ger	-10.2951
▁decade	-10.2953
▁Independent	-10.2958
ese	-10.2967
-20	-10.2968
▁imprisonment	-10.2969
▁formed	-10.2972
▁books	-10.2983
▁focal	-10.2983
▁covering	-10.2987
▁adjustment	-10.2991
▁Earth	-10.2994
ao	-10.2995
▁scheme	-10.2996
▁acting	-10.2999
▁33.	-10.2999
▁town	-10.3015
▁raising	-10.3017
▁powers	-10.3017
▁career	-10.3024
▁numbers	-10.3027
▁mark	-10.3027
▁AIDS	-10.303
▁$5	-10.3031
▁asset	-10.3034
kin	-10.3035
▁wait	-10.3037
▁dignity	-10.3045
ments	-10.3047
▁fe	-10.3047
▁interaction	-10.3054
▁Open	-10.3063
▁arrested	-10.3064
▁Mi	-10.3067
▁suggest	-10.3069
▁Per	-10.3073
▁bus	-10.3074
/62/	-10.3074
▁Post	-10.3075
ph	-10.3079
▁file	-10.3079
64	-10.3084
▁Document	-10.309
▁permit	-10.3098
har	-10.3099
鈥	-10.3102
▁links	-10.3104
▁bio	-10.3112
▁testing	-10.3113
▁guarantees	-10.3117
▁reality	-10.3124
▁Right	-10.3125
."	-10.3127
▁Preparatory	-10.3127
▁counsel	-10.3128
41	-10.3132
▁unilateral	-10.3133
▁advocacy	-10.3141
▁define	-10.3141
▁Forces	-10.3144
▁Torture	-10.3146
▁boys	-10.3146
▁Romania	-10.3149
▁Costa	-10.3151
▁Election	-10.3165
▁Yes	-10.3165
▁format	-10.317
cul	-10.3172
ust	-10.3188
▁soldiers	-10.3189
nes	-10.3194
▁Tanzania	-10.3206
des	-10.3212
▁Tunisia	-10.3215
▁savings	-10.3223
Re	-10.3226
▁34.	-10.3229
▁Dis	-10.3231
▁supervision	-10.3235
▁Society	-10.3236
▁dangerous	-10.3246
▁ILO	-10.3247
▁hour	-10.3256
▁functional	-10.3256
ase	-10.3256
▁user	-10.3257
▁customs	-10.3262
▁largely	-10.3263
▁video	-10.3265
cor	-10.3265
▁2008.	-10.3272
▁reply	-10.3277
ibility	-10.3278
ya	-10.3289
▁Yu	-10.3293
▁temperature	-10.3297
1,	-10.3298
▁fo	-10.3302
ract	-10.3312
No	-10.3312
▁Statute	-10.3313
▁spent	-10.3315
▁Number	-10.3316
▁judiciary	-10.3318
▁gives	-10.3319
▁utilization	-10.332
atory	-10.3324
▁ahead	-10.333
▁speech	-10.3338
▁assisting	-10.3339
▁chain	-10.3339
▁wealth	-10.3345
63	-10.3347
▁Building	-10.3349
▁officer	-10.3349
▁Official	-10.3351
▁larger	-10.3354
▁keeping	-10.3354
▁currency	-10.3357
3,	-10.3358
▁House	-10.3361
▁Through	-10.3361
▁Measures	-10.3362
▁foot	-10.3367
▁explosive	-10.337
42	-10.3373
▁gold	-10.3374
▁Budget	-10.3375
▁overcome	-10.3376
▁explained	-10.3377
▁Nairobi	-10.3386
set	-10.3387
PR	-10.3388
▁weak	-10.339
▁standing	-10.3398
▁corresponding	-10.3398
ress	-10.34
▁intellectual	-10.3408
▁du	-10.3409
▁Having	-10.3412
II	-10.3412
▁Taking	-10.3417
43	-10.3418
▁ro	-10.3418
▁extremely	-10.3418
▁German	-10.3425
▁settlements	-10.3425
ming	-10.3432
cip	-10.3438
▁story	-10.344
▁composition	-10.3441
▁Climate	-10.3447
net	-10.3449
▁acceptance	-10.3452
matic	-10.3463
oriented	-10.3464
▁district	-10.3464
▁Observer	-10.3464
▁assigned	-10.3464
▁broader	-10.3465
▁fail	-10.3466
▁cooperative	-10.3478
▁UNESCO	-10.3479
▁seminars	-10.3482
▁thinking	-10.3491
▁campaigns	-10.3492
▁rape	-10.3492
▁appears	-10.3497
▁Activities	-10.3498
▁indeed	-10.3498
▁served	-10.35
▁Process	-10.35
▁Decision	-10.3501
▁drive	-10.3503
▁fiscal	-10.3503
▁managed	-10.3505
▁limits	-10.3511
▁Serbia	-10.3523
▁2005.	-10.3524
▁eye	-10.3533
▁Oh	-10.3534
▁super	-10.3535
▁suffered	-10.3536
▁2009.	-10.3538
▁roll	-10.354
pped	-10.354
▁Portugal	-10.3542
▁programming	-10.3543
▁cell	-10.3546
▁represents	-10.3551
▁bearing	-10.3554
▁controls	-10.3559
▁Paragraph	-10.3559
HRC	-10.3561
▁distributed	-10.3562
▁easily	-10.3564
▁transmitted	-10.3565
▁Anti	-10.3567
▁equity	-10.3567
/57/	-10.3571
▁complement	-10.3573
▁mode	-10.3573
▁pe	-10.358
▁Finance	-10.3581
▁news	-10.3582
▁35.	-10.3582
OM	-10.3583
▁arise	-10.3584
/64/	-10.3586
IL	-10.359
57	-10.3591
▁Senegal	-10.3596
02	-10.3596
▁mountain	-10.3597
▁impunity	-10.3597
▁Increased	-10.3597
▁governmental	-10.3599
▁supplement	-10.3603
▁vulnerability	-10.3605
▁Platform	-10.3605
▁Southern	-10.3606
including	-10.3608
uring	-10.3611
ue	-10.3613
▁teacher	-10.3615
▁outlined	-10.3616
▁Model	-10.3625
▁Recognizing	-10.3629
/65/	-10.3629
▁Salvador	-10.3631
▁knew	-10.3633
▁Peoples	-10.3634
▁decades	-10.3635
53	-10.3635
▁competence	-10.3637
▁coordinating	-10.3638
▁31.	-10.364
▁serving	-10.3641
▁helping	-10.3642
▁foundation	-10.3643
▁mines	-10.3644
▁methodology	-10.3645
▁ended	-10.3651
▁Tuesday	-10.3656
▁born	-10.3658
54	-10.3661
▁4,	-10.3662
▁humanity	-10.3667
▁Transport	-10.3668
▁involve	-10.3671
▁letters	-10.3672
▁running	-10.3673
▁Only	-10.3673
▁techniques	-10.3677
▁probably	-10.3678
59	-10.368
2,	-10.3681
▁Notes	-10.3686
▁seriously	-10.369
▁behaviour	-10.37
tin	-10.37
▁season	-10.3702
▁title	-10.3706
▁commit	-10.3708
▁experienced	-10.3709
▁Violence	-10.3709
52	-10.3717
▁mandated	-10.3718
▁attract	-10.3718
▁embargo	-10.3729
▁Environmental	-10.3731
▁reaffirmed	-10.3731
▁examples	-10.3732
▁store	-10.3732
RC	-10.3733
▁Business	-10.3734
[	-10.3736
ans	-10.3739
▁demands	-10.3745
/66/	-10.3746
▁Uruguay	-10.3747
▁arbitrary	-10.3747
▁contrary	-10.3747
▁Additional	-10.3751
▁perfect	-10.3752
▁transferred	-10.3754
▁reading	-10.3755
▁2010.	-10.3757
/60/	-10.3777
RE	-10.3785
▁36.	-10.3785
67	-10.3789
56	-10.3793
▁soil	-10.3803
▁Chemical	-10.3807
ham	-10.3809
hal	-10.3811
▁relative	-10.3812
cle	-10.3814
▁indicates	-10.3814
▁ne	-10.3818
▁features	-10.3821
specific	-10.3823
vers	-10.3824
▁walk	-10.3831
▁OIOS	-10.3833
▁dog	-10.3833
▁Indian	-10.3834
▁Operation	-10.3838
▁wave	-10.3839
▁increases	-10.3843
▁Agriculture	-10.3849
▁Integrated	-10.3857
▁conservation	-10.3857
68	-10.3859
▁52	-10.3862
▁Account	-10.3862
▁federal	-10.3865
▁proliferation	-10.3867
▁staffing	-10.3873
▁storage	-10.3879
ade	-10.3881
▁demonstrated	-10.3882
▁Equality	-10.3883
▁biological	-10.3885
▁modalities	-10.3885
▁Im	-10.3886
▁weather	-10.3892
▁Thursday	-10.3901
▁associations	-10.3901
▁box	-10.3903
▁subjected	-10.3905
light	-10.3905
▁execution	-10.3906
▁salary	-10.3907
▁insufficient	-10.3917
▁Every	-10.3919
ack	-10.3927
▁signal	-10.3929
▁trained	-10.3932
▁moving	-10.3938
gan	-10.394
▁bo	-10.3947
bar	-10.3951
▁performed	-10.3952
▁neither	-10.3953
being	-10.3955
▁college	-10.3956
▁VII	-10.3956
▁adapt	-10.3967
▁Armenia	-10.3969
▁seemed	-10.397
/59/	-10.3972
▁Investment	-10.3973
▁2007.	-10.3985
▁river	-10.3987
▁gaps	-10.3988
▁Wednesday	-10.3991
▁Th	-10.3995
▁wa	-10.3995
▁repair	-10.3997
▁monthly	-10.4001
▁objection	-10.4002
▁locations	-10.4004
ST	-10.4005
ey	-10.4005
▁heat	-10.4012
/58/	-10.4018
▁subsequently	-10.4019
▁Hoc	-10.4021
▁talks	-10.4023
4,	-10.4024
▁Japanese	-10.4026
▁southern	-10.4028
▁reflects	-10.4032
▁Ya	-10.4033
▁detained	-10.4033
ju	-10.404
AM	-10.4046
ulation	-10.4048
▁Application	-10.4048
treatment	-10.4055
▁Kazakhstan	-10.4056
▁complaint	-10.4057
▁goes	-10.4059
▁inflation	-10.4059
▁37.	-10.4062
▁applicant	-10.4065
▁offers	-10.4065
▁shape	-10.4067
▁societies	-10.4069
▁prostitution	-10.4069
▁resumed	-10.4072
49	-10.4083
▁Afghan	-10.4088
▁cur	-10.4091
▁Nam	-10.4092
▁directed	-10.4096
▁continuous	-10.4097
▁Men	-10.41
▁commodity	-10.4102
▁mobilization	-10.4102
▁30.	-10.4105
▁mining	-10.4114
▁greatly	-10.4114
▁prohibited	-10.4116
▁else	-10.4119
▁Team	-10.413
▁Web	-10.413
ries	-10.4132
▁2006.	-10.4136
7,	-10.4137
▁starting	-10.414
▁Bolivia	-10.4143
▁Ru	-10.4146
uck	-10.4147
▁coherence	-10.415
/61/	-10.4154
▁extra	-10.4154
▁bed	-10.4157
▁focusing	-10.4158
▁residence	-10.4161
▁evaluate	-10.4164
ING	-10.4169
▁employed	-10.4175
az	-10.4177
▁thousands	-10.4179
▁Ghana	-10.4186
▁facts	-10.4193
▁anniversary	-10.4194
▁recognizes	-10.4196
▁trouble	-10.4197
▁topics	-10.4199
ose	-10.42
75	-10.4202
▁Just	-10.4211
ore	-10.4211
▁lose	-10.4215
▁carbon	-10.4219
▁treated	-10.4221
▁Page	-10.4233
▁38.	-10.4235
▁seminar	-10.4238
▁output	-10.4245
▁save	-10.4248
▁reviews	-10.4252
▁notification	-10.4257
▁authors	-10.426
ld	-10.4268
low	-10.4271
▁studied	-10.4281
▁Taiwan	-10.4286
▁solidarity	-10.4286
▁drawing	-10.4287
▁premises	-10.4287
▁j	-10.4288
88	-10.4291
▁realize	-10.4291
▁Bulgaria	-10.4293
▁deliberations	-10.4299
▁trans	-10.4307
ised	-10.4308
▁farm	-10.4311
ency	-10.432
▁faith	-10.4323
▁convened	-10.4325
▁Ministerial	-10.4333
State	-10.4334
not	-10.4334
▁Indeed	-10.4339
▁el	-10.4344
▁enemy	-10.4352
▁looks	-10.4357
▁des	-10.4363
▁Qatar	-10.4365
Habitat	-10.4366
▁rep	-10.4371
▁disabled	-10.4371
▁constitutes	-10.4373
▁collect	-10.4374
▁widespread	-10.4374
▁mobile	-10.4375
▁army	-10.4376
▁pattern	-10.4376
▁200	-10.4378
▁Follow	-10.4382
▁opposition	-10.4385
▁push	-10.4388
▁pain	-10.439
▁Time	-10.4396
▁rising	-10.4402
▁desire	-10.441
▁Communications	-10.441
▁interview	-10.4413
▁hair	-10.4421
▁Yet	-10.4421
▁die	-10.4424
▁strict	-10.4426
▁integrate	-10.4436
terrorism	-10.4439
▁sort	-10.4439
▁WHO	-10.4441
▁Local	-10.4442
WG	-10.4448
▁1997,	-10.4452
▁detail	-10.4455
▁dealt	-10.4456
shi	-10.4458
▁shelter	-10.4459
▁couple	-10.4468
▁gone	-10.4471
jo	-10.4472
▁register	-10.4473
zi	-10.4473
▁page	-10.4482
▁relevance	-10.4482
▁substance	-10.4484
▁household	-10.4488
▁cha	-10.4495
▁prohibition	-10.4496
▁solid	-10.4498
ley	-10.4506
▁FAO	-10.4507
▁sports	-10.4509
▁transmit	-10.451
night	-10.4511
▁papers	-10.4517
▁deployed	-10.452
▁39.	-10.4521
▁fishing	-10.4521
ify	-10.4523
▁treat	-10.4536
▁experiment	-10.4539
▁fighting	-10.454
▁sell	-10.454
▁buildings	-10.454
LA	-10.4552
▁disposal	-10.4552
▁pleased	-10.4554
▁Counter	-10.4554
▁stocks	-10.4556
▁digital	-10.4556
▁removal	-10.4556
article	-10.4559
▁suitable	-10.456
▁Kyoto	-10.4565
▁charged	-10.4566
▁finding	-10.4567
OL	-10.4568
▁wood	-10.4575
▁Area	-10.458
▁judgement	-10.4582
▁intervention	-10.4585
▁watch	-10.4586
▁balanced	-10.4592
NA	-10.4596
▁farmers	-10.4599
▁Yemen	-10.4601
▁Mongolia	-10.461
▁touch	-10.461
rin	-10.461
78	-10.4613
▁spending	-10.4614
▁liberty	-10.4615
pri	-10.4615
▁tra	-10.4618
▁display	-10.4621
▁industries	-10.4621
04	-10.4624
▁withdrawal	-10.4626
sur	-10.4626
77	-10.4627
▁supports	-10.4628
▁Hungary	-10.4641
/63/	-10.4644
▁Fe	-10.4647
▁endeavour	-10.4647
head	-10.4651
fo	-10.4661
▁Among	-10.4662
74	-10.4664
▁metal	-10.4666
▁conducting	-10.4672
▁2011.	-10.4674
▁Standing	-10.4676
▁Shanghai	-10.4681
▁LDCs	-10.4684
▁Guide	-10.4685
62	-10.4688
▁Treatment	-10.4689
▁IT	-10.4691
conflict	-10.4692
▁bomb	-10.4695
▁Min	-10.4698
▁calling	-10.4707
▁1996,	-10.4708
▁input	-10.4712
▁ye	-10.4718
long	-10.4718
▁Shi	-10.4722
▁greatest	-10.4723
▁productivity	-10.4723
▁witnesses	-10.4724
▁properly	-10.4729
▁maternal	-10.4734
▁Strengthening	-10.474
▁Combat	-10.4745
87	-10.4745
▁huge	-10.4745
IP	-10.4746
▁barriers	-10.4749
▁68	-10.4754
▁index	-10.476
▁loans	-10.4761
89	-10.4762
▁inadequate	-10.4763
▁Welcomes	-10.4765
▁posed	-10.4767
▁*	-10.4768
ivity	-10.4769
mentioned	-10.4769
▁completely	-10.477
▁formulated	-10.4775
ident	-10.4776
72	-10.4777
▁5,	-10.4778
▁Excellency	-10.4784
EM	-10.4792
▁$	-10.4794
▁Who	-10.4801
▁reliable	-10.4802
▁discharge	-10.4809
▁Ocean	-10.4809
▁Turkish	-10.4814
dis	-10.4815
▁trip	-10.4816
85	-10.4817
07	-10.4818
▁Main	-10.482
▁41.	-10.482
▁UNOPS	-10.4821
▁League	-10.4823
▁university	-10.4823
▁accessible	-10.483
ane	-10.4831
▁airspace	-10.4834
table	-10.4834
▁lu	-10.4841
▁objects	-10.4841
▁wished	-10.4847
▁Ti	-10.4852
▁2004.	-10.4852
▁wider	-10.4859
▁models	-10.4859
▁Olympic	-10.4866
▁Wa	-10.4867
/10	-10.4867
▁Chad	-10.487
▁camps	-10.4873
ax	-10.4873
lay	-10.4881
▁transnational	-10.4882
ave	-10.4887
▁promoted	-10.4887
▁occur	-10.489
▁et	-10.4892
▁Bill	-10.4892
▁envisaged	-10.4894
▁successfully	-10.4896
▁Are	-10.4902
▁representing	-10.4905
▁struggle	-10.4905
▁died	-10.4905
▁interventions	-10.4905
▁legally	-10.4905
▁cease	-10.4906
▁rapidly	-10.4907
▁Reduction	-10.4908
Women	-10.4913
▁suggestions	-10.4913
▁finally	-10.4915
br	-10.4916
▁anyone	-10.4917
▁advancement	-10.4923
▁mobilize	-10.4925
▁fill	-10.4927
my	-10.4934
▁inventory	-10.4935
▁replace	-10.4936
▁acknowledge	-10.494
92	-10.4945
▁Once	-10.4947
▁frame	-10.4948
▁profit	-10.4949
▁crises	-10.4951
▁Peacebuilding	-10.4955
▁Gra	-10.4957
▁laid	-10.496
▁Nicaragua	-10.496
▁visited	-10.4961
income	-10.4965
▁Rome	-10.4966
▁healthy	-10.4967
▁vocational	-10.4969
▁newly	-10.4972
▁tu	-10.4973
OP	-10.4977
▁Oversight	-10.4978
CD	-10.4981
▁roles	-10.4981
▁competitive	-10.4984
til	-10.4987
▁summer	-10.4989
▁observe	-10.499
▁WTO	-10.4991
ez	-10.4992
rus	-10.4995
▁Armed	-10.4998
▁NPT	-10.5003
,200	-10.5009
▁engineering	-10.5012
▁suffer	-10.5012
▁translation	-10.5013
▁student	-10.5018
▁moved	-10.5019
▁Auditors	-10.5021
▁nutrition	-10.5022
XV	-10.5027
▁spend	-10.5031
▁dry	-10.5031
▁equivalent	-10.5034
TA	-10.5035
▁sections	-10.5046
▁leg	-10.5051
spoke	-10.5055
▁firms	-10.5055
mal	-10.5062
press	-10.5068
par	-10.5069
▁doctor	-10.5074
▁Take	-10.5075
▁patterns	-10.5076
▁Fifty	-10.5078
▁receipt	-10.5081
▁den	-10.5081
▁adverse	-10.5082
▁businesses	-10.5088
▁acknowledged	-10.5091
▁deaths	-10.5093
▁CD	-10.5096
▁(2004)	-10.5098
cal	-10.5099
▁40.	-10.51
▁ve	-10.5107
▁adopting	-10.5111
▁reaffirm	-10.5119
09	-10.5123
▁reserve	-10.5123
▁appropriation	-10.5127
▁1994,	-10.513
▁facility	-10.5133
▁resident	-10.5138
▁telephone	-10.5139
▁Libyan	-10.5141
▁Mauritius	-10.5145
▁incident	-10.5146
▁42.	-10.5151
ological	-10.5152
8,	-10.5152
ake	-10.5154
▁Col	-10.516
▁dedicated	-10.516
ica	-10.5161
▁motion	-10.5161
▁accident	-10.5169
▁Encourages	-10.5172
▁claimant	-10.5176
▁www	-10.5181
93	-10.5185
▁zones	-10.5187
▁skin	-10.5195
You	-10.5198
discrimination	-10.5199
▁cancer	-10.5203
CT	-10.521
5,	-10.5212
▁belonging	-10.5212
▁Euro	-10.5213
▁integral	-10.5214
▁Nevertheless	-10.5216
▁afford	-10.5216
▁Art	-10.5219
▁conventional	-10.522
06	-10.522
▁center	-10.522
▁Sc	-10.5227
ani	-10.5228
锛	-10.5228
▁prohibit	-10.5229
▁copy	-10.5234
▁uniform	-10.5234
▁degradation	-10.5235
▁win	-10.5235
▁director	-10.524
▁Sixth	-10.5242
▁Youth	-10.5247
▁Assessment	-10.5247
▁outreach	-10.5248
kh	-10.525
▁phenomenon	-10.525
▁43.	-10.5251
▁fees	-10.5269
▁bound	-10.5269
6,	-10.5278
▁prove	-10.5284
▁revenue	-10.5288
ert	-10.529
▁daughter	-10.5292
▁Slovenia	-10.5292
91	-10.5292
▁error	-10.5295
▁63	-10.5296
▁Three	-10.5297
▁Representatives	-10.53
▁devoted	-10.5301
▁coordinator	-10.5301
▁brain	-10.5305
▁homes	-10.5306
iff	-10.5308
▁prompt	-10.5312
▁perhaps	-10.5312
▁yesterday	-10.5318
▁toward	-10.532
▁Before	-10.5338
▁incorporated	-10.5338
▁dress	-10.5346
OR	-10.5346
76	-10.5351
▁Issues	-10.5352
▁sensitive	-10.5354
▁dollar	-10.5354
▁River	-10.536
▁Jamaica	-10.5361
www	-10.5361
▁Head	-10.5363
▁controlled	-10.5366
▁preserve	-10.537
list	-10.5377
van	-10.5381
▁devices	-10.5381
▁composed	-10.5383
▁voting	-10.5384
▁2012.	-10.5385
▁gains	-10.5386
ough	-10.5391
▁44.	-10.5394
▁species	-10.5395
▁noting	-10.5398
▁fi	-10.5399
▁$6	-10.5399
▁significance	-10.5402
▁appeals	-10.541
▁1989	-10.5419
ATION	-10.542
OC	-10.5425
▁generate	-10.543
▁cast	-10.5431
▁Cameroon	-10.5431
▁Faso	-10.5433
hood	-10.5442
▁circulated	-10.5445
:00	-10.5448
▁lasting	-10.5449
▁consumer	-10.5451
▁wo	-10.5458
sol	-10.5461
med	-10.5464
▁UNRWA	-10.5471
▁manufacturing	-10.5471
▁rejected	-10.5479
▁Cross	-10.5482
▁arbitration	-10.5485
Proliferation	-10.5485
▁confirm	-10.5494
▁feed	-10.55
▁Have	-10.5503
▁disappearance	-10.5504
vert	-10.5508
▁forums	-10.551
▁2003.	-10.5511
▁stood	-10.5511
/68/	-10.5511
/20	-10.5512
▁qu	-10.5516
▁appeared	-10.5516
▁estimate	-10.5519
part	-10.5521
hen	-10.5525
▁sets	-10.5526
▁Reaffirming	-10.5527
ole	-10.5533
CH	-10.5533
▁remedy	-10.5534
▁arm	-10.5535
▁myself	-10.5535
▁blue	-10.5537
uff	-10.5539
▁duration	-10.554
▁deeply	-10.554
▁mu	-10.5545
▁programs	-10.5548
▁retain	-10.555
▁budgets	-10.555
▁equally	-10.5554
right	-10.5554
▁rank	-10.5556
▁Road	-10.5562
▁married	-10.5563
▁(3)	-10.5563
▁Country	-10.5563
cer	-10.5566
▁Zambia	-10.5568
▁conviction	-10.5569
▁expresses	-10.5569
comm	-10.557
▁psychological	-10.5572
▁worse	-10.5572
▁flexible	-10.5574
▁85	-10.5576
▁allowing	-10.5577
cu	-10.5583
▁arrangement	-10.5584
▁continent	-10.5584
▁remove	-10.5586
▁feature	-10.5586
▁Wi	-10.5587
▁Ku	-10.5589
▁allows	-10.559
nic	-10.5592
los	-10.5592
ye	-10.5593
▁appreciate	-10.5594
▁fruit	-10.5595
▁playing	-10.5596
▁78	-10.5599
▁commend	-10.56
▁murder	-10.5601
ash	-10.5602
▁drew	-10.5604
▁Adviser	-10.561
▁intolerance	-10.5613
▁qualified	-10.5613
▁Urges	-10.5614
▁preparations	-10.5615
like	-10.5615
▁agents	-10.5617
▁Center	-10.5622
sum	-10.5624
und	-10.5625
94	-10.5628
▁applying	-10.5628
▁copies	-10.5629
pha	-10.5629
▁Lithuania	-10.5632
▁formation	-10.5634
zz	-10.5635
SC	-10.5635
▁66	-10.5637
ara	-10.5639
TS	-10.564
▁residents	-10.5645
rupt	-10.5648
▁injury	-10.5657
▁marked	-10.5658
▁reiterates	-10.5659
▁Guidelines	-10.5663
▁missile	-10.5663
car	-10.5664
▁negotiation	-10.5672
▁drink	-10.5674
struct	-10.5676
▁bridge	-10.5677
–	-10.5678
▁Pat	-10.5683
▁45.	-10.5684
▁movements	-10.5684
hr	-10.5684
how	-10.5688
9,	-10.5689
GE	-10.569
▁frequently	-10.569
nu	-10.569
mount	-10.5693
▁cat	-10.5695
▁Montenegro	-10.5697
▁incorporate	-10.5699
▁wage	-10.57
ope	-10.5702
▁award	-10.5702
▁households	-10.5704
▁GDP	-10.5706
are	-10.5706
cious	-10.5707
▁guaranteed	-10.5711
▁load	-10.5713
sha	-10.5713
.1,	-10.5713
▁Racial	-10.5717
▁tree	-10.572
ili	-10.5721
▁transform	-10.5723
▁genuine	-10.5724
ties	-10.5725
▁signature	-10.5732
▁briefing	-10.5732
▁flexibility	-10.5733
▁Pursuant	-10.5735
▁mention	-10.5739
▁displacement	-10.5739
▁ministries	-10.5739
▁Employment	-10.5744
▁reaching	-10.5745
▁covers	-10.5748
▁stages	-10.5749
arm	-10.575
teen	-10.5752
ama	-10.5764
ero	-10.5766
▁Macedonia	-10.5766
▁kinds	-10.5767
▁urge	-10.5768
keeping	-10.577
▁attain	-10.577
▁dark	-10.5772
▁Viet	-10.5775
▁Defence	-10.5782
sharing	-10.5784
Bissau	-10.5786
▁acceptable	-10.5787
▁1993,	-10.5787
▁begun	-10.5789
▁customers	-10.579
▁Mine	-10.5794
mission	-10.5798
▁Recommendation	-10.5805
ctor	-10.5805
ky	-10.5807
▁presidential	-10.5811
▁Occupied	-10.5818
ories	-10.582
▁leader	-10.5821
▁refers	-10.5822
▁46.	-10.5825
back	-10.5829
▁claimed	-10.5834
rk	-10.5834
gra	-10.5837
rim	-10.584
▁carefully	-10.5842
▁tomorrow	-10.5847
▁compound	-10.5848
▁style	-10.5849
▁sixth	-10.585
▁listen	-10.5853
▁route	-10.5853
▁combination	-10.5854
▁plants	-10.586
▁Annual	-10.5864
▁Session	-10.5864
▁recognizing	-10.5868
83	-10.5873
▁peacebuilding	-10.5875
▁1980	-10.5877
▁su	-10.5878
▁accession	-10.5878
▁Progress	-10.5879
▁pool	-10.5879
▁strike	-10.588
▁sit	-10.5885
▁Here	-10.5888
▁chair	-10.5889
▁photo	-10.589
▁brief	-10.5894
▁possess	-10.5894
▁Trafficking	-10.5895
,600	-10.5898
▁Judge	-10.5899
▁nu	-10.5899
▁defend	-10.5905
▁determining	-10.5913
▁Roma	-10.5913
▁separation	-10.5914
▁quick	-10.5916
▁park	-10.5916
▁mistake	-10.5924
▁offering	-10.5931
▁proceed	-10.5932
69	-10.5936
▁TO	-10.5941
ome	-10.5942
▁square	-10.5945
▁powerful	-10.5946
▁promise	-10.5946
▁mitigation	-10.595
▁pose	-10.5952
▁proved	-10.5957
▁Data	-10.5961
▁ministerial	-10.5962
▁borders	-10.5964
▁ordinary	-10.5964
gar	-10.5971
▁manager	-10.5972
▁understood	-10.5973
don	-10.5974
▁2008-2009	-10.5975
▁Contract	-10.5979
▁Burkina	-10.598
ject	-10.5983
▁mercury	-10.5992
▁—	-10.5992
▁lawyers	-10.5992
arch	-10.6
month	-10.6002
▁Province	-10.6003
▁hundred	-10.6005
ET	-10.6006
dict	-10.6007
▁flood	-10.6009
▁manual	-10.6013
▁assumption	-10.6013
▁custody	-10.6014
▁volunteer	-10.6014
▁camp	-10.6016
@	-10.6017
▁certainly	-10.6019
▁machinery	-10.6021
▁northern	-10.6028
▁requiring	-10.6033
▁alien	-10.6034
,400	-10.604
▁assume	-10.6052
▁airport	-10.6053
▁juvenile	-10.6053
▁driver	-10.6054
mic	-10.6054
▁infection	-10.6057
tel	-10.6057
ok	-10.6058
,800	-10.6064
▁Statement	-10.6066
▁coastal	-10.607
82	-10.6072
▁feeling	-10.6075
▁Industrial	-10.6077
73	-10.6077
▁extradition	-10.6078
▁newspaper	-10.6078
book	-10.6079
▁biennial	-10.6084
ographic	-10.6084
▁measurement	-10.6085
▁requesting	-10.6085
▁Tom	-10.6085
TC	-10.6088
▁adequately	-10.609
▁Heads	-10.6092
▁grateful	-10.6095
uk	-10.6097
▁description	-10.6098
▁Consideration	-10.6099
▁prejudice	-10.6104
▁happened	-10.6104
▁progressive	-10.6105
/67/	-10.6107
/53/	-10.6107
▁2002.	-10.6115
▁managing	-10.6118
rib	-10.612
tive	-10.6121
▁flu	-10.6124
▁appoint	-10.6126
▁impossible	-10.6127
Pro	-10.6128
▁labor	-10.6133
▁Access	-10.6135
▁Evaluation	-10.6137
▁professionals	-10.6138
▁via	-10.614
▁(2001)	-10.614
pp	-10.6143
SS	-10.6143
with	-10.6144
well	-10.6147
84	-10.6148
cess	-10.6151
▁becomes	-10.6151
▁provinces	-10.6151
▁protest	-10.6156
▁Green	-10.6157
▁fresh	-10.6157
/11	-10.6158
▁gun	-10.6166
▁relationships	-10.6167
▁prefer	-10.6168
▁Tu	-10.6169
EL	-10.617
▁intelligence	-10.617
▁1988	-10.6172
▁protocol	-10.6175
▁exposure	-10.6177
▁ball	-10.6178
lation	-10.6188
▁properties	-10.6189
▁periods	-10.6194
He	-10.6197
fin	-10.6197
.10	-10.62
▁ON	-10.6201
▁98	-10.6203
▁1995,	-10.6207
▁discriminatory	-10.6211
▁59	-10.6216
▁transmission	-10.6216
▁sovereign	-10.6219
▁conjunction	-10.6223
▁decides	-10.6228
▁exceed	-10.6229
▁commended	-10.623
á	-10.6234
▁demobilization	-10.6236
▁47.	-10.6243
lock	-10.6247
▁79	-10.6249
dition	-10.625
▁Washington	-10.6255
▁aggression	-10.6255
▁memory	-10.6259
▁accurate	-10.6265
▁Case	-10.627
▁NGO	-10.6271
she	-10.6273
▁distinction	-10.6274
▁Panama	-10.6274
▁da	-10.6276
▁rec	-10.6281
▁Ter	-10.6289
▁UNCITRAL	-10.6291
▁distance	-10.6291
▁Audit	-10.6297
▁CO	-10.6304
▁shop	-10.6306
oo	-10.6311
▁sphere	-10.6312
▁procedural	-10.6313
fu	-10.6315
▁81	-10.6322
contributing	-10.6322
fr	-10.6324
▁Che	-10.6325
ek	-10.633
▁outputs	-10.6334
▁expanding	-10.6334
▁aspect	-10.6337
86	-10.6338
▁investigated	-10.6344
▁adjustments	-10.6346
▁Moldova	-10.6346
▁patrol	-10.6353
▁vast	-10.6355
air	-10.6355
IA	-10.6355
▁Rio	-10.6362
▁fisheries	-10.6362
▁sponsors	-10.6365
79	-10.6366
▁2014,	-10.6369
▁detainees	-10.6369
AD	-10.6372
▁n	-10.6374
▁Fu	-10.6374
▁Developed	-10.6375
je	-10.6381
▁maritime	-10.6382
▁Study	-10.6384
▁projected	-10.639
▁Trans	-10.639
▁hotel	-10.639
rist	-10.6394
▁rock	-10.6395
▁Provisional	-10.6399
▁spot	-10.6402
▁ob	-10.6409
war	-10.6413
▁67	-10.6415
▁Si	-10.6419
▁violent	-10.6424
▁recalls	-10.6432
▁Estonia	-10.6439
▁yield	-10.6441
▁ideal	-10.6441
▁Slovakia	-10.6443
▁rational	-10.6443
yn	-10.6446
itation	-10.6454
▁Acting	-10.6457
▁Equal	-10.6458
▁guy	-10.6459
▁deadline	-10.646
▁Inspection	-10.6465
▁belong	-10.6465
▁subparagraph	-10.6465
▁Drug	-10.647
nan	-10.6472
▁overview	-10.6478
▁outline	-10.6478
▁assisted	-10.6482
▁Zimbabwe	-10.6489
61	-10.649
gro	-10.6491
/6	-10.6493
▁spring	-10.6494
▁($1	-10.6495
▁Ben	-10.6495
▁invite	-10.6495
▁glass	-10.6497
▁financed	-10.6498
▁ta	-10.6499
▁tenth	-10.6505
▁Similarly	-10.6506
▁reaction	-10.6506
mun	-10.6508
laundering	-10.6517
CRP	-10.6521
▁log	-10.6521
▁sustain	-10.6522
▁king	-10.6527
▁heading	-10.653
▁RE	-10.6531
▁49.	-10.6532
▁forests	-10.6536
▁steel	-10.6538
▁collected	-10.6541
▁biodiversity	-10.6542
▁Uzbekistan	-10.6542
,300	-10.6547
▁2010-2011	-10.6552
▁Pi	-10.6552
▁ran	-10.6554
▁impose	-10.6554
▁transaction	-10.6558
▁Within	-10.6558
▁consolidation	-10.6563
▁Latvia	-10.6563
east	-10.6564
▁breach	-10.6569
▁mar	-10.6576
▁Doha	-10.6576
IF	-10.6577
▁union	-10.6578
▁comparison	-10.658
▁relate	-10.658
▁48.	-10.6581
▁denied	-10.6588
SO	-10.6591
▁repatriation	-10.6597
▁transformation	-10.6598
▁hunger	-10.6601
Leste	-10.6603
ney	-10.6604
board	-10.6605
▁journalists	-10.6614
▁consolidated	-10.6614
▁tolerance	-10.6616
position	-10.6621
▁capable	-10.6624
▁Constitutional	-10.6625
▁applies	-10.6626
▁medicine	-10.6627
▁2000.	-10.663
▁$7	-10.6632
PO	-10.6632
/15	-10.6635
▁schemes	-10.6641
▁Takes	-10.6642
▁regards	-10.6642
▁oral	-10.6645
▁excessive	-10.6648
▁82	-10.6649
▁Delegations	-10.6651
▁hazardous	-10.6655
▁signing	-10.6656
ets	-10.6658
▁discipline	-10.6662
CRC	-10.6663
▁symbol	-10.6663
▁dimension	-10.6664
▁thanks	-10.6665
cus	-10.6667
▁TV	-10.6667
▁handle	-10.667
▁Resource	-10.667
▁intensify	-10.6672
▁grass	-10.6674
▁Yugoslav	-10.6677
ku	-10.6686
▁missing	-10.6688
house	-10.6692
▁95	-10.6695
ony	-10.6707
▁reviewing	-10.6718
▁cells	-10.6723
▁filed	-10.6731
ular	-10.6733
President	-10.6735
▁sister	-10.6737
▁capability	-10.6743
▁Mor	-10.6747
▁Te	-10.6748
▁forecast	-10.675
rum	-10.6757
▁accountable	-10.6759
SI	-10.6761
national	-10.6761
7/	-10.6764
▁detect	-10.6765
▁arrived	-10.6771
▁harmful	-10.6774
▁Com	-10.6784
▁infant	-10.6784
▁administering	-10.6788
test	-10.6789
▁summit	-10.679
ob	-10.6791
▁clarify	-10.6791
▁entering	-10.6793
▁Mozambique	-10.6795
.12	-10.68
▁kill	-10.6802
▁observation	-10.6803
▁province	-10.6805
▁concentration	-10.6806
▁unto	-10.6808
▁cap	-10.6818
▁reserves	-10.6821
ik	-10.6822
COP	-10.6827
▁y	-10.6827
▁exploration	-10.6831
▁aged	-10.6833
▁Penal	-10.684
body	-10.6841
▁Albania	-10.6844
arian	-10.6852
▁excellent	-10.6861
▁closer	-10.6865
▁Malta	-10.6869
▁formulate	-10.6872
▁electricity	-10.6873
▁87	-10.6876
lam	-10.6877
▁branch	-10.6878
0%	-10.6881
▁?	-10.6882
▁pertaining	-10.6885
▁regardless	-10.6889
wing	-10.689
ino	-10.6892
▁transmitting	-10.6894
▁stronger	-10.6896
lip	-10.6898
97	-10.6901
▁51.	-10.6907
▁Educational	-10.6908
tim	-10.691
▁behavior	-10.6912
lect	-10.6913
iti	-10.6917
▁handling	-10.6918
uch	-10.6918
▁harassment	-10.692
▁annually	-10.6923
▁comprising	-10.6925
▁mostly	-10.6935
▁municipal	-10.6937
run	-10.6939
▁dependent	-10.6939
▁Procurement	-10.694
fully	-10.6943
pon	-10.6943
▁meant	-10.6944
▁Invites	-10.6944
▁replaced	-10.6948
▁banking	-10.6949
▁assignment	-10.6952
called	-10.6961
▁witness	-10.6964
▁profile	-10.6967
▁generated	-10.6969
▁grade	-10.697
tting	-10.6972
▁Muslim	-10.6977
▁universities	-10.6981
,700	-10.6983
▁analytical	-10.6983
▁pick	-10.6987
▁renewed	-10.699
▁Benin	-10.6991
▁Poverty	-10.6994
▁soft	-10.6997
▁liabilities	-10.7005
▁guard	-10.7006
ray	-10.701
ture	-10.7014
rous	-10.7015
▁(2006)	-10.7017
bel	-10.7019
▁scene	-10.7019
▁sick	-10.7019
▁Iceland	-10.7022
▁customary	-10.7034
▁enforced	-10.7034
▁constant	-10.7035
▁seeks	-10.7043
/54/	-10.7044
▁neighbouring	-10.7047
▁accelerate	-10.705
aving	-10.7054
▁Fo	-10.7056
▁Out	-10.7057
▁shock	-10.7059
▁coherent	-10.706
▁derived	-10.706
▁constituted	-10.7061
▁52.	-10.7062
ending	-10.7064
▁commodities	-10.7066
ches	-10.7066
▁statute	-10.7066
av	-10.7068
▁ST	-10.7071
▁spoke	-10.7072
effective	-10.708
oon	-10.7082
▁Ste	-10.7084
▁undermine	-10.7085
▁responded	-10.7089
▁assembly	-10.7094
▁reportedly	-10.7095
▁sat	-10.7097
▁smooth	-10.71
▁83	-10.7102
▁approve	-10.7103
▁license	-10.7104
▁Provide	-10.7104
CB	-10.711
▁Exp	-10.7113
gue	-10.7113
▁feet	-10.7114
▁seized	-10.7115
app	-10.7118
▁transitional	-10.7125
▁Palestinians	-10.7131
▁ammunition	-10.7132
▁acid	-10.7132
▁biggest	-10.7134
▁bottom	-10.7135
▁Lake	-10.7135
81	-10.7137
▁Army	-10.7138
▁88	-10.7139
▁Practice	-10.7139
▁Tra	-10.714
▁Tajikistan	-10.7142
▁drinking	-10.7143
▁destroyed	-10.7144
▁assessing	-10.7145
▁inhuman	-10.7146
▁autonomous	-10.7148
illa	-10.7148
▁issuance	-10.7149
▁Analysis	-10.715
py	-10.7152
▁Sixty	-10.7153
▁84	-10.7156
▁resolved	-10.7156
▁stresses	-10.7156
▁reflecting	-10.7158
▁Survey	-10.7159
▁accordingly	-10.7163
▁parallel	-10.7163
▁Cha	-10.7164
▁incurred	-10.7166
▁piece	-10.7167
▁hydro	-10.7171
▁Dominican	-10.7174
▁Estimate	-10.7174
uri	-10.7183
▁transfers	-10.7184
▁Ali	-10.7187
▁Emirates	-10.7189
▁Paul	-10.7189
put	-10.7191
▁recipient	-10.7192
pping	-10.7195
▁catch	-10.7195
▁submissions	-10.7196
▁2001.	-10.7201
▁Arms	-10.7201
▁exclusion	-10.7201
▁Life	-10.7212
claim	-10.7213
▁considerations	-10.7213
▁Transitional	-10.7218
▁select	-10.7218
▁Greek	-10.7219
To	-10.722
▁seat	-10.7223
71	-10.7223
▁surveys	-10.7226
▁86	-10.7226
dom	-10.7228
▁citizen	-10.7228
▁securities	-10.7229
bre	-10.7229
▁vacancy	-10.7242
▁attributable	-10.7245
▁adult	-10.7245
▁2006-2007	-10.7248
▁lived	-10.7249
▁environmentally	-10.7258
▁Chi	-10.726
▁device	-10.7261
flow	-10.7262
▁sold	-10.7263
bin	-10.7264
▁Prohibition	-10.7266
▁baby	-10.7268
▁gradually	-10.727
▁consultants	-10.727
▁Nor	-10.7271
▁minor	-10.7271
")	-10.7276
▁accommodation	-10.7276
▁instructions	-10.728
▁tests	-10.7287
▁narrow	-10.729
hor	-10.729
▁quota	-10.7293
Commission	-10.7295
▁finds	-10.7295
▁inputs	-10.7312
▁extrabudgetary	-10.7319
rie	-10.7323
ense	-10.7328
▁borrow	-10.7333
▁employers	-10.7333
▁Standard	-10.7333
▁animals	-10.7333
cont	-10.7338
▁cruel	-10.7338
▁wants	-10.7339
▁convey	-10.734
▁thousand	-10.7341
CS	-10.7342
▁enforce	-10.7344
▁module	-10.7345
▁thereof	-10.7348
▁rely	-10.735
▁consists	-10.7352
▁Miss	-10.7352
▁talking	-10.7352
▁none	-10.7353
▁entail	-10.7357
▁instances	-10.7359
▁Relations	-10.736
▁97	-10.7363
▁atmosphere	-10.7365
▁53.	-10.7367
rog	-10.7369
▁defenders	-10.7372
▁prospects	-10.7372
▁allegedly	-10.7374
▁Multi	-10.7377
▁meaningful	-10.7377
▁500	-10.7379
▁questionnaire	-10.7381
▁restricted	-10.7381
▁dimensions	-10.7382
▁prescribed	-10.7383
▁facilitation	-10.7385
▁50.	-10.7387
▁brand	-10.7389
▁sport	-10.7389
▁Least	-10.739
▁certificate	-10.7391
▁Regarding	-10.7392
▁earthquake	-10.7394
▁ocean	-10.7394
▁alternatives	-10.7395
▁App	-10.7398
▁delays	-10.7404
▁underlying	-10.7404
▁2013.	-10.7409
▁lies	-10.741
▁Senior	-10.7413
▁willing	-10.7413
▁distinct	-10.7414
▁depends	-10.7416
▁gift	-10.7416
▁pursued	-10.7418
▁je	-10.742
/55/	-10.7423
▁xenophobia	-10.7423
▁Namibia	-10.7427
mate	-10.743
▁suggests	-10.7431
▁sa	-10.7435
▁contractual	-10.7435
▁subregion	-10.7439
▁animal	-10.7441
vol	-10.7442
▁inequality	-10.7444
▁Outer	-10.7446
▁Disabilities	-10.7453
▁exists	-10.7454
▁providers	-10.7455
▁warrant	-10.7456
▁Bra	-10.746
▁300	-10.746
▁120	-10.7461
▁Street	-10.7462
▁renewable	-10.7462
▁Ri	-10.7463
▁linkages	-10.7464
▁(20	-10.7468
▁Obama	-10.7468
▁cor	-10.7469
▁hum	-10.747
▁eligible	-10.7472
▁memorandum	-10.7473
.15	-10.7475
▁pace	-10.7477
▁mutually	-10.7481
▁regarded	-10.7484
▁marketing	-10.7484
field	-10.7488
▁clarification	-10.7489
▁convinced	-10.7493
▁Basic	-10.7493
▁Customs	-10.7493
▁Organized	-10.7493
▁monetary	-10.7497
DC	-10.7508
▁gonna	-10.7515
▁elect	-10.7519
▁safeguard	-10.7519
▁waiting	-10.7521
ali	-10.7525
▁sal	-10.7526
▁persistent	-10.7526
ees	-10.7532
▁boost	-10.7532
▁trees	-10.7534
▁coal	-10.7536
▁correction	-10.7536
/1999/	-10.7537
▁expectations	-10.7537
ook	-10.7539
▁Ban	-10.7541
▁lawyer	-10.7543
▁necessity	-10.7544
▁wastes	-10.7547
take	-10.7551
oma	-10.7551
▁parameters	-10.7558
▁Target	-10.7559
▁pen	-10.7564
▁ending	-10.7565
law	-10.7565
▁99	-10.7567
▁lie	-10.7567
▁anticipated	-10.7576
▁disseminate	-10.7576
▁evening	-10.7576
▁Paraguay	-10.7577
▁propose	-10.7581
▁CEDAW	-10.7582
▁smaller	-10.7587
▁amounted	-10.7588
▁realized	-10.7588
▁organizing	-10.7589
▁Luxembourg	-10.7592
▁enhancement	-10.7596
▁engine	-10.7597
▁restructuring	-10.7599
▁negotiating	-10.76
ement	-10.76
▁Medical	-10.7601
▁Basel	-10.7612
▁prop	-10.7612
▁spouse	-10.7613
▁Statements	-10.7615
ising	-10.7615
▁mainstream	-10.7616
▁shot	-10.7621
▁VIII	-10.7622
▁Legislative	-10.7625
MI	-10.7629
▁Korean	-10.7636
▁lists	-10.7639
▁Emergency	-10.764
▁incentives	-10.7641
▁indication	-10.7642
▁accompanied	-10.7645
▁Company	-10.7646
▁grants	-10.7649
▁Games	-10.765
▁Sector	-10.7652
graph	-10.7653
nal	-10.7659
service	-10.767
▁boat	-10.767
▁Ordinance	-10.7672
▁stone	-10.7673
▁54.	-10.7678
▁classification	-10.7679
/2002/	-10.7679
some	-10.768
▁Bahrain	-10.7684
▁facilitated	-10.7684
://	-10.7684
▁wear	-10.7687
▁demonstration	-10.769
rap	-10.7699
▁geo	-10.7699
▁Jamahiriya	-10.7701
▁merely	-10.7703
▁Port	-10.771
▁poll	-10.7712
▁resort	-10.7718
▁Ser	-10.7718
post	-10.7719
Self	-10.7719
▁removed	-10.772
▁consult	-10.772
▁Look	-10.7723
▁compulsory	-10.7723
▁refused	-10.7724
/52/	-10.7725
▁attempts	-10.7726
▁drought	-10.7728
▁Appeals	-10.7729
og	-10.7731
▁spare	-10.7731
▁channel	-10.7732
▁diamond	-10.7734
▁Narcotic	-10.7736
yl	-10.774
ancy	-10.7741
▁council	-10.7744
▁deemed	-10.7749
▁divided	-10.7751
IV	-10.7752
▁contrast	-10.7753
▁falling	-10.7754
▁clause	-10.7754
▁Source	-10.7756
INF	-10.7757
▁sentenced	-10.7757
VI	-10.7762
ele	-10.7765
▁flag	-10.7769
▁licence	-10.7771
▁Investigation	-10.7775
▁liaison	-10.7775
▁chap	-10.7776
▁Fi	-10.7782
▁Kar	-10.7791
▁researchers	-10.7792
▁possession	-10.7796
▁55.	-10.7798
▁92	-10.7799
Terrorism	-10.7799
ography	-10.7799
▁Sahara	-10.7806
▁scientists	-10.7806
American	-10.7807
▁loan	-10.781
▁David	-10.7815
▁heritage	-10.7817
▁holiday	-10.7819
lat	-10.7819
▁Han	-10.782
Governing	-10.7821
lie	-10.7828
▁limitations	-10.7832
▁balances	-10.7833
▁Migration	-10.7836
oth	-10.7838
▁advantages	-10.784
▁customer	-10.7844
▁filled	-10.7844
▁Will	-10.7847
▁agent	-10.7849
▁eastern	-10.7852
▁Sam	-10.7858
▁Disaster	-10.7859
▁notably	-10.7864
▁afternoon	-10.7864
▁deprived	-10.7867
▁shares	-10.7868
▁1999.	-10.7871
▁freely	-10.7873
lly	-10.7876
▁difficulty	-10.7879
-2015	-10.7882
gon	-10.7887
▁elderly	-10.7887
▁Effective	-10.7893
▁mineral	-10.7898
▁2012-2013	-10.79
titu	-10.7906
/2000/	-10.7907
/7	-10.791
▁reinforce	-10.7911
▁hopes	-10.7912
▁western	-10.7912
▁gained	-10.7913
▁forget	-10.7922
▁graduate	-10.7924
▁Conduct	-10.7928
▁offset	-10.7934
▁sight	-10.7935
/12	-10.7936
▁Ji	-10.794
ender	-10.794
▁unlawful	-10.7944
nce	-10.7952
▁compromise	-10.7956
▁89	-10.7956
▁bright	-10.796
▁introducing	-10.7961
▁players	-10.7962
rat	-10.7963
▁mouth	-10.7964
▁replacement	-10.7967
▁conducive	-10.7968
▁orientation	-10.7973
▁harmonization	-10.7976
CONF	-10.7977
▁deficit	-10.798
▁argue	-10.7982
▁King	-10.7982
▁subjects	-10.7986
PS	-10.7986
▁provincial	-10.7987
▁driving	-10.7995
▁motor	-10.7999
▁weapon	-10.8002
▁tackle	-10.8004
▁Conclusion	-10.8005
▁cool	-10.8009
,900	-10.8014
DI	-10.8014
miss	-10.8015
▁Park	-10.8021
,100	-10.8026
▁movie	-10.8029
vy	-10.8033
▁"(	-10.8035
▁Upon	-10.8035
▁killing	-10.8039
▁Cre	-10.8039
▁withdraw	-10.804
Con	-10.804
sign	-10.8043
▁injured	-10.8044
▁interpret	-10.8047
▁91	-10.8048
▁producing	-10.805
▁93	-10.8052
▁responding	-10.8053
▁Consequently	-10.8057
▁56.	-10.8058
▁houses	-10.8059
DA	-10.8061
▁garden	-10.8065
▁employ	-10.8067
ene	-10.8067
▁seventh	-10.8074
▁County	-10.8076
▁candidate	-10.808
IM	-10.808
win	-10.8081
▁Ke	-10.8086
LE	-10.8088
▁Settlements	-10.8091
▁Kh	-10.8092
▁confront	-10.8094
▁mothers	-10.8097
▁ordered	-10.8097
Pacific	-10.8104
inal	-10.8106
▁respected	-10.8107
nn	-10.8113
▁permitted	-10.8113
▁contacts	-10.8116
▁destroy	-10.8118
▁Reform	-10.8127
▁famous	-10.8127
IR	-10.8129
▁concepts	-10.8129
cha	-10.8131
Ma	-10.8132
▁exchanges	-10.8132
fl	-10.8144
▁Ombudsman	-10.8145
▁landlocked	-10.8147
zo	-10.8149
▁fashion	-10.815
▁par	-10.8154
▁twice	-10.8154
▁emphasize	-10.8156
TER	-10.8157
▁(2005)	-10.8158
▁buyer	-10.816
▁fraud	-10.8161
▁exceptional	-10.8162
▁client	-10.8162
▁opinions	-10.8165
▁occupying	-10.8169
▁adults	-10.817
▁comparative	-10.8171
▁cla	-10.8177
vic	-10.8179
▁pregnancy	-10.8182
▁authorization	-10.8182
▁frequency	-10.8184
▁2004-2005	-10.8193
eth	-10.8198
MIN	-10.8202
▁ratify	-10.8203
▁ancient	-10.8213
down	-10.8214
▁connected	-10.8216
▁consumers	-10.8217
▁thereto	-10.8222
▁Interim	-10.8223
▁Montreal	-10.8224
▁overseas	-10.8227
▁interactive	-10.8232
▁proof	-10.8233
place	-10.8234
vid	-10.8236
▁closure	-10.8237
▁tail	-10.824
▁evaluations	-10.824
▁terrorists	-10.8241
▁strictly	-10.8242
duction	-10.8242
▁Long	-10.8245
▁Former	-10.8249
▁cook	-10.825
▁involves	-10.8252
▁consist	-10.8252
▁planet	-10.8257
▁unity	-10.8257
▁putting	-10.8258
▁attitude	-10.8259
▁sky	-10.8266
cap	-10.8269
▁quo	-10.8271
BC	-10.8274
ami	-10.8275
▁Togo	-10.8277
▁detection	-10.8283
oph	-10.8286
▁immigration	-10.8287
▁Je	-10.8289
▁relates	-10.829
ache	-10.8294
▁Ensure	-10.8298
ians	-10.8303
▁clients	-10.8304
▁whatever	-10.8308
▁portion	-10.8313
▁sharp	-10.8315
▁Capacity	-10.8316
▁College	-10.8316
▁politics	-10.8318
▁Christian	-10.8319
▁Voluntary	-10.8322
▁com	-10.8323
▁telecommunicati	-10.8329
▁Tri	-10.8329
▁destination	-10.833
▁Alliance	-10.8332
▁desertification	-10.8335
▁%	-10.8344
▁normally	-10.8345
▁Lao	-10.8347
▁horse	-10.8352
▁Figure	-10.8353
▁truly	-10.8353
▁Regulation	-10.8355
▁adjust	-10.8356
▁quantity	-10.8359
▁Sir	-10.8359
▁continuation	-10.8359
▁declare	-10.836
/24	-10.8361
▁diverse	-10.8363
5%	-10.8365
▁$8	-10.8365
aire	-10.837
▁96	-10.8371
▁battle	-10.8372
▁deserve	-10.8372
▁comm	-10.8375
▁algorithm	-10.8377
De	-10.8384
▁massive	-10.8387
▁audience	-10.8389
▁invites	-10.839
▁Wal	-10.8402
▁mandatory	-10.8403
▁insist	-10.8404
2).	-10.8404
▁wi	-10.8405
▁parent	-10.8405
▁consequence	-10.8409
meter	-10.8409
▁burn	-10.841
▁Honduras	-10.841
▁pregnant	-10.8414
▁Contents	-10.8415
▁dec	-10.8418
▁clearance	-10.8419
▁iron	-10.8421
hand	-10.8421
▁clothes	-10.8423
▁escape	-10.8424
AF	-10.8425
▁friendly	-10.8428
▁57.	-10.8431
▁acquired	-10.8432
▁94	-10.8439
▁fulfilment	-10.8442
▁presents	-10.8444
NLB	-10.8445
/2003/	-10.845
▁Reaffirms	-10.8453
▁Gar	-10.8454
ala	-10.8458
read	-10.8461
▁advances	-10.8465
▁(4)	-10.8468
yo	-10.8471
▁plays	-10.8472
▁acquire	-10.8473
▁habit	-10.8476
1).	-10.8477
▁Decree	-10.8477
▁wh	-10.8483
▁Recommendations	-10.8483
▁calculation	-10.8483
▁imperative	-10.8485
▁pack	-10.8486
chan	-10.8486
▁Meanwhile	-10.849
▁IPSAS	-10.8496
▁macroeconomic	-10.8497
MS	-10.8501
▁exploit	-10.8511
▁Djibouti	-10.8513
▁Transnational	-10.8515
▁regret	-10.8518
▁Last	-10.8526
▁mobility	-10.8527
▁layer	-10.8528
▁reimbursement	-10.8528
▁accomplishments	-10.8535
atic	-10.854
nov	-10.8548
▁Order	-10.8548
▁thereon	-10.8557
▁invasion	-10.8557
rid	-10.8561
/2006/	-10.8564
▁bid	-10.8564
pol	-10.8564
▁resistance	-10.8567
▁smile	-10.8568
▁speaker	-10.8568
regional	-10.8568
▁declarations	-10.8571
▁Statistical	-10.8572
▁prosperity	-10.8572
▁necessarily	-10.8574
▁render	-10.8576
▁sheet	-10.858
▁suspect	-10.858
▁tables	-10.8582
▁replies	-10.8585
▁58.	-10.8585
▁crowd	-10.8588
bit	-10.8588
▁broken	-10.8598
▁fan	-10.8601
▁worry	-10.8604
▁Standards	-10.8614
▁Without	-10.8614
▁(212)	-10.8618
ogen	-10.8619
▁Tax	-10.8619
▁talent	-10.862
▁decent	-10.8625
▁parliament	-10.8631
▁competitiveness	-10.8632
▁causing	-10.8633
▁genocide	-10.8634
▁GEF	-10.8634
lum	-10.8636
MA	-10.8639
▁hospitals	-10.8641
▁supplementary	-10.8643
▁showing	-10.8644
▁elaboration	-10.8646
/21	-10.8647
▁colour	-10.8651
▁laugh	-10.8657
▁Against	-10.8658
plan	-10.8659
▁op	-10.8661
▁Hi	-10.8665
▁stipulated	-10.8665
▁advocate	-10.8667
▁hurt	-10.8668
▁Prevent	-10.8668
TH	-10.867
ked	-10.8674
border	-10.8677
▁ESCAP	-10.8678
▁sin	-10.8682
▁logistical	-10.8684
▁jump	-10.8685
▁Studies	-10.8687
▁suspected	-10.8687
▁disclosure	-10.8697
▁59.	-10.87
▁recruit	-10.8702
▁tea	-10.871
isation	-10.8713
▁Dialogue	-10.8714
í	-10.8716
▁Australian	-10.8718
/8	-10.8726
ump	-10.873
▁evolution	-10.8731
▁careful	-10.8735
depth	-10.8738
▁Design	-10.8739
▁abortion	-10.8739
▁Terrorism	-10.8739
▁Between	-10.8741
▁afraid	-10.8742
▁sorry	-10.8745
ution	-10.8748
TION	-10.8749
▁Common	-10.8751
▁votes	-10.8752
▁Industry	-10.8757
▁tank	-10.8757
▁Journal	-10.8758
▁convening	-10.8758
▁false	-10.8761
▁Liechtenstein	-10.8767
lon	-10.8768
▁Ve	-10.8768
▁citizenship	-10.8769
▁Participation	-10.8771
▁literacy	-10.8775
fect	-10.8775
▁throw	-10.878
ban	-10.878
▁Branch	-10.8787
▁Freedom	-10.8788
▁nice	-10.8788
Signed	-10.8792
▁Ber	-10.8795
▁breath	-10.8802
▁Pension	-10.8805
minate	-10.881
▁WFP	-10.8811
▁Welcoming	-10.8813
`	-10.8816
▁Ham	-10.8817
▁reveal	-10.8819
▁song	-10.8826
▁Property	-10.8828
▁Za	-10.8833
burg	-10.8833
▁Ver	-10.8834
ida	-10.8836
▁Press	-10.8838
▁963	-10.8841
yan	-10.8845
▁villages	-10.8849
▁argument	-10.885
▁carrier	-10.8852
▁Directorate	-10.8858
WP	-10.8858
▁assumed	-10.8863
.9/	-10.8863
▁logistics	-10.8864
▁entirely	-10.8867
▁technique	-10.8868
▁Kyrgyzstan	-10.8873
▁wonder	-10.8874
▁surplus	-10.8877
▁secured	-10.8877
can	-10.8878
▁Sim	-10.8879
▁genetic	-10.888
▁seats	-10.8882
▁beneficiaries	-10.8882
ón	-10.8883
▁vessels	-10.8886
▁Market	-10.8886
ied	-10.889
/2005/	-10.8891
▁Final	-10.8894
bal	-10.8895
▁Em	-10.8898
acy	-10.89
mination	-10.8901
0/	-10.8904
active	-10.8908
▁euro	-10.8909
▁wild	-10.8909
▁surveillance	-10.8911
3).	-10.8919
rom	-10.892
round	-10.8921
▁eliminating	-10.8921
▁salaries	-10.8922
▁UNMIS	-10.8925
▁orally	-10.8932
▁impartial	-10.8932
top	-10.8934
▁remarks	-10.8934
shed	-10.8936
▁ourselves	-10.8937
_	-10.8939
▁liquid	-10.8943
▁Facility	-10.8949
ram	-10.895
▁consistently	-10.8951
▁Logistics	-10.8952
aging	-10.8955
III	-10.8958
▁Durban	-10.8961
▁abuses	-10.8962
▁differ	-10.8963
▁flat	-10.8964
▁proceeds	-10.8965
▁toxic	-10.8965
▁ice	-10.8968
bil	-10.8968
state	-10.8969
met	-10.8969
▁condemn	-10.897
▁channels	-10.897
▁Communication	-10.8978
/9	-10.8979
▁favourable	-10.8982
▁focuses	-10.8984
▁screen	-10.8986
▁Date	-10.8986
▁fee	-10.8987
▁emphasizes	-10.8988
▁ruling	-10.8991
▁refrain	-10.8993
anda	-10.8994
▁addresses	-10.9003
▁eventually	-10.9004
▁Canadian	-10.9008
▁texts	-10.901
▁indicator	-10.9014
▁attitudes	-10.9015
PP	-10.9017
▁mon	-10.9026
▁stands	-10.9027
▁reverse	-10.9027
▁Establish	-10.9029
▁closing	-10.9029
▁enormous	-10.9037
vel	-10.9037
▁imports	-10.9038
▁Bush	-10.904
▁1986	-10.9041
▁therein	-10.9043
▁recall	-10.9046
▁Recent	-10.9047
▁61.	-10.905
ati	-10.9051
▁Library	-10.9051
▁73	-10.9056
▁Niger	-10.9056
▁taxes	-10.9057
/69/	-10.9061
▁elsewhere	-10.9064
▁Lastly	-10.9064
▁employee	-10.9066
fra	-10.9067
▁Strip	-10.9068
load	-10.9068
▁era	-10.9069
▁hazard	-10.9074
▁expulsion	-10.9074
▁chosen	-10.908
▁Ph	-10.9086
▁restore	-10.9087
▁revealed	-10.9088
▁sect	-10.9088
lex	-10.9089
▁Base	-10.9089
▁Address	-10.9089
▁subsidies	-10.909
▁Form	-10.9096
▁obvious	-10.9099
▁privilege	-10.9105
▁decreased	-10.9105
▁militia	-10.9107
▁shortage	-10.9108
▁signs	-10.9108
power	-10.9112
▁eradicate	-10.9112
▁convene	-10.9113
▁workplace	-10.9113
▁Free	-10.9116
▁Fiji	-10.9117
▁targeting	-10.912
ttle	-10.9122
▁exemption	-10.9124
▁rent	-10.9125
▁ticket	-10.9127
gent	-10.9127
▁briefings	-10.9128
▁Reports	-10.9131
▁guided	-10.9131
▁owned	-10.9131
▁tender	-10.9132
▁cultures	-10.9133
▁plate	-10.9134
▁revolution	-10.9136
gy	-10.9137
▁forthcoming	-10.9137
▁penalties	-10.914
sub	-10.914
▁CRC	-10.9144
/2004/	-10.9146
▁ear	-10.9148
▁60.	-10.915
asse	-10.9151
▁credibility	-10.9154
Co	-10.916
▁parliamentary	-10.9161
ME	-10.9162
▁(2009)	-10.9167
▁fun	-10.9167
2006	-10.9168
▁calculated	-10.9168
rain	-10.9171
▁violate	-10.9172
▁Closed	-10.9172
▁survival	-10.9178
";	-10.9178
▁scenario	-10.9179
▁restrict	-10.918
▁Libya	-10.9181
▁fault	-10.9182
▁photograph	-10.9184
Islamic	-10.9184
▁judgment	-10.9186
▁Punishment	-10.9188
▁Advancement	-10.9188
▁unions	-10.9189
/18	-10.919
▁Conflict	-10.9196
ich	-10.9199
CI	-10.9199
▁entrusted	-10.9199
▁manifest	-10.9201
din	-10.9201
▁degrading	-10.9202
▁print	-10.9203
▁u	-10.9204
▁themes	-10.9207
PL	-10.9207
▁ver	-10.9209
▁Syria	-10.9212
3/	-10.9219
ame	-10.9219
▁Hall	-10.9222
▁FOR	-10.9222
▁counselling	-10.9223
▁illustrate	-10.9224
▁mitigate	-10.9227
▁yuan	-10.9232
▁servants	-10.9235
phe	-10.9236
▁bureau	-10.9249
ux	-10.9249
▁Atomic	-10.9254
▁promptly	-10.9255
▁minimize	-10.9258
▁consolidate	-10.9262
▁prisons	-10.9262
▁systematically	-10.9262
▁threatened	-10.9265
▁Somali	-10.9269
▁Officers	-10.9271
dra	-10.9273
▁absolute	-10.9273
▁municipalities	-10.9275
▁FDI	-10.9276
▁SBI	-10.9276
▁club	-10.9279
▁succeed	-10.928
etic	-10.928
▁obtaining	-10.9281
▁wages	-10.9281
▁declined	-10.9281
▁repeated	-10.9283
▁blow	-10.9285
/1998/	-10.9286
▁mail	-10.9287
▁Program	-10.929
▁emergencies	-10.929
▁alarm	-10.9291
▁liberalization	-10.9295
crea	-10.9298
▁analyses	-10.9301
pper	-10.9301
▁UK	-10.9302
EA	-10.9302
▁soul	-10.9303
▁broadcast	-10.9307
▁regulate	-10.9309
4).	-10.931
personnel	-10.9311
▁Val	-10.9312
▁(1999)	-10.9316
▁architecture	-10.9319
▁Samoa	-10.932
▁Consultative	-10.932
▁classes	-10.9321
▁Establishment	-10.933
avi	-10.9331
+	-10.9337
▁shell	-10.9338
▁mediation	-10.9342
viol	-10.9342
▁remind	-10.9344
▁Question	-10.9344
▁Cypriot	-10.9346
▁civilization	-10.9354
rent	-10.9354
▁Protocols	-10.9356
▁surrounding	-10.9359
▁Inspector	-10.9361
▁sweet	-10.9363
▁generations	-10.9366
uous	-10.9377
▁sufficiently	-10.9377
/16	-10.9388
▁63.	-10.9389
▁pan	-10.939
lit	-10.9392
▁tribunal	-10.9396
▁hosted	-10.9396
OD	-10.9396
▁ministers	-10.9398
wan	-10.94
arts	-10.9402
▁Media	-10.9405
='	-10.9408
▁sur	-10.941
▁analyse	-10.9411
igh	-10.9412
▁62.	-10.9415
▁insert	-10.9416
▁describe	-10.942
▁indicating	-10.942
▁familiar	-10.9425
late	-10.9428
▁Continue	-10.9432
▁nomination	-10.9437
/56/	-10.944
▁concession	-10.944
▁isn	-10.9443
DR	-10.9444
▁Goal	-10.9444
▁visa	-10.9447
▁Governor	-10.9448
▁protocols	-10.9454
▁Corruption	-10.9461
Ch	-10.9462
▁durable	-10.9465
▁sample	-10.9467
▁happiness	-10.9467
▁coast	-10.9468
▁suggestion	-10.9472
▁Ob	-10.9475
vision	-10.9477
water	-10.9479
▁firmly	-10.9483
▁ring	-10.9483
▁convicted	-10.9485
▁Did	-10.949
▁tear	-10.9499
▁easier	-10.9501
ui	-10.9505
▁69	-10.9506
▁Sch	-10.9506
▁Thank	-10.9507
▁uphold	-10.9512
▁stopped	-10.9512
▁deprivation	-10.9513
▁measured	-10.9513
▁winter	-10.9514
Bolivarian	-10.9515
▁adolescents	-10.9516
cutting	-10.9521
▁disadvantaged	-10.9526
▁assert	-10.9528
▁auspices	-10.9529
▁calendar	-10.9529
▁FCCC	-10.9529
▁cru	-10.9531
current	-10.9531
nuclear	-10.9537
ware	-10.9538
▁greenhouse	-10.9543
/2001/	-10.9545
▁Far	-10.9546
▁predict	-10.9547
▁exposed	-10.9551
▁congratulate	-10.9556
▁enshrined	-10.9556
▁auto	-10.9557
▁constitution	-10.9559
6/	-10.9559
▁External	-10.956
▁Interior	-10.9562
▁twentieth	-10.9564
▁SBSTA	-10.9564
▁pursuit	-10.9565
▁Four	-10.9565
▁fat	-10.9566
▁Twenty	-10.9567
last	-10.957
▁Capital	-10.9572
▁clinical	-10.9573
ata	-10.9574
▁patient	-10.9574
▁110	-10.9576
▁methodologies	-10.9576
/13	-10.9577
▁reductions	-10.9579
▁merits	-10.9583
▁restaurant	-10.9585
▁estate	-10.9586
▁interesting	-10.9587
▁smoke	-10.9588
▁sentences	-10.9589
▁<	-10.959
▁herself	-10.9593
▁Commonwealth	-10.9601
▁Bas	-10.9605
▁contemporary	-10.9605
For	-10.9606
lia	-10.9606
▁sincere	-10.9609
▁hu	-10.9611
▁pop	-10.9615
▁advise	-10.9615
cho	-10.9616
▁Malawi	-10.9616
▁underlined	-10.962
▁Like	-10.962
▁thorough	-10.9624
inter	-10.9626
▁bag	-10.9629
ius	-10.963
▁reiterate	-10.963
▁employer	-10.9631
▁historic	-10.9631
▁punish	-10.9636
▁complexity	-10.9638
▁Workers	-10.964
▁illness	-10.9644
▁Lin	-10.9645
▁Cuban	-10.9645
▁epidemic	-10.9646
▁trials	-10.9648
▁adhere	-10.9649
bur	-10.965
▁venture	-10.9652
Part	-10.9658
person	-10.9658
▁150	-10.9659
▁Americans	-10.9662
▁UNIFIL	-10.967
Chair	-10.967
▁penal	-10.967
▁Efforts	-10.9671
▁Housing	-10.9671
▁threaten	-10.9671
▁receivable	-10.9672
▁Supplement	-10.9676
roll	-10.9676
▁Electoral	-10.9678
▁paying	-10.9679
▁initiate	-10.9682
pend	-10.9685
▁Botswana	-10.9685
▁willingness	-10.9687
▁persist	-10.9689
▁hundreds	-10.9691
▁Scheme	-10.9693
▁corporations	-10.9695
▁prosecutors	-10.9696
▁radiation	-10.9697
▁recover	-10.9698
▁MDGs	-10.9699
▁Round	-10.97
▁divorce	-10.9704
▁certification	-10.9706
Aligned	-10.9706
rant	-10.972
▁headed	-10.9721
▁inquiry	-10.9722
▁ga	-10.9727
▁malaria	-10.9728
▁Instead	-10.9729
▁electric	-10.9732
ility	-10.9734
▁appearance	-10.9736
▁momentum	-10.9737
you	-10.9737
▁feasible	-10.974
▁Enterprise	-10.9741
▁plane	-10.9742
▁Mauritania	-10.9745
▁arrival	-10.9746
▁finish	-10.975
▁delayed	-10.9751
▁quiet	-10.9757
▁facto	-10.9759
▁thy	-10.9761
▁county	-10.9766
▁noise	-10.9766
▁White	-10.9766
▁Barbados	-10.978
▁Relief	-10.9781
▁Sun	-10.9783
▁complementary	-10.9785
action	-10.9785
▁pages	-10.9787
▁associate	-10.9789
DE	-10.9789
ett	-10.979
▁dinner	-10.9791
▁Mac	-10.9794
ural	-10.9796
▁col	-10.9797
▁Culture	-10.9806
▁dance	-10.9806
▁Professor	-10.9807
▁regimes	-10.9808
▁Madagascar	-10.9809
▁contributor	-10.9813
lish	-10.9813
▁64.	-10.9814
ished	-10.9817
▁alter	-10.9827
empt	-10.9829
▁absorb	-10.983
/23	-10.9839
cultural	-10.984
WA	-10.984
▁library	-10.9842
ria	-10.9845
▁reaffirms	-10.9846
▁announcement	-10.9846
▁specify	-10.9852
▁favor	-10.9853
▁dropped	-10.9855
▁wrote	-10.9856
▁occasions	-10.9858
onic	-10.9858
aka	-10.9868
▁redress	-10.9875
▁encompass	-10.9877
media	-10.9878
▁assign	-10.988
▁organic	-10.9882
▁interference	-10.9884
▁Arabic	-10.9886
▁limitation	-10.9887
▁contents	-10.9888
rov	-10.9889
▁Care	-10.9889
▁65.	-10.9891
▁Biological	-10.9893
▁operative	-10.9896
▁novel	-10.9899
▁heavily	-10.9901
DS	-10.9901
▁verify	-10.9902
▁concerted	-10.9918
▁Would	-10.992
▁formula	-10.9921
▁Monetary	-10.9921
▁stick	-10.9921
▁communicate	-10.9928
▁Peter	-10.9929
▁recruited	-10.9929
▁diet	-10.9929
▁OECD	-10.993
▁potentially	-10.9935
2005	-10.9935
▁empower	-10.9937
BA	-10.9942
mat	-10.9942
▁66.	-10.9945
▁Participants	-10.995
6).	-10.9953
▁Production	-10.9954
▁tons	-10.9957
nia	-10.9959
▁church	-10.9959
▁highlight	-10.9967
▁Major	-10.9968
lim	-10.9969
▁Cape	-10.997
▁engaging	-10.997
▁enabled	-10.9974
▁roads	-10.9975
▁profound	-10.9975
▁sectoral	-10.9976
▁refuse	-10.9981
▁Workshop	-10.9982
▁whenever	-10.9985
▁tangible	-10.9996
▁Proposed	-10.9998
▁satisfied	-10.9999
▁termination	-11.0002
▁Stockholm	-11.0004
▁integrating	-11.0004
▁suspended	-11.0008
tom	-11.0008
▁pure	-11.0008
▁Personal	-11.0012
▁score	-11.0017
▁shipment	-11.0018
country	-11.0018
▁1,000	-11.0021
▁characterized	-11.0026
▁Ten	-11.0029
mine	-11.003
tens	-11.003
▁Natural	-11.003
▁Prison	-11.0031
2007	-11.0032
duct	-11.0037
rip	-11.0043
now	-11.0044
bid	-11.0045
▁couldn	-11.0046
▁prosecute	-11.0047
pen	-11.0049
)]	-11.0049
▁ultimately	-11.0053
TE	-11.0053
▁invest	-11.0056
▁1987	-11.0056
▁duplication	-11.0062
▁Iranian	-11.0064
▁leaves	-11.0064
▁affirm	-11.0066
▁sole	-11.0069
▁accommodate	-11.0069
▁workload	-11.007
▁upgrade	-11.0074
▁Certain	-11.0075
▁credible	-11.0077
tig	-11.0079
ori	-11.0079
bra	-11.0079
▁replied	-11.008
▁restoration	-11.008
▁phrase	-11.0088
Agency	-11.0089
▁unre	-11.0091
▁suppliers	-11.0095
▁ski	-11.0098
▁Expresses	-11.0098
▁whereby	-11.0099
▁grown	-11.01
▁Response	-11.0105
▁IMF	-11.0106
▁decree	-11.0106
▁curriculum	-11.0107
▁ecosystem	-11.0108
▁routine	-11.0108
▁worst	-11.0108
▁named	-11.0109
▁sad	-11.0109
cribe	-11.0112
ada	-11.0113
aid	-11.0116
▁acute	-11.0119
▁prevented	-11.0121
▁Sunday	-11.0122
**	-11.0127
▁Original	-11.0127
ras	-11.0128
▁emission	-11.013
▁conversion	-11.0134
▁bond	-11.0135
▁XI	-11.0137
▁severely	-11.0137
▁Mal	-11.0139
▁emerged	-11.0141
▁Eight	-11.0143
▁neglect	-11.0147
▁Italian	-11.0149
▁milk	-11.0152
▁inhabitants	-11.0153
▁suspension	-11.0155
▁contractors	-11.0157
▁+	-11.016
IG	-11.016
▁Olympics	-11.0169
standing	-11.0169
▁$9	-11.0171
▁Roman	-11.0174
▁granting	-11.0176
▁broaden	-11.0179
ura	-11.0181
/22	-11.0182
gui	-11.0182
▁administered	-11.0183
▁referendum	-11.0183
▁deepen	-11.0184
▁deliberate	-11.0185
▁modification	-11.0187
▁east	-11.0188
▁insecurity	-11.019
▁caught	-11.0195
▁whereas	-11.0197
▁interface	-11.02
▁Christ	-11.0201
▁Sol	-11.0202
▁substantially	-11.0211
Do	-11.0213
▁(2000)	-11.0216
▁Guyana	-11.0217
▁monitored	-11.0218
case	-11.0218
▁refine	-11.0221
▁admissibility	-11.0227
▁beneficial	-11.0228
▁MONUC	-11.0231
▁105	-11.0232
▁coffee	-11.0233
▁inherent	-11.0233
▁retirement	-11.0237
HR	-11.0238
▁grand	-11.024
▁games	-11.0242
▁fewer	-11.0243
qua	-11.0248
▁straight	-11.0249
ather	-11.025
col	-11.0253
▁cloud	-11.0257
▁orbit	-11.0257
▁Mary	-11.0257
▁excess	-11.0259
▁switch	-11.0269
▁zero	-11.027
▁Situation	-11.0272
▁patent	-11.0272
iness	-11.028
▁Grand	-11.028
ional	-11.0281
▁Tibet	-11.0285
chair	-11.0291
▁electro	-11.0298
▁encountered	-11.0298
▁ecosystems	-11.0298
▁rescue	-11.0299
wo	-11.03
quality	-11.0301
▁2)	-11.0303
▁amend	-11.0304
▁expensive	-11.0305
▁resume	-11.0305
▁boss	-11.0309
▁(1);	-11.0311
▁aviation	-11.0311
▁Er	-11.0313
▁England	-11.0314
▁occupational	-11.0315
ature	-11.0316
▁slightly	-11.0317
▁enjoyed	-11.0318
▁delegates	-11.0319
poli	-11.0324
itis	-11.0327
▁Responsible	-11.0327
▁exactly	-11.0328
▁Matters	-11.0328
▁dr	-11.0329
▁possibilities	-11.0329
▁wine	-11.033
▁advisers	-11.0334
▁101	-11.0335
▁Award	-11.0338
▁Habitat	-11.0338
▁preference	-11.0339
▁Maldives	-11.0341
▁prospect	-11.0344
▁neutral	-11.0346
▁strive	-11.0348
▁exhaust	-11.0349
▁Envoy	-11.0351
▁Independence	-11.0355
wn	-11.0355
▁67.	-11.0355
pic	-11.0366
span	-11.0367
cut	-11.037
/14	-11.0379
▁institute	-11.0383
▁producers	-11.0385
▁pleasure	-11.0389
valu	-11.039
▁earn	-11.0395
▁bottle	-11.0399
▁rein	-11.0407
product	-11.0407
▁establishes	-11.0408
▁remuneration	-11.0408
China	-11.041
rick	-11.0421
bound	-11.0424
▁Turkmenistan	-11.0427
rack	-11.0434
▁intends	-11.0435
▁pull	-11.0435
▁confident	-11.0435
▁consisting	-11.0436
cycl	-11.0438
▁Wall	-11.0438
▁Five	-11.0441
▁ships	-11.0443
▁evident	-11.0445
▁RIGHTS	-11.0446
▁modified	-11.0448
ifying	-11.0453
▁1985	-11.0461
▁incidence	-11.0461
awa	-11.0463
▁band	-11.0465
exp	-11.0466
▁ecological	-11.047
▁spite	-11.0471
▁hate	-11.0472
▁Migrant	-11.0473
▁retained	-11.0474
▁preceding	-11.0478
▁x	-11.0478
▁depending	-11.0479
▁pursuing	-11.048
convened	-11.0481
▁servicing	-11.0484
▁(2	-11.0495
▁immunity	-11.0498
▁Pri	-11.0501
▁branches	-11.0508
▁bra	-11.0509
▁finger	-11.0509
▁gear	-11.0509
even	-11.0514
▁cheap	-11.0518
▁eighth	-11.0518
▁Contracting	-11.0519
▁explicitly	-11.052
▁discovered	-11.052
▁presidency	-11.0524
▁realistic	-11.0526
▁UNIFEM	-11.0527
▁leads	-11.0528
▁Administrator	-11.0529
▁pal	-11.0531
▁1982	-11.0532
▁Outcome	-11.0532
▁virus	-11.0538
▁participatory	-11.0542
▁prevailing	-11.0544
▁cargo	-11.0544
▁profits	-11.0547
▁Institutions	-11.055
▁van	-11.0551
▁CH	-11.0551
▁analyzed	-11.0551
print	-11.0558
▁helicopter	-11.0561
▁possibly	-11.0562
▁urgently	-11.0566
▁mal	-11.0569
▁End	-11.0571
▁excluded	-11.0572
▁assurances	-11.0573
▁Home	-11.0574
▁elaborate	-11.0576
▁cards	-11.0577
▁69.	-11.0577
▁Tobago	-11.0578
▁partly	-11.0578
▁arch	-11.0584
▁verbale	-11.0585
▁vendor	-11.0587
▁sitting	-11.0594
▁publish	-11.0596
▁extract	-11.0597
▁poly	-11.0602
▁snow	-11.0604
▁Should	-11.0604
vin	-11.0607
▁urgency	-11.0614
▁68.	-11.0616
▁bought	-11.0616
▁pour	-11.0619
/2007/	-11.0621
logical	-11.0624
▁Opening	-11.0631
▁1970	-11.0632
▁column	-11.0632
▁tele	-11.0633
5).	-11.0635
▁Adopt	-11.0636
▁cry	-11.0636
▁selling	-11.0637
5,000	-11.0638
▁halt	-11.0642
▁certificates	-11.0642
-10	-11.0643
▁UNAMID	-11.0648
▁subsistence	-11.0649
pers	-11.0651
FOR	-11.0653
▁Gi	-11.0653
▁files	-11.0655
▁awarded	-11.0657
▁expressing	-11.0658
▁gratitude	-11.0661
▁commerce	-11.0662
▁Pla	-11.0665
▁peer	-11.0671
inated	-11.0675
date	-11.0676
▁compilation	-11.0678
▁contracting	-11.0683
▁opposed	-11.0683
▁submitting	-11.0684
▁satisfactory	-11.0691
▁comprises	-11.0693
▁frequent	-11.0694
▁football	-11.0694
▁blind	-11.0695
▁Make	-11.0698
script	-11.0698
▁neighbor	-11.0701
▁observance	-11.0702
hou	-11.0708
▁Char	-11.0709
▁preservation	-11.0709
GC	-11.0712
▁desk	-11.0713
▁separately	-11.0714
▁appraisal	-11.0715
▁preparedness	-11.0716
▁(2008)	-11.0718
▁messages	-11.0721
▁accounted	-11.0722
▁Welfare	-11.0723
▁Volunteers	-11.0726
▁baseline	-11.0728
scription	-11.073
▁1967	-11.073
▁Radio	-11.073
hin	-11.0731
▁prevalence	-11.0732
▁injuries	-11.0732
▁repeatedly	-11.0733
non	-11.0735
▁gate	-11.0738
▁instruction	-11.0742
▁satisfy	-11.0747
▁robust	-11.0748
▁formally	-11.0748
cum	-11.0749
▁reject	-11.0749
▁chi	-11.0753
▁corner	-11.0756
▁kid	-11.0757
▁tension	-11.0757
▁dual	-11.0759
▁George	-11.0759
▁districts	-11.076
assi	-11.0761
▁Reference	-11.0762
▁viable	-11.0762
▁feedback	-11.0763
▁entitlement	-11.0768
▁writer	-11.0768
UNDP	-11.0771
ado	-11.0773
▁makers	-11.0774
▁creative	-11.0775
ART	-11.078
uni	-11.0781
▁grew	-11.0785
▁ninth	-11.0786
FA	-11.0787
7).	-11.0789
▁edge	-11.0791
▁Bro	-11.0795
get	-11.0797
▁spec	-11.0798
▁lend	-11.0807
▁literature	-11.0818
▁perception	-11.0818
▁existed	-11.0821
▁railway	-11.0822
verse	-11.0823
RO	-11.0825
▁pretty	-11.0829
▁supposed	-11.0831
▁adjusted	-11.0831
▁plastic	-11.0833
oh	-11.0835
▁Contributions	-11.0837
▁crops	-11.084
aff	-11.0844
sensitive	-11.0846
▁mixed	-11.0846
▁enrolment	-11.0847
▁irregular	-11.085
▁tariff	-11.085
▁serves	-11.0852
▁readiness	-11.0852
▁storm	-11.0854
▁ter	-11.0855
▁qua	-11.0855
▁71.	-11.0857
If	-11.0857
operation	-11.0858
▁profession	-11.086
▁capita	-11.0862
▁Jack	-11.0863
Saharan	-11.087
▁depth	-11.0871
▁Wo	-11.0878
▁benefited	-11.0879
ira	-11.0884
▁marginalized	-11.0886
▁appointments	-11.0886
▁Xi	-11.0887
▁custom	-11.0888
▁maternity	-11.0889
▁Concerning	-11.089
▁defense	-11.0893
▁OP	-11.0895
▁holds	-11.0896
▁Though	-11.0898
▁mix	-11.0899
▁Station	-11.0904
▁synergies	-11.0907
▁Prince	-11.0911
nge	-11.0914
▁regrets	-11.0915
RS	-11.0918
▁72	-11.092
rating	-11.092
▁trigger	-11.0922
▁constantly	-11.0922
▁meal	-11.0924
oid	-11.0929
▁assurance	-11.093
▁Construction	-11.0931
▁paint	-11.0932
▁ultimate	-11.0934
▁settle	-11.0935
▁Colonial	-11.0935
▁domain	-11.0935
▁minister	-11.0936
▁enacted	-11.0939
▁indirect	-11.094
▁fired	-11.0941
▁assure	-11.0941
▁Islam	-11.0942
band	-11.0942
▁gathered	-11.0944
▁salt	-11.0945
▁Urban	-11.0946
▁calm	-11.095
▁ODA	-11.0954
▁flowers	-11.0954
▁measuring	-11.0956
▁Vo	-11.0956
▁exclusive	-11.096
▁Prosecution	-11.0961
▁colleagues	-11.0963
▁USD	-11.0965
SD	-11.0965
▁magazine	-11.0967
▁server	-11.0969
▁upper	-11.097
gram	-11.0972
▁Up	-11.0973
▁shoot	-11.0974
▁deploy	-11.0974
▁assault	-11.0979
CEDAW	-11.0981
▁Par	-11.0982
▁Organisation	-11.0985
▁lock	-11.0985
▁ease	-11.0987
▁Light	-11.099
ential	-11.0991
▁arrive	-11.0991
▁collapse	-11.0994
▁Win	-11.0999
▁feasibility	-11.1
▁finished	-11.1002
▁ozone	-11.1005
▁Love	-11.1005
▁organisations	-11.1005
▁(2003)	-11.1007
▁updating	-11.1011
▁Trinidad	-11.1025
▁container	-11.1025
▁guiding	-11.103
RES	-11.103
▁departure	-11.1032
鈥檚	-11.1035
▁ballot	-11.1036
Mo	-11.1043
ways	-11.1044
▁Abu	-11.1047
▁substitute	-11.1047
▁performing	-11.1049
type	-11.1049
cial	-11.105
▁autonomy	-11.1056
▁tourist	-11.1058
▁guilty	-11.1063
/26	-11.1064
▁Related	-11.1066
▁minute	-11.1068
▁Aid	-11.107
ened	-11.1071
▁rebel	-11.1072
Article	-11.1072
▁Bhutan	-11.1074
▁Sta	-11.1076
▁owner	-11.1077
▁Cu	-11.1077
▁chronic	-11.1078
▁reparation	-11.1078
▁exclusively	-11.1078
▁tensions	-11.1082
▁finalized	-11.1082
2009	-11.1083
New	-11.1085
▁hang	-11.1086
▁driven	-11.1088
▁initially	-11.1088
▁hamper	-11.1089
▁fer	-11.109
▁colonial	-11.1095
▁partial	-11.1097
▁76	-11.1097
▁appreciated	-11.1097
▁ceasefire	-11.11
▁gathering	-11.1101
▁thin	-11.1101
▁cre	-11.1103
▁Key	-11.1104
▁recording	-11.1106
▁apparent	-11.1107
▁Michael	-11.1108
▁extraordinary	-11.1108
▁1373	-11.1109
▁oversee	-11.111
▁Unfortunately	-11.111
▁Civilian	-11.1117
▁guest	-11.112
▁west	-11.1121
▁hinder	-11.1122
▁Academy	-11.1123
▁owners	-11.1123
▁innocent	-11.1126
▁thou	-11.1126
▁consistency	-11.1133
▁Consider	-11.1137
▁Appeal	-11.114
▁publicly	-11.1141
Ban	-11.1141
wel	-11.1142
▁perspectives	-11.1143
▁2002-2003	-11.1146
▁PR	-11.1148
▁hole	-11.1149
▁formulating	-11.1151
EP	-11.1152
berg	-11.1156
▁disciplinary	-11.1156
▁summarized	-11.1157
▁alcohol	-11.1157
▁images	-11.1158
ique	-11.1159
▁doctors	-11.1162
▁Oman	-11.1162
▁Serious	-11.1163
▁Wang	-11.1163
▁hostilities	-11.1164
▁egg	-11.1165
▁Violations	-11.1165
▁hill	-11.1166
▁Counsel	-11.1166
DD	-11.1166
▁Chen	-11.117
▁Gold	-11.1171
▁fix	-11.1175
cia	-11.1177
▁haven	-11.1177
cover	-11.1178
▁sand	-11.1178
▁portfolio	-11.1179
▁defendant	-11.118
▁taste	-11.1181
▁presentations	-11.1182
▁Cap	-11.1184
▁connect	-11.1187
▁unprecedented	-11.1189
▁adding	-11.1189
▁Super	-11.1189
▁affordable	-11.1194
▁complain	-11.1194
otic	-11.1198
▁beauty	-11.1199
▁UNMIK	-11.1202
▁ethics	-11.1203
▁studying	-11.1207
▁slowly	-11.1207
▁visiting	-11.1209
▁honest	-11.1209
▁Conclusions	-11.121
▁negotiated	-11.1212
▁considerably	-11.1213
/2010/	-11.1213
gri	-11.1214
stakeholder	-11.1216
▁obliged	-11.1217
2000	-11.122
▁Commercial	-11.1221
▁Op	-11.1222
AB	-11.1227
▁fostering	-11.1228
▁Hague	-11.1228
▁factory	-11.1232
PF	-11.1232
▁Operational	-11.1232
▁fly	-11.1234
lder	-11.1235
dem	-11.1241
▁continuity	-11.1245
▁crossing	-11.1246
▁ni	-11.1246
lets	-11.1252
▁106	-11.1253
▁permits	-11.1257
RP	-11.1259
▁skill	-11.1261
seekers	-11.1266
▁sir	-11.1272
▁Corporation	-11.1277
▁moon	-11.1278
lig	-11.1278
azi	-11.1278
▁minors	-11.1278
▁Dec	-11.1279
▁census	-11.1282
▁redeployment	-11.1282
new	-11.1283
▁Rural	-11.1284
▁fulfilling	-11.1288
▁GA	-11.129
▁accessibility	-11.1292
▁circle	-11.1296
▁deny	-11.1297
organized	-11.1297
▁answered	-11.1299
▁allocate	-11.13
▁rendered	-11.1302
rah	-11.1303
▁Put	-11.1304
omy	-11.1308
▁policymakers	-11.1309
▁Effect	-11.1309
▁revenues	-11.1311
▁faster	-11.1318
▁budgeting	-11.132
lain	-11.132
rri	-11.1322
▁firearms	-11.1324
▁educate	-11.1333
▁busy	-11.1338
▁ME	-11.134
ific	-11.1345
▁103	-11.1347
▁Register	-11.1347
▁reward	-11.1349
▁Near	-11.135
▁Stresses	-11.1351
▁instability	-11.1355
▁smuggling	-11.1356
▁pin	-11.1357
Com	-11.1357
▁Import	-11.1358
lement	-11.1361
▁Christmas	-11.1361
▁earnings	-11.1363
ball	-11.1367
▁chart	-11.1369
▁rid	-11.1369
▁affects	-11.137
2004	-11.1371
▁impede	-11.1373
▁welcoming	-11.1374
▁collaborate	-11.1375
What	-11.1376
▁clinic	-11.1376
▁reflection	-11.1386
▁teach	-11.1387
▁Line	-11.1389
▁Sexual	-11.139
▁Mc	-11.139
▁HK	-11.1393
▁fate	-11.1401
▁permission	-11.1402
organ	-11.1408
▁variable	-11.1413
▁thick	-11.1418
▁discretion	-11.1419
▁Marine	-11.1422
▁Domestic	-11.1429
▁admitted	-11.143
▁indispensable	-11.1431
▁honor	-11.1431
▁Para	-11.1432
▁curricula	-11.1434
▁Cla	-11.1438
▁tight	-11.1441
▁joy	-11.1442
pho	-11.1442
▁pair	-11.1444
▁raw	-11.1446
▁73.	-11.1447
▁lease	-11.145
government	-11.1454
▁Which	-11.1455
▁Product	-11.1455
▁contest	-11.1456
▁cited	-11.1456
East	-11.1457
▁justify	-11.1458
▁Gabon	-11.1459
trans	-11.1463
▁summits	-11.1465
▁meat	-11.1467
UNEP	-11.1467
▁solely	-11.147
▁Travel	-11.1475
▁72.	-11.1479
▁Records	-11.1479
▁Catholic	-11.1481
▁Real	-11.1481
▁cutting	-11.1484
udi	-11.1485
lov	-11.1485
▁Desertification	-11.1486
market	-11.1488
▁launching	-11.1488
▁steady	-11.1489
▁advancing	-11.1491
COM	-11.1492
=	-11.1495
▁predictable	-11.1498
▁Church	-11.1498
metric	-11.15
▁Exchange	-11.1501
▁Currently	-11.1505
▁economically	-11.1505
fold	-11.1507
ette	-11.1507
▁deter	-11.151
▁accidents	-11.151
▁Monaco	-11.1511
▁102	-11.1511
log	-11.1512
▁fellow	-11.1516
TI	-11.1517
▁miles	-11.1524
▁usual	-11.1525
flu	-11.1525
▁Amendment	-11.1525
▁del	-11.153
▁confidential	-11.1533
▁Does	-11.1533
▁Taliban	-11.1535
▁threshold	-11.1535
▁GM	-11.1536
▁shut	-11.1539
ntegra	-11.1542
▁poorest	-11.1545
▁defining	-11.1545
▁foundations	-11.1548
▁argued	-11.1548
▁returning	-11.1549
▁childhood	-11.155
▁pornography	-11.1552
▁NEPAD	-11.1554
▁demographic	-11.1555
▁stream	-11.1555
▁Consul	-11.1558
▁nurse	-11.156
▁stories	-11.1562
▁conversation	-11.1562
▁Bur	-11.1564
▁inspect	-11.1566
▁holders	-11.1566
▁justified	-11.157
▁Black	-11.1578
▁Strengthen	-11.1583
▁imbalance	-11.1584
▁resolving	-11.1585
▁extending	-11.1588
▁ceremony	-11.1589
rop	-11.1591
▁Dar	-11.1595
▁rocket	-11.1596
▁rot	-11.1597
▁accuracy	-11.1597
from	-11.1606
▁hall	-11.161
▁viewed	-11.161
TRA	-11.1615
compliance	-11.1616
▁wishing	-11.162
▁advised	-11.1628
▁pu	-11.1632
Sect	-11.1633
&	-11.1634
rest	-11.1637
▁chaired	-11.1641
dal	-11.1641
erated	-11.1642
▁asking	-11.1643
XXI	-11.1644
▁separated	-11.1645
▁UNOCI	-11.1649
▁Come	-11.1652
▁notion	-11.1653
▁collaborative	-11.1655
▁Promoting	-11.1657
▁characteristic	-11.1659
una	-11.1659
logy	-11.166
▁pump	-11.1662
▁fissile	-11.1665
natal	-11.1667
▁76.	-11.1668
▁tracking	-11.167
▁104	-11.1671
▁attendance	-11.1672
▁pot	-11.1674
▁loved	-11.1676
▁qualifications	-11.1678
▁accord	-11.1681
▁Body	-11.1682
▁Judicial	-11.1682
▁intensive	-11.1683
▁peak	-11.1684
▁installation	-11.1684
▁Overall	-11.1686
▁navigation	-11.1687
▁enact	-11.1695
▁margin	-11.1701
mitted	-11.1704
▁Illicit	-11.1708
▁admission	-11.1708
▁uncertainty	-11.171
phi	-11.171
▁ascertain	-11.171
▁crop	-11.1719
rich	-11.172
ola	-11.1723
▁UNMIL	-11.1724
▁relatives	-11.1727
▁vis	-11.1729
imp	-11.1735
▁executed	-11.1737
▁adherence	-11.1739
International	-11.174
▁decolonization	-11.1741
party	-11.1741
▁normative	-11.1744
firm	-11.1746
▁utilized	-11.1748
▁Swiss	-11.1749
▁ageing	-11.175
▁|	-11.1752
▁upgrading	-11.1752
▁terminate	-11.1754
▁duly	-11.1755
▁Private	-11.1756
plo	-11.1757
▁stockpile	-11.1761
▁71	-11.1762
leg	-11.1763
▁constrain	-11.1767
▁validity	-11.1768
▁sixtieth	-11.1768
▁impair	-11.1769
▁(2011)	-11.1772
▁superior	-11.1773
▁flying	-11.1774
LO	-11.1776
▁Increase	-11.178
▁Lesotho	-11.1788
emi	-11.1793
HA	-11.1793
SE	-11.1801
▁endanger	-11.1802
▁($2	-11.1802
▁virtue	-11.1803
lk	-11.1804
▁unknown	-11.1808
▁Robert	-11.1811
▁rental	-11.1812
▁74	-11.1812
hibit	-11.1812
▁executions	-11.1815
▁Bri	-11.1815
▁payable	-11.1819
▁reminded	-11.1819
▁IX	-11.1821
▁Zone	-11.1823
▁stamp	-11.1825
▁Atlantic	-11.1826
▁Diversity	-11.1828
▁visual	-11.183
Po	-11.183
▁slavery	-11.1834
▁registry	-11.1834
▁disaggregated	-11.1835
▁Point	-11.1841
▁passage	-11.1843
▁Recognizes	-11.1843
ched	-11.1845
▁contractor	-11.1846
▁diagnosis	-11.1847
▁height	-11.1847
▁settled	-11.1851
▁conform	-11.1851
▁prevail	-11.1851
▁74.	-11.1852
▁perceived	-11.1852
▁towns	-11.1854
pin	-11.1855
own	-11.1856
▁gene	-11.1857
ock	-11.1857
▁string	-11.1861
which	-11.1865
▁Consensus	-11.1868
▁Maritime	-11.187
▁Accounting	-11.1874
▁painting	-11.1874
▁bin	-11.1876
▁syn	-11.1877
▁Could	-11.1879
▁offenders	-11.1881
▁seeing	-11.1881
TR	-11.1881
course	-11.1882
▁Bangkok	-11.1886
▁expire	-11.1888
▁continuously	-11.1889
▁retail	-11.189
▁Monterrey	-11.189
▁Victims	-11.1894
▁pillars	-11.1897
▁worker	-11.19
▁friendship	-11.1902
▁tradition	-11.1903
Other	-11.1903
▁stem	-11.1906
rian	-11.1908
▁directors	-11.191
▁60/2	-11.191
▁complicated	-11.1911
▁rare	-11.1915
-6	-11.1917
▁correspond	-11.1919
ré	-11.1921
▁Forests	-11.1926
▁broke	-11.1928
▁crack	-11.1933
▁Yeah	-11.1933
▁Sil	-11.1933
▁ties	-11.1934
▁descent	-11.1935
/25	-11.1941
▁plus	-11.1944
mber	-11.1954
▁pledges	-11.1954
▁trace	-11.1955
▁precise	-11.1955
▁Regular	-11.1956
self	-11.1962
10)	-11.1965
▁Language	-11.1966
▁seller	-11.1967
▁intend	-11.1968
/17	-11.1969
▁feelings	-11.1972
▁Golan	-11.1972
uted	-11.1973
▁governed	-11.1973
▁ensured	-11.1977
▁semi	-11.1979
▁1949	-11.198
CAT	-11.198
▁examining	-11.1992
▁Royal	-11.1993
▁aspirations	-11.1995
▁justification	-11.1997
▁turning	-11.2006
▁Papua	-11.2007
NC	-11.2007
▁efficiently	-11.2008
▁utmost	-11.2012
▁printing	-11.2013
▁bone	-11.2015
▁disorder	-11.2019
▁condemned	-11.2021
▁Mediterranean	-11.2021
▁automatic	-11.2023
▁relax	-11.2024
▁kilometres	-11.2024
▁visitors	-11.2026
acc	-11.2029
▁unified	-11.2029
pect	-11.2032
bat	-11.2032
amine	-11.2035
▁supportive	-11.2036
▁Background	-11.2043
▁Agricultural	-11.2044
▁courage	-11.2047
▁About	-11.2047
▁praise	-11.2047
▁weekend	-11.2047
▁Lead	-11.2052
▁dam	-11.2059
▁legitimacy	-11.206
▁Jesus	-11.2062
▁mankind	-11.2065
.4/	-11.2069
▁originally	-11.2073
▁Transfer	-11.2074
▁lawful	-11.2079
NI	-11.2079
▁privacy	-11.2085
mini	-11.2086
lio	-11.2087
▁desirable	-11.2087
▁weaken	-11.2088
▁bread	-11.2088
▁helpful	-11.2089
▁lecture	-11.209
▁analyze	-11.209
▁aside	-11.2092
▁timetable	-11.2093
▁punished	-11.2094
▁eating	-11.21
▁Tai	-11.2104
▁decisive	-11.2104
▁Gulf	-11.2106
▁Student	-11.2114
▁lending	-11.2115
▁grain	-11.2115
ken	-11.2117
NGO	-11.2118
▁walked	-11.2122
ulating	-11.2123
▁cultivation	-11.2125
▁tested	-11.2125
▁damaged	-11.2132
/2011/	-11.2134
▁Young	-11.2135
▁securing	-11.2135
▁statutory	-11.2136
▁prosecutor	-11.2137
▁automatically	-11.2139
▁Reserve	-11.2139
far	-11.2142
▁108	-11.2142
▁maximize	-11.2142
▁cho	-11.2144
▁nevertheless	-11.2145
▁operated	-11.2146
▁handed	-11.2148
▁professor	-11.2153
▁celebrate	-11.2156
▁responsive	-11.2159
▁pray	-11.216
▁livelihoods	-11.2167
▁electrical	-11.2167
▁configuration	-11.2167
▁ASEAN	-11.2168
hai	-11.217
▁pieces	-11.217
▁repeat	-11.2175
▁Haitian	-11.2183
▁Multilateral	-11.2186
109	-11.2186
▁Comment	-11.2186
LC	-11.2187
▁Six	-11.2187
▁Verde	-11.219
9).	-11.2191
▁fu	-11.2192
▁http	-11.2196
/2009/	-11.2197
▁authorize	-11.2198
▁defect	-11.22
▁Serb	-11.22
▁referring	-11.2201
▁pledged	-11.2202
▁stimulate	-11.2204
ita	-11.2204
lateral	-11.2207
▁fallen	-11.2209
▁nongovernmental	-11.221
▁rice	-11.2211
▁seizure	-11.2212
nar	-11.2213
▁proceeding	-11.2214
▁Electronic	-11.2216
cate	-11.2222
▁clothing	-11.2222
▁Pu	-11.2229
▁seal	-11.2231
▁proposes	-11.2236
▁Results	-11.2236
▁sponsored	-11.2239
▁rotation	-11.2239
▁Forest	-11.224
▁journey	-11.2243
▁solar	-11.2243
But	-11.2245
100	-11.2246
▁reinforcing	-11.2246
▁fax	-11.2247
▁collecting	-11.225
2011	-11.2257
▁Bahamas	-11.2262
▁Soviet	-11.2264
▁Kuwaiti	-11.2265
▁assistant	-11.227
▁laboratory	-11.2272
▁geographic	-11.2273
▁obstacle	-11.2282
▁wouldn	-11.2285
▁strain	-11.2288
▁alternate	-11.2293
▁Methods	-11.2293
dri	-11.2294
▁Nu	-11.2297
▁MA	-11.2299
▁Mat	-11.2302
▁truck	-11.2302
TD	-11.2303
▁fabric	-11.2303
▁cup	-11.2306
▁controlling	-11.2308
ifies	-11.2308
▁blame	-11.2309
▁diversification	-11.2311
key	-11.2313
ić	-11.2317
▁prominent	-11.2317
mir	-11.2318
▁fulfilled	-11.232
grade	-11.2323
▁accorded	-11.2325
▁retention	-11.2333
▁proven	-11.2334
▁marry	-11.2335
range	-11.2338
▁scar	-11.2341
▁gen	-11.2343
▁proud	-11.2346
ically	-11.2348
member	-11.2348
▁streamline	-11.2353
▁comparable	-11.2356
▁Secondly	-11.236
▁HUMAN	-11.2363
▁2016	-11.2377
▁unemployed	-11.238
ü	-11.2383
▁UNDCP	-11.2387
▁translated	-11.2388
▁lowest	-11.239
ulate	-11.2392
▁Get	-11.2395
▁investigating	-11.2396
▁Distr	-11.2398
cell	-11.2398
fall	-11.2399
▁expense	-11.2399
▁Export	-11.2403
▁listing	-11.2406
▁CON	-11.2406
gate	-11.2409
child	-11.2416
▁hatred	-11.2417
give	-11.2418
▁divide	-11.242
▁Jean	-11.242
▁challenging	-11.242
▁label	-11.242
oli	-11.2421
All	-11.2422
▁111	-11.2423
name	-11.2424
▁theoretical	-11.2424
▁Ltd	-11.2426
▁equipped	-11.2429
▁107	-11.243
▁modernization	-11.2435
▁broker	-11.2439
aj	-11.2443
▁Bearing	-11.2448
▁400	-11.245
▁placement	-11.2454
that	-11.2454
▁000	-11.2454
▁refusal	-11.2458
cil	-11.2458
▁classified	-11.2463
iya	-11.2466
▁passing	-11.2469
▁simulation	-11.2469
▁manifestations	-11.2473
▁opposite	-11.2474
▁describes	-11.2475
▁residential	-11.2475
▁harmony	-11.2479
▁IP	-11.2479
▁suddenly	-11.248
▁hardly	-11.2481
▁construct	-11.2481
▁Trial	-11.2484
▁Test	-11.2484
▁Commerce	-11.2489
50,000	-11.249
▁Develop	-11.2491
than	-11.2492
▁exit	-11.2497
▁sending	-11.2503
▁2014-2015	-11.2505
▁networking	-11.2507
▁wake	-11.2509
▁Pan	-11.251
▁munitions	-11.2511
CERD	-11.2513
▁designing	-11.252
▁camera	-11.2521
▁liable	-11.2522
▁Mag	-11.2523
▁awards	-11.2525
▁debtor	-11.2528
▁react	-11.2528
▁lift	-11.253
▁exercising	-11.253
▁climb	-11.2535
▁oceans	-11.2536
ñ	-11.2537
▁Request	-11.2539
▁vacancies	-11.2545
zhou	-11.2545
▁apart	-11.2546
▁engineer	-11.2547
▁wheel	-11.2551
▁2.1	-11.2553
▁criticism	-11.2553
face	-11.2554
▁delegate	-11.2554
/2008/	-11.2556
▁coat	-11.2559
▁proactive	-11.2559
▁align	-11.256
▁advertising	-11.2561
▁stereotypes	-11.2562
lessness	-11.2564
▁cal	-11.2566
▁kit	-11.2568
▁vol	-11.2569
This	-11.257
itude	-11.2571
▁passport	-11.2573
▁variation	-11.2577
worth	-11.2579
▁tobacco	-11.2587
link	-11.2593
liber	-11.2597
▁furniture	-11.2599
▁mat	-11.2604
▁glad	-11.2606
▁essentially	-11.2607
▁convert	-11.2611
▁Registrar	-11.2613
▁surprise	-11.2615
▁insolvency	-11.2615
▁visible	-11.2615
▁prime	-11.2616
▁Paragraphs	-11.2617
▁Unity	-11.2618
▁typically	-11.262
▁vegetable	-11.2622
▁Tre	-11.2625
▁UNCCD	-11.2633
▁highlights	-11.2633
2002	-11.2639
▁renew	-11.264
▁gentle	-11.2641
▁Seminar	-11.2646
tered	-11.2646
▁Mother	-11.2647
oke	-11.2647
▁Sur	-11.2647
▁elaborated	-11.2651
▁negotiate	-11.2652
ille	-11.2652
such	-11.2653
▁realities	-11.2663
/2012/	-11.2665
▁arguments	-11.2666
▁Mandate	-11.2669
▁operators	-11.2672
▁abolition	-11.268
▁Concern	-11.2683
CCPR	-11.2684
▁reconsider	-11.2684
▁bonds	-11.2686
▁mortgage	-11.2687
▁shipping	-11.2687
▁capture	-11.2687
▁Cho	-11.2689
▁Specific	-11.2691
▁survive	-11.2692
▁Belize	-11.2692
▁Resident	-11.2696
▁notify	-11.27
▁concentrated	-11.2702
▁unlikely	-11.2703
school	-11.2703
▁clo	-11.2707
▁silence	-11.2708
▁attending	-11.2711
▁ratifying	-11.2711
▁Dispute	-11.2714
▁Consultation	-11.2715
bro	-11.2716
CR	-11.2717
risk	-11.2717
▁dust	-11.2718
▁Lucia	-11.2722
del	-11.2723
ano	-11.273
▁optional	-11.2731
▁Method	-11.2735
▁evil	-11.2736
▁inequalities	-11.2738
▁attributed	-11.274
▁bird	-11.2745
▁inadmissible	-11.2746
▁Future	-11.2748
▁deposits	-11.2754
▁Insurance	-11.2755
▁cu	-11.2761
▁creditors	-11.2763
▁=	-11.2764
▁ethical	-11.2764
▁outset	-11.2765
▁forestry	-11.2765
▁tough	-11.2765
▁Bay	-11.277
ule	-11.2771
▁wise	-11.2772
▁Martin	-11.2772
▁fiftieth	-11.2779
▁115	-11.278
▁traditions	-11.2781
▁row	-11.2783
▁prerequisite	-11.2793
town	-11.2793
▁editor	-11.2795
▁radioactive	-11.2796
▁denial	-11.2798
▁undertook	-11.2799
ella	-11.28
▁130	-11.2801
disciplinary	-11.2803
▁till	-11.2806
▁114	-11.2808
▁utilize	-11.2808
▁occurs	-11.281
▁stipulates	-11.2811
abil	-11.2812
pot	-11.2814
plicat	-11.2814
▁Shu	-11.2815
▁jurisprudence	-11.2817
▁partially	-11.2823
▁generous	-11.2824
▁Solomon	-11.2827
▁thanked	-11.2829
▁California	-11.2832
▁Madrid	-11.2832
▁bla	-11.2834
▁Cor	-11.2835
▁disadvantage	-11.2839
▁harmonized	-11.284
rac	-11.2851
▁Thanks	-11.2854
▁admit	-11.2856
▁Virgin	-11.2857
posed	-11.2857
▁Material	-11.2859
▁valuation	-11.286
▁Subsequently	-11.2862
▁Promote	-11.2863
radi	-11.2863
▁59/2	-11.2864
▁Mil	-11.2865
▁Tokyo	-11.2866
▁fragile	-11.2871
▁experimental	-11.2872
▁maybe	-11.2874
▁hence	-11.2874
▁Perhaps	-11.2877
▁slip	-11.2877
▁LORD	-11.2881
▁1960	-11.2882
stand	-11.2882
▁medicines	-11.2882
▁deterioration	-11.2886
▁surge	-11.2888
▁freeze	-11.289
▁endorse	-11.2892
▁expedite	-11.2893
CM	-11.2895
BM	-11.2895
▁109	-11.2897
sector	-11.2899
▁hunt	-11.2907
▁Wan	-11.291
▁Commander	-11.2914
▁silver	-11.2914
▁practitioners	-11.2915
▁Ram	-11.2919
dia	-11.2923
On	-11.2925
▁Hon	-11.2932
▁gather	-11.2932
▁economist	-11.2933
asi	-11.2934
▁slum	-11.2936
▁tenure	-11.2939
▁regulated	-11.2944
▁commonly	-11.2945
▁imported	-11.2947
development	-11.2951
▁foreigners	-11.2952
▁quantitative	-11.2952
▁interpreted	-11.2955
▁fri	-11.2958
▁Blue	-11.2962
-2010	-11.2963
▁Woods	-11.297
▁Using	-11.2977
▁diminish	-11.2978
▁Master	-11.298
itive	-11.2984
▁dear	-11.2988
▁journal	-11.2989
▁sponsor	-11.2989
▁god	-11.2997
CF	-11.2999
▁nominated	-11.3
▁Registration	-11.3001
▁dish	-11.3001
▁scan	-11.3003
▁vary	-11.3006
▁mag	-11.3008
▁resist	-11.301
▁guess	-11.3012
▁saving	-11.3013
▁disturb	-11.3018
▁Gambia	-11.3019
▁voters	-11.3022
affected	-11.3024
▁succession	-11.3025
▁artist	-11.3025
lav	-11.3026
▁Kan	-11.3026
▁evaluating	-11.3027
paragraph	-11.3028
▁wound	-11.3031
actic	-11.3031
▁attempted	-11.3032
▁accompany	-11.3033
▁reputation	-11.3033
fund	-11.3035
▁Tourism	-11.3035
friendly	-11.3036
ago	-11.3037
FI	-11.3037
▁Suppression	-11.304
▁exercised	-11.3041
▁Prior	-11.3043
licit	-11.305
▁exceeding	-11.305
▁breast	-11.3052
▁totally	-11.3052
▁exhibition	-11.3053
▁overlap	-11.3056
▁analysed	-11.3057
▁emotional	-11.3059
nie	-11.3063
ONU	-11.3063
▁tip	-11.3065
▁holistic	-11.3065
▁hat	-11.3067
SM	-11.3071
▁mobilizing	-11.3072
▁tribunals	-11.3074
▁interviews	-11.3074
▁pressing	-11.3074
▁Decolonization	-11.3076
▁discriminate	-11.3076
OU	-11.3076
▁chamber	-11.3076
▁Sometimes	-11.3092
mil	-11.3093
▁unacceptable	-11.3095
▁Tokelau	-11.3098
public	-11.3098
▁evolving	-11.3099
▁protective	-11.3104
chang	-11.3108
▁Substantive	-11.3108
▁struck	-11.311
▁Aviation	-11.311
▁variance	-11.3112
▁managerial	-11.3113
▁140	-11.3118
▁discount	-11.3125
▁analyst	-11.3125
▁explicit	-11.3126
▁delivering	-11.3129
▁Due	-11.3143
▁Net	-11.3143
▁vessel	-11.3145
▁Improved	-11.3147
▁combatants	-11.315
▁Inhuman	-11.315
▁Risk	-11.3151
mou	-11.3151
▁mono	-11.3154
▁modify	-11.3156
▁fairly	-11.3159
▁circuit	-11.3159
▁prioritize	-11.3165
▁breakdown	-11.3165
▁Puerto	-11.317
TT	-11.3172
▁killings	-11.3176
▁Performance	-11.3186
▁Coordinating	-11.3189
UL	-11.3189
▁metres	-11.319
▁Maybe	-11.3191
▁pig	-11.3195
▁explosion	-11.3195
▁arrange	-11.32
2003	-11.3206
▁stuff	-11.3206
TO	-11.3206
▁moderate	-11.3207
cen	-11.3209
▁Congolese	-11.3211
▁locally	-11.3212
▁attractive	-11.3212
▁abolish	-11.3212
emp	-11.3214
▁pupils	-11.3215
decision	-11.3217
▁Arbitration	-11.3217
▁abandon	-11.3217
▁rat	-11.3218
▁workforce	-11.3219
▁Set	-11.3222
▁Brussels	-11.3223
▁imagine	-11.3223
▁abide	-11.3225
PI	-11.3226
▁Manual	-11.3227
▁Cost	-11.3227
2001	-11.3236
▁Implement	-11.3238
▁globally	-11.3241
▁fragment	-11.3244
▁resilience	-11.3244
▁Registry	-11.3245
▁Andorra	-11.3246
Dec	-11.3246
bul	-11.3246
▁boundary	-11.3249
▁Genocide	-11.3251
▁Degrading	-11.3253
▁kids	-11.3256
▁mere	-11.3258
ode	-11.3267
encies	-11.3274
life	-11.3275
▁Saturday	-11.3275
phy	-11.3276
▁Uni	-11.3277
▁Mark	-11.3279
▁ECA	-11.328
▁112	-11.3286
▁amounting	-11.3287
▁default	-11.3289
▁debris	-11.3289
▁Moscow	-11.3294
card	-11.3294
▁exact	-11.3296
▁Town	-11.3297
▁workplan	-11.3297
▁assured	-11.3298
▁aforementioned	-11.33
lev	-11.3301
▁Organizational	-11.3304
▁116	-11.3306
▁filter	-11.3308
HI	-11.3311
▁exclude	-11.3315
▁therapy	-11.3315
▁comprise	-11.332
Test	-11.332
▁contingency	-11.3322
▁guardian	-11.3323
▁Additionally	-11.3323
RD	-11.3325
▁commander	-11.3326
▁compensate	-11.3327
\	-11.3328
IES	-11.333
▁Subprogramme	-11.333
▁1984	-11.333
▁GC	-11.3336
▁testimony	-11.3338
decentralization	-11.3344
▁empty	-11.3346
▁withdrawn	-11.3349
▁benchmarks	-11.3349
▁shadow	-11.3354
▁buying	-11.336
▁promulgated	-11.336
rio	-11.3364
▁Besides	-11.3365
hua	-11.3365
▁player	-11.3367
▁watching	-11.3373
▁sugar	-11.3378
▁bath	-11.338
ibid	-11.338
Chairman	-11.3383
▁Holy	-11.3385
lusion	-11.3386
▁acted	-11.3388
▁Fish	-11.339
pel	-11.3392
▁impartiality	-11.3393
▁reinforced	-11.3394
▁stake	-11.3395
EX	-11.3396
▁intent	-11.3398
▁installed	-11.3401
▁discussing	-11.3402
ville	-11.3402
▁vice	-11.3403
▁1.1	-11.3407
rig	-11.3409
▁irre	-11.3411
just	-11.3412
zy	-11.3414
▁strange	-11.3414
▁preferred	-11.3416
▁lunch	-11.342
lves	-11.342
▁harvest	-11.3422
▁transboundary	-11.3427
▁acceded	-11.3427
▁samples	-11.343
▁$10	-11.3431
zen	-11.3435
▁genital	-11.3436
PV	-11.3439
▁chairman	-11.344
▁Role	-11.3441
▁Wu	-11.3444
▁Immigration	-11.3444
▁drag	-11.3447
bour	-11.3451
▁documented	-11.3454
OV	-11.3454
▁Def	-11.3455
▁alliance	-11.3455
▁birds	-11.3456
▁witnessed	-11.3456
▁Committed	-11.3457
▁118	-11.3459
▁recession	-11.346
appropriate	-11.3461
▁Ze	-11.3464
▁distinguish	-11.3475
▁tired	-11.3483
▁Treasury	-11.3486
▁roster	-11.3491
▁Reiterates	-11.3492
▁ESCWA	-11.3494
▁Cruel	-11.3494
▁installations	-11.3496
▁imposition	-11.3501
▁walking	-11.3502
▁supervise	-11.3502
▁pet	-11.3502
▁Stock	-11.3504
▁Particular	-11.3507
▁independently	-11.3508
▁flo	-11.3511
▁officially	-11.3512
taking	-11.3515
▁CN	-11.3522
west	-11.3528
cular	-11.3529
gress	-11.3531
▁Rwandan	-11.3532
WC	-11.3536
▁participant	-11.3537
▁wisdom	-11.3537
▁Shan	-11.3538
▁ECE	-11.354
▁Granting	-11.3541
▁credentials	-11.3542
▁disparities	-11.3548
had	-11.3553
▁stabilization	-11.3555
▁combine	-11.3558
▁typical	-11.3558
▁exert	-11.3559
▁ought	-11.356
uz	-11.3563
▁everywhere	-11.3565
tron	-11.3567
▁Brunei	-11.3571
▁evaluated	-11.3574
▁shoes	-11.3575
▁eleventh	-11.3579
▁incumbent	-11.3579
▁intimidation	-11.3579
▁ECOWAS	-11.3579
▁113	-11.3579
▁Suriname	-11.3581
▁Old	-11.3584
▁Chan	-11.3588
▁aggregate	-11.3589
▁prosecuted	-11.3594
▁alive	-11.3601
And	-11.3602
other	-11.3602
▁attach	-11.3602
▁hardship	-11.3604
▁defeat	-11.361
▁Swaziland	-11.3611
rator	-11.3619
osis	-11.3619
▁dont	-11.3619
▁mini	-11.3621
▁resettlement	-11.3624
▁attainment	-11.3624
▁circulation	-11.3626
▁(5)	-11.3631
▁piracy	-11.3632
▁unfortunate	-11.3632
▁smart	-11.3634
▁taught	-11.364
▁Attorney	-11.3641
▁specialists	-11.3641
Sub	-11.3643
ugh	-11.3644
ounce	-11.3644
▁somewhat	-11.3646
▁avoiding	-11.3648
made	-11.3649
▁Racism	-11.365
core	-11.365
▁cable	-11.3651
▁Current	-11.3652
▁Paper	-11.3652
▁critic	-11.3653
▁younger	-11.3654
▁fool	-11.3657
▁comfort	-11.3669
▁Integration	-11.3675
▁linguistic	-11.3675
▁simultaneously	-11.3676
▁instalment	-11.3683
▁confirmation	-11.3683
▁Governance	-11.3685
▁Municipal	-11.3685
▁mutilation	-11.3685
▁landscape	-11.3691
There	-11.3691
▁immigrants	-11.3693
Qaida	-11.3698
▁underscored	-11.3699
▁desert	-11.3699
rank	-11.3699
▁Associate	-11.3701
▁symptom	-11.3701
▁heaven	-11.3701
▁malnutrition	-11.3709
▁Manager	-11.3714
▁Copenhagen	-11.3717
▁Income	-11.3721
▁modest	-11.3721
▁Airport	-11.3724
▁recalling	-11.3728
▁venue	-11.3732
▁spiritual	-11.3733
▁doctrine	-11.3734
▁wonderful	-11.3734
▁Discussion	-11.3735
char	-11.3741
▁pipe	-11.3742
▁Low	-11.3747
▁politicians	-11.3752
▁arbitral	-11.3755
▁Steering	-11.3757
▁Enhanced	-11.3757
▁km	-11.3758
▁incorporating	-11.376
/2013/	-11.3766
▁Fact	-11.3767
▁communicated	-11.3767
▁Hy	-11.3769
▁1981	-11.3772
▁counterparts	-11.3773
▁personality	-11.3787
▁Engineering	-11.3787
fire	-11.3788
▁PRO	-11.3794
▁arranged	-11.3795
▁Mer	-11.3807
▁neck	-11.3808
(1)	-11.381
aya	-11.3816
▁compare	-11.3818
▁indirectly	-11.3827
cast	-11.3828
▁terror	-11.3832
stat	-11.3834
▁122	-11.3834
▁tall	-11.3836
▁spokesman	-11.3836
▁intersessional	-11.3836
▁wording	-11.3838
▁mill	-11.3838
ologist	-11.3841
▁telling	-11.3842
▁tendency	-11.3849
▁Vincent	-11.3851
▁silent	-11.3853
▁117	-11.3853
▁(2007)	-11.3859
▁resumption	-11.3859
cade	-11.3863
▁unpaid	-11.3864
▁quantities	-11.3866
patri	-11.387
▁screening	-11.3872
▁Den	-11.3879
▁upcoming	-11.3881
▁55/2	-11.3884
▁Hospital	-11.3884
▁mechanical	-11.3886
▁Barbuda	-11.3888
▁accomplished	-11.3889
▁audio	-11.3891
▁(2010)	-11.3895
▁wherever	-11.3897
▁reliability	-11.3898
▁appropriately	-11.3899
▁passengers	-11.3899
▁utility	-11.3903
▁click	-11.3909
▁motivated	-11.3911
▁Labor	-11.3914
▁colon	-11.3915
▁desired	-11.3918
▁NAP	-11.392
▁appealed	-11.3921
▁translate	-11.3923
▁conceptual	-11.3923
▁extrajudicial	-11.3923
▁Bretton	-11.3924
▁wire	-11.3928
▁DE	-11.3929
▁exhibit	-11.3931
osa	-11.3932
▁distinguished	-11.3932
funded	-11.3933
▁accelerated	-11.3934
▁Yang	-11.3935
▁leaf	-11.394
▁hosting	-11.394
▁suicide	-11.3948
▁franc	-11.3951
▁Challenge	-11.3955
mel	-11.396
▁Self	-11.396
▁OSCE	-11.3961
▁embark	-11.3963
represented	-11.3967
ó	-11.3968
▁obstruct	-11.3972
▁Marino	-11.3978
live	-11.3981
▁guaranteeing	-11.3982
▁borne	-11.3986
encing	-11.3986
▁supplied	-11.3988
▁NATO	-11.3992
▁radical	-11.3997
▁(2002)	-11.3998
▁shortcomings	-11.4002
▁COM	-11.4007
▁stretch	-11.4008
▁inspire	-11.4009
▁Direct	-11.4013
▁usage	-11.4016
▁intensified	-11.4017
▁generating	-11.4018
OG	-11.4018
cker	-11.4021
▁Clear	-11.4022
NP	-11.4022
▁irrespective	-11.4024
▁bull	-11.4024
UNA	-11.4025
▁123	-11.4025
▁optimal	-11.4025
▁discover	-11.4028
▁placing	-11.4029
▁qualitative	-11.4029
▁spell	-11.4029
▁institutes	-11.4031
var	-11.4031
▁weekly	-11.4032
▁rush	-11.4036
hur	-11.4043
▁rough	-11.4044
▁rail	-11.4049
▁Eradication	-11.4049
vocation	-11.4049
▁Corp	-11.4051
▁(2);	-11.4051
▁concentrate	-11.4052
arn	-11.406
▁unusual	-11.4061
▁isolation	-11.4061
▁wrongful	-11.4063
▁protein	-11.4064
▁incompatible	-11.4066
▁coalition	-11.4068
hydr	-11.4069
discriminatory	-11.4071
▁curb	-11.4075
▁spin	-11.4077
▁vaccine	-11.4078
▁briefed	-11.408
cost	-11.4084
▁IDB	-11.4093
▁diplomacy	-11.4098
sembl	-11.41
rink	-11.4101
▁rapporteurs	-11.4104
▁investigator	-11.4105
▁vigorous	-11.411
▁liquidation	-11.411
▁dozen	-11.4115
▁plea	-11.4116
▁lake	-11.4131
▁1978	-11.4132
▁drain	-11.4132
▁thereafter	-11.4132
▁solicit	-11.4133
▁Antigua	-11.4144
▁William	-11.4144
▁losing	-11.4146
▁Darussalam	-11.4155
▁disseminated	-11.4156
▁sail	-11.4158
▁Families	-11.4161
▁1979	-11.4165
▁spoken	-11.4167
▁voted	-11.4167
▁alleviate	-11.4168
▁bro	-11.4173
▁invalid	-11.4174
▁Arch	-11.4174
▁Early	-11.4175
▁Peaceful	-11.4175
▁Pen	-11.4178
▁SMEs	-11.4179
▁wing	-11.4179
▁Mun	-11.4182
▁lodge	-11.4186
▁(1998)	-11.4189
▁Proposal	-11.4191
pu	-11.4192
▁Limited	-11.4194
cies	-11.4194
▁disappeared	-11.4196
▁casualties	-11.4196
▁successor	-11.4196
▁herewith	-11.4198
▁Liaison	-11.4198
payment	-11.4198
▁broadly	-11.4201
▁commencement	-11.4202
▁Ababa	-11.4203
▁dismissed	-11.4203
structure	-11.4204
▁Vietnam	-11.4205
▁Interest	-11.4211
▁livelihood	-11.4212
▁mut	-11.4212
▁Hence	-11.4223
tention	-11.4224
▁Liberian	-11.4224
▁Cairo	-11.4227
▁Dan	-11.4234
closed	-11.4235
▁tribute	-11.4235
▁annexes	-11.4237
▁dispatch	-11.4239
▁countering	-11.4239
▁scholar	-11.424
à	-11.4241
▁Comoros	-11.4244
▁Competition	-11.4244
▁predecessor	-11.4244
▁remarkable	-11.4246
▁Views	-11.4248
▁pertinent	-11.4249
session	-11.4251
▁lit	-11.4251
▁Yo	-11.4251
▁sensor	-11.4253
▁Preparation	-11.4256
/51/	-11.426
where	-11.4262
wal	-11.4263
▁Liberation	-11.4267
▁Jan	-11.4268
▁unnecessary	-11.427
pan	-11.4273
▁apartment	-11.4275
▁Johannesburg	-11.4276
▁conscience	-11.4279
▁investigative	-11.428
▁occurrence	-11.428
trial	-11.4281
▁Auto	-11.4286
▁1540	-11.4287
lash	-11.429
▁stating	-11.429
▁dump	-11.4293
▁Seven	-11.4298
▁clarified	-11.4303
▁incorporation	-11.4303
▁Ur	-11.431
▁ultra	-11.431
▁shortly	-11.4312
▁attacked	-11.4314
▁Observation	-11.4317
▁standardized	-11.4318
▁Democracy	-11.4319
▁Addendum	-11.432
ibly	-11.4321
▁birthday	-11.4322
tech	-11.4322
▁Whether	-11.4324
▁preambular	-11.4326
▁1.2	-11.4327
hear	-11.4329
▁Addis	-11.4331
▁Expenditure	-11.4336
aged	-11.4343
▁Personnel	-11.4343
kov	-11.4343
▁skilled	-11.4345
▁issuing	-11.4347
▁Approach	-11.435
▁Level	-11.4352
▁ranging	-11.4353
▁promised	-11.4354
box	-11.436
▁authentic	-11.4361
▁yellow	-11.4361
▁HR	-11.4367
▁Sho	-11.4376
have	-11.4378
location	-11.4385
corruption	-11.4389
▁kiss	-11.439
▁prolonged	-11.4392
bert	-11.4396
committee	-11.4397
▁commenced	-11.4403
▁Tel	-11.4406
▁sponsoring	-11.4406
▁Considering	-11.441
▁remittance	-11.4411
▁Appointment	-11.4413
▁convenient	-11.4413
▁creditor	-11.4413
FAO	-11.4414
▁commentary	-11.4415
ddle	-11.4417
▁cope	-11.4418
uter	-11.442
▁Call	-11.4427
▁wearing	-11.4427
▁eco	-11.4427
▁carries	-11.4438
Fourth	-11.444
11)	-11.4441
▁suspend	-11.4441
▁57/2	-11.4441
▁narcotic	-11.4441
▁Cabinet	-11.4443
▁strip	-11.4447
▁emerge	-11.4448
▁programmatic	-11.4448
▁COMMITTEE	-11.4455
RM	-11.4456
▁Being	-11.4458
▁guideline	-11.4459
vit	-11.4461
è	-11.4463
▁victory	-11.4464
▁119	-11.4465
▁Individual	-11.4468
▁weaknesses	-11.4469
▁Del	-11.4477
▁adversely	-11.4477
▁600	-11.4483
▁3.1	-11.4485
▁138	-11.4486
▁survivors	-11.4489
▁JIU	-11.4489
▁Allow	-11.449
▁ambitious	-11.4491
▁timing	-11.4491
ination	-11.4491
▁kick	-11.4492
▁enrich	-11.4493
▁Parliamentary	-11.4495
Japan	-11.4495
▁Queen	-11.4498
▁Emphasizes	-11.4501
▁pillar	-11.4503
▁Still	-11.4508
▁licensing	-11.4516
▁CDM	-11.4521
▁Maintenance	-11.4523
▁deleted	-11.4524
▁failing	-11.4524
TED	-11.4524
▁handled	-11.4524
▁Baghdad	-11.4524
▁mod	-11.4534
▁differential	-11.4535
▁smoking	-11.4535
▁121	-11.454
▁confer	-11.4541
▁JS	-11.4547
▁exhausted	-11.455
▁impression	-11.4555
▁poison	-11.4557
iyah	-11.4559
▁devise	-11.4572
▁accomplish	-11.4572
harm	-11.4573
▁liberal	-11.4574
▁giant	-11.4574
wl	-11.4582
▁revise	-11.4584
aria	-11.4587
▁split	-11.4587
▁exam	-11.4593
▁plain	-11.4595
▁instant	-11.46
▁Quality	-11.4601
lag	-11.4602
MP	-11.4604
▁Camp	-11.4605
entrepreneurship	-11.4607
▁structured	-11.4607
▁abstentions	-11.461
▁Bonn	-11.4611
▁earliest	-11.4617
▁Sudanese	-11.4623
▁sudden	-11.4626
▁virtual	-11.4627
▁universality	-11.4628
▁magnitude	-11.4628
▁clarity	-11.463
▁124	-11.4633
▁tissue	-11.4638
▁imply	-11.4639
▁Subject	-11.4644
▁meter	-11.4659
▁Percentage	-11.4664
▁bigger	-11.4667
▁angry	-11.4668
▁lady	-11.4669
▁Full	-11.4669
▁affirmed	-11.4669
▁Presidency	-11.4671
▁pharmaceutical	-11.4671
AU	-11.4671
EU	-11.4672
▁2020	-11.4678
▁Ly	-11.4681
▁Smith	-11.4684
▁Opportunities	-11.4687
▁chlor	-11.4689
MENT	-11.469
▁Conservation	-11.4691
▁embrace	-11.4691
▁inalienable	-11.4691
▁MINUSTAH	-11.4696
▁interdependence	-11.4696
▁intense	-11.4698
▁pollutant	-11.4698
▁cooperating	-11.47
▁shopping	-11.4701
▁Cup	-11.4702
▁defer	-11.4702
▁outbreak	-11.4706
▁adapted	-11.4706
▁128	-11.471
ö	-11.4711
ulated	-11.4711
▁restriction	-11.4712
▁native	-11.4712
▁mapping	-11.4719
▁prohibiting	-11.4721
▁consulted	-11.4726
▁Angel	-11.4732
▁artificial	-11.4733
▁Lee	-11.4735
udge	-11.4737
▁impediment	-11.4738
▁Impact	-11.4738
PM	-11.4738
▁emergence	-11.4738
▁100,000	-11.4741
ennial	-11.4742
▁Republican	-11.4742
▁ste	-11.4743
▁disrupt	-11.4745
▁sacrifice	-11.4745
▁Book	-11.4752
▁spectrum	-11.4754
gest	-11.4757
▁poet	-11.4758
▁affiliate	-11.476
▁bulk	-11.476
▁tube	-11.4761
▁AMISOM	-11.4764
RU	-11.4765
▁Rotterdam	-11.4769
▁misconduct	-11.4769
▁neighbours	-11.4771
▁excuse	-11.4771
▁gradual	-11.4774
▁absolutely	-11.4779
▁Principal	-11.478
▁commence	-11.478
▁inconsistent	-11.4784
▁parental	-11.4785
▁precursor	-11.4785
establish	-11.479
▁Higher	-11.4797
▁returnees	-11.4797
ika	-11.4798
vor	-11.4798
▁Plenary	-11.48
▁knock	-11.4809
▁wondered	-11.481
▁limiting	-11.4815
▁UNITED	-11.4817
direct	-11.4817
▁Keep	-11.4818
▁expressly	-11.4818
▁alert	-11.4819
▁terrible	-11.4822
▁supplier	-11.4823
▁entrepreneurs	-11.4824
▁Periodic	-11.4829
▁filing	-11.4829
▁Zhang	-11.4829
path	-11.483
▁Waste	-11.4835
employment	-11.4841
▁briefly	-11.4842
▁2.2	-11.4843
▁compatible	-11.4846
pul	-11.4847
cycle	-11.4849
▁regulating	-11.485
▁overwhelming	-11.485
▁cancellation	-11.4852
▁merit	-11.4852
NS	-11.4854
▁attaches	-11.4854
▁arrears	-11.4857
▁analysing	-11.4859
▁cessation	-11.4859
▁opt	-11.4859
▁consequently	-11.4863
▁Name	-11.4875
circ	-11.49
stone	-11.4902
▁hardware	-11.4902
▁125	-11.4903
▁aggressive	-11.4908
▁confiscation	-11.4908
▁boundaries	-11.4911
▁generator	-11.4918
▁kindly	-11.4924
▁Frank	-11.4931
▁loud	-11.4932
▁wounded	-11.4933
▁shareholders	-11.4938
▁freight	-11.494
▁Dia	-11.494
▁coach	-11.4945
▁Expressing	-11.4948
▁virtually	-11.4952
pass	-11.4955
▁rating	-11.4956
▁SCO	-11.496
RT	-11.4963
▁UNU	-11.4964
▁pocket	-11.4964
▁classroom	-11.4976
easing	-11.4977
▁criterion	-11.4977
▁warned	-11.4982
▁Documentation	-11.4989
▁Senate	-11.4992
▁sexually	-11.4993
▁traditionally	-11.4994
▁currencies	-11.4997
▁Pra	-11.5009
▁Much	-11.5015
▁rarely	-11.5016
TF	-11.5017
▁UNITAR	-11.5017
▁isolated	-11.5018
▁depart	-11.5019
▁Hotel	-11.5019
▁ECLAC	-11.502
▁govern	-11.502
/1997/	-11.5021
▁notified	-11.5021
▁Fra	-11.5022
▁aligned	-11.5024
▁everybody	-11.5028
ér	-11.5028
▁abandoned	-11.5029
hap	-11.5031
▁accede	-11.5031
▁burning	-11.5039
gger	-11.504
▁contend	-11.5044
▁Istanbul	-11.5046
agenda	-11.5047
▁tremendous	-11.5048
▁incitement	-11.5055
budget	-11.5056
▁1983	-11.5056
riving	-11.5057
EF	-11.5061
▁Transit	-11.5066
▁Him	-11.507
▁Sen	-11.507
▁realizing	-11.5079
▁126	-11.508
▁Lau	-11.5087
▁Mel	-11.5088
election	-11.5092
▁Credentials	-11.5093
▁endorsement	-11.5093
▁caution	-11.5094
▁rival	-11.5095
lah	-11.5096
diction	-11.51
▁petition	-11.5102
▁investing	-11.5104
▁prince	-11.5105
▁NATIONS	-11.5106
▁relocation	-11.5114
▁illegally	-11.5116
▁Prof	-11.512
▁wedding	-11.5129
▁precisely	-11.5134
▁angle	-11.5136
▁fluid	-11.5138
▁recourse	-11.5143
▁steadily	-11.5144
▁hide	-11.5147
▁nationwide	-11.5148
Ex	-11.515
sectoral	-11.515
▁Commitment	-11.5159
ister	-11.5161
▁drill	-11.5162
▁gro	-11.5163
▁James	-11.5163
▁varied	-11.5165
▁terminal	-11.5167
▁fertility	-11.5168
▁perpetrated	-11.517
force	-11.5171
▁Front	-11.5172
▁consume	-11.5173
▁roof	-11.5174
bli	-11.5175
design	-11.5176
▁Accord	-11.5177
MD	-11.5177
▁boom	-11.5181
▁Destruction	-11.5182
▁Pass	-11.5183
rel	-11.5184
fill	-11.5188
▁exploring	-11.5189
▁essence	-11.5191
▁Bou	-11.5194
▁unjust	-11.5197
▁Telecommunicati	-11.5197
private	-11.5203
▁substantiate	-11.5205
▁declining	-11.5206
▁epi	-11.5208
▁Brown	-11.5211
▁Minorities	-11.5214
▁reconnaissance	-11.5214
ford	-11.5215
▁dramatic	-11.5216
▁reserved	-11.5216
▁tongue	-11.5216
▁supervisory	-11.5217
▁Egyptian	-11.5217
▁crash	-11.522
tering	-11.5222
▁confidentiality	-11.5224
▁UNFCCC	-11.5225
▁download	-11.5225
▁emotion	-11.5232
▁vertical	-11.5237
▁moratorium	-11.5239
▁explored	-11.5239
▁2000-2001	-11.5241
▁avoided	-11.5245
▁template	-11.5246
▁Summer	-11.5248
▁Aspects	-11.525
▁farming	-11.5254
▁enquiry	-11.5254
▁unfair	-11.5254
▁155	-11.5259
▁logical	-11.5265
▁edition	-11.5267
PRST	-11.528
▁purchasing	-11.5281
▁Guam	-11.5292
▁saved	-11.5292
▁earned	-11.5293
▁flower	-11.5295
▁Initial	-11.5295
note	-11.5297
ENT	-11.5297
▁comfortable	-11.5298
▁Grenadines	-11.5302
▁alleviation	-11.5302
elle	-11.5306
▁scholarship	-11.5307
▁policymaking	-11.5321
▁circled	-11.5321
▁consultant	-11.5323
▁kitchen	-11.5327
source	-11.5329
▁craft	-11.5331
▁attribute	-11.5331
▁Girl	-11.5333
▁Kim	-11.5333
▁Tibetan	-11.5349
▁Micro	-11.5353
▁marking	-11.5355
▁lesson	-11.5359
▁Read	-11.5362
▁twelfth	-11.5366
▁certified	-11.5368
▁temporarily	-11.5369
▁teenage	-11.5369
▁positively	-11.537
▁devote	-11.537
▁collectively	-11.5372
▁disseminating	-11.5377
▁unanimously	-11.5382
▁scarce	-11.5386
▁phenomena	-11.5391
▁Yi	-11.5395
▁180	-11.5397
▁smell	-11.5401
▁apparently	-11.5401
▁sink	-11.5403
▁tape	-11.5406
▁crystal	-11.5408
▁inventories	-11.541
▁array	-11.541
▁Protect	-11.5414
#	-11.542
▁safeguarding	-11.542
carbon	-11.5425
▁conditional	-11.5425
main	-11.5426
▁anger	-11.543
▁OAU	-11.5434
phone	-11.5436
mod	-11.544
▁Hill	-11.5451
▁Improving	-11.5451
▁equation	-11.5451
▁63/2	-11.5454
▁corporal	-11.5455
▁punishable	-11.5468
▁Chang	-11.5468
▁succeeded	-11.547
roots	-11.547
▁Macao	-11.5471
▁replica	-11.5475
function	-11.5475
▁champion	-11.5476
▁taxation	-11.5478
▁coup	-11.5479
▁cleaning	-11.5482
▁Swedish	-11.5486
▁Advice	-11.5488
▁socialist	-11.5494
/1994/	-11.5499
▁proceeded	-11.5501
▁Grenada	-11.5502
▁solving	-11.5502
▁thoroughly	-11.5506
▁Reconciliation	-11.551
▁Coalition	-11.5512
▁crew	-11.5513
▁Mountain	-11.5519
▁Claim	-11.552
▁pesticide	-11.5521
▁emphasizing	-11.5525
án	-11.5526
▁cyber	-11.5527
▁renewal	-11.5527
▁intervene	-11.5529
quat	-11.553
▁1.15	-11.5531
▁Mid	-11.5533
Mar	-11.5533
expendable	-11.5533
▁1973	-11.5534
▁invoked	-11.554
▁Equatorial	-11.5543
▁removing	-11.5543
▁160	-11.5544
▁Cast	-11.5546
▁obviously	-11.5551
▁diversion	-11.5552
▁exceeded	-11.5553
▁portal	-11.5553
▁Strong	-11.5555
▁apportionment	-11.5556
▁Gibraltar	-11.5557
▁ceiling	-11.5557
▁landmines	-11.5557
▁Border	-11.5559
cher	-11.5565
▁racist	-11.5569
▁confrontation	-11.557
▁persistence	-11.557
How	-11.5574
▁compete	-11.5576
▁invested	-11.5584
aught	-11.5585
▁secretary	-11.5585
▁eliminated	-11.5587
▁administrator	-11.5592
▁mad	-11.5593
▁tragic	-11.5594
▁Best	-11.5595
▁benchmark	-11.5596
▁passion	-11.5596
▁sequence	-11.5596
▁Lesson	-11.56
▁surrender	-11.5604
▁Next	-11.5606
▁Trump	-11.5608
▁linking	-11.5609
▁Electric	-11.5614
▁referral	-11.5614
▁highway	-11.5614
▁violating	-11.5618
ç	-11.5626
▁completing	-11.5626
ía	-11.5626
▁Friends	-11.5633
▁ride	-11.5634
▁passenger	-11.564
▁blank	-11.5642
▁Treaties	-11.5644
▁nose	-11.565
▁abduction	-11.5652
ridge	-11.5652
▁fleet	-11.5653
▁urbanization	-11.5654
▁accreditation	-11.5654
wood	-11.566
Agenda	-11.5661
▁pandemic	-11.5664
▁specialist	-11.5665
▁bias	-11.5665
▁swift	-11.5672
▁Employ	-11.5673
▁favorite	-11.5673
aki	-11.5674
▁loose	-11.5683
▁stressing	-11.5684
▁matrix	-11.5684
▁Ye	-11.5684
▁suppress	-11.5685
▁accredited	-11.5686
▁interact	-11.5689
▁invention	-11.569
▁promising	-11.5696
▁($3	-11.5697
gno	-11.5699
▁disclosed	-11.5712
▁Disappearance	-11.5714
▁shortfall	-11.5719
▁exempt	-11.5721
▁gases	-11.5722
▁hostage	-11.5724
▁publishing	-11.5725
▁infected	-11.5731
▁constructed	-11.5732
▁motivation	-11.5734
▁illiteracy	-11.5738
▁powder	-11.5738
ICA	-11.5738
▁charter	-11.5738
▁sanction	-11.5742
▁compile	-11.5742
Governmental	-11.5742
▁harmonize	-11.5743
▁forensic	-11.575
shop	-11.5752
▁philosophy	-11.5756
▁designation	-11.5757
▁Step	-11.5758
▁Providing	-11.5764
▁disclose	-11.5765
▁Ethics	-11.5778
▁Ivorian	-11.5778
▁incentive	-11.5781
arily	-11.5784
▁hygiene	-11.5786
crimin	-11.5787
▁meantime	-11.5788
▁projections	-11.5789
▁inheritance	-11.5791
▁rejection	-11.5793
▁curve	-11.5794
metry	-11.5795
▁slave	-11.5796
▁Nothing	-11.5801
while	-11.5802
▁readily	-11.5804
▁Oil	-11.5805
▁printed	-11.5808
▁slight	-11.5808
management	-11.5812
▁trick	-11.5812
▁4.1	-11.5816
▁email	-11.5819
▁enactment	-11.5824
▁muscle	-11.5824
week	-11.5826
▁breed	-11.5827
▁influenced	-11.5828
▁harmonious	-11.5828
She	-11.5833
▁synthesis	-11.5835
CMP	-11.5838
▁intensity	-11.5839
▁talked	-11.5839
▁129	-11.584
pur	-11.584
▁vacation	-11.5843
▁respondents	-11.5845
speaking	-11.5851
▁ignored	-11.5857
▁1975	-11.5859
▁Brazilian	-11.5865
▁Stabilization	-11.5865
▁Club	-11.5865
page	-11.5866
▁Comm	-11.587
▁discusses	-11.5873
▁occurring	-11.5875
▁Likewise	-11.5875
▁fiber	-11.5877
▁dependence	-11.5883
▁fluctuation	-11.5883
▁multinational	-11.5884
▁1974	-11.5889
▁chicken	-11.5893
▁hub	-11.5897
stream	-11.59
sourcing	-11.59
▁recreation	-11.5902
▁recovered	-11.5903
▁checkpoint	-11.5906
group	-11.5908
▁cotton	-11.591
▁Jim	-11.5912
▁alignment	-11.5912
▁bore	-11.5913
▁auction	-11.5916
▁barrier	-11.5921
▁Mainland	-11.5925
▁stored	-11.5926
▁mirror	-11.5926
/1996/	-11.5927
▁deferred	-11.5927
habit	-11.593
1997	-11.5938
▁Compensation	-11.5938
▁risen	-11.5939
▁clock	-11.594
▁distress	-11.594
▁Star	-11.5941
▁Liu	-11.5941
▁furnish	-11.5945
▁internet	-11.5945
▁(6)	-11.5946
▁inflict	-11.5953
▁Arrangement	-11.5955
▁absent	-11.5957
▁teeth	-11.5963
eller	-11.5971
▁nineteenth	-11.5979
▁celebration	-11.5986
▁Watch	-11.5987
▁rub	-11.5987
clock	-11.5987
▁implies	-11.5988
▁Held	-11.5989
▁Museum	-11.599
military	-11.599
▁Danish	-11.5993
▁weigh	-11.5995
def	-11.5997
memor	-11.5997
▁plural	-11.5998
▁twelve	-11.6
▁sake	-11.6008
▁evacuation	-11.6012
▁Enforced	-11.6012
▁accomplishment	-11.6014
▁135	-11.6017
▁delight	-11.6019
▁mood	-11.602
▁operator	-11.6022
▁Success	-11.6023
▁Charles	-11.6024
▁Harry	-11.6024
▁uranium	-11.6029
▁ignore	-11.6031
UNICEF	-11.6032
▁escort	-11.6033
▁install	-11.6034
▁unconditional	-11.6037
1]	-11.6038
▁extremist	-11.6041
▁History	-11.6041
▁consolidating	-11.6045
▁Chu	-11.6047
▁spill	-11.6047
▁surprised	-11.6048
▁precondition	-11.6058
turn	-11.6059
▁basin	-11.6068
▁adolescent	-11.607
ifiable	-11.6072
▁revitalization	-11.6072
▁consulting	-11.6073
▁Joseph	-11.6089
▁Richard	-11.6091
▁tel	-11.6093
▁investor	-11.6094
▁Minimum	-11.6095
▁Until	-11.6096
▁committing	-11.6101
▁thirteenth	-11.6101
▁Supply	-11.6101
▁accelerating	-11.6103
~	-11.6106
▁insight	-11.6107
▁entrance	-11.6108
▁periodically	-11.6108
▁Portuguese	-11.611
▁listening	-11.611
▁Visit	-11.611
▁comprised	-11.6114
▁fur	-11.6117
▁redeploy	-11.6118
▁communiqué	-11.6118
▁deputy	-11.6118
▁summarize	-11.612
▁UNAMI	-11.6122
▁gravity	-11.6122
▁1961	-11.6127
road	-11.6128
▁designate	-11.6128
▁CAT	-11.6134
▁Auditor	-11.6142
When	-11.6144
▁surgery	-11.6144
▁2.5	-11.6144
▁restrictive	-11.6152
Canada	-11.6156
▁Apart	-11.6157
▁Jen	-11.616
▁Host	-11.6162
▁threatening	-11.6168
rav	-11.617
▁edit	-11.617
▁153	-11.6173
▁Class	-11.6173
▁encounter	-11.6175
▁optimize	-11.6177
▁museum	-11.6185
▁sensing	-11.6185
▁lifting	-11.6187
▁fulfill	-11.6192
▁Recalls	-11.6193
▁devastating	-11.6198
posit	-11.6202
▁recosting	-11.6204
▁successive	-11.6206
▁restraint	-11.6215
▁notwithstanding	-11.6225
▁noticed	-11.6225
▁UNAIDS	-11.6227
signed	-11.6227
▁mixture	-11.6229
▁logic	-11.6234
ordinate	-11.6235
▁precaution	-11.6238
bank	-11.6254
▁leverage	-11.6257
▁premium	-11.6257
▁cheer	-11.6257
▁Experience	-11.6263
och	-11.6263
▁Owing	-11.6264
▁apple	-11.6266
depleting	-11.6267
▁ACC	-11.6269
▁filling	-11.6272
profit	-11.6275
▁gang	-11.6275
posing	-11.6276
▁interfere	-11.6279
▁Course	-11.628
▁250	-11.628
Sha	-11.6283
▁worship	-11.6284
▁CEB	-11.6286
▁Hand	-11.6289
support	-11.6289
▁Rather	-11.629
known	-11.6295
▁deficiencies	-11.6299
▁Presidential	-11.63
▁industrialized	-11.6302
▁preferential	-11.6306
▁Stressing	-11.631
▁gall	-11.6313
▁reception	-11.6314
equen	-11.6318
▁Marshall	-11.632
▁pledge	-11.6323
▁broadcasting	-11.6324
▁Albanian	-11.6326
▁residual	-11.6331
▁imposing	-11.6331
▁User	-11.6338
▁eligibility	-11.6339
▁prize	-11.634
ike	-11.634
▁advertisement	-11.6341
mann	-11.6342
▁Ensuring	-11.6348
▁Vanuatu	-11.6356
ifier	-11.6361
▁scourge	-11.6367
▁everyday	-11.6369
▁UNFICYP	-11.6369
▁continental	-11.6369
ão	-11.637
▁hostile	-11.6377
▁indicative	-11.638
▁amending	-11.638
hour	-11.6382
driven	-11.6383
ERS	-11.6385
▁dose	-11.6388
▁hidden	-11.6393
▁steal	-11.6396
▁underscore	-11.6398
▁Economy	-11.6399
▁Bio	-11.6406
▁precious	-11.6406
▁132	-11.6411
▁mercenaries	-11.6416
▁Institutional	-11.6417
▁peasant	-11.6418
▁Policies	-11.6421
▁milestone	-11.6423
▁burst	-11.6423
▁luck	-11.6424
communicable	-11.6425
▁(1991)	-11.6425
five	-11.6426
▁button	-11.643
▁deeper	-11.6433
▁UNITA	-11.6436
▁Type	-11.6438
May	-11.6447
▁parliamentarian	-11.6447
▁socioeconomic	-11.6448
▁attracted	-11.6451
▁density	-11.6451
Russian	-11.6452
▁1977	-11.6453
▁Citizens	-11.6455
▁horizontal	-11.6455
▁highlighting	-11.6461
▁athlete	-11.6472
Economic	-11.6473
▁minimal	-11.6475
3%	-11.6476
▁Hold	-11.6477
▁warehouse	-11.6479
▁verified	-11.648
defence	-11.6481
▁reproduced	-11.649
▁plot	-11.6492
▁Compliance	-11.6496
▁Rehabilitation	-11.6496
▁Detention	-11.6498
▁vacant	-11.6498
▁laser	-11.6502
ROM	-11.6504
▁1971	-11.6511
▁Campaign	-11.6516
▁archives	-11.6516
sessional	-11.6516
▁134	-11.652
▁preserving	-11.652
▁fifteenth	-11.652
▁qualification	-11.6523
▁pipeline	-11.6523
▁postponed	-11.6525
▁PRESIDENT	-11.6526
▁127	-11.6533
▁Dutch	-11.6541
▁flash	-11.6549
▁Computer	-11.6551
▁Option	-11.6552
▁quarterly	-11.6557
▁Money	-11.656
▁Xiao	-11.6562
UT	-11.6568
▁10,000	-11.6582
▁knee	-11.6586
▁(1993)	-11.6587
▁Schedule	-11.659
fact	-11.659
▁Revised	-11.6592
2%	-11.6596
Plurinational	-11.6596
▁continual	-11.6596
▁Traffic	-11.6598
▁invoice	-11.6598
▁Vol	-11.66
phan	-11.6601
▁Mexican	-11.6607
▁fold	-11.6609
▁Subsidiary	-11.6609
▁correctly	-11.6616
urge	-11.6617
▁brutal	-11.6618
▁conceal	-11.662
▁finalize	-11.6624
▁bold	-11.6631
▁soldier	-11.6631
▁Mogadishu	-11.6633
▁watched	-11.6635
▁136	-11.6637
▁discourage	-11.6638
▁abilities	-11.6638
▁Intelligence	-11.664
▁Jewish	-11.664
▁impetus	-11.664
▁abolished	-11.6642
▁accumulation	-11.6646
▁stateless	-11.6653
graduate	-11.6654
▁methodological	-11.6659
▁widow	-11.6664
sponsor	-11.6667
▁concert	-11.6672
▁tackling	-11.6677
▁Together	-11.668
HO	-11.6685
two	-11.6685
▁Defense	-11.6686
▁magic	-11.6689
ison	-11.669
France	-11.6692
▁Start	-11.6694
▁liquidity	-11.6695
▁servant	-11.6697
▁anywhere	-11.6702
▁Contact	-11.6706
▁underlines	-11.6708
▁harder	-11.6709
▁Rico	-11.671
▁Satellite	-11.671
▁keen	-11.6713
setting	-11.6714
▁Poly	-11.6717
▁corporation	-11.672
▁decentralized	-11.6721
each	-11.6731
▁Mohamed	-11.6735
▁practise	-11.6735
▁Nature	-11.6743
▁Verification	-11.6756
▁Caledonia	-11.6757
▁inception	-11.6759
▁consecutive	-11.6761
▁accurately	-11.6766
▁dominant	-11.6768
▁macro	-11.677
▁Enforcement	-11.6775
▁drove	-11.6776
▁bargain	-11.6786
▁131	-11.6787
▁arsenal	-11.6788
▁contradict	-11.679
▁winner	-11.6795
▁picked	-11.6796
▁Knowledge	-11.6804
Human	-11.6805
▁twin	-11.6808
▁ministry	-11.6808
▁Thirty	-11.681
strict	-11.6811
▁Had	-11.6824
political	-11.6828
▁$20	-11.6832
▁pulled	-11.6833
▁Alternative	-11.6839
capacit	-11.684
▁Revolution	-11.6841
▁immunities	-11.6844
▁deciding	-11.6844
vian	-11.685
▁constituent	-11.6851
▁frozen	-11.6851
▁detected	-11.6851
▁170	-11.6854
Annex	-11.6855
▁aggravate	-11.6855
▁experiencing	-11.6855
▁airline	-11.6858
▁erosion	-11.6862
▁lifestyle	-11.6864
▁undermined	-11.6873
fit	-11.6874
▁Various	-11.6878
▁announce	-11.688
▁Tar	-11.688
▁Communist	-11.6882
▁misuse	-11.6883
▁awaiting	-11.6884
processing	-11.6886
▁Back	-11.6887
▁Unless	-11.689
▁Ageing	-11.689
▁cancel	-11.689
▁Whole	-11.6896
▁Kivu	-11.6898
▁sensitivity	-11.6902
purpose	-11.6905
▁tie	-11.6906
▁inherit	-11.691
▁merger	-11.6911
▁Turk	-11.6918
▁breaches	-11.6919
▁tragedy	-11.6923
▁varying	-11.6926
▁compiled	-11.6933
▁tuberculosis	-11.6934
▁pave	-11.6936
▁deportation	-11.6936
▁artistic	-11.6937
▁voluntarily	-11.6941
▁norm	-11.6942
▁Festival	-11.6945
▁Poor	-11.6951
▁float	-11.6958
▁retire	-11.696
▁Give	-11.696
▁preclude	-11.696
▁Jiang	-11.6961
▁133	-11.6962
▁Refugee	-11.6964
▁stabilize	-11.6966
▁Mill	-11.6969
▁eager	-11.6973
▁unclear	-11.6974
pay	-11.6976
▁diligence	-11.6977
▁introductory	-11.6977
▁Everyone	-11.6978
▁Umoja	-11.6979
▁Series	-11.698
▁Abyei	-11.6982
▁Embassy	-11.6982
▁bitter	-11.6985
▁Forty	-11.6989
jan	-11.6997
▁arose	-11.6998
▁regulator	-11.7
▁random	-11.7
▁commensurate	-11.7004
▁Tenth	-11.7006
▁harsh	-11.7007
▁humankind	-11.7011
▁Lam	-11.7013
8%	-11.7014
▁nearby	-11.7014
ILO	-11.7017
▁multilateralism	-11.7017
FF	-11.702
▁disregard	-11.7023
▁neuro	-11.7029
▁reasonably	-11.703
food	-11.7031
▁surprising	-11.7034
▁valve	-11.7036
tum	-11.7038
▁renovation	-11.7048
▁chose	-11.7048
▁Guard	-11.7048
▁Emphasizing	-11.7055
▁coincide	-11.7061
▁odd	-11.7062
▁chairmanship	-11.7063
▁divert	-11.7063
▁contraceptive	-11.7071
▁peacekeepers	-11.7073
▁Mad	-11.7073
▁Mount	-11.7075
▁demining	-11.7075
▁tsunami	-11.708
▁spatial	-11.7082
▁Physical	-11.7084
WHO	-11.7086
▁totalling	-11.7091
▁1972	-11.7096
▁qualify	-11.7096
efficient	-11.7096
▁Guiding	-11.7097
▁aftermath	-11.71
▁Presentation	-11.7101
2013	-11.7103
▁worried	-11.7103
▁Cat	-11.7106
▁lamp	-11.7107
▁Bali	-11.7112
▁Growth	-11.7117
▁packaging	-11.7119
▁owed	-11.7122
▁(2013)	-11.7129
ground	-11.713
▁livestock	-11.7131
▁coercive	-11.7133
▁subscribe	-11.7133
controlled	-11.7134
▁noble	-11.7134
▁Solidarity	-11.7135
generation	-11.7137
▁compress	-11.714
▁hyper	-11.7147
angle	-11.7147
▁recognise	-11.7149
▁recycling	-11.7149
Go	-11.7149
▁composite	-11.7153
▁articulate	-11.7156
Report	-11.7156
▁Traditional	-11.7158
▁reliance	-11.7158
▁pronounce	-11.7163
▁upward	-11.7167
step	-11.717
▁1976	-11.7171
▁Landlocked	-11.7172
▁Nonetheless	-11.7172
sponsored	-11.7173
▁beneficiary	-11.7174
▁Argentine	-11.7177
▁visibility	-11.7184
▁opponent	-11.7186
▁aquifer	-11.7186
▁identical	-11.7188
itch	-11.7192
▁Index	-11.7193
▁restored	-11.7196
▁cater	-11.7197
▁interrelated	-11.7199
▁catalyst	-11.72
▁streamlining	-11.72
▁Henry	-11.7205
▁outlook	-11.7206
▁reside	-11.7207
▁barrel	-11.721
▁excluding	-11.721
▁Phil	-11.7211
▁Tuvalu	-11.7212
▁Supplementary	-11.7213
▁mainland	-11.7213
▁lag	-11.7215
▁correspondence	-11.7218
▁Tro	-11.7218
▁repeal	-11.7218
(2)	-11.722
▁Father	-11.7223
▁CST	-11.7224
▁Mur	-11.7225
▁captured	-11.7225
4%	-11.723
▁administer	-11.724
▁narrative	-11.7244
▁conscious	-11.7245
▁selective	-11.7246
▁volatile	-11.7246
▁likewise	-11.7246
▁(2012)	-11.7246
▁marginalization	-11.7248
▁suspicion	-11.7249
▁libraries	-11.7251
▁copyright	-11.7252
▁civic	-11.7253
▁petitioner	-11.7259
▁Abdul	-11.726
Un	-11.726
▁XII	-11.726
▁fairness	-11.7262
▁Film	-11.7263
▁petroleum	-11.7265
▁UNCDF	-11.7279
▁169	-11.7283
▁Recovery	-11.7284
▁Coast	-11.7285
▁encouragement	-11.7285
impact	-11.7287
▁advocated	-11.7291
▁winning	-11.7292
▁depression	-11.7293
▁politic	-11.7295
▁Lack	-11.7296
▁Georgian	-11.7298
▁Organic	-11.7303
▁methyl	-11.7303
▁infectious	-11.7305
trust	-11.731
▁shore	-11.7311
▁confined	-11.7312
▁instrumental	-11.7319
▁okay	-11.7319
▁Southeast	-11.732
▁shirt	-11.7321
▁65/2	-11.7322
▁Learning	-11.7323
▁sharply	-11.7328
▁steam	-11.733
▁Tan	-11.7333
▁medal	-11.7334
▁unencumbered	-11.7335
▁lifted	-11.7335
▁Subtotal	-11.7338
▁compact	-11.7338
version	-11.7339
morph	-11.734
▁Tonga	-11.7344
▁addendum	-11.7347
▁coupled	-11.7351
▁Tang	-11.7351
▁captain	-11.7351
▁compliment	-11.7357
▁inspectors	-11.7357
chemical	-11.7357
▁legacy	-11.736
▁Express	-11.7362
▁abstract	-11.7364
▁Improvement	-11.7364
6%	-11.7367
▁corrupt	-11.7367
count	-11.7368
▁Sign	-11.7371
fusion	-11.7379
▁ambition	-11.738
▁folk	-11.7381
▁Disability	-11.7381
ethnic	-11.7381
▁blockade	-11.7382
▁robot	-11.7386
play	-11.7387
▁Fire	-11.7387
llen	-11.7391
▁greet	-11.7392
▁MINURSO	-11.7397
▁reunification	-11.7402
/49/	-11.7406
▁identifies	-11.7406
▁proposing	-11.7407
established	-11.741
▁settlers	-11.7414
▁Van	-11.7418
___	-11.7423
lop	-11.7425
▁jo	-11.7426
itz	-11.7426
▁precision	-11.7429
▁Instrument	-11.743
▁Albert	-11.7436
▁Encourage	-11.7437
▁Component	-11.744
▁Understanding	-11.7442
▁countermeasures	-11.7444
▁tiny	-11.7444
▁earmarked	-11.7447
▁eviction	-11.7447
▁José	-11.7447
ú	-11.7451
▁suspicious	-11.7459
▁Kat	-11.7459
▁basically	-11.7461
▁weakness	-11.7463
MISC	-11.7463
▁festival	-11.7463
▁nursing	-11.7466
▁Thomas	-11.7466
weight	-11.7466
▁adviser	-11.7467
▁extraction	-11.747
▁CCW	-11.7473
▁Fight	-11.7475
▁Author	-11.7478
▁dioxide	-11.7487
▁interpretative	-11.7492
ambi	-11.7496
That	-11.7502
▁seventeenth	-11.7506
▁Short	-11.7508
▁overcoming	-11.7509
▁Gui	-11.7516
▁boil	-11.7517
also	-11.752
▁precedent	-11.7523
▁empowered	-11.7523
▁pride	-11.7523
▁Rock	-11.7523
▁Donor	-11.7523
▁Norwegian	-11.7528
▁organisation	-11.753
▁60/1	-11.7534
▁melt	-11.7538
emia	-11.7542
▁Daily	-11.7542
voluntary	-11.7543
▁sixteenth	-11.7547
▁UNV	-11.7549
lysis	-11.7551
▁Select	-11.7554
▁injection	-11.7555
▁disbursement	-11.7559
▁persecution	-11.7564
▁_	-11.7568
▁Okay	-11.7569
▁dare	-11.7572
▁interregional	-11.7573
▁jeopardize	-11.7576
▁definitely	-11.7576
▁congress	-11.758
▁Microsoft	-11.7583
▁inevitable	-11.7583
▁Grant	-11.7584
▁distribute	-11.7591
▁expectancy	-11.7592
▁Advance	-11.7593
▁thermal	-11.7594
▁67/2	-11.7597
mato	-11.7598
▁pricing	-11.76
▁campus	-11.7604
7%	-11.7605
▁contaminated	-11.7612
▁painful	-11.7613
▁tech	-11.7616
▁tropical	-11.7617
▁overdue	-11.7622
▁roughly	-11.7624
▁indictment	-11.7625
▁bow	-11.7627
▁CMP	-11.763
▁trap	-11.7634
▁neo	-11.7635
▁volatility	-11.7636
hereinafter	-11.7639
▁Teacher	-11.7639
gie	-11.7641
▁cleaner	-11.7647
▁somebody	-11.7649
▁expeditiously	-11.7656
▁oppose	-11.7657
▁restitution	-11.7658
▁Week	-11.7663
▁auditors	-11.7665
▁span	-11.767
fish	-11.7673
▁derive	-11.7677
▁regretted	-11.7678
▁Louis	-11.7683
▁treasure	-11.7685
▁flame	-11.7687
Corr	-11.7687
▁converted	-11.7687
▁ingredient	-11.769
▁chip	-11.769
training	-11.7694
▁hypo	-11.7695
▁dramatically	-11.7696
Not	-11.7696
▁underground	-11.7706
▁Abd	-11.7709
▁Increasing	-11.771
wen	-11.7712
▁offensive	-11.7714
▁indiscriminate	-11.7715
▁delete	-11.7716
▁Briefing	-11.7717
▁Credit	-11.7717
▁Ship	-11.7717
▁acceding	-11.7719
▁OIC	-11.772
▁($4	-11.7725
▁marital	-11.7727
▁inviting	-11.7728
▁Maria	-11.773
^#	-11.7731
▁Problem	-11.7739
escence	-11.7742
▁rigorous	-11.7744
▁stolen	-11.7746
▁acquiring	-11.7749
clude	-11.775
▁tied	-11.7752
▁Clinton	-11.7756
▁fellowship	-11.7757
▁microfinance	-11.7759
document	-11.776
Government	-11.776
chlor	-11.7763
š	-11.7766
▁Seychelles	-11.7766
▁temper	-11.7768
▁globe	-11.7768
▁nervous	-11.7768
health	-11.7769
African	-11.7769
▁tonnes	-11.777
yard	-11.7772
▁Ethiopian	-11.7774
▁Tell	-11.7778
▁reservoir	-11.7778
▁optical	-11.7779
present	-11.7779
ashi	-11.7781
▁cultivate	-11.7783
▁bail	-11.7784
▁fossil	-11.7786
▁brown	-11.7786
▁lifetime	-11.7791
▁circular	-11.7793
hong	-11.7795
▁Fundamental	-11.7795
▁alongside	-11.78
▁escalation	-11.78
▁Return	-11.7801
▁generic	-11.7804
▁Micronesia	-11.7805
▁signatories	-11.7805
▁usefulness	-11.7809
▁Fair	-11.781
fuel	-11.7817
▁eighteenth	-11.7818
▁cigarette	-11.782
▁trademark	-11.782
▁architect	-11.7822
▁sophisticated	-11.7823
▁eradicating	-11.7825
▁Kam	-11.7827
▁loyal	-11.7828
▁Compact	-11.7828
▁remainder	-11.7829
▁Phase	-11.7836
▁Google	-11.7837
▁priest	-11.784
▁affirmative	-11.7842
▁lying	-11.7842
▁Spring	-11.7844
▁acknowledging	-11.7845
▁bacteria	-11.785
olic	-11.7862
▁Temporary	-11.7865
▁1951	-11.7865
▁cake	-11.7866
▁Never	-11.7867
▁parity	-11.7868
connect	-11.7879
▁COUNCIL	-11.788
▁Companies	-11.7882
▁cream	-11.7885
http	-11.7888
▁steering	-11.789
▁tab	-11.789
▁facilitator	-11.7892
}	-11.7894
held	-11.7896
▁royal	-11.7897
▁ambassador	-11.7902
▁massacre	-11.7904
▁Luc	-11.7905
▁rubber	-11.7905
▁specifications	-11.7906
▁vulnerabilities	-11.7907
ulator	-11.7908
▁Modern	-11.7909
▁flee	-11.7911
▁Equipment	-11.7914
Mexico	-11.7918
▁$50	-11.792
▁hire	-11.7921
▁nobody	-11.7925
▁1325	-11.7925
▁unchanged	-11.7927
Chairperson	-11.7929
▁Throughout	-11.793
▁143	-11.7931
▁magistrate	-11.7937
▁crude	-11.7937
▁utilizing	-11.7939
India	-11.7942
icular	-11.7947
▁sentiment	-11.7949
▁Enhancing	-11.7952
▁evolved	-11.7954
▁pretrial	-11.7954
▁discovery	-11.7955
▁unexpected	-11.7957
▁linkage	-11.7959
▁Fisheries	-11.7962
▁Intellectual	-11.7964
▁IMIS	-11.7977
SBI	-11.7979
▁Certificate	-11.7979
▁miscellaneous	-11.7979
▁relieve	-11.798
ethyl	-11.798
▁deteriorate	-11.7982
▁intermediate	-11.7982
most	-11.7989
▁trail	-11.7989
credit	-11.7989
▁textile	-11.7994
▁reconcile	-11.8
▁tap	-11.8
▁Notwithstanding	-11.801
▁accumulated	-11.801
▁Similar	-11.8012
▁marginal	-11.8012
▁correlation	-11.8015
▁COMMISSION	-11.8017
uation	-11.8018
assessment	-11.8019
▁creature	-11.802
{	-11.8022
▁foreseen	-11.8022
▁eventual	-11.8027
▁Assist	-11.8032
▁Pay	-11.8036
▁travelling	-11.8042
reaching	-11.8042
▁competing	-11.8042
▁expectation	-11.8043
chen	-11.8046
evaluation	-11.8046
▁undermining	-11.8048
▁cow	-11.8049
▁cement	-11.8053
Brazil	-11.8054
Original	-11.8057
▁infringe	-11.8062
▁seize	-11.8065
▁governor	-11.8068
▁golden	-11.8072
▁uneven	-11.8074
▁graduation	-11.8078
▁remnants	-11.8078
▁Respect	-11.8078
▁persuade	-11.808
▁Antarctic	-11.8083
▁Find	-11.8086
▁privatization	-11.8093
▁Mah	-11.8093
▁allegation	-11.81
▁hired	-11.8103
▁harness	-11.8103
▁paramount	-11.8113
culture	-11.8115
▁Empowerment	-11.8116
▁rations	-11.8119
▁postpone	-11.8121
affaires	-11.8123
▁magnetic	-11.8124
▁Relevant	-11.8134
▁convergence	-11.8134
word	-11.8147
▁freezing	-11.8149
▁OK	-11.815
▁pill	-11.8152
▁complied	-11.8154
▁connectivity	-11.8155
▁openness	-11.8158
▁uncertain	-11.8158
▁backlog	-11.8158
▁disruption	-11.8159
rrh	-11.8161
charge	-11.8165
▁factual	-11.8165
▁Help	-11.8167
finding	-11.8169
▁800	-11.8179
▁1998-1999	-11.8182
▁veto	-11.8183
▁bulletin	-11.8186
▁Ahmed	-11.819
▁Daniel	-11.819
▁beaten	-11.8194
▁Little	-11.8195
▁confiscated	-11.8195
▁trainers	-11.8198
▁Cash	-11.82
▁Female	-11.82
▁Especially	-11.8203
▁breakfast	-11.8203
▁applicability	-11.8205
▁Yan	-11.821
▁admissible	-11.8211
▁plenty	-11.8213
▁circum	-11.8218
▁contamination	-11.8223
▁urging	-11.8223
▁shout	-11.8224
▁shake	-11.8224
▁boot	-11.8226
▁indefinite	-11.8229
▁supervisor	-11.823
▁confession	-11.8231
interpretation	-11.8238
▁UNDAF	-11.8246
▁irrigation	-11.8249
▁mor	-11.825
▁frank	-11.8256
▁polar	-11.826
▁Santa	-11.8262
▁recurrent	-11.8264
▁corn	-11.827
▁yard	-11.8271
▁brave	-11.8271
▁kg	-11.8274
▁diagnostic	-11.8278
▁cure	-11.8283
▁Primary	-11.8285
▁Doctor	-11.8286
/2014/	-11.8291
▁cloth	-11.83
▁wheat	-11.8301
▁sweat	-11.8304
front	-11.8308
▁flagrant	-11.8309
▁democratization	-11.8311
▁forgotten	-11.8311
1%	-11.8313
▁requisite	-11.8314
▁Abuse	-11.8316
▁mature	-11.8317
▁CARICOM	-11.8322
WTO	-11.8324
▁retired	-11.8327
▁61/1	-11.8328
▁Payment	-11.834
▁jail	-11.8345
▁Kabul	-11.8356
▁Submission	-11.8358
▁choosing	-11.8358
▁cohesion	-11.8361
reclassification	-11.8361
▁reminder	-11.8362
▁embodied	-11.8363
▁Place	-11.8365
▁Achieve	-11.8374
▁residing	-11.8376
▁contradiction	-11.8377
▁intercultural	-11.8377
▁Way	-11.8377
▁dismissal	-11.8382
▁ethnicity	-11.8383
▁Price	-11.8385
▁umbrella	-11.8387
▁inquiries	-11.8389
▁grace	-11.839
▁autumn	-11.8395
▁Div	-11.8396
▁UNDOF	-11.8397
▁shelf	-11.8397
▁stepped	-11.8399
looking	-11.84
▁trauma	-11.8404
Rapporteur	-11.8405
▁centuries	-11.8405
olog	-11.8412
▁extradite	-11.8413
▁reactor	-11.8414
▁bracket	-11.8429
▁tighten	-11.8434
▁Evidence	-11.8434
▁unequal	-11.8434
▁Palau	-11.8434
▁Text	-11.8434
▁copper	-11.8436
▁sediment	-11.8437
▁leisure	-11.8439
▁Update	-11.8441
▁banned	-11.8444
▁2012/13	-11.8445
▁Serbian	-11.8446
UNFPA	-11.8447
▁maxim	-11.8458
▁Prepare	-11.8459
Global	-11.8463
▁linear	-11.8463
▁shame	-11.8464
▁Death	-11.8468
Chairmen	-11.847
ICT	-11.8471
▁MDG	-11.8474
▁motive	-11.8475
▁typ	-11.8481
tail	-11.8483
▁MONUSCO	-11.8484
▁Beirut	-11.8489
▁casual	-11.8497
▁spark	-11.8497
limit	-11.8497
▁faithful	-11.8499
▁chest	-11.85
frame	-11.8501
▁counties	-11.8506
▁swimming	-11.8511
▁Communities	-11.8513
▁battalion	-11.8513
▁procuring	-11.8513
▁hiring	-11.8516
▁$100	-11.8522
▁disposition	-11.8522
▁municipality	-11.8523
▁1969	-11.8525
▁charm	-11.8526
▁Almost	-11.8531
▁Carrie	-11.8532
vasive	-11.8537
▁lung	-11.8541
▁echo	-11.8546
▁consciousness	-11.8547
▁sword	-11.8551
▁MEETING	-11.8556
▁corridor	-11.8556
▁impressive	-11.8556
gli	-11.8557
▁competencies	-11.8564
▁Demand	-11.8566
▁exacerbated	-11.8567
/48/	-11.8571
▁infringement	-11.8571
▁policing	-11.8572
statement	-11.8576
▁adjacent	-11.8577
▁Later	-11.8583
▁theatre	-11.8584
▁carriage	-11.8585
legal	-11.8585
▁restoring	-11.8588
▁rebuild	-11.859
▁offender	-11.859
▁Overview	-11.859
▁attorney	-11.859
▁fourteenth	-11.859
Israel	-11.8593
▁suppression	-11.8593
▁hoping	-11.8596
▁segregation	-11.8598
▁execute	-11.8601
▁pile	-11.8604
▁Globalization	-11.8604
▁laboratories	-11.8609
▁Railway	-11.8614
▁cumulative	-11.8614
▁undoubtedly	-11.8614
▁66/2	-11.8617
▁trafficked	-11.8618
▁grid	-11.8618
▁Object	-11.8621
▁static	-11.8629
BDE	-11.8631
▁fracture	-11.8633
▁ruin	-11.8633
▁Relationship	-11.8638
▁complementarity	-11.8641
▁stranger	-11.8645
▁Talk	-11.8646
▁tunnel	-11.8649
▁Marriage	-11.8652
▁pioneer	-11.8652
hole	-11.8653
sustainment	-11.8654
▁confusion	-11.8656
ATE	-11.867
▁UNAMA	-11.8671
finance	-11.8673
parent	-11.8677
▁null	-11.8677
▁ordnance	-11.8679
▁circulate	-11.8679
▁Armenian	-11.868
▁bubble	-11.8681
▁fence	-11.8684
▁Learn	-11.8686
▁indebted	-11.8689
▁brush	-11.8689
system	-11.869
▁envisage	-11.8693
dustrialization	-11.8695
▁stimulus	-11.8695
▁rationale	-11.8701
▁millennium	-11.8703
▁solemn	-11.8716
UNESCO	-11.872
▁syndrome	-11.8722
▁terminology	-11.8724
▁Listen	-11.8727
▁avail	-11.8729
education	-11.8736
▁Single	-11.8741
▁robbery	-11.8742
▁fruitful	-11.8746
▁Large	-11.8747
▁Bridge	-11.8748
▁Cluster	-11.8749
▁delicate	-11.8749
▁Autonomous	-11.8752
▁thread	-11.8755
▁offshore	-11.8755
▁sheep	-11.8759
▁scatter	-11.876
▁conservative	-11.8762
AND	-11.8763
▁foremost	-11.8765
▁predominant	-11.8768
▁prediction	-11.8772
▁Stockpiling	-11.8773
▁shield	-11.8773
▁CISG	-11.8773
▁nerve	-11.8776
▁calculate	-11.878
▁overarching	-11.8787
▁Infrastructure	-11.8792
▁Khan	-11.8794
▁prosperous	-11.8795
▁legislature	-11.8798
▁0.7	-11.8798
OHCHR	-11.8798
▁Jane	-11.8808
▁Except	-11.881
▁Classification	-11.8812
▁GENERAL	-11.8812
▁spur	-11.8814
▁UNMEE	-11.8817
▁Remember	-11.8819
▁immense	-11.8828
cision	-11.8829
▁parameter	-11.8831
▁Bai	-11.8832
▁unsustainable	-11.8836
amba	-11.8844
▁Ministries	-11.8847
▁plum	-11.8849
▁Category	-11.8855
▁FARDC	-11.8861
▁joke	-11.8865
assa	-11.8867
▁thrust	-11.8874
▁Aboriginal	-11.8877
▁enrolled	-11.8883
▁plight	-11.8884
▁Scope	-11.8886
▁rigid	-11.8888
▁neighbourhood	-11.8891
▁consular	-11.8894
▁mask	-11.8902
▁Extension	-11.8902
▁interior	-11.8905
▁appendix	-11.8907
▁panellists	-11.891
▁march	-11.8911
▁Substances	-11.8913
▁Opinion	-11.8913
▁Publish	-11.8916
▁accrued	-11.8916
▁omission	-11.8918
▁unequivocal	-11.8918
▁trillion	-11.8921
▁fatal	-11.8929
▁Different	-11.8935
▁timber	-11.894
▁REPORT	-11.8943
▁graphic	-11.8959
▁Significant	-11.896
▁combining	-11.896
Federated	-11.8963
paid	-11.8965
control	-11.8965
▁Ozone	-11.8965
▁habitat	-11.8966
▁buffer	-11.8968
▁stereo	-11.8972
▁utter	-11.8975
▁blast	-11.8976
▁Sahel	-11.8977
▁disagree	-11.8982
▁injustice	-11.8982
▁executing	-11.8985
▁Merc	-11.8986
▁Identification	-11.8988
▁temple	-11.8988
9%	-11.8995
▁kidnapping	-11.8996
▁oxygen	-11.8996
▁simplified	-11.8999
Australia	-11.9002
▁stroke	-11.9007
disproportionate	-11.9009
▁qualities	-11.901
▁Function	-11.9013
security	-11.9013
▁stigma	-11.9015
high	-11.9016
▁lucky	-11.9018
Council	-11.903
▁lean	-11.9042
▁deforestation	-11.9043
▁numerical	-11.9043
Invest	-11.9045
▁synergy	-11.9046
▁assuming	-11.9047
azar	-11.9049
▁Tam	-11.9051
▁Facilities	-11.9052
▁deteriorating	-11.9052
▁pleasant	-11.9054
▁Link	-11.9056
EST	-11.9066
deployment	-11.907
▁pragmatic	-11.9085
▁tolerate	-11.9085
▁Welcome	-11.9086
▁fever	-11.9093
▁Clean	-11.9094
▁honey	-11.9095
▁transferring	-11.9097
▁Strategies	-11.9102
Suppl	-11.9105
▁consultancy	-11.912
▁Chargé	-11.9122
▁intelligent	-11.9122
▁Think	-11.9128
▁computing	-11.913
guard	-11.9136
▁Almaty	-11.9136
▁Observatory	-11.9136
▁expiration	-11.9141
▁hungry	-11.9143
▁grasp	-11.9143
▁dying	-11.9151
▁Legislation	-11.9153
▁Valley	-11.9154
▁Enhance	-11.9163
▁invoke	-11.9163
▁diversify	-11.9164
▁loop	-11.917
business	-11.9174
▁striking	-11.9175
▁Medium	-11.9178
▁Brindisi	-11.9181
▁interrogation	-11.9181
▁altitude	-11.9184
intensive	-11.9185
-2012	-11.9188
▁GHG	-11.919
▁2013/14	-11.9192
▁Concluding	-11.9192
▁tribal	-11.9193
▁Abdel	-11.9194
▁Kimberley	-11.9195
▁Mir	-11.9196
▁immune	-11.9201
▁Intolerance	-11.9207
▁Berlin	-11.9207
▁somewhere	-11.9208
▁reluctant	-11.9212
▁avenue	-11.9224
Special	-11.9228
▁assemble	-11.9228
effectiveness	-11.9229
▁valley	-11.9229
▁uncle	-11.9232
▁cried	-11.9235
▁Overseas	-11.9238
▁centralized	-11.924
▁nano	-11.9244
▁blog	-11.9246
▁Apple	-11.925
▁cancelled	-11.9251
▁Television	-11.9252
▁Crisis	-11.9255
▁threw	-11.9255
▁Accept	-11.9258
▁tru	-11.926
▁replacing	-11.9261
▁prima	-11.9264
▁academia	-11.9266
ō	-11.9278
▁Memorandum	-11.9292
▁describing	-11.9294
▁swim	-11.9297
▁symposium	-11.9298
▁stomach	-11.9303
▁Transparency	-11.9312
▁simplify	-11.9315
▁tentative	-11.9318
▁dedication	-11.9321
▁Launch	-11.9321
▁detrimental	-11.9328
▁destructive	-11.9329
▁Disabled	-11.9329
▁undue	-11.9329
▁Command	-11.9332
▁overlook	-11.9332
UNHCR	-11.9334
▁entertainment	-11.9335
▁Better	-11.9335
▁optimization	-11.9338
▁artillery	-11.9341
Egypt	-11.9348
▁extremism	-11.9349
▁ideological	-11.9349
Thousands	-11.9355
▁excellence	-11.9355
▁Inquiry	-11.9355
▁anchor	-11.9357
Germany	-11.9371
▁kilo	-11.9376
▁Zu	-11.9378
▁measurable	-11.9381
▁Subcommission	-11.9384
rule	-11.9389
▁Exercise	-11.939
combatants	-11.9397
▁demonstrating	-11.9398
▁competitor	-11.9401
extraterritorial	-11.9407
▁DNA	-11.9408
▁handbook	-11.941
▁cornerstone	-11.941
▁spray	-11.9412
▁perpetrator	-11.9417
▁decreasing	-11.9419
▁reorganization	-11.9419
▁Malaria	-11.9419
▁upheld	-11.9421
▁Nauru	-11.9422
▁Position	-11.9422
▁accusation	-11.9425
▁convenience	-11.9425
▁premature	-11.9425
▁unauthorized	-11.9425
▁opium	-11.9426
▁factories	-11.9428
▁shrink	-11.9429
Argentina	-11.9435
▁Kowloon	-11.9442
ficienc	-11.9445
▁Chicago	-11.9451
▁Responsibility	-11.9451
▁physician	-11.9451
▁litem	-11.9453
▁bullet	-11.9453
quarter	-11.9459
▁definitive	-11.9465
▁CHAPTER	-11.9468
European	-11.9473
▁backward	-11.9475
▁banning	-11.9483
▁Making	-11.9486
▁Again	-11.9489
▁flaw	-11.9489
▁Arctic	-11.9494
National	-11.9497
▁52/1	-11.9497
▁buried	-11.9497
invest	-11.9499
▁frontier	-11.9501
▁liberation	-11.9506
▁retreat	-11.9509
▁Cooperative	-11.951
▁quit	-11.9519
▁await	-11.9524
Cuba	-11.9524
ESS	-11.9527
▁unlike	-11.9528
▁2011/12	-11.9539
dumping	-11.9546
giving	-11.9553
▁buck	-11.9555
▁Photo	-11.9559
▁inevitably	-11.9565
▁Volunteer	-11.9565
▁Sanctions	-11.9568
jack	-11.9568
keeper	-11.9571
▁Kitts	-11.9577
▁distant	-11.958
▁cleansing	-11.958
▁Mobile	-11.9582
dimensional	-11.9585
▁coexistence	-11.9585
▁Arusha	-11.9588
sexual	-11.9592
▁enclose	-11.9593
labor	-11.9597
stock	-11.9597
▁childcare	-11.9598
▁Benefit	-11.96
▁Identify	-11.9603
▁HKSAR	-11.9609
▁immunization	-11.9609
▁stupid	-11.9609
▁earnest	-11.961
▁cabinet	-11.9615
▁bromide	-11.9618
▁silk	-11.9618
▁vibration	-11.9627
▁Gross	-11.9627
▁UNOMIG	-11.963
▁Truth	-11.963
▁Technological	-11.9636
▁dismantle	-11.9642
▁voltage	-11.9642
▁(1994)	-11.9642
▁Dominica	-11.9642
▁Khartoum	-11.965
SBSTA	-11.9653
▁descend	-11.9656
▁mitigating	-11.9656
▁foregoing	-11.9656
▁0.0	-11.9657
▁Medicine	-11.9659
▁viability	-11.9661
▁condemnation	-11.9661
UNCTAD	-11.9662
▁(1992)	-11.9662
▁slowdown	-11.9673
Pakistan	-11.9674
▁enforcing	-11.9677
▁Priority	-11.9686
style	-11.969
▁babies	-11.9695
▁likelihood	-11.9695
▁downward	-11.9697
▁efficacy	-11.9698
▁multisectoral	-11.97
▁darkness	-11.97
▁Delegation	-11.9704
▁seventy	-11.9704
▁Juvenile	-11.971
▁Neither	-11.9713
▁actuarial	-11.9716
▁sewage	-11.9716
programme	-11.9716
permanent	-11.9718
▁Customer	-11.9722
who	-11.9723
▁Sai	-11.9724
▁Nevis	-11.9725
▁procure	-11.9731
▁alteration	-11.9731
▁Disease	-11.9731
troph	-11.9732
EMENT	-11.9732
▁varies	-11.9733
▁elementary	-11.9743
▁inmates	-11.9752
▁initiation	-11.9752
▁midterm	-11.9756
▁universe	-11.9758
▁mouse	-11.9758
▁CFC	-11.9758
▁Trustees	-11.9763
▁Belgrade	-11.9764
▁protracted	-11.9764
▁Convinced	-11.9767
▁pretext	-11.9773
▁bonus	-11.9773
▁leap	-11.9773
▁Quick	-11.9779
▁consequent	-11.9781
▁basket	-11.9791
▁reprisal	-11.9791
patient	-11.9793
▁pitch	-11.9794
▁Acknowledging	-11.9794
▁enrichment	-11.9795
▁contemplate	-11.9797
▁Value	-11.9798
▁medication	-11.98
▁Controller	-11.9802
▁10:00	-11.9806
international	-11.9809
▁presumption	-11.9812
▁UNDG	-11.9812
▁resolute	-11.9821
▁creativity	-11.9824
▁evolve	-11.9827
NPT	-11.983
▁CEO	-11.9833
office	-11.9835
▁distort	-11.9835
▁Debt	-11.9843
▁differentiated	-11.9845
▁Ahmad	-11.9851
▁relied	-11.9852
▁ICSC	-11.9857
▁reopen	-11.9858
▁vacuum	-11.986
▁vague	-11.986
▁dominated	-11.9863
▁Falkland	-11.9866
▁sulf	-11.9879
▁suppose	-11.9879
MSP	-11.9882
▁exciting	-11.9885
▁tracing	-11.9887
▁Consumer	-11.9891
▁analog	-11.9897
collect	-11.9906
▁Hamas	-11.9907
▁Threat	-11.9909
▁bidding	-11.9911
▁UNMIT	-11.9912
▁enemies	-11.9918
▁Polish	-11.9925
▁controversial	-11.9927
▁pirate	-11.9928
▁raid	-11.9929
▁Directive	-11.9932
/2008	-11.9934
▁Secret	-11.9935
ologies	-11.9935
▁($5	-11.9935
defined	-11.9936
▁propaganda	-11.9936
▁Check	-11.9936
▁Adaptation	-11.9942
▁UNAMSIL	-11.9942
▁drama	-11.9943
▁precarious	-11.9952
ICEF	-11.9958
▁subordinate	-11.9963
▁unaccompanied	-11.9964
▁Broad	-11.9965
▁Seventh	-11.9967
▁leather	-11.9968
▁desperate	-11.997
▁tertiary	-11.9973
▁Entity	-11.9973
▁passive	-11.9981
▁mortar	-11.9989
▁scrap	-11.999
▁Word	-11.999
▁triangular	-11.9991
‘	-11.9995
▁Religious	-11.9995
▁IDPs	-11.9997
▁transplant	-11.9998
figure	-11.9998
▁groundwater	-12
▁quest	-12.0005
▁litigation	-12.0007
▁enthusiasm	-12.0013
▁Delhi	-12.0014
Republic	-12.0017
▁abundant	-12.0028
▁fought	-12.0028
▁Morgan	-12.003
▁toilet	-12.0031
developed	-12.0032
compliant	-12.0032
▁Distribution	-12.0038
▁assertion	-12.0039
▁adjournment	-12.0045
chro	-12.0047
▁(1995)	-12.0053
▁organised	-12.0055
▁Focus	-12.0057
▁Rose	-12.0062
▁armaments	-12.0065
▁scrutiny	-12.0072
▁basketball	-12.0078
▁Moroccan	-12.0081
▁conscientious	-12.0081
▁CRIC	-12.009
▁automobile	-12.0093
▁2009/10	-12.0093
▁drunk	-12.0093
▁SADC	-12.0096
▁disagreement	-12.0097
▁Replace	-12.0098
▁junior	-12.0106
▁congresses	-12.011
▁unwilling	-12.0112
MOP	-12.0113
▁Facilitation	-12.0118
▁stuck	-12.0125
▁emanating	-12.0127
▁disappear	-12.0129
▁tumor	-12.0134
three	-12.0138
▁Kinshasa	-12.014
witch	-12.0143
▁vector	-12.0144
▁journalist	-12.0147
▁bride	-12.0153
▁drift	-12.0156
▁conciliation	-12.0162
World	-12.0162
▁SubCommission	-12.0164
▁Crescent	-12.0165
▁remedial	-12.0171
▁Wait	-12.0174
▁Annan	-12.018
▁Heritage	-12.019
▁aerial	-12.0194
▁Present	-12.0196
▁approving	-12.0199
▁implicit	-12.0203
▁2008/09	-12.0206
IVE	-12.0209
balance	-12.0214
▁congratulations	-12.0218
▁Michel	-12.0218
▁opera	-12.0219
▁dependency	-12.022
consuming	-12.0224
▁diffusion	-12.0231
▁refuge	-12.0233
▁luxury	-12.0234
▁hedge	-12.0237
▁situated	-12.024
dependent	-12.0243
▁orphans	-12.025
▁therapeutic	-12.0253
▁activate	-12.0254
▁Mohammed	-12.0256
▁automation	-12.0259
export	-12.0273
▁sorrow	-12.0281
▁observing	-12.0281
▁Judiciary	-12.0284
▁expel	-12.0286
▁interdependent	-12.0287
▁estimation	-12.0287
▁Democrat	-12.0288
▁impeding	-12.0288
protect	-12.0289
▁instructed	-12.0292
Free	-12.0293
▁prudent	-12.0297
▁Unlike	-12.0299
▁dividend	-12.0299
▁Abkhazia	-12.0301
PDF	-12.0301
▁Twelfth	-12.0306
▁dawn	-12.0307
▁circumstance	-12.0308
Malvinas	-12.0319
financing	-12.032
▁vested	-12.0322
▁tract	-12.0323
▁crush	-12.0324
▁disturbance	-12.0329
▁verifiable	-12.0329
▁Exploitation	-12.0335
▁abducted	-12.0338
▁absorption	-12.0345
▁excited	-12.0348
▁eurozone	-12.0351
▁radar	-12.0351
account	-12.0353
html	-12.0354
▁Mutual	-12.036
▁confinement	-12.0364
▁58/1	-12.0366
▁Requirements	-12.0367
▁void	-12.0369
▁expelled	-12.0381
XXX	-12.0383
▁awake	-12.0383
▁signatory	-12.0385
▁Living	-12.0386
▁Offr	-12.0389
▁diabetes	-12.0389
▁lobby	-12.0396
▁attachment	-12.0397
▁attainable	-12.0399
▁Ukrainian	-12.0402
▁ensuing	-12.0402
htm	-12.0414
▁coefficient	-12.0414
▁Procurator	-12.0424
▁maturity	-12.0424
▁Francisco	-12.0425
▁LDC	-12.0429
▁XIII	-12.0435
▁Vehicle	-12.0444
▁apportion	-12.0444
▁Jones	-12.0447
▁clashes	-12.045
▁IPCC	-12.0451
▁2010/11	-12.0453
▁Occupation	-12.0453
▁imminent	-12.0453
▁loving	-12.0457
▁expeditious	-12.0459
▁Beyond	-12.0463
▁constituting	-12.0463
▁Average	-12.0463
▁knife	-12.0466
▁verbatim	-12.0466
▁reinforcement	-12.0467
▁Thai	-12.0467
▁traffickers	-12.0469
▁Gazette	-12.0476
▁deputies	-12.0476
▁Expected	-12.0479
***	-12.048
▁Specifically	-12.0481
▁Elizabeth	-12.0482
▁calculating	-12.0485
▁funny	-12.0487
Friend	-12.0494
▁Agree	-12.0495
▁Ethnic	-12.0495
▁revitalize	-12.0498
▁synthetic	-12.0498
judicial	-12.0499
▁embedded	-12.0502
▁crazy	-12.0505
▁admire	-12.0506
▁Experiment	-12.0508
▁arriving	-12.0508
▁alloy	-12.0516
▁Johnson	-12.0523
▁irreversible	-12.0524
▁Mindful	-12.0527
▁Notice	-12.0529
▁regain	-12.0537
▁predictability	-12.0543
▁Guidance	-12.0544
▁chocolate	-12.0553
ović	-12.0555
▁equip	-12.0564
Recalling	-12.0564
▁atmospheric	-12.057
number	-12.0582
▁payroll	-12.0583
▁augment	-12.0586
▁struggling	-12.0589
▁gaze	-12.059
▁cannabis	-12.0592
▁Digital	-12.0596
▁literary	-12.0596
[...]
