<pad>	0
<s>	0
</s>	0
<unk>	0
,	-3.00907
▁the	-3.11413
.	-3.38085
▁to	-3.74074
▁of	-3.7559
s	-3.82623
▁and	-3.84275
▁in	-4.14793
▁a	-4.17474
▁that	-4.52515
▁is	-4.5426
-	-4.54471
’	-4.59553
▁for	-4.9487
▁–	-5.081
▁be	-5.21255
▁are	-5.31471
▁The	-5.34024
▁it	-5.34908
ing	-5.35147
▁on	-5.35701
▁with	-5.40878
▁as	-5.41457
▁not	-5.45837
▁by	-5.46603
▁has	-5.47472
▁have	-5.4983
▁will	-5.63497
▁from	-5.72552
▁more	-5.78306
▁their	-5.80564
▁“	-5.81121
▁its	-5.82942
▁an	-5.90179
ed	-5.90412
▁But	-5.9342
▁would	-5.9636
▁was	-6.00826
▁or	-6.02791
▁this	-6.03139
▁at	-6.07369
▁they	-6.09248
▁US	-6.1135
▁In	-6.11661
▁countries	-6.12607
▁than	-6.13165
▁which	-6.13804
▁China	-6.1722
▁	-6.23243
▁can	-6.23361
▁(	-6.28737
▁but	-6.32129
▁world	-6.33177
▁economic	-6.35756
ly	-6.36163
▁been	-6.37383
”	-6.37846
▁all	-6.44357
▁one	-6.47267
)	-6.50572
▁new	-6.52289
▁government	-6.5309
d	-6.53861
▁growth	-6.54668
▁also	-6.57515
▁who	-6.58863
▁should	-6.5923
▁global	-6.60032
▁other	-6.60691
▁only	-6.60982
▁could	-6.62641
:	-6.63389
▁we	-6.63392
▁Europe	-6.66408
▁about	-6.66612
▁political	-6.68511
▁such	-6.69515
▁no	-6.69967
▁most	-6.70195
▁his	-6.71385
▁people	-6.7182
;	-6.74255
t	-6.74436
▁even	-6.75053
▁A	-6.76353
▁European	-6.79069
▁country	-6.79668
▁many	-6.79671
▁so	-6.79944
▁were	-6.8032
▁years	-6.8038
▁now	-6.80493
▁financial	-6.81
e	-6.83663
▁if	-6.84917
▁This	-6.84989
▁And	-6.86631
▁economy	-6.86957
▁must	-6.87233
▁over	-6.87339
▁when	-6.89027
▁do	-6.90377
▁some	-6.91728
▁there	-6.92552
▁these	-6.93058
▁out	-6.95442
▁It	-6.96206
▁time	-6.96858
▁into	-6.97308
▁may	-6.9868
▁policy	-6.99315
n	-6.99612
▁what	-6.99934
▁EU	-7.00863
▁had	-7.01
▁much	-7.01257
▁long	-7.02404
?	-7.02569
▁up	-7.03506
▁like	-7.03863
▁he	-7.04164
▁them	-7.04571
▁public	-7.06009
▁I	-7.09352
▁crisis	-7.10968
▁United	-7.12767
▁year	-7.1287
▁power	-7.12968
▁two	-7.1505
▁because	-7.15535
.”	-7.16158
▁international	-7.16531
▁As	-7.17184
▁well	-7.18421
▁those	-7.19313
▁need	-7.2091
▁between	-7.21948
y	-7.24315
▁while	-7.2468
▁market	-7.26267
▁For	-7.2781
▁just	-7.28578
▁debt	-7.29236
▁America	-7.32031
▁first	-7.32731
▁far	-7.34008
▁investment	-7.3425
▁system	-7.3533
▁change	-7.3563
▁how	-7.3602
▁our	-7.36059
▁any	-7.36425
▁leaders	-7.37088
er	-7.38503
▁example	-7.39079
▁high	-7.39782
▁trade	-7.39949
▁way	-7.40714
▁against	-7.41295
▁last	-7.4141
▁both	-7.42372
▁make	-7.43467
▁own	-7.4372
▁state	-7.43962
al	-7.44034
▁less	-7.44561
▁support	-7.44812
▁If	-7.45622
▁after	-7.45725
▁become	-7.46231
▁markets	-7.48002
le	-7.48856
▁banks	-7.49293
▁recent	-7.49452
▁policies	-7.49687
▁governments	-7.50234
▁where	-7.50356
▁too	-7.50404
▁development	-7.50559
▁interest	-7.51021
▁national	-7.51351
▁President	-7.51867
▁social	-7.51961
▁important	-7.52028
▁India	-7.52333
▁Chinese	-7.52468
▁capital	-7.52614
▁economies	-7.52936
▁Germany	-7.54052
▁Japan	-7.55845
▁future	-7.56086
▁rates	-7.56286
▁health	-7.58906
▁still	-7.59015
▁States	-7.59699
▁today	-7.60478
▁under	-7.60895
▁current	-7.61163
▁same	-7.61737
▁real	-7.61803
▁large	-7.61953
▁Russia	-7.62276
▁rate	-7.62577
▁That	-7.62627
▁GDP	-7.62826
▁foreign	-7.62859
▁through	-7.63693
term	-7.63879
a	-7.64108
▁does	-7.64151
▁billion	-7.65535
▁To	-7.65829
▁energy	-7.66265
▁risk	-7.66286
▁including	-7.66404
▁being	-7.66525
▁already	-7.67104
▁work	-7.6722
▁since	-7.67527
▁nuclear	-7.67537
▁end	-7.67866
▁Trump	-7.68553
▁fiscal	-7.68951
▁take	-7.69326
▁might	-7.69382
▁likely	-7.69593
▁right	-7.70471
▁Iran	-7.70619
▁major	-7.71444
▁Indeed	-7.71511
▁fact	-7.73208
▁help	-7.73446
▁low	-7.73531
▁made	-7.73736
▁American	-7.74241
▁good	-7.74267
▁use	-7.75172
▁better	-7.75189
▁problem	-7.75452
▁without	-7.75825
▁military	-7.75993
▁war	-7.76451
▁result	-7.76977
▁demand	-7.77651
▁climate	-7.77878
,”	-7.78633
r	-7.78724
▁central	-7.7882
▁eurozone	-7.78964
▁tax	-7.79123
▁often	-7.79164
▁prices	-7.792
in	-7.79473
▁Bank	-7.80035
o	-7.8029
▁cannot	-7.81908
▁million	-7.82249
▁another	-7.82939
▁private	-7.83408
▁course	-7.83893
▁did	-7.84414
▁Africa	-7.84493
).	-7.84598
▁security	-7.85015
▁among	-7.85096
es	-7.85433
▁With	-7.85564
▁So	-7.85572
▁three	-7.85888
▁human	-7.86303
l	-7.86395
▁There	-7.86543
▁part	-7.86763
▁increase	-7.88339
▁S	-7.8895
▁institutions	-7.89096
▁companies	-7.89268
▁We	-7.89568
▁approach	-7.89631
▁least	-7.89803
▁region	-7.89824
▁oil	-7.90444
▁order	-7.9051
▁Union	-7.91327
▁They	-7.91604
▁income	-7.91728
▁Asia	-7.91798
▁around	-7.9191
▁labor	-7.92172
▁before	-7.9262
▁very	-7.92624
▁past	-7.92972
▁then	-7.93317
▁education	-7.93318
▁monetary	-7.93425
▁Moreover	-7.93577
▁toward	-7.93725
▁states	-7.93843
▁South	-7.94118
p	-7.95315
▁rather	-7.95467
▁North	-7.95663
▁back	-7.96767
▁World	-7.96767
▁role	-7.97009
▁rise	-7.97039
▁whether	-7.97287
c	-7.97358
▁short	-7.98215
▁higher	-7.98293
▁Israel	-7.98465
i	-7.98654
▁developing	-7.99024
▁next	-7.99034
▁Obama	-7.99131
▁money	-7.99198
▁down	-7.99311
se	-7.99682
▁At	-7.9981
▁East	-8.00212
▁few	-8.00319
▁needed	-8.00444
▁clear	-8.00636
▁case	-8.00641
▁especially	-8.00875
▁put	-8.01499
▁re	-8.02127
▁Korea	-8.02534
▁little	-8.02737
▁sector	-8.03284
▁needs	-8.03694
▁emerging	-8.03853
▁us	-8.0468
▁process	-8.05094
▁continue	-8.05264
▁domestic	-8.05307
▁France	-8.05492
▁inflation	-8.06182
▁reforms	-8.06499
▁When	-8.06813
or	-8.07021
▁G	-8.07092
▁come	-8.0733
▁problems	-8.07953
▁reform	-8.07981
▁why	-8.08209
▁strong	-8.0855
▁decades	-8.0914
▁means	-8.09591
▁remain	-8.09899
▁potential	-8.09989
▁spending	-8.10049
▁remains	-8.10091
▁costs	-8.105
'	-8.10997
▁business	-8.11067
▁during	-8.113
▁efforts	-8.11407
▁price	-8.11418
▁key	-8.11608
espite	-8.12758
▁population	-8.12973
▁cost	-8.13309
▁further	-8.13682
▁election	-8.13726
▁however	-8.14251
▁per	-8.14595
▁longer	-8.14615
▁d	-8.14627
▁services	-8.14672
▁point	-8.14698
g	-8.14723
▁free	-8.14743
▁given	-8.15162
▁non	-8.15469
▁share	-8.15775
▁citizens	-8.15861
▁One	-8.15963
▁best	-8.16168
▁workers	-8.16201
▁yet	-8.16251
▁place	-8.16437
▁growing	-8.16582
▁ago	-8.16787
▁infrastructure	-8.16889
▁benefits	-8.1722
▁increasingly	-8.17366
▁question	-8.17689
▁agreement	-8.17722
▁hard	-8.17907
▁Yet	-8.17916
▁almost	-8.18045
▁within	-8.18189
▁women	-8.1824
▁democracy	-8.18698
▁you	-8.19017
▁Greece	-8.19216
▁progress	-8.19526
▁lower	-8.2026
▁recently	-8.20681
▁difficult	-8.20717
▁access	-8.20976
▁different	-8.2101
▁Whi	-8.21245
▁provide	-8.21279
▁enough	-8.2173
▁number	-8.21821
▁her	-8.22245
▁resources	-8.223
▁set	-8.22865
▁particularly	-8.22925
▁law	-8.22931
▁level	-8.23021
▁impact	-8.23084
▁local	-8.23454
▁greater	-8.23468
▁itself	-8.23503
▁seems	-8.23837
▁poor	-8.23871
▁These	-8.2443
▁By	-8.24621
ers	-8.24653
▁After	-8.2514
▁West	-8.26148
▁children	-8.26257
▁War	-8.26282
▁reason	-8.26655
▁reduce	-8.26773
the	-8.26875
▁used	-8.27548
▁currency	-8.2776
▁left	-8.27854
▁every	-8.2793
▁second	-8.2809
ic	-8.28205
▁control	-8.2825
▁ensure	-8.28459
▁rights	-8.28567
▁terms	-8.28617
▁challenges	-8.28788
▁life	-8.28805
▁say	-8.28826
▁others	-8.28902
▁members	-8.29816
▁common	-8.29879
▁politics	-8.30011
▁Iraq	-8.30098
▁create	-8.30421
▁risks	-8.30592
▁regional	-8.31003
▁regime	-8.31005
▁small	-8.3173
▁data	-8.3174
▁face	-8.31769
▁bank	-8.31896
▁value	-8.31921
▁former	-8.31927
▁off	-8.32116
▁New	-8.32117
▁anti	-8.32125
▁half	-8.32186
▁interests	-8.32369
▁lead	-8.32484
▁peace	-8.32627
▁never	-8.32704
▁un	-8.32782
▁though	-8.32997
▁possible	-8.33155
▁credit	-8.33423
▁investors	-8.33434
▁effective	-8.33743
▁each	-8.33758
▁conflict	-8.34063
▁euro	-8.34068
▁finance	-8.34094
▁technology	-8.34142
▁exchange	-8.34643
▁strategy	-8.34897
▁thus	-8.34898
▁Even	-8.35129
▁jobs	-8.35163
▁What	-8.354
▁rules	-8.3542
▁member	-8.35454
▁Middle	-8.35512
▁know	-8.35838
▁significant	-8.36348
▁force	-8.36773
ation	-8.36936
▁research	-8.36957
▁leadership	-8.36987
▁On	-8.37281
▁rising	-8.37453
▁Minister	-8.37846
▁measures	-8.37857
▁Western	-8.37914
▁levels	-8.37967
▁C	-8.38082
▁action	-8.38345
▁want	-8.38374
▁history	-8.38485
and	-8.38665
re	-8.38858
▁home	-8.39076
▁poverty	-8.3912
▁E	-8.39233
▁view	-8.39289
▁require	-8.39389
▁address	-8.39535
▁program	-8.39784
▁challenge	-8.39845
▁issues	-8.40154
u	-8.40252
ism	-8.40563
▁UK	-8.41041
▁German	-8.41401
▁firms	-8.41819
ity	-8.41891
▁my	-8.41891
▁across	-8.41946
▁together	-8.41948
▁de	-8.42009
▁sense	-8.42275
▁M	-8.42294
able	-8.4231
▁ever	-8.42336
▁once	-8.42471
▁serious	-8.42516
▁systems	-8.42806
▁post	-8.43024
▁decision	-8.43207
▁stability	-8.43275
▁He	-8.43317
▁go	-8.43469
▁early	-8.43518
▁Arab	-8.44073
▁themselves	-8.44103
▁pay	-8.44105
▁believe	-8.44188
▁average	-8.44274
▁administration	-8.44523
▁making	-8.44678
▁balance	-8.44732
▁led	-8.44778
▁Italy	-8.4503
▁Of	-8.45057
▁British	-8.45373
▁find	-8.45426
▁society	-8.45475
an	-8.45658
▁French	-8.45797
▁seem	-8.45816
▁community	-8.45965
▁president	-8.45985
▁issue	-8.46347
▁similar	-8.46476
▁productivity	-8.46748
▁able	-8.46938
▁boost	-8.47038
▁advanced	-8.47042
▁food	-8.47056
▁see	-8.47203
▁International	-8.4743
▁increased	-8.47544
D	-8.47668
▁parties	-8.47791
▁deal	-8.48001
▁open	-8.48163
▁simply	-8.48212
▁forces	-8.48263
2	-8.48496
▁D	-8.48555
▁budget	-8.48625
▁get	-8.48999
▁young	-8.49022
▁lack	-8.49143
▁again	-8.49251
b	-8.49264
▁great	-8.49298
▁threat	-8.49324
▁model	-8.49716
▁full	-8.4982
▁run	-8.50053
A	-8.50308
▁five	-8.50608
▁developed	-8.50714
▁decade	-8.50891
▁century	-8.50963
▁move	-8.50981
▁true	-8.51142
▁areas	-8.51186
th	-8.51251
▁employment	-8.51418
▁unemployment	-8.51499
▁based	-8.51812
as	-8.51989
it	-8.5229
▁Fed	-8.52325
▁Some	-8.52512
C	-8.52791
▁Britain	-8.52863
▁always	-8.52953
▁focus	-8.52995
▁party	-8.53764
▁inequality	-8.53782
▁information	-8.53879
▁turn	-8.53973
▁opportunity	-8.54153
▁conditions	-8.54169
▁consumption	-8.54621
▁policymakers	-8.54718
▁water	-8.54868
▁production	-8.54908
▁supply	-8.55002
▁pressure	-8.55212
▁rule	-8.55292
en	-8.55643
▁him	-8.55647
▁annual	-8.55666
▁position	-8.55884
▁democratic	-8.56031
▁campaign	-8.56275
▁Central	-8.56307
on	-8.56469
▁T	-8.56493
▁rest	-8.56507
▁structural	-8.56594
▁media	-8.56798
▁response	-8.56854
▁industry	-8.5688
▁care	-8.56896
▁success	-8.57082
▁cooperation	-8.57259
▁working	-8.57566
▁Syria	-8.57936
▁start	-8.58126
ion	-8.58401
▁effects	-8.58414
▁term	-8.58421
▁dollar	-8.58616
▁Party	-8.58712
▁times	-8.59037
to	-8.59052
h	-8.59478
ist	-8.59835
▁politicians	-8.59898
▁effort	-8.59993
▁Turkey	-8.60072
S	-8.60086
▁L	-8.60126
▁done	-8.60184
▁innovation	-8.60211
▁improve	-8.60605
▁deficit	-8.60705
▁prevent	-8.6097
▁single	-8.61061
▁Ukraine	-8.61163
▁2008	-8.6132
▁four	-8.61546
▁officials	-8.61727
▁massive	-8.61765
▁total	-8.61834
▁hope	-8.61909
▁beyond	-8.6196
P	-8.62436
▁IMF	-8.62562
▁UN	-8.63084
▁top	-8.63091
▁emissions	-8.63295
▁called	-8.63517
▁several	-8.63576
▁leader	-8.6376
▁self	-8.63781
▁alone	-8.63887
▁requires	-8.63964
▁Prime	-8.63989
▁voters	-8.64054
▁she	-8.64212
market	-8.64606
▁created	-8.65111
▁said	-8.65117
▁environment	-8.65564
m	-8.65728
▁period	-8.65938
▁until	-8.65947
▁sustainable	-8.65961
▁traditional	-8.66147
▁job	-8.66214
▁consequences	-8.66256
▁failed	-8.66397
▁think	-8.6661
▁cause	-8.66715
▁shift	-8.66876
▁particular	-8.6693
▁taken	-8.6713
▁leading	-8.67562
▁capacity	-8.6774
▁Asian	-8.67873
▁wealth	-8.68094
▁largely	-8.68231
▁largest	-8.68235
▁achieve	-8.68433
▁day	-8.68539
▁Such	-8.68596
▁build	-8.6864
▁plan	-8.68649
ness	-8.68678
▁form	-8.687
▁ECB	-8.68912
▁nearly	-8.69039
▁main	-8.69111
▁land	-8.69261
▁account	-8.69404
▁keep	-8.69438
▁funds	-8.69695
▁Russian	-8.69987
▁agenda	-8.70102
▁powerful	-8.7013
▁banking	-8.7025
▁natural	-8.70487
▁groups	-8.7053
out	-8.70596
▁changes	-8.70862
▁Pakistan	-8.70911
▁Nations	-8.71161
▁decline	-8.7125
▁Fund	-8.71307
▁sure	-8.71354
▁Give	-8.71447
▁return	-8.71528
▁months	-8.71581
▁fall	-8.71796
I	-8.71883
▁bring	-8.7192
▁programs	-8.71927
based	-8.71995
▁opportunities	-8.72189
ri	-8.72226
▁influence	-8.72287
▁environmental	-8.72302
▁civil	-8.72381
▁assets	-8.72444
▁big	-8.72653
▁benefit	-8.72662
▁maintain	-8.72787
▁union	-8.73115
▁began	-8.73158
▁weapons	-8.73237
▁Many	-8.73316
▁expected	-8.73492
▁having	-8.73877
▁play	-8.74109
▁Putin	-8.74148
▁fear	-8.74181
ting	-8.74202
▁ability	-8.74432
▁experience	-8.74447
▁majority	-8.7451
▁ways	-8.74578
▁Commission	-8.74613
▁Congress	-8.74662
▁Today	-8.74675
▁extreme	-8.74892
▁lives	-8.75128
▁hold	-8.7515
ra	-8.75179
▁Brazil	-8.75352
▁opposition	-8.75462
▁exports	-8.75517
▁close	-8.75785
▁avoid	-8.75817
▁failure	-8.75869
▁debate	-8.75962
▁modern	-8.7601
▁goods	-8.76054
at	-8.76263
▁Americans	-8.76298
el	-8.76346
▁According	-8.76411
▁technologies	-8.765
k	-8.76599
ur	-8.76603
▁lost	-8.7674
▁old	-8.76749
▁increasing	-8.768
▁strategic	-8.76962
▁Bush	-8.76966
▁African	-8.77056
▁Kingdom	-8.77082
▁behind	-8.77434
up	-8.77577
▁idea	-8.77612
▁necessary	-8.77667
▁found	-8.77898
▁solution	-8.78
▁perhaps	-8.78025
▁violence	-8.78139
▁Japanese	-8.78157
▁bad	-8.78221
▁report	-8.78312
▁aid	-8.78351
ive	-8.78358
▁globalization	-8.78724
▁owing	-8.78967
▁authorities	-8.79085
▁third	-8.79185
▁trillion	-8.79207
▁recovery	-8.7922
▁protect	-8.79264
▁goal	-8.79291
▁living	-8.79327
▁group	-8.79461
▁later	-8.7948
▁governance	-8.79572
▁More	-8.79668
▁away	-8.7986
▁rapid	-8.8011
▁evidence	-8.80161
▁economists	-8.80233
▁integration	-8.80285
▁makes	-8.80327
▁Council	-8.80402
▁path	-8.80531
▁cities	-8.80645
▁give	-8.80735
▁official	-8.80877
f	-8.81251
▁doing	-8.81274
▁relations	-8.81452
▁middle	-8.81624
E	-8.8179
▁All	-8.81803
▁month	-8.81884
▁W	-8.81936
T	-8.82076
▁rich	-8.82448
▁kind	-8.82814
▁comes	-8.82823
▁look	-8.83319
▁step	-8.83325
▁First	-8.83345
▁allow	-8.84015
▁Instead	-8.8421
▁develop	-8.84301
▁taxes	-8.84324
▁contrast	-8.84336
▁1990	-8.84462
▁legal	-8.84555
led	-8.84604
▁ten	-8.84814
▁Development	-8.8484
▁act	-8.84885
▁highly	-8.84939
▁side	-8.8507
▁National	-8.85112
il	-8.85147
▁bonds	-8.8523
▁Egypt	-8.85335
▁seen	-8.85353
▁elections	-8.85538
▁include	-8.85735
▁projects	-8.85964
▁competition	-8.86235
▁popular	-8.86599
▁Islamic	-8.86643
▁vote	-8.86738
▁hand	-8.86771
▁taking	-8.86774
▁Global	-8.86869
▁reach	-8.87258
▁attention	-8.87262
▁status	-8.8754
▁individual	-8.87675
▁either	-8.88041
▁negotiations	-8.88197
▁investments	-8.88299
▁understand	-8.88326
▁nothing	-8.88448
▁actually	-8.88609
▁Now	-8.88967
▁corruption	-8.88988
▁Latin	-8.89218
▁became	-8.89234
▁push	-8.89272
▁R	-8.89318
▁limited	-8.89334
▁situation	-8.89341
▁things	-8.89388
▁probably	-8.89482
ar	-8.89776
▁F	-8.89896
▁worse	-8.90045
▁pre	-8.90068
ment	-8.90107
▁live	-8.9026
▁Mexico	-8.90414
▁call	-8.90605
▁something	-8.90826
ized	-8.90866
▁effect	-8.90929
▁commitment	-8.90954
▁financing	-8.91085
▁gas	-8.91189
▁easy	-8.91213
▁P	-8.91248
▁matter	-8.91362
▁fundamental	-8.91427
▁using	-8.91531
▁reality	-8.91697
▁behavior	-8.91766
▁values	-8.92129
▁produce	-8.92293
▁defense	-8.92455
▁minister	-8.92462
▁late	-8.92641
▁meet	-8.92642
▁larger	-8.92724
year	-8.92786
▁corporate	-8.9284
▁amount	-8.93032
▁NEW	-8.93248
▁reducing	-8.93256
▁No	-8.93282
▁huge	-8.9335
▁wrong	-8.93388
▁took	-8.93401
▁cases	-8.93428
▁successful	-8.93498
▁pro	-8.93592
▁outcome	-8.93729
▁recession	-8.93904
▁really	-8.93917
▁fight	-8.93989
▁fuel	-8.94042
▁Saudi	-8.94077
▁held	-8.94087
▁2015	-8.94111
▁mean	-8.9414
▁export	-8.94154
▁stock	-8.94311
▁concerns	-8.947
▁collapse	-8.94765
▁news	-8.94769
▁critical	-8.94882
▁external	-8.94903
▁consider	-8.95382
▁asset	-8.95446
▁Internet	-8.95472
st	-8.9549
▁known	-8.95522
▁cut	-8.95729
▁soon	-8.95851
▁basic	-8.9603
3	-8.96337
▁Palestinian	-8.9646
▁coming	-8.96484
▁presidential	-8.96603
▁meeting	-8.96647
▁age	-8.96673
B	-8.96729
▁Afghanistan	-8.97019
▁above	-8.97019
called	-8.97116
▁products	-8.97155
▁sanctions	-8.97159
▁State	-8.97162
▁standards	-8.97303
▁came	-8.97455
▁relatively	-8.97469
4	-8.9761
income	-8.97678
▁decisions	-8.97838
▁Soviet	-8.97899
▁quickly	-8.97919
▁offer	-8.98109
un	-8.98225
▁show	-8.98366
▁following	-8.98411
▁direct	-8.98481
▁indeed	-8.98895
▁An	-8.98899
▁B	-8.99002
▁near	-8.99003
▁recognize	-8.9909
▁along	-8.99093
▁me	-8.9918
▁Muslim	-8.99385
▁limit	-8.99393
▁certainly	-8.99482
M	-8.99543
▁worldwide	-8.99674
age	-8.99789
▁Brexit	-8.99792
▁carbon	-8.99849
▁20	-8.99958
▁currently	-9.00008
▁entire	-9.00029
▁Re	-9.00174
▁solutions	-9.00229
▁performance	-9.00358
less	-9.00362
▁established	-9.00558
▁Israeli	-9.00689
▁beginning	-9.00795
▁words	-9.00936
▁businesses	-9.01185
▁below	-9.0146
▁relationship	-9.01484
▁deficits	-9.01624
▁relative	-9.01665
lo	-9.01667
▁movement	-9.01959
rate	-9.01969
▁Sinc	-9.01992
▁raise	-9.02108
▁industrial	-9.02418
▁target	-9.0242
▁organizations	-9.02597
▁stop	-9.02694
▁becoming	-9.02708
▁negative	-9.02736
▁confidence	-9.02741
▁essential	-9.03016
▁refugees	-9.03175
R	-9.03175
▁creating	-9.03192
▁line	-9.03272
▁elsewhere	-9.03337
▁Greek	-9.0365
▁Economic	-9.0381
▁Great	-9.04109
▁Most	-9.04254
▁science	-9.04265
▁millions	-9.04273
li	-9.04485
▁Indian	-9.04579
ally	-9.04755
F	-9.04762
▁unlikely	-9.04777
▁project	-9.05057
▁continued	-9.05256
▁source	-9.05373
▁freedom	-9.05377
▁mere	-9.05433
lthough	-9.05487
▁Meanwhile	-9.05636
▁funding	-9.05677
▁weak	-9.06064
▁gains	-9.06086
▁technological	-9.06243
▁sovereign	-9.06262
▁caused	-9.06785
▁disease	-9.06788
▁general	-9.06804
▁certain	-9.06876
▁prosperity	-9.06888
▁manufacturing	-9.07044
▁factors	-9.07045
▁everyone	-9.07058
ro	-9.07073
▁leave	-9.07113
▁alternative	-9.07276
ma	-9.07452
▁Xi	-9.07473
▁center	-9.07487
▁scale	-9.07493
▁May	-9.075
▁output	-9.07535
▁building	-9.07545
▁outside	-9.07561
▁deep	-9.0758
▁answer	-9.0766
▁Spain	-9.07676
ch	-9.07798
la	-9.07975
▁responsibility	-9.08159
▁accept	-9.08173
est	-9.0818
▁overall	-9.08358
▁framework	-9.08416
▁Monetary	-9.08469
▁existing	-9.08661
▁slow	-9.08773
▁creation	-9.08789
▁results	-9.08888
▁positive	-9.08946
▁religious	-9.09118
▁grow	-9.09146
ate	-9.09183
▁according	-9.09259
▁Security	-9.09271
▁co	-9.09469
▁vision	-9.09588
▁thing	-9.09652
ization	-9.0976
▁additional	-9.09799
/	-9.09916
▁institutional	-9.10014
▁air	-9.10063
▁communities	-9.10078
▁ahead	-9.10224
▁company	-9.1024
▁expect	-9.10271
▁ideas	-9.10282
▁claim	-9.10284
▁helped	-9.10322
▁intervention	-9.10559
▁management	-9.10612
▁incentives	-9.10739
▁moral	-9.10869
▁digital	-9.10892
▁dangerous	-9.11052
▁damage	-9.11079
▁reasons	-9.11107
▁complex	-9.11196
▁advantage	-9.11211
de	-9.11245
▁shared	-9.11263
O	-9.11381
▁brought	-9.11549
▁industries	-9.11878
▁reserves	-9.11923
▁sectors	-9.11924
5	-9.11996
▁quality	-9.12118
▁forced	-9.12354
▁available	-9.12376
▁skills	-9.12391
▁pursue	-9.12398
▁clearly	-9.12401
▁Second	-9.1271
▁six	-9.12854
▁roughly	-9.1289
ant	-9.12935
▁forward	-9.13103
▁revolution	-9.13271
▁won	-9.13389
▁choice	-9.13418
▁flows	-9.13519
▁school	-9.13646
▁record	-9.13679
▁Barack	-9.13712
▁coalition	-9.13883
▁knowledge	-9.13884
▁crises	-9.14218
▁gap	-9.14294
us	-9.14329
▁austerity	-9.14396
▁proposed	-9.14407
▁victory	-9.14565
▁generation	-9.14583
▁effectively	-9.14602
▁powers	-9.14614
▁How	-9.14796
▁basis	-9.14897
▁H	-9.1506
▁Donald	-9.15237
z	-9.1532
▁concern	-9.15434
▁attack	-9.15447
▁attacks	-9.15834
reby	-9.15847
▁expansion	-9.16085
▁continues	-9.16178
▁reflect	-9.16241
▁office	-9.16526
▁transition	-9.16691
man	-9.16935
▁family	-9.16965
▁al	-9.17294
▁personal	-9.17333
▁promote	-9.17339
▁follow	-9.17407
▁instead	-9.17483
▁societies	-9.17483
▁cuts	-9.17523
▁rapidly	-9.17732
▁invest	-9.17752
▁men	-9.17963
▁agreed	-9.1797
▁argue	-9.18194
w	-9.18202
▁required	-9.18222
▁2013	-9.18344
▁reached	-9.18389
sector	-9.18526
▁moment	-9.18528
▁stimulus	-9.18542
▁eventually	-9.18567
▁Federal	-9.18713
▁1980	-9.18714
H	-9.1887
▁wages	-9.18921
ary	-9.19048
▁savings	-9.19288
▁loans	-9.1947
▁households	-9.19515
▁days	-9.196
▁impossible	-9.19781
care	-9.19861
▁strengthen	-9.19942
▁aimed	-9.19954
▁drug	-9.19979
▁gain	-9.20138
▁Paris	-9.20324
▁study	-9.2038
▁facing	-9.20498
▁service	-9.20553
▁providing	-9.20677
▁independence	-9.20687
▁From	-9.21039
▁fully	-9.2104
▁allowed	-9.21248
▁allies	-9.21535
▁crucial	-9.21583
▁death	-9.21637
▁activities	-9.21765
▁simple	-9.21906
9	-9.21933
▁borders	-9.22077
1	-9.22152
▁regulation	-9.22198
▁border	-9.22279
▁cultural	-9.22331
▁agree	-9.22419
▁stronger	-9.22505
▁Unfortunately	-9.22865
▁Argentina	-9.22867
▁September	-9.22869
▁internal	-9.23002
▁surplus	-9.23195
▁matters	-9.23214
▁independent	-9.23254
▁counter	-9.23279
▁don	-9.23324
▁trust	-9.2335
▁NATO	-9.2342
izing	-9.23496
▁Finally	-9.23606
ir	-9.2363
▁class	-9.23653
▁consumer	-9.23705
▁Korean	-9.2383
▁reduced	-9.23982
▁provided	-9.24003
▁Though	-9.2417
▁liberal	-9.24259
▁consumers	-9.24265
▁net	-9.24309
▁15	-9.24315
▁loss	-9.24319
century	-9.24526
▁burden	-9.24578
ve	-9.24723
▁p	-9.24777
v	-9.24833
▁manage	-9.24883
▁Merkel	-9.24914
▁federal	-9.25111
▁populist	-9.25234
▁migration	-9.25481
te	-9.25495
▁stable	-9.25678
▁worth	-9.25745
▁reduction	-9.25846
▁respect	-9.2596
▁points	-9.26061
▁increases	-9.26105
▁c	-9.26134
▁widely	-9.26143
▁II	-9.26234
▁students	-9.26396
▁equity	-9.26446
▁zero	-9.26464
▁deliver	-9.26571
▁significantly	-9.26661
▁Arabia	-9.26724
▁2012	-9.26834
▁lose	-9.26837
▁wage	-9.26882
▁warming	-9.27099
▁vulnerable	-9.27202
▁whole	-9.27252
▁nor	-9.27343
ter	-9.27374
▁obvious	-9.27608
ul	-9.2771
▁partners	-9.27767
▁goals	-9.2777
▁primary	-9.27777
▁regulatory	-9.27782
▁thought	-9.27837
▁suggests	-9.27843
▁elected	-9.27855
▁summit	-9.27971
▁Reserve	-9.27971
▁era	-9.28092
▁politically	-9.28124
▁committed	-9.28199
▁vast	-9.28359
▁city	-9.28404
▁individuals	-9.28454
▁2016	-9.28489
▁trend	-9.28564
▁encourage	-9.28614
,000	-9.28681
▁understanding	-9.28687
▁focused	-9.28755
▁protection	-9.28757
▁previous	-9.28773
ce	-9.28878
▁feel	-9.28898
ikewise	-9.28943
▁questions	-9.28952
ut	-9.29142
▁implement	-9.29159
▁treatment	-9.29182
▁events	-9.29238
▁insurance	-9.2937
▁claims	-9.29373
▁directly	-9.29374
▁culture	-9.29586
▁thinking	-9.29653
▁serve	-9.29656
▁urban	-9.2972
▁child	-9.29744
▁Trade	-9.3003
ling	-9.30055
ent	-9.30082
ian	-9.30111
▁YORK	-9.30127
▁competitive	-9.30128
im	-9.30172
ll	-9.30337
▁area	-9.30365
▁seek	-9.30512
▁People	-9.30532
▁difference	-9.30574
▁ground	-9.30597
▁doubt	-9.30598
▁neighbors	-9.30666
▁responsible	-9.30728
▁authority	-9.30729
6	-9.3086
▁diplomatic	-9.30926
▁ultimately	-9.3098
▁secure	-9.31009
▁Not	-9.31033
▁save	-9.31036
▁continent	-9.31217
▁your	-9.31264
▁b	-9.31288
ry	-9.31302
▁turned	-9.31306
▁nature	-9.31324
▁consensus	-9.31329
▁immigration	-9.31333
▁talks	-9.3141
▁game	-9.3162
▁direction	-9.31771
▁faster	-9.31776
▁trying	-9.31943
account	-9.31953
▁chance	-9.32014
▁Europeans	-9.32114
L	-9.32209
▁enable	-9.32297
8	-9.32351
▁option	-9.32444
▁Macron	-9.32539
▁let	-9.32627
▁fossil	-9.32743
▁losses	-9.32985
▁bilateral	-9.33146
▁establish	-9.33174
▁followed	-9.33257
▁plans	-9.33325
▁hit	-9.3337
0	-9.33414
▁vital	-9.33533
▁subsidies	-9.33555
▁models	-9.33572
▁favor	-9.33594
▁J	-9.33778
ne	-9.34052
▁man	-9.34087
▁principle	-9.34099
▁dollars	-9.34181
▁prime	-9.342
▁met	-9.34362
▁fail	-9.34413
▁shows	-9.34549
▁compared	-9.34627
▁begin	-9.34729
▁housing	-9.34793
▁property	-9.34812
ad	-9.34831
▁tend	-9.3499
▁easily	-9.3521
▁respond	-9.35299
▁fund	-9.35323
policy	-9.35427
▁seeking	-9.35521
▁succeed	-9.35567
▁biggest	-9.35627
▁saving	-9.35628
▁Poland	-9.3584
▁boom	-9.35996
▁importance	-9.36051
▁liquidity	-9.36053
▁seemed	-9.3608
▁historical	-9.36118
▁book	-9.3614
▁argument	-9.36232
▁parts	-9.36249
▁actions	-9.36258
▁sources	-9.36435
tor	-9.36513
▁tools	-9.3655
▁throughout	-9.36562
▁macroeconomic	-9.36681
▁contrary	-9.36681
▁referendum	-9.36684
▁Last	-9.36685
▁nation	-9.36795
▁Republican	-9.36898
▁Only	-9.36932
▁partly	-9.37023
▁context	-9.37104
▁truth	-9.3711
▁radical	-9.37111
ta	-9.37206
▁latest	-9.37341
▁core	-9.37369
rs	-9.37649
▁commercial	-9.37748
ists	-9.37933
▁extent	-9.37958
▁produced	-9.37969
▁standard	-9.37971
▁excessive	-9.38011
state	-9.38038
▁appears	-9.38279
▁2009	-9.38402
▁win	-9.38412
▁immediate	-9.38432
▁willing	-9.38609
▁initiative	-9.38619
▁dis	-9.38647
▁steps	-9.38655
▁range	-9.38769
▁terrorism	-9.38847
▁Over	-9.39036
▁paid	-9.39059
▁targets	-9.39087
▁falling	-9.39094
be	-9.39107
▁therefore	-9.3947
▁10%	-9.39472
▁argued	-9.39865
▁sides	-9.39882
▁wants	-9.4011
▁London	-9.40125
▁cash	-9.40129
ies	-9.40285
▁test	-9.40295
▁Islam	-9.40312
ex	-9.40326
▁Al	-9.40507
▁Clinton	-9.40564
▁announced	-9.40585
▁theory	-9.4073
▁capita	-9.40747
▁mass	-9.40755
id	-9.40784
▁uncertainty	-9.41008
▁competitiveness	-9.41024
▁demands	-9.41038
▁severe	-9.41055
G	-9.41144
ted	-9.41183
▁multilateral	-9.41204
▁prove	-9.4123
▁substantial	-9.41279
▁regions	-9.41359
▁drive	-9.41399
▁specific	-9.41465
▁shown	-9.41587
▁buy	-9.41613
▁adopted	-9.4165
▁earlier	-9.4167
▁November	-9.41675
▁spend	-9.41743
▁special	-9.41879
▁assistance	-9.41898
▁size	-9.41997
-20	-9.42028
▁happen	-9.42108
▁Similarly	-9.42147
▁efficient	-9.42196
▁December	-9.42342
▁speech	-9.42524
▁broad	-9.42546
▁LONDON	-9.42564
▁Secretary	-9.42568
▁reflects	-9.42655
▁ratio	-9.42676
▁head	-9.42703
▁achieved	-9.42865
▁improved	-9.4289
▁household	-9.42898
▁regard	-9.42908
▁calls	-9.43017
▁precisely	-9.4305
7	-9.43054
▁appear	-9.43079
▁here	-9.43105
▁prospects	-9.43147
▁De	-9.43213
▁efficiency	-9.43249
▁Palestinians	-9.43267
▁promise	-9.43446
▁spent	-9.4347
▁coal	-9.43776
ia	-9.43867
▁quarter	-9.44102
▁mind	-9.44107
▁try	-9.44154
co	-9.44225
ol	-9.44305
▁renminbi	-9.44376
▁cancer	-9.44384
▁spread	-9.44519
et	-9.44524
▁faces	-9.4455
▁Organization	-9.44605
▁neither	-9.44605
▁story	-9.44608
▁suggest	-9.44612
▁abroad	-9.44676
▁sound	-9.44733
▁expand	-9.44779
▁improving	-9.44834
▁transformation	-9.44845
▁expectations	-9.45046
▁creditors	-9.45215
▁safety	-9.4531
▁easing	-9.45312
▁depend	-9.45414
▁legitimacy	-9.45526
▁Iranian	-9.45533
▁equal	-9.45572
▁going	-9.45713
▁supported	-9.45924
▁break	-9.45957
▁30	-9.46046
▁whom	-9.46066
▁diseases	-9.46138
▁accounts	-9.46171
▁Consider	-9.46222
▁strategies	-9.46222
▁ensuring	-9.46223
▁changed	-9.46228
▁agreements	-9.46241
ize	-9.46529
▁K	-9.46614
▁York	-9.46923
▁Another	-9.46924
▁construction	-9.46927
▁built	-9.46933
▁planet	-9.46939
▁week	-9.46945
▁subject	-9.47118
ous	-9.47133
▁leaving	-9.47157
▁sovereignty	-9.47167
ver	-9.47201
▁final	-9.47222
▁estimated	-9.47226
▁stand	-9.47367
▁space	-9.47393
▁anything	-9.47406
▁membership	-9.47406
▁broader	-9.47457
▁finally	-9.47565
▁message	-9.47632
am	-9.47636
▁His	-9.47641
▁farmers	-9.47797
▁unable	-9.47934
▁migrants	-9.48078
ish	-9.48264
▁Perhaps	-9.48339
raising	-9.48347
▁sustain	-9.4837
▁training	-9.48553
▁Hamas	-9.48579
▁Eastern	-9.48599
▁lot	-9.48605
▁Abe	-9.48707
making	-9.48766
is	-9.48806
▁12	-9.48858
▁press	-9.48868
▁sometimes	-9.48992
▁House	-9.49056
▁happened	-9.49105
▁sub	-9.49266
▁unprecedented	-9.49295
▁heart	-9.4933
me	-9.49396
▁Because	-9.49536
▁University	-9.49536
▁18	-9.49552
▁present	-9.49569
▁Their	-9.49642
▁imports	-9.49721
▁driven	-9.49743
▁becomes	-9.49776
▁various	-9.49777
▁highest	-9.49868
▁afford	-9.49996
▁profits	-9.50165
▁choose	-9.5026
▁scientific	-9.50261
▁activity	-9.50312
▁limits	-9.50423
▁lending	-9.50446
▁laws	-9.50592
▁struggle	-9.5066
▁factor	-9.50686
▁entirely	-9.50787
▁remained	-9.50872
▁initiatives	-9.50973
▁schools	-9.5117
▁managed	-9.51201
▁associated	-9.51289
▁went	-9.51306
▁rural	-9.5148
▁disaster	-9.51551
▁provides	-9.51698
▁drugs	-9.51708
▁widespread	-9.51725
▁causes	-9.51802
▁agricultural	-9.51896
▁fast	-9.51902
▁Syrian	-9.51957
▁trading	-9.51985
▁enormous	-9.52046
▁terrorist	-9.52069
▁John	-9.52214
▁treaty	-9.52262
▁safe	-9.52267
▁else	-9.52479
▁threaten	-9.52517
▁regulations	-9.52639
▁fell	-9.52712
▁learn	-9.52716
▁Both	-9.5274
▁helping	-9.52813
▁families	-9.52963
▁sustained	-9.52997
▁economist	-9.53067
▁Climate	-9.53213
▁commodity	-9.53213
▁presidency	-9.53213
▁Dur	-9.53227
▁task	-9.53338
▁principles	-9.53554
▁2010	-9.53586
▁outcomes	-9.53595
▁2007	-9.53655
▁incomes	-9.5366
▁resulting	-9.53714
▁Treaty	-9.53716
▁democracies	-9.53716
▁cross	-9.53719
▁Kim	-9.53728
▁designed	-9.53737
▁2%	-9.53759
▁sea	-9.53867
▁launched	-9.53873
▁addition	-9.53895
▁structure	-9.53951
▁comprehensive	-9.53967
▁base	-9.54022
▁O	-9.5404
▁collective	-9.54048
N	-9.54137
▁perspective	-9.54216
▁himself	-9.54218
▁thousands	-9.54229
▁practice	-9.54357
▁started	-9.54418
▁electoral	-9.54469
▁Democratic	-9.54472
▁carry	-9.54478
▁light	-9.54519
▁normal	-9.54591
ors	-9.54662
▁defend	-9.54676
▁absence	-9.54722
▁geopolitical	-9.54722
▁Those	-9.54722
▁undermine	-9.54725
▁inter	-9.54736
▁visit	-9.54737
▁distribution	-9.54925
▁person	-9.54942
▁George	-9.54976
▁June	-9.54983
▁General	-9.5503
▁sharp	-9.55059
▁e	-9.55142
▁received	-9.5521
▁considered	-9.55212
▁currencies	-9.5523
▁intelligence	-9.55235
line	-9.55257
▁welfare	-9.55263
▁barriers	-9.55292
▁takes	-9.5531
▁returns	-9.5532
▁possibility	-9.55485
right	-9.55487
▁running	-9.55502
▁depends	-9.55555
▁promises	-9.55603
▁receive	-9.55605
pe	-9.55955
▁police	-9.55994
▁resistance	-9.56007
▁deeply	-9.56019
ho	-9.56121
▁bankers	-9.56151
▁circumstances	-9.56255
▁Kong	-9.56261
▁changing	-9.56281
▁threats	-9.56292
▁productive	-9.56323
▁instability	-9.56398
▁clean	-9.56435
▁Thus	-9.56515
▁contribute	-9.56563
▁Ma	-9.5663
▁revenue	-9.56695
▁opinion	-9.56715
▁medical	-9.56771
ated	-9.56779
"	-9.57035
▁practices	-9.5715
▁name	-9.57194
one	-9.57274
▁Sea	-9.57388
▁Why	-9.57562
▁fair	-9.57599
▁Cold	-9.57875
scale	-9.57878
▁revenues	-9.57887
ci	-9.58093
po	-9.58116
▁anyone	-9.58328
▁identity	-9.58335
▁Hong	-9.58341
▁am	-9.58414
old	-9.58444
▁electricity	-9.58604
▁agencies	-9.58862
▁host	-9.58922
▁1970	-9.59128
▁slowdown	-9.59132
▁bond	-9.59136
▁exit	-9.59156
▁considerable	-9.59168
▁establishment	-9.59197
▁generate	-9.59243
no	-9.59286
▁conference	-9.59393
▁measure	-9.59446
▁economics	-9.59449
ac	-9.59521
▁generally	-9.59682
▁round	-9.59686
▁mid	-9.59865
▁represent	-9.59889
▁Financial	-9.59925
▁2005	-9.59928
▁attempt	-9.59981
▁DC	-9.59986
▁estimates	-9.60021
▁implemented	-9.60025
▁closer	-9.60031
▁Libya	-9.60101
▁online	-9.60153
▁worked	-9.60168
▁faced	-9.60172
▁asked	-9.60185
▁agriculture	-9.60192
▁Le	-9.60368
▁design	-9.6052
▁legislation	-9.6073
▁giving	-9.60753
▁lies	-9.60839
ful	-9.60859
wing	-9.609
▁payments	-9.60903
▁deaths	-9.60934
▁lesson	-9.61182
▁refugee	-9.61303
▁universal	-9.61377
▁fighting	-9.61385
▁Republic	-9.61511
▁Parliament	-9.6154
▁worst	-9.6154
▁2001	-9.61543
▁emerged	-9.61648
▁tensions	-9.61716
▁Rather	-9.61812
▁overcome	-9.61821
▁scenario	-9.61852
▁permanent	-9.61921
▁double	-9.6194
▁impose	-9.61942
▁CO	-9.61977
▁raised	-9.62072
▁medium	-9.62084
▁moving	-9.62084
▁involved	-9.62152
▁Revolution	-9.62156
▁hundreds	-9.62438
▁operations	-9.62463
▁50	-9.62495
▁CAMBRIDGE	-9.62631
▁Health	-9.62631
▁everything	-9.62637
▁allowing	-9.62724
▁road	-9.62748
▁Lebanon	-9.62906
▁tried	-9.62982
▁moderate	-9.62983
▁advance	-9.63085
▁easier	-9.63181
▁Modi	-9.63184
▁constitution	-9.63351
▁20%	-9.63464
▁viewed	-9.63559
▁sufficient	-9.63573
▁v	-9.63578
time	-9.63612
▁suffer	-9.63628
▁affect	-9.63639
▁Ireland	-9.63735
▁Just	-9.63738
em	-9.63833
▁candidates	-9.63862
▁goes	-9.63868
▁options	-9.63891
▁justice	-9.64034
▁supposed	-9.64133
▁bear	-9.64187
▁suffering	-9.64209
▁declared	-9.64354
ical	-9.64386
for	-9.64398
▁Muslims	-9.6448
▁smaller	-9.64522
ty	-9.64531
um	-9.64537
▁credibility	-9.6457
▁pace	-9.6457
▁intellectual	-9.64691
▁default	-9.64701
war	-9.64816
▁greatest	-9.64886
▁hands	-9.64996
▁stage	-9.6514
▁Is	-9.6525
ach	-9.65288
▁unless	-9.65459
▁borrowing	-9.65488
▁dynamic	-9.65535
▁ask	-9.65543
▁mostly	-9.65575
▁capitalism	-9.65601
▁trends	-9.65688
side	-9.65759
▁immigrants	-9.65789
x	-9.65827
op	-9.65899
▁determine	-9.66024
▁t	-9.66093
▁inclusive	-9.66153
▁commitments	-9.66253
▁guarantee	-9.66258
▁recognized	-9.66266
▁N	-9.66275
▁8	-9.66309
▁formal	-9.66532
▁aim	-9.66545
▁sought	-9.66549
▁views	-9.66695
▁rhetoric	-9.66814
▁decided	-9.66966
▁proved	-9.67019
▁fallen	-9.67168
▁experienced	-9.67194
20	-9.67226
▁candidate	-9.67275
▁differences	-9.67337
▁conflicts	-9.67406
▁gender	-9.67407
▁percentage	-9.67421
▁danger	-9.67564
▁Court	-9.67696
▁body	-9.67696
▁explain	-9.67698
▁forms	-9.67707
▁stands	-9.67723
▁Venezuela	-9.67894
▁physical	-9.67993
▁quite	-9.67997
▁Republicans	-9.68014
▁fuels	-9.68125
ability	-9.68127
▁addressing	-9.6824
▁sign	-9.68345
▁scientists	-9.68466
▁potentially	-9.68529
▁regulators	-9.68546
▁drop	-9.68559
▁inevitable	-9.68565
▁Washington	-9.68577
▁priority	-9.6858
▁conventional	-9.68603
▁enterprises	-9.68715
▁proposal	-9.68755
▁restore	-9.68765
▁upon	-9.68838
▁otherwise	-9.68857
▁language	-9.68869
▁Democrats	-9.68882
ial	-9.68929
▁front	-9.69077
▁seven	-9.6913
▁lessons	-9.69133
▁diplomacy	-9.69149
▁everywhere	-9.69155
▁combined	-9.69203
of	-9.69251
▁due	-9.69517
▁ongoing	-9.69533
which	-9.69536
▁March	-9.69555
▁imbalances	-9.69561
▁implications	-9.69578
▁eight	-9.69741
▁ended	-9.69748
ance	-9.69818
▁amounts	-9.69922
▁offered	-9.69998
▁join	-9.70054
▁lines	-9.70073
▁ties	-9.70161
▁places	-9.70173
▁draw	-9.70237
coming	-9.70262
▁includes	-9.70268
▁Or	-9.70268
▁participation	-9.70327
▁January	-9.70332
▁19	-9.70395
▁usually	-9.70411
▁leverage	-9.70482
▁ethnic	-9.70619
▁analysis	-9.70624
▁ruling	-9.70624
▁actors	-9.70624
▁harm	-9.70661
▁aggregate	-9.70665
▁getting	-9.7068
The	-9.70712
▁adopt	-9.70749
▁field	-9.70896
▁mutual	-9.70917
▁combination	-9.70922
▁played	-9.71035
▁wars	-9.71099
j	-9.71126
tion	-9.71161
▁adjustment	-9.71188
▁Its	-9.71224
▁told	-9.71249
▁July	-9.7125
▁mention	-9.71258
▁appropriate	-9.71373
▁desire	-9.71376
▁7	-9.71392
▁mechanisms	-9.71526
▁Nor	-9.71632
▁Then	-9.71713
▁nationalism	-9.71722
owned	-9.71742
▁army	-9.71844
▁engage	-9.71961
▁rely	-9.72007
▁objectives	-9.72082
▁organization	-9.7209
▁Communist	-9.72128
▁experts	-9.7213
▁Our	-9.72155
▁track	-9.72162
level	-9.72223
▁shape	-9.7228
▁Sunni	-9.7241
▁territory	-9.72423
▁resolution	-9.72438
▁cycle	-9.72448
▁reported	-9.72523
▁girls	-9.72713
▁$1	-9.72717
▁deflation	-9.72736
ating	-9.72751
▁room	-9.72769
fuel	-9.7283
▁Indonesia	-9.72939
▁add	-9.72949
▁figure	-9.73004
▁weeks	-9.73067
▁tell	-9.73169
▁resolve	-9.73195
▁blame	-9.73221
▁patients	-9.73242
if	-9.73315
▁mechanism	-9.73328
▁belief	-9.73334
▁Italian	-9.73335
▁pollution	-9.73339
▁credible	-9.73347
▁expanding	-9.73354
▁robust	-9.73641
▁sharply	-9.73848
▁f	-9.73864
▁expensive	-9.73948
▁driving	-9.73958
▁Under	-9.73984
▁strengthening	-9.74145
▁southern	-9.74258
▁learned	-9.74283
▁6	-9.74461
▁learning	-9.74552
▁2000	-9.746
▁affairs	-9.74706
▁Gaza	-9.74874
▁restructuring	-9.74876
▁innovative	-9.74877
▁court	-9.74907
▁decide	-9.75043
▁implies	-9.75184
▁unique	-9.75184
▁gone	-9.75219
▁list	-9.75231
▁flow	-9.75449
▁paper	-9.75496
▁objective	-9.75543
▁battle	-9.75721
▁practical	-9.75808
▁greenhouse	-9.7581
▁type	-9.75884
▁nationalist	-9.76022
▁controls	-9.76035
▁green	-9.76103
▁planning	-9.76151
▁virtually	-9.76167
ang	-9.76169
▁poorest	-9.76173
related	-9.76211
▁offers	-9.76215
▁link	-9.76231
▁arms	-9.76241
▁killed	-9.76259
▁troops	-9.76339
▁promoting	-9.76443
▁alliance	-9.76501
▁degree	-9.76509
mp	-9.7661
▁October	-9.76752
▁truly	-9.76752
▁starter	-9.7676
▁strength	-9.76809
▁parliament	-9.76824
▁car	-9.7686
per	-9.76898
&	-9.77068
▁Fortunately	-9.77068
▁2006	-9.77071
▁violent	-9.77093
▁Do	-9.77154
▁mainly	-9.77273
▁discussion	-9.77479
▁heavily	-9.77704
▁senior	-9.77704
▁producers	-9.77756
▁team	-9.77803
▁reflected	-9.77887
▁ministers	-9.77931
▁Third	-9.78023
▁50%	-9.78029
W	-9.78051
▁networks	-9.78098
▁sell	-9.78194
sh	-9.78268
▁Still	-9.78345
▁constitutional	-9.78477
more	-9.78498
▁predict	-9.7866
▁guide	-9.78665
▁fears	-9.78929
vi	-9.78939
▁defeat	-9.78951
▁hopes	-9.79076
▁Erdoğan	-9.79312
▁declining	-9.79312
▁pursuing	-9.79312
ti	-9.79371
▁Here	-9.79409
▁Social	-9.79476
▁2014	-9.7953
ning	-9.79535
▁protests	-9.79543
▁immediately	-9.7957
▁Can	-9.79572
▁ordinary	-9.79636
▁Bo	-9.79678
▁cutting	-9.79699
▁prospect	-9.79755
▁extend	-9.79868
▁relevant	-9.79962
▁underlying	-9.79969
cing	-9.80078
▁technical	-9.80116
▁send	-9.80122
▁mandate	-9.80162
▁annually	-9.8023
▁continuing	-9.80308
▁economically	-9.80333
mo	-9.80383
▁soft	-9.80389
ak	-9.80461
ni	-9.8064
▁turning	-9.8065
▁described	-9.80696
▁promised	-9.80824
▁causing	-9.80946
▁typically	-9.81024
▁failing	-9.81039
ine	-9.81092
▁apparent	-9.81104
▁populations	-9.81129
▁corporations	-9.81145
▁conservative	-9.81152
▁"	-9.812
▁inadequate	-9.81343
▁whatever	-9.81384
▁imposed	-9.81473
▁whereas	-9.81488
▁resource	-9.81506
▁achieving	-9.81607
▁occurred	-9.81611
carbon	-9.81738
▁purpose	-9.81806
▁generations	-9.81809
▁confront	-9.81838
▁house	-9.81858
▁regimes	-9.81908
▁OECD	-9.81939
▁temporary	-9.8194
▁firm	-9.81971
▁trigger	-9.82001
▁talk	-9.82049
he	-9.82124
▁holding	-9.82167
na	-9.82195
▁relief	-9.82272
tic	-9.8228
▁twentieth	-9.82286
▁complete	-9.82329
▁1%	-9.82368
▁proposals	-9.82389
▁elites	-9.82568
▁joint	-9.82569
▁multi	-9.82615
▁3	-9.82671
▁employees	-9.82673
▁mistake	-9.82726
▁positions	-9.82806
▁accepted	-9.82841
▁gave	-9.82946
▁destroy	-9.83017
▁embrace	-9.83136
▁numbers	-9.83162
▁believed	-9.83179
▁excess	-9.83224
▁heavy	-9.83291
▁affected	-9.83301
▁deeper	-9.8341
first	-9.83417
▁surprise	-9.83473
▁useful	-9.8354
▁supporters	-9.83578
▁Chile	-9.83609
▁genetic	-9.83633
▁assume	-9.83706
▁transfer	-9.83737
▁My	-9.83908
▁Vietnam	-9.83958
▁ready	-9.84011
▁speak	-9.84249
▁territorial	-9.84296
▁Jewish	-9.84316
▁abandon	-9.84352
▁event	-9.84366
ny	-9.84436
▁issued	-9.84865
run	-9.84912
▁Two	-9.8498
▁published	-9.85061
▁25	-9.85099
▁worry	-9.85192
▁pension	-9.85216
▁network	-9.85258
▁combat	-9.85323
▁processes	-9.85566
▁investing	-9.85566
▁gold	-9.85655
▁cyber	-9.85668
▁studies	-9.85668
▁equivalent	-9.85672
▁dramatically	-9.85679
▁parliamentary	-9.85679
▁4	-9.85721
▁movements	-9.85781
▁wide	-9.85864
▁Beyond	-9.86014
▁Investment	-9.86014
▁transparency	-9.86015
▁losing	-9.86018
▁represents	-9.86022
▁search	-9.86035
▁exactly	-9.86045
▁ex	-9.8606
que	-9.86062
▁setting	-9.86136
▁armed	-9.86185
▁debts	-9.86232
▁Depression	-9.86362
▁volatility	-9.86362
▁grown	-9.86565
▁bubble	-9.8667
▁2010,	-9.86684
▁signed	-9.86685
▁promising	-9.8671
▁choices	-9.86973
▁supporting	-9.87115
▁peaceful	-9.87269
▁Other	-9.87376
▁Treasury	-9.87411
▁criticism	-9.87413
▁sort	-9.87414
▁operate	-9.87424
▁phase	-9.87425
▁equality	-9.8745
class	-9.87559
country	-9.87563
▁addressed	-9.87572
▁10	-9.87631
▁Netanyahu	-9.87763
▁destruction	-9.87764
▁HIV	-9.87765
▁5%	-9.87864
▁2017	-9.87873
iv	-9.87961
go	-9.88006
▁5	-9.88014
▁active	-9.88028
▁incentive	-9.88094
▁healthy	-9.88106
▁opposite	-9.88116
▁religion	-9.88116
▁educational	-9.88171
▁integrated	-9.88177
▁compromise	-9.8832
▁twenty	-9.88471
▁WASHINGTON	-9.88474
▁2004	-9.88476
▁bringing	-9.88565
▁victims	-9.88663
▁Nigeria	-9.88736
▁11	-9.89019
▁emerge	-9.89066
▁ambitious	-9.89184
▁summer	-9.89185
▁introduced	-9.89273
▁divided	-9.89344
▁Australia	-9.89454
all	-9.89462
▁review	-9.89511
▁begun	-9.89543
▁Like	-9.89546
▁nations	-9.89577
▁related	-9.89858
ative	-9.89878
▁product	-9.89913
▁quantitative	-9.89925
▁Islamist	-9.89952
▁partner	-9.89953
▁prepared	-9.89976
ner	-9.90076
▁gained	-9.90083
▁solve	-9.90135
▁equally	-9.90169
▁appeal	-9.90201
▁demographic	-9.90263
▁bottom	-9.90289
U	-9.9031
▁Shia	-9.90324
▁constraints	-9.90358
low	-9.90485
▁cover	-9.90528
▁dialogue	-9.90625
▁remarkable	-9.90625
▁stance	-9.9063
▁ASEAN	-9.90642
▁youth	-9.90731
▁imply	-9.9078
▁contributed	-9.90826
▁contracts	-9.90848
▁starting	-9.90954
▁encouraging	-9.90989
▁30%	-9.90996
▁elite	-9.91033
▁stake	-9.91035
▁demonstrated	-9.911
▁hours	-9.9128
▁Vladimir	-9.91354
▁stagnation	-9.91354
▁sustainability	-9.91363
▁requirements	-9.91554
▁faith	-9.9157
▁eliminate	-9.91576
▁ban	-9.91632
ud	-9.9165
▁suffered	-9.9171
▁legitimate	-9.9172
▁Chancellor	-9.91724
▁pattern	-9.91779
▁purchases	-9.91811
▁keeping	-9.91861
ge	-9.91867
▁happens	-9.91982
▁meant	-9.92063
▁fewer	-9.92137
▁playing	-9.92151
▁renewable	-9.92161
▁authoritarian	-9.92206
▁9	-9.92218
▁opening	-9.92242
ru	-9.92255
▁critics	-9.92311
▁enhance	-9.92313
third	-9.92332
tr	-9.92373
▁costly	-9.92373
▁trouble	-9.92389
▁40%	-9.92463
▁Will	-9.92467
▁included	-9.92502
▁wave	-9.92541
▁urgent	-9.92656
ever	-9.9266
ec	-9.92675
bank	-9.92683
▁bound	-9.92849
▁wanted	-9.92976
▁arrangements	-9.93107
▁friends	-9.93109
▁determined	-9.93127
▁dramatic	-9.93188
gu	-9.93196
▁Jews	-9.93199
▁priorities	-9.93201
▁grew	-9.93201
▁modest	-9.93204
▁Canada	-9.93208
oriented	-9.93344
▁closely	-9.93381
▁import	-9.93417
▁wind	-9.93469
▁approaches	-9.93505
▁borrow	-9.93558
▁seriously	-9.93601
▁quo	-9.93612
▁knows	-9.93749
▁imperative	-9.93946
▁northern	-9.9395
▁mobile	-9.93953
▁protest	-9.94032
▁occur	-9.94049
▁neighbor	-9.94077
▁concerned	-9.94162
▁remaining	-9.9429
free	-9.94502
▁surprising	-9.94528
min	-9.94625
▁enter	-9.94687
▁Singapore	-9.947
▁transactions	-9.947
▁Governments	-9.94773
▁players	-9.94808
▁moved	-9.94923
▁material	-9.94977
▁historic	-9.95008
▁works	-9.95042
▁plants	-9.95077
▁April	-9.95079
▁possibly	-9.95079
▁transfers	-9.95194
▁establishing	-9.95199
con	-9.95226
▁transport	-9.95436
é	-9.95459
▁necessarily	-9.95459
▁figures	-9.95478
▁race	-9.95496
▁40	-9.95507
ot	-9.95697
▁facilitate	-9.957
▁wake	-9.9584
▁humanitarian	-9.95841
▁unsustainable	-9.95842
▁compete	-9.95849
▁capable	-9.95854
▁2020	-9.95857
▁essentially	-9.95892
▁meaning	-9.95932
▁gradually	-9.95956
though	-9.95997
▁shock	-9.96033
▁profit	-9.96037
▁aggressive	-9.96055
▁observers	-9.96169
▁showed	-9.96173
▁England	-9.96224
▁engagement	-9.96245
gas	-9.96301
▁opponents	-9.96367
▁original	-9.96407
▁structures	-9.96421
▁defined	-9.96476
▁paying	-9.965
▁journalists	-9.96539
▁minimum	-9.96608
▁survival	-9.96608
▁undermining	-9.96608
▁restrictions	-9.96612
▁1930	-9.96612
▁reaching	-9.96651
▁signs	-9.96744
ip	-9.96747
▁leads	-9.96774
▁correct	-9.96778
▁identify	-9.96905
▁Beijing	-9.96994
▁recognition	-9.96994
▁emergence	-9.97009
om	-9.97035
▁weight	-9.97035
▁developments	-9.97271
▁nominal	-9.97383
▁Gulf	-9.97384
▁accompanied	-9.97391
▁2	-9.97453
ap	-9.97459
▁weaken	-9.97462
▁survive	-9.97627
▁Further	-9.97771
▁expense	-9.97771
▁universities	-9.97771
▁Growth	-9.97773
▁malaria	-9.97779
▁perceived	-9.97812
▁fixed	-9.97934
border	-9.97965
European	-9.97966
▁yield	-9.98137
▁willingness	-9.98199
▁offering	-9.98281
▁board	-9.98448
ions	-9.98498
▁ideological	-9.98554
▁presence	-9.98554
▁Plan	-9.98558
▁norms	-9.98584
▁stay	-9.98604
▁exist	-9.9876
▁unlike	-9.98793
▁narrow	-9.98814
off	-9.98855
ern	-9.98952
▁minority	-9.98955
▁implementation	-9.98994
▁travel	-9.99043
▁realize	-9.99282
son	-9.99302
▁protecting	-9.99332
▁Human	-9.99349
▁intended	-9.99399
▁institution	-9.99404
▁proportion	-9.99421
▁block	-9.99435
▁exception	-9.9946
di	-9.99538
▁surely	-9.99564
▁shocks	-9.9958
▁enabled	-9.99643
▁species	-9.9974
▁discipline	-9.99747
▁looks	-9.99808
▁imp	-9.99813
▁2014,	-9.99843
▁assess	-9.99853
▁concept	-9.99948
▁genuine	-9.99966
ck	-10.0005
▁Kenya	-10.0005
▁previously	-10.0009
▁Committee	-10.0014
▁Nobel	-10.0014
▁understood	-10.0014
▁chief	-10.0016
▁regardless	-10.0021
▁cheap	-10.003
▁added	-10.0033
▁wonder	-10.0037
▁adequate	-10.0038
▁attract	-10.0053
▁treat	-10.0054
▁August	-10.0054
▁Nonetheless	-10.0054
▁illegal	-10.0054
▁Institute	-10.0055
▁threatened	-10.0057
▁Mar	-10.0061
▁Wall	-10.0065
0%	-10.0067
▁targeted	-10.0086
▁centuries	-10.0094
▁table	-10.0097
red	-10.01
ie	-10.0108
▁tough	-10.0113
com	-10.0119
▁couple	-10.0133
▁Countries	-10.0134
▁sharing	-10.0146
▁sentiment	-10.0163
▁80%	-10.0175
▁60%	-10.0175
▁$2	-10.0181
▁bold	-10.0193
crisis	-10.0195
▁risky	-10.0208
▁secret	-10.0214
▁solar	-10.0218
▁profound	-10.0239
ship	-10.0247
▁aging	-10.0251
▁Cameron	-10.0256
▁legacy	-10.0256
▁populism	-10.0256
▁Foreign	-10.0256
▁operating	-10.0256
▁Un	-10.0264
ber	-10.0271
▁concluded	-10.0272
▁informal	-10.0273
▁ideal	-10.0279
▁substantially	-10.0288
▁conduct	-10.0295
▁although	-10.0297
▁chronic	-10.0297
▁scope	-10.0297
ab	-10.0299
▁taxpayers	-10.0302
▁Unti	-10.0302
▁carried	-10.0304
▁none	-10.0308
end	-10.033
▁$3	-10.0333
▁offset	-10.0337
▁rose	-10.034
▁crimes	-10.0345
▁exceed	-10.0346
▁condition	-10.0348
▁Be	-10.0359
▁replace	-10.0363
trade	-10.0363
▁served	-10.0368
fi	-10.0373
ite	-10.0373
▁settlement	-10.0374
▁disputes	-10.0395
▁rejected	-10.0401
ca	-10.0411
▁advances	-10.0412
▁alike	-10.0414
▁spur	-10.042
▁pull	-10.0421
▁liberalization	-10.0424
▁opposed	-10.0434
▁delay	-10.0436
▁pressures	-10.0448
ow	-10.0451
▁bill	-10.0456
▁harder	-10.0461
▁capabilities	-10.0463
▁apply	-10.0467
▁expanded	-10.047
ah	-10.0472
▁humans	-10.0492
▁imagine	-10.0495
▁obligations	-10.0501
▁primarily	-10.0505
▁secular	-10.0505
▁solidarity	-10.0505
▁withdrawal	-10.0508
▁Once	-10.051
▁researchers	-10.052
▁Con	-10.0535
▁divide	-10.0538
▁corrupt	-10.0546
▁kept	-10.0547
▁flexibility	-10.0547
▁emergency	-10.0548
▁Pakistani	-10.0575
va	-10.0577
▁preventing	-10.0579
▁counterparts	-10.0587
▁enabling	-10.0589
▁Kremlin	-10.0589
▁launch	-10.0599
▁polls	-10.0601
ten	-10.0609
▁ill	-10.0611
ring	-10.0611
▁100	-10.0611
▁wealthy	-10.0617
ick	-10.0617
day	-10.0628
▁Angel	-10.0628
▁criminal	-10.0628
▁father	-10.0631
▁1960	-10.0631
▁weakness	-10.0632
▁Palestine	-10.0635
▁exposed	-10.0636
▁3%	-10.0637
▁die	-10.0638
▁stress	-10.0643
▁pushing	-10.0657
▁m	-10.0659
▁ignore	-10.0662
▁wrote	-10.0674
▁strike	-10.0674
▁standing	-10.0684
▁write	-10.0698
▁innovations	-10.07
ha	-10.0704
▁sh	-10.0716
▁Partnership	-10.0717
▁coordination	-10.0717
▁adapt	-10.0724
▁weaker	-10.0733
ib	-10.074
▁plant	-10.0741
▁initial	-10.0742
▁users	-10.0752
▁managers	-10.0758
▁attractive	-10.0759
▁series	-10.076
▁version	-10.0764
▁2011	-10.0765
▁accountability	-10.0768
▁effectiveness	-10.0769
▁13	-10.0782
▁welcome	-10.0788
▁fate	-10.0789
▁package	-10.0805
▁white	-10.0805
ide	-10.0807
▁progressive	-10.0813
▁repeatedly	-10.0813
▁AI	-10.0817
▁humanity	-10.0823
▁surge	-10.0833
▁Free	-10.0834
▁David	-10.0846
▁narrative	-10.0848
▁17	-10.0857
▁reasonable	-10.0859
▁n	-10.088
▁elements	-10.0888
▁stimulate	-10.0889
▁managing	-10.089
▁via	-10.089
▁reports	-10.0891
ba	-10.0892
reaching	-10.0895
▁dependent	-10.0897
▁Assad	-10.0903
▁peak	-10.0906
▁implementing	-10.0907
ure	-10.0908
▁foster	-10.0929
hether	-10.0933
▁Bangladesh	-10.0933
▁Taliban	-10.0934
▁weather	-10.0934
▁suggested	-10.0941
▁contain	-10.0952
▁engaged	-10.0954
▁broadly	-10.0967
▁Act	-10.0974
upreme	-10.0977
▁periphery	-10.0977
wide	-10.098
▁provision	-10.0982
ton	-10.0991
▁calling	-10.1001
▁professional	-10.1006
▁accelerate	-10.1007
▁pursued	-10.1015
▁strongly	-10.1017
▁linked	-10.1019
▁fire	-10.1021
▁negotiating	-10.1021
▁nine	-10.1022
▁saw	-10.1022
▁regarded	-10.103
▁closed	-10.1032
▁tariffs	-10.1033
▁accounting	-10.1038
▁mis	-10.1057
▁logic	-10.1062
▁Taiwan	-10.1065
▁Portugal	-10.1065
▁ideology	-10.1065
▁interventions	-10.1069
▁conducted	-10.1095
▁platforms	-10.1095
▁dead	-10.1096
quality	-10.1097
▁extra	-10.111
way	-10.1113
▁participants	-10.1129
▁says	-10.1129
Pacific	-10.1134
driven	-10.1135
▁root	-10.1136
▁chains	-10.1138
▁finding	-10.1138
▁newly	-10.1143
▁Christian	-10.1151
▁Assembly	-10.1154
▁hurt	-10.1154
▁dream	-10.1164
▁Ho	-10.1172
▁V	-10.1174
▁completely	-10.1177
intensive	-10.1179
American	-10.118
▁statement	-10.1183
▁contributions	-10.1187
▁2011,	-10.1195
▁latter	-10.1199
▁turmoil	-10.1199
▁constitute	-10.1212
▁warned	-10.1213
ence	-10.1221
▁prevail	-10.1228
▁globally	-10.1233
▁Colombia	-10.1235
▁Change	-10.1241
▁charge	-10.1242
▁st	-10.1244
▁looking	-10.1244
▁California	-10.1244
▁bankruptcy	-10.1244
▁However	-10.1245
▁inflows	-10.1246
▁momentum	-10.1246
▁barely	-10.1247
▁catch	-10.1248
long	-10.125
▁educated	-10.1254
▁explanation	-10.1256
▁votes	-10.1271
K	-10.1278
▁Hungary	-10.1289
▁Street	-10.1289
▁devastating	-10.1289
▁struggling	-10.1289
▁daily	-10.1289
▁workforce	-10.1292
▁contribution	-10.1302
▁holds	-10.1313
debt	-10.1314
GDP	-10.1315
▁terrorists	-10.1321
istic	-10.1321
▁Z	-10.1325
▁notably	-10.133
hi	-10.1332
▁prefer	-10.1333
▁Philippines	-10.1359
do	-10.1367
▁displaced	-10.1383
▁instruments	-10.1383
▁declined	-10.1395
▁platform	-10.1396
▁doesn	-10.1399
mon	-10.1414
▁escape	-10.1415
▁billions	-10.1419
▁terror	-10.1423
▁Ro	-10.1425
▁Energy	-10.1426
▁supplies	-10.1426
▁mainstream	-10.1427
▁content	-10.1427
▁coverage	-10.1428
▁born	-10.1428
▁slowly	-10.143
▁function	-10.1445
▁abuse	-10.1445
▁delivered	-10.1445
▁She	-10.1453
▁read	-10.1456
▁oppose	-10.1458
▁discussions	-10.1461
▁talent	-10.1462
over	-10.1462
▁mark	-10.1468
▁Agreement	-10.1472
▁undoubtedly	-10.1472
▁persistent	-10.1473
▁flexible	-10.1474
▁contract	-10.1488
tax	-10.1503
▁reverse	-10.1504
▁Facebook	-10.1519
▁Sweden	-10.1519
▁diverse	-10.1519
▁felt	-10.1519
▁sexual	-10.1519
▁retain	-10.1538
▁civilian	-10.154
exchange	-10.1546
▁creates	-10.1564
▁facilities	-10.1565
▁black	-10.1567
▁QE	-10.1572
ible	-10.1574
ious	-10.1577
▁customers	-10.1587
▁voice	-10.1587
▁centers	-10.1589
▁improvement	-10.1591
land	-10.1601
▁occupation	-10.1606
▁threatening	-10.161
tro	-10.1611
▁demonstrate	-10.1618
ub	-10.1625
▁rarely	-10.1626
ng	-10.1626
▁sheets	-10.163
▁adjust	-10.163
▁someone	-10.163
▁suit	-10.1632
▁unity	-10.1632
ight	-10.1633
▁returned	-10.1633
▁actual	-10.1642
▁painful	-10.1642
▁14	-10.1643
ier	-10.1648
▁depreciation	-10.1659
▁viable	-10.1659
▁Sub	-10.1664
we	-10.1665
▁failures	-10.1682
▁tackle	-10.1692
▁Jordan	-10.1705
▁uncertain	-10.1706
▁variety	-10.1706
▁Spring	-10.1706
▁Google	-10.1707
▁TB	-10.1715
▁posed	-10.1718
▁murder	-10.1726
▁shifting	-10.1729
▁mortgage	-10.1729
▁sp	-10.1732
▁mission	-10.1733
▁Iraqi	-10.1738
▁acknowledge	-10.1739
▁command	-10.1744
▁February	-10.1754
▁successor	-10.1755
▁index	-10.1757
Sustainable	-10.1762
▁feed	-10.1769
io	-10.1771
▁wish	-10.1797
▁nineteenth	-10.1803
▁wider	-10.1807
▁revealed	-10.1815
▁Goals	-10.1828
interest	-10.1829
▁systemic	-10.1843
▁waste	-10.1847
▁female	-10.1849
▁accord	-10.185
▁considerably	-10.185
▁woman	-10.1851
▁ownership	-10.1852
▁budgets	-10.1859
▁convinced	-10.1859
ably	-10.1863
▁policymaking	-10.1868
▁homes	-10.1874
▁capture	-10.1883
ki	-10.1896
▁brain	-10.1897
0,000	-10.19
▁producing	-10.1902
▁Yes	-10.1903
▁speed	-10.1905
▁applied	-10.191
▁parents	-10.1913
▁computer	-10.1924
▁conclusion	-10.1924
▁missile	-10.1926
▁16	-10.1927
▁negotiate	-10.1932
▁smart	-10.1943
▁twice	-10.1945
▁retirement	-10.1946
▁depression	-10.1947
▁renewed	-10.1951
▁fundamentally	-10.1959
▁populists	-10.1961
lan	-10.1962
▁backed	-10.1965
den	-10.1993
▁asylum	-10.1994
▁securities	-10.1994
▁25%	-10.1994
▁2002	-10.1995
▁fragile	-10.1996
▁grand	-10.1997
▁borrowers	-10.1998
▁lie	-10.2
▁shareholders	-10.2014
▁vehicles	-10.2019
▁passed	-10.2019
including	-10.2023
▁Paul	-10.2039
▁valuable	-10.2043
▁Bill	-10.2044
▁define	-10.2052
▁released	-10.2058
▁got	-10.2064
▁ruled	-10.2068
▁60	-10.2077
▁Political	-10.2092
ft	-10.2092
▁Peace	-10.2093
▁dispute	-10.2109
ities	-10.2114
▁yields	-10.2115
thirds	-10.2116
▁sales	-10.2121
▁executive	-10.2124
▁High	-10.2135
▁joined	-10.2137
▁reputation	-10.2141
▁mobility	-10.2141
▁Myanmar	-10.2142
▁chemical	-10.2142
▁bubbles	-10.2148
▁Any	-10.2168
▁triggered	-10.2181
▁commit	-10.2188
▁Defense	-10.2193
▁Forum	-10.2203
▁Su	-10.2204
▁Pen	-10.2208
▁entrepreneurs	-10.2212
▁rational	-10.222
▁adverse	-10.2223
▁encouraged	-10.2227
mong	-10.2231
▁donors	-10.224
▁Group	-10.224
▁compensation	-10.224
▁attempts	-10.2241
▁Mexican	-10.2241
▁publicly	-10.2245
▁Ha	-10.2245
not	-10.2249
▁Ben	-10.225
▁successfully	-10.2254
▁dominated	-10.2259
▁transform	-10.2264
mb	-10.2264
▁leaves	-10.2268
▁consistent	-10.2274
▁vaccine	-10.2276
bo	-10.2285
▁Harvard	-10.229
▁Jinping	-10.229
▁aftermath	-10.229
▁resort	-10.2291
by	-10.2292
▁buying	-10.23
▁surpluses	-10.2301
▁inevitably	-10.2302
▁recover	-10.2309
▁reserve	-10.2315
▁improvements	-10.2321
▁perfect	-10.2325
mi	-10.2328
▁loan	-10.2328
▁assessment	-10.2329
▁ambitions	-10.2331
▁conclude	-10.2333
▁Netherlands	-10.234
▁PARIS	-10.234
▁concrete	-10.234
▁multiple	-10.234
▁wisdom	-10.234
▁Senate	-10.2341
▁voted	-10.2346
▁wait	-10.2349
▁meaningful	-10.2351
▁par	-10.2361
▁badly	-10.2363
▁killing	-10.2366
▁purchase	-10.2366
▁towards	-10.2373
▁subsequent	-10.2374
▁tests	-10.2376
▁stabilize	-10.2377
ward	-10.2377
▁bailout	-10.2381
▁patterns	-10.2383
▁Rights	-10.2392
▁90%	-10.2392
▁downturn	-10.2392
▁trap	-10.2393
▁thanks	-10.2393
▁allows	-10.2393
rich	-10.2402
ack	-10.2404
▁obstacles	-10.2414
▁balanced	-10.2426
vis	-10.2432
▁zone	-10.2434
che	-10.2435
ung	-10.2441
▁Sa	-10.2442
·	-10.2442
▁university	-10.2442
▁impressive	-10.2442
price	-10.245
▁survey	-10.2455
ified	-10.2458
▁Mo	-10.2459
▁lay	-10.2465
▁exercise	-10.2468
▁alternatives	-10.2469
▁Li	-10.249
▁Unlike	-10.2493
▁approval	-10.2494
▁ease	-10.2494
▁2050	-10.2494
▁consolidation	-10.2494
▁downward	-10.2496
▁happening	-10.2499
▁arguments	-10.2501
▁4%	-10.2501
aw	-10.2501
▁weakening	-10.2504
▁Ka	-10.2518
style	-10.2523
▁mitigate	-10.2525
▁ethical	-10.2527
▁aims	-10.253
▁partnership	-10.2536
▁reaction	-10.2539
▁blood	-10.254
▁demanding	-10.254
▁Policy	-10.2544
▁spirit	-10.2544
]	-10.2544
▁Ebola	-10.2544
▁purchasing	-10.2544
▁worried	-10.2544
Sahara	-10.2544
▁70%	-10.2545
▁sent	-10.2545
▁bigger	-10.2545
▁eastern	-10.2545
▁Big	-10.2547
▁pain	-10.2551
qui	-10.2553
▁properly	-10.256
▁engineering	-10.2563
▁ending	-10.2564
▁match	-10.2564
▁benefited	-10.2565
ard	-10.257
▁earnings	-10.257
▁resist	-10.2571
▁fulfill	-10.2572
▁Israelis	-10.2575
▁blow	-10.2587
▁crime	-10.259
▁pharmaceutical	-10.2596
▁resilience	-10.2596
▁transparent	-10.2597
▁somewhat	-10.2597
▁Polish	-10.2598
▁g	-10.2601
▁frequently	-10.2606
▁generated	-10.2625
▁died	-10.2627
V	-10.263
▁treated	-10.2631
▁claimed	-10.2632
▁academic	-10.264
▁voting	-10.2648
▁White	-10.2655
▁expressed	-10.2673
▁gives	-10.2679
▁w	-10.2684
▁poorer	-10.2694
▁similarly	-10.2699
▁Spanish	-10.27
▁prosperous	-10.27
▁reliable	-10.27
▁background	-10.2701
▁resulted	-10.2713
▁pointed	-10.2715
growth	-10.2732
▁acting	-10.2739
▁fit	-10.2742
▁trial	-10.275
▁Turkish	-10.2752
▁plenty	-10.2752
ping	-10.2753
power	-10.2756
▁sc	-10.2758
▁fourth	-10.2762
▁None	-10.2763
▁pass	-10.2764
▁showing	-10.2766
▁con	-10.2769
▁assumed	-10.2774
▁proven	-10.2774
▁strengthened	-10.2779
▁older	-10.278
▁weakened	-10.2788
act	-10.2794
▁crash	-10.2801
▁component	-10.2801
▁son	-10.2802
▁Department	-10.2804
▁catastrophe	-10.2804
▁Brussels	-10.2805
▁feature	-10.2806
▁coup	-10.2816
▁justify	-10.2821
▁refused	-10.2828
▁tool	-10.2845
▁extended	-10.2848
▁predicted	-10.2849
We	-10.2849
▁image	-10.2855
▁Convention	-10.2857
▁invasion	-10.2857
▁phenomenon	-10.2857
reliance	-10.2858
▁methods	-10.2858
▁art	-10.2862
▁characterized	-10.2862
▁tradition	-10.2863
fa	-10.2873
▁$100	-10.2876
ka	-10.2893
▁measured	-10.2896
our	-10.2896
▁r	-10.2902
▁Keynes	-10.291
▁birth	-10.291
▁south	-10.291
responsibilities	-10.2911
▁eager	-10.2911
▁electorate	-10.2911
▁Robert	-10.2911
▁devaluation	-10.2911
▁dominant	-10.2912
▁complicated	-10.2914
▁rescue	-10.292
ble	-10.2936
▁remember	-10.2938
▁warning	-10.294
▁reject	-10.2941
▁ignored	-10.2942
▁enjoy	-10.2942
▁governing	-10.2945
▁risen	-10.295
os	-10.295
▁Germans	-10.2962
▁Mubarak	-10.2964
bi	-10.2965
▁maintained	-10.2986
▁brutal	-10.2998
down	-10.3001
▁decisive	-10.3002
▁statements	-10.3011
▁confrontation	-10.3016
▁Malaysia	-10.3019
▁scheme	-10.3019
▁financed	-10.3019
▁word	-10.3022
pa	-10.3024
▁bomb	-10.3031
▁marked	-10.3032
▁fueling	-10.3041
▁undermined	-10.3048
seemingly	-10.3056
▁date	-10.3062
▁false	-10.3072
▁nowadays	-10.3072
▁stories	-10.3072
▁television	-10.3072
▁consequence	-10.3074
▁partnerships	-10.3082
▁foundation	-10.3085
▁deals	-10.309
▁initially	-10.3094
▁guarantees	-10.31
▁Ra	-10.3108
▁unit	-10.3119
▁micro	-10.3126
▁Agency	-10.3126
▁experiencing	-10.3126
▁inclusion	-10.3126
▁unwilling	-10.3126
▁Much	-10.3128
▁Education	-10.313
▁wellbeing	-10.313
lin	-10.3141
▁replaced	-10.3145
like	-10.3152
▁taxation	-10.3155
▁Through	-10.3181
▁2018	-10.3181
▁dependence	-10.3182
▁backlash	-10.3182
▁written	-10.3184
▁raises	-10.3194
▁consistently	-10.32
▁connected	-10.32
av	-10.3207
▁train	-10.3217
▁indicators	-10.3225
▁courts	-10.323
▁la	-10.3235
▁atmosphere	-10.3236
▁challenging	-10.3236
▁knew	-10.3236
▁damaging	-10.3236
▁transportation	-10.3239
▁Hu	-10.3241
▁en	-10.3241
▁stopped	-10.3245
governmental	-10.3247
▁carefully	-10.3251
▁City	-10.3251
▁express	-10.3259
▁dealing	-10.3259
▁ally	-10.328
▁preserve	-10.3284
▁Research	-10.3288
▁English	-10.3291
▁declaration	-10.3291
▁prominent	-10.3291
▁Justice	-10.3292
▁advantages	-10.3292
▁volume	-10.3292
▁Egyptian	-10.3302
▁suddenly	-10.3305
▁insufficient	-10.3307
▁responded	-10.3307
▁separate	-10.3315
▁united	-10.3326
▁participate	-10.3332
ional	-10.3345
▁sophisticated	-10.3347
▁pool	-10.3347
▁super	-10.335
▁relationships	-10.3365
▁saying	-10.3378
▁deposits	-10.3386
▁severely	-10.339
▁retail	-10.34
▁Kosovo	-10.3402
▁Sarkozy	-10.3402
▁anniversary	-10.3402
▁identified	-10.3402
▁manner	-10.3404
▁north	-10.3408
▁communication	-10.3412
▁restrict	-10.3429
▁concerning	-10.3445
▁sw	-10.3449
▁Abbas	-10.3459
▁diversity	-10.3459
▁reluctant	-10.3459
▁unconventional	-10.3459
▁Stability	-10.3459
▁monopoly	-10.346
▁Every	-10.3461
▁Br	-10.3462
gi	-10.3468
▁assumption	-10.347
da	-10.347
▁notion	-10.3484
▁doctors	-10.3497
rights	-10.3514
▁Foundation	-10.3515
▁caught	-10.3515
▁Clearly	-10.3516
▁simultaneously	-10.3519
?”	-10.3521
▁openness	-10.3526
▁responses	-10.3531
▁eyes	-10.3535
▁staff	-10.354
▁gradual	-10.3555
cost	-10.3556
▁dominate	-10.3558
▁prepare	-10.3558
▁proper	-10.356
row	-10.3563
.5	-10.3566
ture	-10.3567
▁involve	-10.357
▁creative	-10.3572
▁extraordinary	-10.3572
use	-10.3574
▁presented	-10.3579
▁AIDS	-10.3584
pro	-10.3591
▁executives	-10.3592
▁bolster	-10.3602
▁invested	-10.3603
▁earn	-10.3608
J	-10.3609
▁activists	-10.3613
ew	-10.3624
▁film	-10.3626
▁enforce	-10.3626
▁artificial	-10.3628
▁emphasis	-10.3629
▁throw	-10.3629
▁Law	-10.3632
▁Atlantic	-10.3632
▁pose	-10.3633
ov	-10.3635
▁route	-10.3638
▁medicine	-10.3644
▁estate	-10.3651
▁mistakes	-10.3652
50	-10.3656
▁attempting	-10.3673
▁Berlin	-10.3687
▁Labour	-10.3687
▁collaboration	-10.3687
▁generating	-10.3689
au	-10.369
▁expression	-10.3693
▁protectionism	-10.3693
▁focusing	-10.3696
▁refuse	-10.3697
▁pure	-10.3699
▁streets	-10.3707
▁urgently	-10.3713
▁gaining	-10.3723
minded	-10.3726
▁marginal	-10.373
▁U	-10.3739
▁comprise	-10.374
▁prison	-10.3742
▁appreciation	-10.3744
▁bodies	-10.3744
▁dilemma	-10.3744
▁hunger	-10.3745
▁colleagues	-10.3746
▁Keynesian	-10.3748
▁regarding	-10.375
▁argues	-10.3752
▁ma	-10.3758
▁stem	-10.3763
▁patient	-10.3764
▁arise	-10.3766
▁trip	-10.3776
▁expenditures	-10.3776
ging	-10.3795
▁bloc	-10.3801
▁advice	-10.3803
▁generous	-10.3803
▁equipment	-10.3803
▁organized	-10.3812
estate	-10.3813
▁vaccines	-10.3819
▁tightening	-10.3825
▁surprisingly	-10.3829
▁heads	-10.3834
▁representatives	-10.3839
▁cars	-10.384
▁grounds	-10.3845
▁types	-10.3852
▁Cuba	-10.3852
▁involving	-10.3861
▁picture	-10.3861
▁dark	-10.3861
her	-10.3867
und	-10.3872
▁negotiated	-10.3878
▁drawn	-10.3879
▁heard	-10.3882
▁camp	-10.3882
▁Crimea	-10.389
▁halt	-10.3893
▁materials	-10.3899
▁quick	-10.3903
▁2015.	-10.3905
▁Nuclear	-10.392
▁contributing	-10.392
▁statistics	-10.392
▁15%	-10.3921
▁collapsed	-10.3922
▁winning	-10.3924
▁affordable	-10.3925
▁meetings	-10.3926
▁Five	-10.3927
▁code	-10.3927
▁shifts	-10.3929
▁minds	-10.394
▁check	-10.3946
▁insist	-10.3947
▁chain	-10.395
▁apparently	-10.3951
▁absorb	-10.3953
ending	-10.3965
▁overwhelming	-10.3971
▁ourselves	-10.3979
▁investigation	-10.3979
▁repression	-10.3979
▁1950	-10.398
▁Road	-10.398
▁antibiotics	-10.3982
new	-10.3984
▁opened	-10.3984
▁kinds	-10.3993
▁avoided	-10.4
▁rival	-10.4001
▁slower	-10.4002
▁neo	-10.401
▁supposedly	-10.4016
▁You	-10.4019
▁rare	-10.4024
▁temperatures	-10.4037
▁Ba	-10.4038
▁dominance	-10.4039
▁grave	-10.4039
▁broken	-10.4044
▁revolutionary	-10.4045
▁monitor	-10.4051
▁controlled	-10.4064
▁Ja	-10.4083
!	-10.4095
▁lacks	-10.4098
▁count	-10.4099
▁minorities	-10.4099
▁dropped	-10.4099
▁discrimination	-10.41
▁selling	-10.413
▁island	-10.4137
▁Should	-10.4159
▁regain	-10.4159
▁flight	-10.4159
▁secondary	-10.4169
▁appeared	-10.4171
▁fails	-10.4178
▁bio	-10.418
▁expenditure	-10.4186
men	-10.419
▁aside	-10.4195
▁po	-10.4199
health	-10.4199
▁San	-10.4201
▁ultimate	-10.4202
▁usual	-10.4206
▁presidents	-10.4206
▁links	-10.4207
▁didn	-10.4217
▁Before	-10.4219
▁outlook	-10.4219
▁BRICS	-10.422
▁Dis	-10.4222
beit	-10.4225
▁heat	-10.4238
▁guaranteed	-10.425
▁2003	-10.4258
▁cap	-10.4258
▁fine	-10.4259
▁payment	-10.4262
”)	-10.4264
▁animals	-10.4264
▁Me	-10.4264
▁cast	-10.4277
▁honor	-10.428
▁Nevertheless	-10.428
▁Shanghai	-10.428
▁True	-10.428
▁comparison	-10.428
▁venture	-10.428
▁shale	-10.428
▁multinational	-10.4281
▁adoption	-10.4285
▁approved	-10.4287
▁Na	-10.4287
▁7%	-10.4289
▁outright	-10.4303
▁$4	-10.4312
▁PR	-10.4316
▁indicate	-10.4317
▁Pro	-10.4326
▁isolation	-10.4335
▁Trans	-10.4342
▁Center	-10.4342
▁Dutch	-10.4342
▁comparable	-10.4342
▁committee	-10.4342
ug	-10.4342
▁confident	-10.4343
▁slightly	-10.4349
EY	-10.4357
▁succeeded	-10.436
▁kill	-10.4382
▁entered	-10.4386
▁bit	-10.4387
tech	-10.4388
▁anger	-10.4393
▁obviously	-10.4396
▁explained	-10.4399
▁greatly	-10.44
▁pressing	-10.4402
▁Mediterranean	-10.4403
▁compound	-10.4403
▁inefficient	-10.4404
▁Deng	-10.4404
▁involvement	-10.4405
▁Hollande	-10.4405
▁Unless	-10.4405
▁rulers	-10.4407
▁prolonged	-10.441
kin	-10.4414
▁brings	-10.4414
▁apart	-10.442
▁residents	-10.4423
▁considering	-10.4427
▁Industrial	-10.4431
▁poorly	-10.4434
cent	-10.4437
▁mix	-10.4438
▁exporters	-10.4441
▁sl	-10.4442
▁$5	-10.4454
ification	-10.4455
▁Ko	-10.4461
▁Three	-10.4465
▁threshold	-10.4465
▁lend	-10.4472
▁requir	-10.4486
▁transformed	-10.4499
ill	-10.45
▁remind	-10.4502
China	-10.4508
▁signal	-10.4509
▁runs	-10.4516
▁slowing	-10.4525
▁Kennedy	-10.4528
▁aware	-10.4528
▁Afghan	-10.4529
▁distress	-10.4531
▁believes	-10.4541
▁employers	-10.4542
fe	-10.4543
▁red	-10.4552
▁removed	-10.4555
▁patent	-10.4565
▁perception	-10.4565
▁poses	-10.4575
▁watch	-10.4579
▁release	-10.4581
▁feeling	-10.4589
▁Yemen	-10.4591
▁imposing	-10.4591
▁shadow	-10.4591
▁extensive	-10.4591
▁compelling	-10.4591
▁Board	-10.4591
▁announcement	-10.4592
▁problematic	-10.4593
▁anywhere	-10.4594
▁enforcement	-10.4595
security	-10.4602
par	-10.4618
▁foreigners	-10.4638
▁operation	-10.4641
ign	-10.4641
▁driver	-10.4641
▁fill	-10.4643
▁Tunisia	-10.4645
▁mental	-10.4653
▁brand	-10.4654
▁cooperate	-10.4654
▁1997	-10.4654
▁Finance	-10.4654
▁neighborhood	-10.4654
▁chaos	-10.4654
▁sold	-10.4655
▁Georgia	-10.4655
▁enemies	-10.4655
so	-10.4656
▁realistic	-10.466
▁coordinated	-10.4669
▁shares	-10.4674
▁soldiers	-10.4679
▁missing	-10.4682
▁Let	-10.4695
▁deserve	-10.4696
▁rooted	-10.4697
national	-10.4699
▁mobilize	-10.4703
gainst	-10.4713
▁foundations	-10.4715
▁Public	-10.4718
▁sensible	-10.4718
▁striking	-10.4718
▁Sudan	-10.4718
▁awareness	-10.472
▁favorable	-10.4725
▁accused	-10.473
▁internationally	-10.4735
▁estimate	-10.4747
▁experiment	-10.4751
▁adopting	-10.4756
▁eye	-10.4761
▁advocates	-10.4761
▁disasters	-10.4763
▁intervene	-10.4767
party	-10.4769
ash	-10.4774
▁fix	-10.4779
▁openly	-10.4779
▁judgment	-10.4782
▁steel	-10.4782
▁minimize	-10.4782
▁familiar	-10.4783
▁Di	-10.4787
▁erupted	-10.4792
ke	-10.4793
tra	-10.4807
▁dangers	-10.481
▁farm	-10.4815
nt	-10.4817
▁obtain	-10.4819
▁analysts	-10.4823
energy	-10.4826
building	-10.4829
▁charges	-10.4831
▁rein	-10.4832
▁introduce	-10.4834
▁evolution	-10.4845
▁controversial	-10.4846
▁principal	-10.4846
▁surveillance	-10.4846
▁expertise	-10.4847
▁stick	-10.4847
▁manipulation	-10.4847
▁seats	-10.4859
▁lowest	-10.4864
00	-10.4866
sum	-10.4875
▁machine	-10.4892
▁destroyed	-10.4899
▁achievement	-10.49
▁Brotherhood	-10.4911
▁Hezbollah	-10.4912
▁concentration	-10.4912
▁Back	-10.4913
▁Hav	-10.4918
▁facts	-10.4937
▁debates	-10.4938
▁moves	-10.4944
▁civilians	-10.4952
▁ra	-10.4957
▁24	-10.4967
wa	-10.4969
size	-10.497
▁prior	-10.4974
▁Scotland	-10.4977
▁numerous	-10.4977
▁Saddam	-10.4978
▁Euro	-10.4978
mm	-10.4985
▁accountable	-10.499
ped	-10.4997
▁22	-10.5006
▁accident	-10.5027
▁weapon	-10.5029
▁abandoned	-10.5029
▁persuade	-10.5031
▁Democracy	-10.5043
▁Power	-10.5043
▁exposure	-10.5043
▁unfair	-10.5043
▁fresh	-10.5044
▁render	-10.5044
▁shortfall	-10.5045
▁except	-10.5045
▁communist	-10.5051
▁male	-10.5056
▁sites	-10.5059
har	-10.5062
▁1	-10.5062
▁Southeast	-10.5064
▁skilled	-10.5075
change	-10.5091
▁constant	-10.5092
▁absolute	-10.5092
▁Recent	-10.5093
▁politician	-10.5095
▁careful	-10.5096
▁2000,	-10.5103
▁1999	-10.5109
▁BERKEL	-10.5109
▁beneficial	-10.5109
▁Conference	-10.5109
▁toxic	-10.5112
▁bar	-10.5113
▁Others	-10.5115
pre	-10.5117
▁difficulties	-10.5117
▁onto	-10.5126
▁protected	-10.5126
▁richer	-10.5142
▁map	-10.5142
▁el	-10.5146
Assad	-10.5155
▁prompt	-10.5158
▁famous	-10.5159
▁discuss	-10.5165
▁Hitler	-10.5175
▁volatile	-10.5175
▁vulnerability	-10.5175
▁recognizing	-10.5175
▁Thailand	-10.5176
▁blind	-10.5176
▁h	-10.5176
▁motivated	-10.5183
▁underway	-10.5183
▁helps	-10.5187
▁Pacific	-10.5205
such	-10.5219
▁shortages	-10.5223
▁sudden	-10.5225
▁Government	-10.523
▁La	-10.5232
▁Austria	-10.5233
▁mo	-10.5236
▁Draghi	-10.5243
▁anxiety	-10.5243
▁Morsi	-10.5243
▁novel	-10.5243
▁unions	-10.5243
ff	-10.5244
▁fellow	-10.5244
▁crops	-10.5244
▁urbanization	-10.5246
▁planned	-10.5247
▁Brazilian	-10.5248
▁spring	-10.5251
▁cyclical	-10.5252
▁reinforced	-10.5257
▁enacted	-10.5262
▁sooner	-10.5272
▁te	-10.5276
▁shifted	-10.528
ments	-10.5283
▁reinforce	-10.5285
▁crowd	-10.5285
nd	-10.5289
▁engine	-10.5289
▁affecting	-10.529
▁exploit	-10.5301
▁recall	-10.5305
▁Francis	-10.5309
▁Copenhagen	-10.531
▁agency	-10.531
▁unemployed	-10.5311
▁Norway	-10.5311
▁convergence	-10.5311
▁definition	-10.5311
▁influential	-10.5315
▁withdraw	-10.5315
▁uses	-10.5316
▁avoiding	-10.5318
▁proliferation	-10.532
▁machines	-10.5331
▁confronting	-10.5339
▁resolved	-10.5342
▁insecurity	-10.5344
▁attitudes	-10.5354
sharing	-10.5359
▁projected	-10.5361
left	-10.5366
▁solid	-10.5368
▁star	-10.5378
▁1989	-10.5378
▁Authority	-10.5378
▁pursuit	-10.5378
▁legislative	-10.5378
▁sex	-10.538
▁backing	-10.5381
▁Who	-10.5382
▁cheaper	-10.5389
▁fields	-10.5391
ler	-10.5392
▁pensions	-10.5394
▁asking	-10.5396
▁mounting	-10.5397
▁missiles	-10.5408
with	-10.5426
rn	-10.5446
▁catastrophic	-10.5447
▁incumbent	-10.5447
▁struck	-10.5447
▁Governor	-10.5449
▁Green	-10.5449
▁repeated	-10.5449
▁trials	-10.5453
▁8%	-10.5455
▁Inter	-10.5455
▁functioning	-10.5456
▁concentrated	-10.5458
▁El	-10.5458
ept	-10.5461
▁reductions	-10.5463
▁reversed	-10.5468
▁Y	-10.5484
▁skill	-10.5495
▁plac	-10.5496
▁seeks	-10.5497
▁Ru	-10.5501
▁Times	-10.5501
▁convince	-10.5501
▁1979	-10.5516
▁Already	-10.5516
▁Switzerland	-10.5516
▁autonomy	-10.5516
▁doctrine	-10.5516
▁gross	-10.5516
▁Food	-10.5516
▁rebalancing	-10.5517
▁guard	-10.5521
);	-10.5535
▁granted	-10.5539
▁request	-10.5558
▁considerations	-10.5565
-19	-10.5573
▁Serbia	-10.5576
▁division	-10.5579
▁St	-10.5579
▁remove	-10.5584
illennium	-10.5585
▁Denmark	-10.5585
▁l	-10.5586
▁imperial	-10.5587
ga	-10.5588
▁alongside	-10.5588
▁sensitive	-10.5588
▁features	-10.559
▁cha	-10.56
cre	-10.5603
ron	-10.5607
▁deny	-10.5612
▁2008.	-10.5613
-1	-10.5618
▁adding	-10.5624
▁arrest	-10.5628
economic	-10.5634
1%	-10.5647
ven	-10.565
▁object	-10.5651
▁competing	-10.5655
▁propaganda	-10.5655
▁thrive	-10.5655
▁congressional	-10.5655
▁stood	-10.5657
▁allocation	-10.5658
▁earth	-10.5665
▁forecast	-10.5671
▁famously	-10.5673
▁actively	-10.5689
▁sufficiently	-10.5699
▁reward	-10.5702
▁prevented	-10.5705
5%	-10.5713
▁revive	-10.5719
▁ran	-10.572
▁Front	-10.5725
▁empire	-10.5725
▁integrity	-10.5725
▁tragedy	-10.5725
▁unrest	-10.5725
▁treaties	-10.5727
▁modernization	-10.5732
mar	-10.5734
▁testing	-10.5736
▁classes	-10.5741
▁judges	-10.5746
▁Russians	-10.5767
▁Are	-10.5768
▁books	-10.5773
▁roads	-10.5774
▁remote	-10.5779
▁finances	-10.5781
▁Ali	-10.5787
.5%	-10.579
▁roll	-10.5793
▁safeguard	-10.5795
ze	-10.5795
▁crop	-10.5796
▁method	-10.5796
▁Bernanke	-10.5796
▁polio	-10.5796
▁scarce	-10.5797
ik	-10.5797
ned	-10.581
▁cope	-10.5811
▁poll	-10.5813
▁binding	-10.5817
▁exceptional	-10.5819
▁explains	-10.5826
▁mortgages	-10.5834
▁deepening	-10.5837
▁chances	-10.5837
▁gaps	-10.5839
▁ineffective	-10.5843
▁lenders	-10.5851
▁Mu	-10.5865
▁differ	-10.5866
▁Chávez	-10.5868
▁arguing	-10.5868
▁cabinet	-10.5868
▁harsh	-10.5868
▁reversal	-10.5868
▁memory	-10.5868
▁visible	-10.5868
▁Reform	-10.5868
▁happy	-10.5869
▁persist	-10.5869
▁examples	-10.5873
▁acceptable	-10.5878
▁adjustments	-10.588
▁looked	-10.588
▁fo	-10.5886
▁Ca	-10.5891
▁dynamics	-10.5909
▁disrupt	-10.591
▁Far	-10.5911
▁saved	-10.5919
adjusted	-10.592
▁lasting	-10.5922
▁acute	-10.5922
▁accurate	-10.5922
▁SDGs	-10.5923
▁Constitution	-10.5928
▁turns	-10.5928
▁Business	-10.5936
▁article	-10.594
▁eliminating	-10.594
▁frustration	-10.594
▁liabilities	-10.594
▁parallel	-10.594
▁sacrifice	-10.594
▁ultra	-10.594
▁Blair	-10.594
▁college	-10.594
▁precedent	-10.594
▁existence	-10.594
▁attempted	-10.594
▁element	-10.5941
▁temperature	-10.5942
▁Ukrainian	-10.5942
▁divisions	-10.5946
▁civilization	-10.5947
▁forest	-10.5964
▁worrying	-10.5967
ef	-10.5971
▁inside	-10.5974
▁career	-10.5988
inflation	-10.5991
take	-10.6
▁communications	-10.6
▁govern	-10.6004
▁School	-10.6012
▁disastrous	-10.6012
▁earthquake	-10.6012
▁extremism	-10.6012
▁laureate	-10.6012
▁spiral	-10.6012
▁steady	-10.6012
▁straightforward	-10.6012
▁tobacco	-10.6012
▁ancient	-10.6012
▁1991	-10.6012
▁software	-10.6012
▁Jean	-10.6013
▁vary	-10.6015
▁pricing	-10.6016
▁nowhere	-10.602
▁falls	-10.6024
hu	-10.6025
▁donor	-10.6028
▁rightly	-10.603
▁love	-10.6033
▁21	-10.604
▁enhanced	-10.6042
▁relying	-10.6056
▁slowed	-10.6062
▁panic	-10.6063
growing	-10.6065
▁500	-10.6071
▁70	-10.6078
▁Juncker	-10.6085
▁communism	-10.6085
▁marriage	-10.6085
▁nonetheless	-10.6085
▁mortality	-10.6085
▁app	-10.6097
▁understandable	-10.6097
▁campaigns	-10.6101
▁embraced	-10.6116
mer	-10.6123
▁competitors	-10.613
▁substitute	-10.6134
currency	-10.6139
▁topic	-10.6139
▁exacerbate	-10.6144
▁23	-10.6144
risk	-10.6154
▁character	-10.6156
▁bureaucracy	-10.6159
▁Bashar	-10.6159
▁optimistic	-10.6159
▁shut	-10.616
▁cooperative	-10.6161
fr	-10.6163
▁represented	-10.6164
▁flawed	-10.6166
▁wall	-10.6166
▁infectious	-10.6166
▁impede	-10.6168
bra	-10.6169
▁procedures	-10.617
▁gun	-10.6172
▁behave	-10.6176
back	-10.6183
▁purposes	-10.619
▁exists	-10.6193
cy	-10.6205
largest	-10.6213
▁challenged	-10.6217
▁declare	-10.6218
CA	-10.6219
▁DELHI	-10.6233
▁Summit	-10.6233
▁criteria	-10.6233
▁draft	-10.6233
▁intense	-10.6233
▁Gates	-10.6233
▁Fourth	-10.6234
▁professor	-10.6235
▁rejection	-10.6236
▁pick	-10.6239
ster	-10.6243
▁inflationary	-10.6246
▁ranks	-10.6247
▁lived	-10.6248
▁receiv	-10.6249
▁Per	-10.6262
▁discussed	-10.6264
ue	-10.6279
born	-10.6287
reform	-10.6291
▁acts	-10.6294
EU	-10.6298
▁owners	-10.6299
▁disorder	-10.63
▁sa	-10.63
▁Economy	-10.6307
▁altogether	-10.6307
▁pound	-10.6309
af	-10.631
▁components	-10.6313
▁6%	-10.6317
▁capitalist	-10.6317
▁dictatorship	-10.6317
▁scandal	-10.6318
▁protectionist	-10.6319
▁entering	-10.6326
▁Her	-10.633
▁delivering	-10.6343
▁regular	-10.6365
high	-10.6368
▁27	-10.6372
▁Mao	-10.6378
▁door	-10.6379
▁Moscow	-10.6383
▁Piketty	-10.6383
▁Irish	-10.6383
▁walk	-10.6383
▁Hillary	-10.6383
▁Cooperation	-10.6383
versus	-10.6383
▁lift	-10.6383
▁constructive	-10.6384
▁[	-10.6386
▁destructive	-10.6386
▁perform	-10.6388
▁respectively	-10.6393
▁predecessor	-10.6394
▁emphasized	-10.6395
▁citizen	-10.6395
▁pledged	-10.6402
ana	-10.6419
▁funded	-10.642
▁realized	-10.6438
ory	-10.6445
▁Initiative	-10.6458
▁optimism	-10.6458
▁tsunami	-10.6458
▁overseas	-10.6458
▁followers	-10.6458
▁Making	-10.6459
▁League	-10.6459
▁35	-10.6471
▁ambition	-10.6472
▁student	-10.6472
▁headed	-10.648
▁admit	-10.649
▁formed	-10.6499
ries	-10.6506
▁alter	-10.6512
▁desperate	-10.6517
▁fundamentals	-10.6518
▁monitoring	-10.6519
▁alliances	-10.6519
ob	-10.6521
log	-10.6522
▁treatments	-10.6525
▁hear	-10.6526
dy	-10.6526
▁arsenal	-10.6535
▁Qatar	-10.6535
▁reporting	-10.6535
ONG	-10.6535
▁interpretation	-10.6536
▁WTO	-10.6537
▁losers	-10.6538
▁interested	-10.6541
▁devices	-10.6541
work	-10.6542
▁Qaeda	-10.6544
▁observed	-10.6545
▁lock	-10.6547
▁giant	-10.655
▁entail	-10.655
▁demanded	-10.655
▁Nazi	-10.6554
▁constrained	-10.6555
▁hour	-10.6559
▁stakeholders	-10.6576
▁joining	-10.6581
gan	-10.6581
▁pan	-10.6592
▁settle	-10.6595
▁puts	-10.6595
▁Ethiopia	-10.6602
▁chose	-10.6602
▁distinct	-10.6606
▁translate	-10.6607
▁waiting	-10.661
▁gets	-10.661
▁Alliance	-10.6612
▁Earth	-10.6612
▁equilibrium	-10.6612
▁resilient	-10.6613
▁ceiling	-10.6614
▁stream	-10.6617
▁weaknesses	-10.6619
▁outbreak	-10.6631
▁begins	-10.6634
Y	-10.6645
▁Reagan	-10.6656
▁namely	-10.6663
▁facto	-10.6674
▁combine	-10.6675
▁Where	-10.6687
▁Rwanda	-10.6689
▁Ultimately	-10.6689
▁audience	-10.6689
▁dignity	-10.6689
▁drove	-10.6689
▁surface	-10.6689
▁territories	-10.6689
▁foremost	-10.6689
▁strikes	-10.6691
▁attend	-10.6691
▁ISIS	-10.6694
▁denied	-10.6694
▁predictable	-10.6694
▁reap	-10.6695
▁friend	-10.6696
▁realities	-10.6697
backed	-10.6698
▁upward	-10.6702
▁arrangement	-10.6708
▁livelihoods	-10.6712
▁Go	-10.6716
▁delivery	-10.672
▁younger	-10.6744
sheet	-10.6747
▁typical	-10.675
▁evident	-10.6752
▁bias	-10.676
▁cure	-10.676
val	-10.676
▁virus	-10.6763
▁closing	-10.6767
▁enemy	-10.6767
▁existential	-10.6767
▁split	-10.6767
▁triumph	-10.6767
▁Simpl	-10.6768
ear	-10.6769
▁cold	-10.677
▁entry	-10.6771
▁pledge	-10.6776
▁discovered	-10.6784
▁animal	-10.679
▁details	-10.6793
▁cells	-10.6795
put	-10.6801
▁eat	-10.6813
▁Lo	-10.682
▁provisions	-10.6836
▁distinguish	-10.6839
▁undertake	-10.6842
▁aspects	-10.6843
▁En	-10.6844
▁Crisis	-10.6846
▁Science	-10.6846
▁convincing	-10.6846
▁square	-10.6846
▁trajectory	-10.6846
▁repair	-10.6846
▁Worse	-10.6846
▁mood	-10.6846
▁pride	-10.6846
▁meantime	-10.685
▁tradable	-10.6853
▁chosen	-10.6855
ai	-10.6859
▁upper	-10.6869
▁Add	-10.687
rd	-10.6877
▁focuses	-10.688
▁consideration	-10.6882
▁ratios	-10.6882
▁shortage	-10.6887
▁Mario	-10.6893
▁deposit	-10.6899
uff	-10.69
society	-10.6905
▁unilateral	-10.6906
▁bid	-10.6908
wage	-10.6914
▁professionals	-10.6915
▁automation	-10.6925
▁comparative	-10.6925
▁veto	-10.6925
▁landscape	-10.6926
▁vice	-10.6926
▁Musharraf	-10.6926
▁Whereas	-10.6927
▁sight	-10.6928
▁evil	-10.6929
▁forecasts	-10.693
▁gene	-10.6931
▁deem	-10.6932
▁targeting	-10.6937
oli	-10.6939
▁$10	-10.694
▁periods	-10.6948
▁newspaper	-10.695
▁achievements	-10.6952
▁se	-10.6956
▁fish	-10.696
TA	-10.696
▁investor	-10.6965
▁intention	-10.6969
▁telling	-10.697
▁Pa	-10.6973
▁channels	-10.6976
▁accomplish	-10.6984
▁restor	-10.699
▁aspirations	-10.6994
▁occasion	-10.6998
▁directed	-10.7
▁Labor	-10.7005
▁commodities	-10.7005
▁dynamism	-10.7005
▁honest	-10.7005
▁likelihood	-10.7005
▁sectarian	-10.7005
▁Stalin	-10.7005
▁stuck	-10.7006
▁Good	-10.7006
▁resolving	-10.7006
▁Report	-10.7006
▁redistribution	-10.7007
▁commission	-10.7007
▁advocate	-10.7017
everal	-10.7019
▁explicitly	-10.7022
▁prevention	-10.7024
▁responding	-10.7027
▁extremists	-10.7034
▁tons	-10.705
▁blamed	-10.7053
▁fairly	-10.7058
▁contest	-10.7059
water	-10.7066
force	-10.7066
▁assumptions	-10.707
▁spot	-10.7073
▁genes	-10.7078
▁sets	-10.7083
▁Czech	-10.7086
▁assault	-10.7086
▁destabilizing	-10.7086
▁suicide	-10.7086
▁dam	-10.7088
▁motivation	-10.7088
▁Few	-10.7089
ought	-10.709
ude	-10.7096
▁Oil	-10.7097
▁epidemic	-10.7114
▁attitude	-10.7115
▁disruption	-10.7117
▁tension	-10.7117
fold	-10.712
▁computers	-10.7122
ran	-10.7131
▁differently	-10.7133
▁belong	-10.7137
dustrialization	-10.7137
▁camps	-10.7139
point	-10.7144
ail	-10.7146
▁medicines	-10.7146
ari	-10.7149
▁attribut	-10.7152
▁schemes	-10.7166
▁Ahmadinejad	-10.7167
▁feasible	-10.7167
▁pragmatic	-10.7167
▁surpass	-10.7167
▁Prize	-10.7167
▁underpinned	-10.7167
▁Chairman	-10.7168
▁preferred	-10.7168
▁letter	-10.7171
▁grant	-10.7171
▁channel	-10.7172
▁applications	-10.7174
▁administrative	-10.7174
▁2013.	-10.7175
▁surrounding	-10.7175
▁Ban	-10.7176
▁representative	-10.72
▁hoped	-10.7202
ile	-10.7206
▁stated	-10.7218
▁confirm	-10.722
▁maximize	-10.7221
government	-10.7223
▁consume	-10.723
▁frequent	-10.7234
▁acquire	-10.7235
▁historically	-10.7237
▁detect	-10.7249
▁1998	-10.7249
▁Otherwise	-10.7249
▁Women	-10.7249
▁judiciary	-10.7249
▁premium	-10.7249
▁steadily	-10.7249
▁Shinzo	-10.7249
▁duty	-10.725
▁expectancy	-10.725
▁Burma	-10.7252
▁refusal	-10.7253
▁Bas	-10.726
▁Real	-10.7269
▁Economists	-10.7269
▁acknowledged	-10.7274
US	-10.7277
It	-10.7284
▁enables	-10.7291
▁naturally	-10.7296
▁punish	-10.7302
▁dismiss	-10.7305
▁undergo	-10.7307
saving	-10.7313
▁Ar	-10.7323
▁recruit	-10.733
▁Hindu	-10.7332
▁accelerating	-10.7332
▁desirable	-10.7332
▁contemporary	-10.7332
▁introduction	-10.7332
▁frontier	-10.7333
▁distant	-10.7334
▁factories	-10.7335
sis	-10.7335
most	-10.7337
▁difficulty	-10.7337
▁criticized	-10.7342
▁teachers	-10.7343
▁Africans	-10.7351
▁Ki	-10.7361
▁eliminated	-10.7364
▁talking	-10.7367
▁listen	-10.7373
▁secur	-10.7373
▁author	-10.7373
▁recognizes	-10.7384
▁align	-10.7385
▁note	-10.7389
▁fashion	-10.7391
▁master	-10.7395
▁unexpected	-10.7398
▁explicit	-10.7398
▁adults	-10.74
▁integrate	-10.7403
▁cons	-10.7405
▁claiming	-10.7408
▁Indians	-10.7409
▁employ	-10.7414
▁1992	-10.7415
▁yen	-10.7415
▁Emmanuel	-10.7415
▁Recession	-10.7415
▁tendency	-10.7416
▁SDR	-10.7418
▁decent	-10.7418
▁clinical	-10.7428
▁hot	-10.7432
▁deepen	-10.7434
za	-10.7434
▁stocks	-10.7442
▁Conservative	-10.7452
▁Ta	-10.7453
▁victim	-10.7455
▁28	-10.7478
▁creditor	-10.7487
▁seize	-10.7491
ong	-10.7495
▁liquid	-10.7497
▁Association	-10.7499
▁sanitation	-10.7499
▁calm	-10.7499
▁laid	-10.7501
▁collateral	-10.7501
▁heighten	-10.7501
▁providers	-10.7501
▁revival	-10.7502
▁Peru	-10.7503
▁dioxide	-10.7504
▁TPP	-10.7505
▁2014.	-10.7505
▁importantly	-10.7509
cal	-10.7509
▁ecosystems	-10.7509
▁strongest	-10.7515
▁regularly	-10.7519
▁diminished	-10.7524
▁toll	-10.7529
but	-10.753
▁headlines	-10.7533
▁ocean	-10.7538
▁tasks	-10.7541
15	-10.7544
▁2010.	-10.7549
pping	-10.7552
▁Se	-10.7554
▁neglect	-10.7557
known	-10.7562
fer	-10.7564
▁involves	-10.7564
▁200	-10.7578
▁findings	-10.7578
▁Islamists	-10.7583
—	-10.7584
▁Berlusconi	-10.7584
▁Morocco	-10.7584
▁Ocean	-10.7584
▁Office	-10.7584
▁ministry	-10.7584
▁vicious	-10.7584
▁writing	-10.7584
▁preparing	-10.7584
▁innocent	-10.7584
▁reference	-10.7585
▁supervision	-10.7586
▁barrel	-10.7586
▁deflationary	-10.7587
.6%	-10.7591
▁hedge	-10.7592
▁meat	-10.7593
▁whereby	-10.7593
▁justified	-10.7598
▁settlements	-10.76
▁governed	-10.7617
▁breakthrough	-10.7625
▁enterprise	-10.7628
▁Market	-10.7629
▁Non	-10.7635
▁requirement	-10.764
▁classic	-10.7652
▁confronted	-10.7653
▁appreciate	-10.7655
▁accumulation	-10.7669
▁applies	-10.7669
▁sugar	-10.7669
▁Thatcher	-10.7669
TON	-10.767
▁worker	-10.7672
▁tactics	-10.7676
▁Globalization	-10.7677
ren	-10.7678
▁serving	-10.7682
▁bridge	-10.7686
▁Age	-10.7688
▁zones	-10.7689
▁highlighted	-10.7689
▁auto	-10.7695
rit	-10.7696
▁noted	-10.7711
▁permit	-10.7711
▁Olympic	-10.7713
▁uphold	-10.7714
▁forget	-10.7722
▁rating	-10.7727
▁horizon	-10.7733
▁compare	-10.7741
aries	-10.7746
▁arguably	-10.7756
▁electronic	-10.7756
▁grasp	-10.7756
▁suspicion	-10.7756
▁tragic	-10.7756
▁relies	-10.7756
▁consent	-10.7757
▁pact	-10.7757
▁BJP	-10.7759
▁isolated	-10.7761
▁Follow	-10.7764
▁forests	-10.7764
▁somehow	-10.7764
▁complexity	-10.7767
▁€1	-10.7768
king	-10.777
▁socio	-10.7771
dge	-10.7786
▁emphasize	-10.7789
▁landing	-10.7789
▁cr	-10.7791
▁preferences	-10.7796
▁com	-10.7796
▁doubled	-10.7801
▁earned	-10.7802
▁mother	-10.7802
▁governor	-10.7805
▁nutrition	-10.7805
▁produces	-10.781
▁plays	-10.7815
▁stakes	-10.7832
ust	-10.7838
▁median	-10.7839
-2	-10.7841
à	-10.7843
▁conversation	-10.7843
▁reconciliation	-10.7843
▁significance	-10.7843
▁vested	-10.7843
▁anemic	-10.7843
▁architecture	-10.7843
▁Marine	-10.7844
▁elderly	-10.7846
▁dire	-10.7847
▁Up	-10.7848
▁contraction	-10.785
▁coherent	-10.7851
▁socially	-10.7852
▁spurred	-10.7858
▁desperately	-10.7862
▁tends	-10.7864
ek	-10.7871
▁origin	-10.7886
▁holdings	-10.7888
ger	-10.789
▁obstacle	-10.7891
▁storm	-10.7895
▁recorded	-10.7896
▁contained	-10.7897
▁experiences	-10.7898
pr	-10.7905
liberal	-10.7909
▁wise	-10.7911
▁Qu	-10.7911
▁gr	-10.7914
bu	-10.7929
▁Greenspan	-10.793
▁Khamenei	-10.793
▁Rouhani	-10.793
▁reckless	-10.793
▁hostile	-10.7931
▁judicial	-10.7933
▁proud	-10.7933
▁acceptance	-10.7934
▁enduring	-10.7934
▁adaptation	-10.7935
▁compris	-10.7936
▁rid	-10.7937
▁sun	-10.794
▁returning	-10.7955
▁troubled	-10.7965
amin	-10.7974
▁CEO	-10.7981
▁drag	-10.7982
▁$50	-10.799
▁suspect	-10.7992
▁Woods	-10.7995
▁strict	-10.7995
service	-10.7999
▁predecessors	-10.8005
▁soil	-10.8006
▁regulate	-10.8007
▁bombing	-10.8007
▁Movement	-10.8019
▁engaging	-10.8019
▁indication	-10.8019
▁psychological	-10.8019
▁deterrence	-10.8019
▁fought	-10.8019
▁shot	-10.802
▁retreat	-10.802
▁dictate	-10.8021
▁react	-10.8021
▁deployment	-10.8021
port	-10.8021
▁founding	-10.8022
gen	-10.8023
▁expansionary	-10.8024
▁arrived	-10.8031
▁initiated	-10.8034
▁missed	-10.8041
▁consist	-10.8043
sen	-10.8047
▁symbol	-10.8047
▁enjoyed	-10.8064
▁alarming	-10.8065
▁imbalance	-10.8072
suing	-10.8072
▁founder	-10.8077
▁disappear	-10.808
▁excessively	-10.809
▁Within	-10.8098
▁Part	-10.8105
der	-10.8108
▁Bretton	-10.8108
▁Infrastructure	-10.8108
▁liberty	-10.8108
▁Emerging	-10.8108
▁burst	-10.8108
▁march	-10.8108
▁shortcomings	-10.8108
▁temptation	-10.8108
controlled	-10.8109
▁King	-10.8112
▁sphere	-10.8114
▁Year	-10.8117
▁exclusively	-10.812
▁stretch	-10.8125
standing	-10.8129
▁informed	-10.8131
▁odds	-10.8136
▁2003,	-10.8143
ose	-10.8144
▁mess	-10.8146
▁mixed	-10.8147
▁2030.	-10.815
-7	-10.8161
▁interact	-10.8164
▁doubts	-10.8165
▁affects	-10.8169
▁display	-10.8171
productive	-10.8173
ham	-10.8173
value	-10.8177
▁serves	-10.8177
▁collect	-10.8178
ither	-10.8181
▁elect	-10.8188
▁distance	-10.8192
▁sheet	-10.8193
▁Cyprus	-10.8198
▁brother	-10.8198
▁cohesion	-10.8198
▁fraction	-10.8198
▁privacy	-10.8198
▁Hussein	-10.8198
▁kick	-10.8198
▁disruptive	-10.82
▁night	-10.8206
mit	-10.8206
▁devoted	-10.8208
▁notable	-10.8208
▁safer	-10.8214
▁store	-10.8215
▁arm	-10.8219
▁hospitals	-10.8223
▁tech	-10.8224
▁mine	-10.8226
▁accelerated	-10.8228
▁confirmed	-10.8228
▁frameworks	-10.8228
▁legally	-10.8232
era	-10.8234
▁successes	-10.8236
▁curb	-10.8242
▁scene	-10.8249
▁voices	-10.8249
ilk	-10.8252
▁extremist	-10.8256
▁street	-10.8256
▁cell	-10.8263
ath	-10.8265
ise	-10.8267
▁Capital	-10.8287
▁1994	-10.8289
▁Cambodia	-10.8289
▁Kurdish	-10.8289
▁advancing	-10.8289
▁shaping	-10.8289
▁fault	-10.8289
▁James	-10.8289
▁Apple	-10.8291
▁warfare	-10.8291
▁selection	-10.8291
▁bo	-10.8293
▁fastest	-10.8293
▁suggesting	-10.8295
▁distributed	-10.8298
▁$7	-10.8298
▁concessions	-10.83
▁solely	-10.8304
▁God	-10.8306
▁sum	-10.8307
▁winners	-10.8308
▁alarm	-10.8311
▁captured	-10.8316
▁appealing	-10.8317
In	-10.8323
▁champion	-10.8324
▁ratings	-10.8334
cus	-10.8336
▁buildings	-10.834
▁fishing	-10.8344
▁circle	-10.8349
▁tri	-10.835
▁intentions	-10.8351
▁condemn	-10.8351
RA	-10.8352
▁customs	-10.8352
▁proceed	-10.8352
▁newspapers	-10.8352
▁enact	-10.8353
▁efficiently	-10.836
▁discourage	-10.8366
▁rethink	-10.8371
▁sit	-10.8373
ice	-10.8374
▁valid	-10.8379
▁BERLIN	-10.8381
▁Consensus	-10.8381
▁Peninsula	-10.8381
▁equitable	-10.8381
▁fortune	-10.8381
▁implied	-10.8381
▁indigenous	-10.8381
▁overhaul	-10.8381
▁plausible	-10.8381
▁switch	-10.8381
▁spill	-10.8381
▁Somalia	-10.8382
▁foreseeable	-10.8382
▁resentment	-10.8382
▁basket	-10.8382
▁panel	-10.8383
▁rally	-10.8383
▁Army	-10.8385
▁restraint	-10.8388
▁sports	-10.8388
▁plus	-10.8389
▁bureaucrats	-10.8394
▁agents	-10.8394
▁exacerbated	-10.8399
.7%	-10.8402
▁Deal	-10.8404
▁employed	-10.8416
▁shaped	-10.8425
▁bargain	-10.8426
▁Nar	-10.8435
▁Games	-10.8435
ett	-10.8439
▁hike	-10.8444
▁adhere	-10.8453
▁immense	-10.8456
▁highlights	-10.8459
induced	-10.8462
▁margin	-10.8462
▁balances	-10.8467
▁accepting	-10.8472
▁Mahmoud	-10.8473
▁Twitter	-10.8473
▁contagion	-10.8473
▁deleveraging	-10.8473
▁minimal	-10.8473
▁slogan	-10.8473
▁ecological	-10.8473
▁angry	-10.8474
▁excuse	-10.8474
▁Fatah	-10.8474
▁assuming	-10.8474
▁Singh	-10.8474
▁Jong	-10.8474
▁occurring	-10.8474
▁parity	-10.8478
▁spreading	-10.848
▁director	-10.8481
fully	-10.8485
▁popularity	-10.8489
▁reminder	-10.8499
▁emotional	-10.8499
▁inspired	-10.8505
▁gathering	-10.8513
▁profession	-10.8521
▁judge	-10.8525
▁abuses	-10.8532
▁supervisor	-10.8537
▁blocked	-10.8537
▁bail	-10.8539
▁occurs	-10.8539
▁hundred	-10.8539
▁tight	-10.8543
▁waves	-10.8546
General	-10.8547
▁phone	-10.8549
▁routine	-10.8552
▁hate	-10.8555
▁possess	-10.8558
▁carrie	-10.8559
▁reveal	-10.8559
▁benchmark	-10.8567
▁stabilizing	-10.8567
▁Freedom	-10.8567
▁Policymakers	-10.8567
▁polarization	-10.8567
▁oversight	-10.8567
▁Park	-10.8568
▁window	-10.8568
▁privatization	-10.8568
▁harmful	-10.8569
▁depth	-10.8569
▁occupied	-10.8569
▁visited	-10.8573
▁tens	-10.8578
▁bills	-10.858
▁repeat	-10.8586
▁diminish	-10.8586
▁appointed	-10.8587
▁myth	-10.859
▁Tax	-10.8592
▁gases	-10.8595
▁Brothers	-10.8601
▁style	-10.8604
start	-10.8606
▁rebuild	-10.8614
▁attracted	-10.8631
ify	-10.8633
▁portfolio	-10.8635
▁hospital	-10.8635
▁finds	-10.8638
Brexit	-10.8641
elect	-10.8641
added	-10.8643
▁tariff	-10.8643
▁wild	-10.8644
▁implicit	-10.8644
▁town	-10.8646
▁spoke	-10.8652
.6	-10.8654
▁disagree	-10.866
▁Program	-10.8661
▁Above	-10.8661
▁Ghana	-10.8661
▁Next	-10.8661
▁cautious	-10.8661
▁fertility	-10.8661
▁philosopher	-10.8661
▁satisfy	-10.8661
▁embedded	-10.8661
▁availability	-10.8661
▁discontent	-10.8661
▁Future	-10.8661
▁meltdown	-10.8661
▁overthrow	-10.8661
▁bureaucratic	-10.8661
▁discourse	-10.8661
▁ample	-10.8662
▁hostility	-10.8662
▁globalized	-10.8662
▁unacceptable	-10.8663
▁season	-10.8663
▁unstable	-10.8664
▁unknown	-10.8664
▁unified	-10.8666
▁specifically	-10.8667
▁Day	-10.8668
▁determination	-10.8668
▁entrenched	-10.867
▁richest	-10.867
▁edge	-10.8673
▁islands	-10.8677
▁follows	-10.8679
▁scholars	-10.8686
▁drivers	-10.8702
Whatever	-10.8712
▁NGOs	-10.8723
▁construct	-10.8726
democratic	-10.8734
enhancing	-10.8736
election	-10.8736
private	-10.8736
▁alleged	-10.8739
▁defeated	-10.8741
▁stark	-10.8741
▁compensate	-10.8746
▁lawyers	-10.8752
▁consult	-10.8754
digit	-10.8756
▁text	-10.8756
INCE	-10.8756
▁BRUSSELS	-10.8756
▁genocide	-10.8756
▁prescription	-10.8756
▁tomorrow	-10.8756
▁Chief	-10.8757
▁ballot	-10.8757
▁meanwhile	-10.8757
▁degradation	-10.8757
▁bitter	-10.8758
▁collection	-10.8764
▁alive	-10.8766
effective	-10.8769
taking	-10.8774
."	-10.8776
▁benefiting	-10.8779
▁Iranians	-10.8779
dis	-10.8781
▁founded	-10.8785
▁lacking	-10.8791
▁$6	-10.8812
makers	-10.8815
▁Har	-10.8818
▁describe	-10.8819
▁inspire	-10.8838
▁torture	-10.8838
industrial	-10.884
▁Economics	-10.8842
▁o	-10.8844
funded	-10.8849
▁rigid	-10.8853
▁Liberal	-10.8853
▁climb	-10.8853
▁exemplifie	-10.8853
▁guidance	-10.8853
▁speculative	-10.8853
▁flourish	-10.8853
▁revolt	-10.8853
▁utter	-10.8853
▁Richard	-10.8853
▁1995	-10.8853
▁yes	-10.8853
▁flag	-10.8856
▁colonial	-10.8858
▁cycles	-10.886
▁crude	-10.8862
▁soared	-10.8863
▁closest	-10.8865
▁tested	-10.8875
▁lately	-10.8878
▁tackl	-10.8882
▁Venezuelan	-10.8883
▁shrinking	-10.8891
ient	-10.8891
ying	-10.8893
▁Summers	-10.8894
▁Socialist	-10.89
▁strain	-10.8904
performing	-10.8914
control	-10.8928
AIDS	-10.893
▁advisers	-10.893
corruption	-10.893
▁negotiation	-10.8931
EL	-10.8932
▁winner	-10.8935
▁site	-10.8941
▁fe	-10.8947
▁Tibet	-10.8948
▁Better	-10.895
▁Delhi	-10.895
▁Romney	-10.895
▁Roosevelt	-10.895
▁fragmented	-10.895
▁sake	-10.895
▁tourism	-10.895
▁Jerusalem	-10.8951
▁mega	-10.8952
▁reading	-10.8953
tur	-10.8954
▁distinction	-10.8955
▁profitable	-10.8955
ould	-10.8959
denominated	-10.8959
▁representation	-10.896
▁tr	-10.8963
▁constantly	-10.8975
▁deployed	-10.8975
▁repay	-10.8979
▁favored	-10.8981
zi	-10.8981
▁teaching	-10.8986
▁feared	-10.8987
▁violations	-10.8991
▁signals	-10.8992
▁indicates	-10.8993
entrepreneurship	-10.8994
▁seeing	-10.8995
▁Islands	-10.9001
gra	-10.9002
▁reconcile	-10.9027
management	-10.9027
▁cultures	-10.9029
▁promoted	-10.903
▁brief	-10.903
ology	-10.9033
▁operational	-10.9034
▁Arabs	-10.9046
▁François	-10.9048
▁Lehman	-10.9048
▁Nixon	-10.9048
▁Yanukovych	-10.9048
▁choosing	-10.9048
▁entities	-10.9048
▁magnitude	-10.9048
▁temporarily	-10.9048
▁worries	-10.9048
▁wife	-10.9048
▁abundant	-10.9049
▁dysfunctional	-10.905
▁Vice	-10.9052
▁grip	-10.9053
▁rang	-10.9055
▁partial	-10.9061
▁allocated	-10.9067
▁seat	-10.9069
▁deter	-10.907
▁amid	-10.9076
▁phones	-10.9077
▁2030	-10.9079
▁lifted	-10.9083
▁intent	-10.9084
▁predictions	-10.9084
▁arrested	-10.9086
▁undermines	-10.909
▁fu	-10.9097
▁bargaining	-10.9098
▁completed	-10.9101
hard	-10.9116
▁macro	-10.9122
▁eventual	-10.913
▁connection	-10.9132
▁fruit	-10.9133
▁Fac	-10.9135
▁inputs	-10.9141
▁quest	-10.9144
▁Krugman	-10.9147
▁Kyoto	-10.9147
▁Lisbon	-10.9147
▁MADRID	-10.9147
▁club	-10.9147
▁illusion	-10.9147
▁stagnant	-10.9147
▁terrible	-10.9147
▁transatlantic	-10.9147
▁tremendous	-10.9147
▁unnecessary	-10.9147
▁tiny	-10.9147
▁Johnson	-10.9149
▁TV	-10.915
▁reinforcing	-10.9151
▁fairness	-10.9153
▁breaking	-10.9157
▁downside	-10.9159
▁Does	-10.9159
▁acquired	-10.9164
▁Vi	-10.9189
▁writer	-10.919
▁SOEs	-10.9191
▁vis	-10.9196
▁Sino	-10.9197
▁prevailed	-10.9207
▁Gu	-10.922
▁unite	-10.9225
▁degrees	-10.9226
flow	-10.923
▁scenarios	-10.9232
▁Algeria	-10.9238
ily	-10.9242
▁forge	-10.9243
▁traffic	-10.9247
▁Article	-10.9247
▁Davos	-10.9247
▁McKinsey	-10.9247
▁biodiversity	-10.9247
▁bulk	-10.9247
▁censorship	-10.9247
▁creativity	-10.9247
▁irrelevant	-10.9247
▁imperfect	-10.9247
▁interview	-10.9247
▁Civil	-10.9248
▁coastal	-10.9252
▁gl	-10.9263
Ma	-10.9263
.3	-10.9263
▁detailed	-10.9264
▁fifth	-10.9264
▁silence	-10.9267
▁11,	-10.9269
▁widening	-10.9273
▁financially	-10.9276
.8	-10.9277
▁Pu	-10.928
▁charged	-10.9283
▁ha	-10.9288
▁incomplete	-10.929
”:	-10.929
ani	-10.9291
test	-10.9292
▁miles	-10.9301
investment	-10.9323
qua	-10.9329
▁restored	-10.9331
some	-10.9334
▁ecosystem	-10.9336
▁suppliers	-10.9339
cat	-10.9341
▁complement	-10.9347
▁Ronald	-10.9348
▁Strategy	-10.9348
▁malaise	-10.9348
▁maritime	-10.9348
▁Valley	-10.9348
▁Neither	-10.9348
▁1945	-10.9348
▁conservation	-10.9348
▁2025	-10.9349
▁dying	-10.9351
▁tempted	-10.9352
▁accordingly	-10.9355
▁touch	-10.9355
▁situations	-10.9355
▁tied	-10.9357
▁assist	-10.936
▁flood	-10.9363
▁height	-10.9365
▁declines	-10.9367
▁Vik	-10.9375
▁speaking	-10.9392
▁adequately	-10.9392
▁mothers	-10.9396
▁orderly	-10.9397
▁interesting	-10.9399
▁firmly	-10.94
▁manufacturers	-10.9403
▁trained	-10.9405
▁Again	-10.941
ina	-10.9417
▁freely	-10.9423
▁farming	-10.9423
▁warm	-10.9425
▁chair	-10.9427
▁avert	-10.9429
▁hire	-10.9436
made	-10.9437
▁preserv	-10.9441
▁courage	-10.9449
▁BEIJING	-10.945
▁Fiscal	-10.945
▁aggression	-10.945
▁exclusion	-10.945
▁irrational	-10.945
▁diagnostic	-10.945
▁stemming	-10.945
▁Bosnia	-10.945
▁transmission	-10.945
▁hiring	-10.945
▁continuous	-10.945
▁Sometimes	-10.945
▁promotion	-10.945
▁(“	-10.9451
▁native	-10.9451
▁tide	-10.9451
uring	-10.9451
▁Lee	-10.9454
▁images	-10.9455
▁induce	-10.9462
▁acted	-10.9464
▁Mon	-10.9468
▁producer	-10.9471
▁26	-10.9472
▁2030,	-10.9473
▁prize	-10.9476
▁300	-10.9482
▁printing	-10.9486
▁looming	-10.9489
▁nets	-10.9489
▁Man	-10.9496
▁ends	-10.9497
bur	-10.9501
▁suppress	-10.9503
▁Air	-10.9506
▁waters	-10.9506
▁revolutions	-10.9513
▁recommendations	-10.9519
▁flaws	-10.9526
how	-10.953
light	-10.9531
defense	-10.9533
needed	-10.9533
friendly	-10.9539
▁association	-10.9544
▁drought	-10.9545
▁application	-10.9545
▁sport	-10.9545
art	-10.9547
▁norm	-10.9547
▁2011.	-10.955
▁select	-10.9551
▁Developing	-10.9553
▁Kurds	-10.9553
▁facility	-10.9553
▁happiness	-10.9553
▁identities	-10.9553
▁philosophy	-10.9553
▁storage	-10.9553
▁racial	-10.9553
▁Water	-10.9553
▁Director	-10.9555
▁crack	-10.9561
▁midst	-10.9561
▁justification	-10.9564
▁Long	-10.9565
▁excluded	-10.9567
▁Constitutional	-10.9571
▁assert	-10.9571
.7	-10.9577
▁Co	-10.9578
▁deploy	-10.9579
▁connect	-10.958
▁Po	-10.9582
▁overwhelmingly	-10.9583
▁fl	-10.9584
▁endless	-10.9586
armed	-10.9586
▁factory	-10.959
▁officially	-10.9596
▁dog	-10.9599
▁End	-10.9601
▁Koreans	-10.9603
▁th	-10.9615
ological	-10.9628
▁instrument	-10.963
board	-10.9638
▁coast	-10.9643
▁2012.	-10.9645
▁thousand	-10.9652
▁Chair	-10.9657
▁Special	-10.9657
▁System	-10.9657
▁Uganda	-10.9657
▁centrist	-10.9657
▁liability	-10.9657
▁Sanders	-10.9657
▁curtail	-10.9657
ilicon	-10.9657
▁disintegration	-10.9657
▁contact	-10.9657
▁demonstrations	-10.9657
▁outflows	-10.9657
▁unpopular	-10.9657
▁1.5	-10.9657
▁enlargement	-10.9658
▁destination	-10.9658
▁chairman	-10.9658
▁conviction	-10.9659
▁interconnected	-10.9659
▁prop	-10.9659
▁illiberal	-10.9662
ko	-10.9666
▁controlling	-10.9671
▁depressed	-10.9671
▁evolved	-10.9671
well	-10.9677
▁bust	-10.9692
▁player	-10.9708
▁broke	-10.971
▁derivatives	-10.9711
▁1,	-10.9718
▁Sha	-10.9723
30	-10.9728
▁stems	-10.973
▁formula	-10.9736
profit	-10.974
▁lo	-10.974
▁smooth	-10.9745
▁arrive	-10.9748
▁expert	-10.9759
tric	-10.9761
▁paradox	-10.9762
▁comfort	-10.9762
▁Orbán	-10.9762
▁Zimbabwe	-10.9762
▁opposing	-10.9762
▁keen	-10.9762
▁Liberia	-10.9762
▁automatically	-10.9763
▁Look	-10.9764
▁Near	-10.9764
▁raw	-10.9765
▁refer	-10.9766
▁‘	-10.9766
▁equipped	-10.9766
▁PBOC	-10.9767
▁shore	-10.9768
▁violate	-10.9781
▁SE	-10.9783
top	-10.979
▁welcomed	-10.9798
ium	-10.9806
▁socialist	-10.9809
▁ethics	-10.981
▁distortions	-10.9815
vin	-10.9827
▁broaden	-10.983
▁notes	-10.9834
yriad	-10.9844
▁Churchill	-10.9846
world	-10.9849
▁diplomats	-10.9852
▁consolidate	-10.9861
▁protections	-10.9861
¥	-10.9868
▁outrage	-10.9868
▁Protocol	-10.9869
▁cloud	-10.9869
▁disparities	-10.9869
▁injustice	-10.9869
▁offensive	-10.9869
▁upheaval	-10.9869
▁guidelines	-10.9869
▁taught	-10.9869
▁statistical	-10.9869
▁superpower	-10.9869
▁($1	-10.9869
▁hide	-10.9869
▁Lula	-10.987
▁transaction	-10.987
▁Right	-10.9871
▁AMR	-10.9871
rew	-10.9872
▁punishment	-10.9872
▁Pact	-10.9872
▁confined	-10.9874
▁endorsed	-10.9876
▁port	-10.9876
▁boosted	-10.9882
▁grievances	-10.9884
▁grows	-10.9886
OS	-10.9886
OK	-10.9888
let	-10.9893
ied	-10.99
▁centralized	-10.9902
▁traders	-10.9903
▁notice	-10.9908
▁extending	-10.9918
▁insisted	-10.9918
▁diminishing	-10.9923
▁Web	-10.9932
▁reduces	-10.9936
▁teams	-10.9944
▁suffers	-10.9944
development	-10.9956
▁precise	-10.9959
▁exclude	-10.9962
▁electric	-10.9968
▁luck	-10.9969
▁transforming	-10.9971
▁worsen	-10.9975
▁prudent	-10.9976
▁absent	-10.9976
▁supplement	-10.9976
▁Community	-10.9976
▁Declaration	-10.9976
▁phrase	-10.9976
▁staggering	-10.9976
▁Index	-10.9976
▁transnational	-10.9976
▁distrust	-10.9977
▁bought	-10.9977
▁breakdown	-10.9978
▁countless	-10.9978
▁located	-10.9979
▁Catholic	-10.9979
▁introducing	-10.9982
▁reasonably	-10.9982
▁solving	-10.9983
▁corner	-10.9984
▁loose	-10.9984
▁Action	-10.9984
tain	-10.9996
hood	-10.9998
▁Q	-11.0007
▁defin	-11.0007
▁condemned	-11.0008
unt	-11.0008
ire	-11.0012
fin	-11.0016
▁sole	-11.0019
looking	-11.0027
▁ensu	-11.0031
▁forum	-11.0032
▁recovered	-11.0035
skill	-11.0038
▁65	-11.0038
▁ignor	-11.0042
▁rivals	-11.0043
▁Sen	-11.0043
▁jump	-11.0058
70	-11.006
political	-11.0065
Palestinian	-11.0065
▁premature	-11.0068
who	-11.0069
▁erode	-11.0071
▁evolve	-11.0071
▁damaged	-11.0072
ley	-11.0072
▁pays	-11.0073
▁municipal	-11.0085
▁Amazon	-11.0085
▁Project	-11.0085
▁emulate	-11.0085
▁facilitating	-11.0085
▁hidden	-11.0085
▁paradigm	-11.0085
▁scrutiny	-11.0085
▁vacuum	-11.0085
▁disturbing	-11.0085
▁relied	-11.0085
▁stabilization	-11.0085
▁slump	-11.0085
▁Friedman	-11.0085
▁childhood	-11.0086
▁35%	-11.0086
▁mindset	-11.0086
▁hazard	-11.0086
▁village	-11.0087
▁counterpart	-11.0087
▁AIIB	-11.0088
▁hegemony	-11.0088
▁aspect	-11.0089
▁dangerously	-11.009
cul	-11.0091
▁Us	-11.0092
my	-11.0097
▁concerted	-11.0099
▁Anti	-11.0111
can	-11.0113
▁empower	-11.0118
▁decisively	-11.012
▁Ne	-11.0141
AS	-11.0144
▁drain	-11.0146
▁negotiators	-11.0147
▁attacked	-11.0148
▁disruptions	-11.0157
▁approaching	-11.0163
▁fees	-11.0168
▁struggles	-11.0169
▁j	-11.0174
good	-11.0176
▁insights	-11.0177
▁Roma	-11.0183
rated	-11.0185
part	-11.0188
▁forever	-11.0191
amp	-11.0192
▁1993	-11.0195
▁Empire	-11.0195
▁Holocaust	-11.0195
▁Senator	-11.0195
▁breast	-11.0195
▁destabilize	-11.0195
▁fragmentation	-11.0195
▁misguided	-11.0195
▁speculation	-11.0195
▁unpredictable	-11.0195
▁uranium	-11.0195
▁massacre	-11.0195
▁MDGs	-11.0195
▁Finland	-11.0195
▁departure	-11.0195
▁Thom	-11.0195
▁capability	-11.0196
▁disarmament	-11.0196
▁1,000	-11.0196
▁vaccination	-11.0197
▁interim	-11.0199
endra	-11.0199
▁normalization	-11.02
▁debtors	-11.02
▁episode	-11.0201
▁supports	-11.0201
▁merit	-11.0202
-8	-11.021
▁ice	-11.022
dicated	-11.0221
uck	-11.0227
▁actor	-11.0229
▁gather	-11.0231
▁respected	-11.0241
▁surprised	-11.0242
▁Rome	-11.0244
▁projections	-11.0261
▁install	-11.0279
2%	-11.0282
▁characteristics	-11.0284
zero	-11.0288
▁symptoms	-11.0303
▁pois	-11.0306
▁Xiaoping	-11.0306
▁daunting	-11.0306
▁replacing	-11.0306
▁steep	-11.0306
▁timing	-11.0306
▁Charles	-11.0306
▁clause	-11.0306
▁loud	-11.0307
▁theories	-11.0307
▁frustrated	-11.0308
▁evolutionary	-11.0308
▁comfortable	-11.0308
▁savers	-11.0311
▁lifestyle	-11.0311
▁Mark	-11.0312
▁voluntary	-11.0312
▁flat	-11.0312
▁ju	-11.0313
▁rock	-11.0313
vol	-11.0314
▁dimension	-11.0314
▁protesters	-11.0314
▁obligation	-11.0315
▁publication	-11.0317
▁seeds	-11.0318
40	-11.0319
▁bloody	-11.0321
▁soaring	-11.0326
▁expectation	-11.0331
▁correction	-11.0331
▁handle	-11.0332
▁Nicola	-11.0339
▁owned	-11.0341
fall	-11.0346
▁deadly	-11.0349
▁Ya	-11.0357
No	-11.0363
iff	-11.0387
rk	-11.0398
▁caution	-11.0405
▁Du	-11.0405
▁dozens	-11.0407
▁iron	-11.0409
▁Ph	-11.041
▁clash	-11.0415
cut	-11.0418
▁empirical	-11.0418
▁Corporation	-11.0418
▁Renzi	-11.0418
▁Thanks	-11.0418
▁Together	-11.0418
▁urgency	-11.0418
▁CIA	-11.0418
▁textbook	-11.0418
▁beliefs	-11.0419
▁illness	-11.0419
▁unclear	-11.0419
▁boundaries	-11.0419
▁grim	-11.042
ey	-11.0422
▁FDI	-11.0422
▁overnight	-11.0423
▁portion	-11.0424
▁accessible	-11.0425
iya	-11.043
▁multilateralism	-11.043
▁80	-11.043
ular	-11.0432
▁dozen	-11.0432
▁migrant	-11.0434
▁exceeding	-11.0435
▁Cup	-11.0441
▁cited	-11.0441
▁formation	-11.0443
▁engineers	-11.0446
▁Sri	-11.0455
▁Wen	-11.0469
▁continental	-11.0488
▁Sch	-11.0491
▁Don	-11.0495
▁prohibit	-11.0498
▁recommend	-11.0502
fifth	-11.0512
▁semi	-11.0518
being	-11.0525
▁superior	-11.053
▁east	-11.0531
▁1996	-11.0532
▁Ecuador	-11.0532
▁accommodate	-11.0532
▁compact	-11.0532
▁inspiration	-11.0532
▁journey	-11.0532
▁theoretical	-11.0532
▁Bolivia	-11.0532
▁divert	-11.0532
▁movie	-11.0532
▁infant	-11.0532
▁box	-11.0534
▁license	-11.0534
.8%	-11.0535
▁diagnosis	-11.0536
pan	-11.0537
▁discovery	-11.0539
▁determin	-11.054
ya	-11.0541
▁tolerance	-11.0542
▁Former	-11.0543
▁floods	-11.0545
▁inaction	-11.0546
establishment	-11.0549
▁logical	-11.0549
▁anticipated	-11.0551
▁connections	-11.0552
▁Was	-11.0552
▁advocated	-11.0552
mis	-11.0554
▁enhancing	-11.0556
▁Bin	-11.0562
▁graduates	-11.0564
▁militants	-11.057
▁rent	-11.0573
▁publish	-11.0575
▁solved	-11.0578
▁broker	-11.0581
▁aggressively	-11.0583
ched	-11.0586
▁warn	-11.0588
are	-11.059
▁Dr	-11.06
step	-11.0603
▁ho	-11.0604
▁functions	-11.0607
▁Had	-11.0607
25	-11.0608
q	-11.061
▁leftist	-11.0612
▁formally	-11.0614
reduction	-11.0627
range	-11.0644
▁2008-2009	-11.0647
▁advertising	-11.0647
▁appetite	-11.0647
▁declaring	-11.0647
▁enthusiasm	-11.0647
▁silent	-11.0647
▁kilometers	-11.0647
▁impression	-11.0647
▁biological	-11.0647
pecifically	-11.0647
▁12%	-11.0648
▁Would	-11.0649
▁music	-11.065
proportionately	-11.0651
▁amendment	-11.0651
▁disappointing	-11.0652
ook	-11.0656
▁nationalists	-11.0657
▁9%	-11.0659
▁democratically	-11.0661
▁province	-11.0663
▁Lu	-11.0665
▁regulated	-11.0673
▁hyper	-11.0679
ties	-11.0681
member	-11.0691
▁Los	-11.0706
▁breach	-11.071
▁highlight	-11.0713
▁Cha	-11.0717
▁fatal	-11.0718
▁wary	-11.0725
▁normally	-11.0727
▁admitted	-11.0728
▁imported	-11.0731
▁covered	-11.0734
▁Too	-11.0735
▁convert	-11.0736
▁entails	-11.074
▁adjusted	-11.0746
states	-11.0759
▁nav	-11.076
▁wh	-11.076
▁minor	-11.0761
▁plague	-11.0761
▁Digital	-11.0763
▁Swiss	-11.0763
▁brink	-11.0763
▁intensified	-11.0763
▁tribal	-11.0763
▁boast	-11.0763
▁hoping	-11.0764
▁crackdown	-11.0764
▁Charter	-11.0764
▁History	-11.0764
▁Review	-11.0764
▁citizenship	-11.0764
▁75%	-11.0764
▁rebound	-11.0765
▁OPEC	-11.0765
▁literally	-11.0766
▁anchor	-11.0766
▁100,000	-11.0767
dom	-11.0767
▁unification	-11.0768
▁interference	-11.0768
▁PiS	-11.077
▁Four	-11.077
▁accumulated	-11.0775
▁revision	-11.0776
▁healthier	-11.0776
bility	-11.0777
▁undertaken	-11.0777
▁deliberately	-11.0778
▁miss	-11.0781
▁adult	-11.0784
▁indispensable	-11.0785
▁insight	-11.0791
▁reveals	-11.0797
▁commentators	-11.0798
▁assumes	-11.08
▁Libyan	-11.0803
▁techniques	-11.0814
thy	-11.0816
where	-11.0828
▁remov	-11.0828
ank	-11.0837
▁collectively	-11.0843
.9%	-11.0845
▁bet	-11.0847
▁borrowed	-11.0848
▁forth	-11.0864
▁disadvantage	-11.0866
▁passing	-11.0869
▁2009.	-11.0874
▁Gordon	-11.0881
▁Tokyo	-11.0881
▁affirm	-11.0881
▁bleak	-11.0881
▁complacency	-11.0881
▁explosion	-11.0881
▁extension	-11.0881
▁gift	-11.0881
▁mosquito	-11.0881
▁mountain	-11.0881
▁possibilities	-11.0881
▁sluggish	-11.0881
▁harness	-11.0881
▁instance	-11.0881
▁Guard	-11.0881
▁mining	-11.0882
▁Macri	-11.0882
▁appointment	-11.0885
▁compliance	-11.0885
▁traditions	-11.0886
▁prisoners	-11.0886
▁removal	-11.0887
▁partisan	-11.0887
▁depending	-11.0887
▁replacement	-11.089
▁lifetime	-11.0892
▁dictator	-11.0902
▁underscore	-11.0902
▁routinely	-11.0903
▁treating	-11.0903
▁behalf	-11.0903
▁indicator	-11.0903
▁journal	-11.0907
▁Mis	-11.091
non	-11.0911
▁ranking	-11.092
▁Bu	-11.0925
▁influenced	-11.0927
▁card	-11.0929
▁genuinely	-11.0932
▁filled	-11.0935
▁mayor	-11.0935
cum	-11.0941
rap	-11.0948
▁demonstrates	-11.0949
▁named	-11.0953
▁materialize	-11.0958
▁opt	-11.096
▁delayed	-11.096
▁extract	-11.0967
▁heed	-11.0969
▁tap	-11.0971
▁obscure	-11.0973
▁robots	-11.0976
▁roots	-11.0976
▁virtual	-11.0984
iga	-11.0985
▁postpone	-11.0985
▁sentence	-11.0986
too	-11.0992
▁respective	-11.0992
▁journalist	-11.0993
han	-11.0999
▁Argentine	-11.1
▁Micha	-11.1
▁cumulative	-11.1
▁genome	-11.1
▁reconstruction	-11.1
▁video	-11.1
▁denial	-11.1
▁immunization	-11.1
▁automatic	-11.1
▁Open	-11.1
▁Panel	-11.1001
▁Protection	-11.1001
▁100%	-11.1002
▁profitability	-11.1002
▁favorite	-11.1002
▁marginalized	-11.1003
▁Data	-11.1003
▁containment	-11.1004
▁appearance	-11.1004
▁symbolic	-11.1005
rou	-11.1006
▁droughts	-11.1009
▁industrialized	-11.1011
▁Southern	-11.1011
uch	-11.1012
▁Post	-11.1017
▁attracting	-11.1022
▁Time	-11.1025
▁adviser	-11.1026
▁bailouts	-11.1029
▁Australian	-11.103
▁peer	-11.1039
▁performed	-11.1043
lay	-11.1046
Z	-11.105
▁Gr	-11.1055
law	-11.106
net	-11.1065
.4%	-11.1069
▁intensify	-11.1072
▁shrink	-11.1073
don	-11.1075
▁lifting	-11.1076
▁wear	-11.1082
▁watching	-11.1091
▁Mali	-11.1092
▁cards	-11.1101
AL	-11.1102
house	-11.1104
▁organize	-11.1106
▁officers	-11.1108
▁Pre	-11.1112
▁loyal	-11.112
▁Companies	-11.112
▁Kuwait	-11.112
▁Yellen	-11.112
▁fraud	-11.112
▁miracle	-11.112
▁presumably	-11.112
▁reluctance	-11.112
▁upgrading	-11.112
▁Michel	-11.112
▁intensity	-11.1123
▁tenure	-11.1125
.2%	-11.1126
▁rail	-11.113
mired	-11.1145
▁favors	-11.1162
▁experiments	-11.1163
▁infections	-11.1169
▁houses	-11.1174
▁sponsor	-11.1177
▁Markets	-11.1183
lessness	-11.1188
▁mini	-11.1189
Almost	-11.121
insurance	-11.1222
World	-11.1222
economy	-11.1222
ave	-11.1226
▁expose	-11.1228
▁criticize	-11.1228
▁schedule	-11.1236
▁coordinate	-11.1241
▁Kazakhstan	-11.1242
▁demise	-11.1242
▁entitled	-11.1242
▁escalating	-11.1242
▁outweigh	-11.1242
▁remarkably	-11.1242
▁floor	-11.1242
▁skeptical	-11.1242
▁steer	-11.1242
▁vague	-11.1242
▁Lanka	-11.1242
▁football	-11.1242
▁disregard	-11.1242
▁western	-11.1243
▁underpinning	-11.1243
▁unequal	-11.1243
that	-11.1244
▁Hungarian	-11.1244
▁criminals	-11.1247
▁CCP	-11.1247
▁winter	-11.1248
▁handful	-11.1249
▁infected	-11.1258
▁Pe	-11.1258
▁propose	-11.1258
▁tougher	-11.1261
bri	-11.1272
▁piece	-11.1273
▁booming	-11.1273
▁accession	-11.1277
▁covering	-11.128
▁hikes	-11.1282
▁dismissed	-11.1283
▁accomplished	-11.1284
▁debtor	-11.1292
hold	-11.1297
inal	-11.1301
ended	-11.1302
▁quarters	-11.1303
▁Shi	-11.1318
▁permanently	-11.132
ifying	-11.1327
▁discover	-11.1331
bar	-11.1337
▁unleash	-11.1339
▁Pi	-11.1341
atory	-11.1342
school	-11.1344
▁wins	-11.1347
speed	-11.1349
▁unusual	-11.1349
▁Marx	-11.1351
card	-11.1352
▁encourages	-11.1352
▁ride	-11.1353
▁examine	-11.1356
▁habits	-11.1356
▁episodes	-11.1359
ecutive	-11.1365
▁Affairs	-11.1366
▁Arafat	-11.1366
▁Celsius	-11.1366
▁Smith	-11.1366
▁Twenty	-11.1366
▁array	-11.1366
▁daughter	-11.1366
▁embracing	-11.1366
▁imminent	-11.1366
▁inequalities	-11.1366
▁irresponsible	-11.1366
▁maneuver	-11.1366
▁obesity	-11.1366
▁wield	-11.1366
▁repeal	-11.1366
▁Brown	-11.1366
▁Italians	-11.1366
▁Sachs	-11.1366
▁Price	-11.1366
▁Doha	-11.1367
▁bin	-11.1368
▁hotel	-11.1368
▁Poles	-11.1368
▁consultation	-11.1369
▁warnings	-11.137
▁Poor	-11.137
thing	-11.1371
▁document	-11.1372
▁NPT	-11.1373
▁indebted	-11.1374
▁backward	-11.1374
▁Qaddafi	-11.1378
▁knowing	-11.138
▁Tri	-11.138
▁park	-11.138
▁invited	-11.1382
▁Representatives	-11.1383
▁attribute	-11.139
▁shocking	-11.1396
▁historian	-11.1399
▁activist	-11.14
big	-11.1402
▁spreads	-11.1404
▁di	-11.1406
▁burdens	-11.1407
▁lender	-11.1412
▁facilitated	-11.1413
▁friendly	-11.1417
▁worsening	-11.1426
ox	-11.143
▁resisted	-11.1431
▁Si	-11.1441
▁loom	-11.1444
▁grants	-11.1445
▁environmentally	-11.1448
▁HA	-11.1455
▁rush	-11.1463
▁tape	-11.1465
▁schooling	-11.1468
▁Similar	-11.1474
▁exclusive	-11.1474
▁narratives	-11.1483
▁beneficiaries	-11.1491
▁clout	-11.1491
▁erosion	-11.1491
▁humiliation	-11.1491
▁responsive	-11.1491
▁Private	-11.1491
▁nobody	-11.1491
▁refrain	-11.1491
▁augment	-11.1491
▁Franco	-11.1491
▁pretend	-11.1491
▁autocratic	-11.1491
▁sick	-11.1492
▁sitting	-11.1493
▁secretary	-11.1494
▁Basel	-11.1494
Claud	-11.1498
▁assured	-11.1498
▁profile	-11.1503
▁budgetary	-11.1505
NA	-11.1515
arian	-11.1516
▁Abu	-11.1516
▁ring	-11.1526
▁whenever	-11.1526
▁Ten	-11.1527
▁deserves	-11.1535
▁answers	-11.1539
balancing	-11.1544
▁flu	-11.1555
▁authors	-11.1559
▁defaults	-11.1562
▁marks	-11.1567
▁overly	-11.157
▁trick	-11.1577
▁freedoms	-11.1579
gate	-11.1589
60	-11.159
German	-11.159
resistant	-11.1597
weight	-11.1597
▁quiet	-11.16
win	-11.16
▁clients	-11.1617
Semitism	-11.1617
regulating	-11.1617
▁Canadian	-11.1617
▁divergence	-11.1617
▁harvest	-11.1617
▁luxury	-11.1617
▁succumb	-11.1617
▁vulnerabilities	-11.1617
▁1973	-11.1617
▁psychology	-11.1617
▁cognitive	-11.1618
▁Agenda	-11.1618
▁Kerry	-11.1618
▁twin	-11.1618
▁observation	-11.1618
▁11%	-11.1618
▁exile	-11.1621
▁secured	-11.1623
▁impoverished	-11.1623
▁feet	-11.1623
▁hostage	-11.1623
▁lacked	-11.1624
ency	-11.1624
▁misleading	-11.1624
fire	-11.1627
▁beat	-11.1632
▁witnessed	-11.1637
▁engines	-11.164
▁incremental	-11.1641
▁reflection	-11.1641
▁unilaterally	-11.1645
▁Manag	-11.1647
▁recommended	-11.1648
▁towns	-11.1653
▁seized	-11.1653
▁margins	-11.1658
▁constrain	-11.1658
▁doctor	-11.1658
▁foods	-11.1665
▁Olympics	-11.1681
▁imagined	-11.1683
▁breakthroughs	-11.1684
▁teach	-11.1686
-200	-11.1693
▁checks	-11.1697
▁pioneer	-11.1718
▁craft	-11.1718
▁Nazis	-11.1718
even	-11.1724
cycle	-11.1726
financial	-11.1726
atic	-11.1727
▁urge	-11.1731
▁devise	-11.1735
▁Greeks	-11.1736
▁Haiti	-11.1743
▁Across	-11.1746
▁Politics	-11.1746
▁Rousseff	-11.1746
▁Square	-11.1746
▁discount	-11.1746
▁impunity	-11.1746
▁participating	-11.1746
▁plain	-11.1746
▁protracted	-11.1746
▁recipe	-11.1746
▁troubling	-11.1746
▁entity	-11.1746
▁Microsoft	-11.1746
▁Martin	-11.1746
▁connectivity	-11.1746
▁plot	-11.1746
▁hatred	-11.1746
▁arbitrary	-11.1746
▁offshore	-11.1746
▁hence	-11.1746
▁deregulation	-11.1746
▁Pope	-11.1746
▁reconsider	-11.1747
▁visa	-11.1747
▁Nothing	-11.1747
▁approximately	-11.1748
▁workplace	-11.1749
▁boat	-11.175
▁optimal	-11.1751
gre	-11.1755
▁hardline	-11.1761
▁tactical	-11.1766
▁Cuban	-11.1766
tz	-11.1772
▁inherent	-11.1774
▁burning	-11.1784
now	-11.1785
▁scientist	-11.179
▁dividend	-11.179
turn	-11.1794
▁Corbyn	-11.1803
▁feelings	-11.1805
RC	-11.1806
▁restricted	-11.1808
▁generals	-11.181
DR	-11.1819
▁games	-11.182
▁records	-11.1825
▁dividends	-11.1831
▁foot	-11.1835
ja	-11.1836
80	-11.184
▁portray	-11.1848
Soviet	-11.1855
Western	-11.1856
▁$20	-11.1856
resource	-11.1857
found	-11.1859
▁decrease	-11.1861
▁Old	-11.1864
▁Romania	-11.1867
peripheral	-11.1875
▁Joseph	-11.1875
▁buffer	-11.1875
▁diabetes	-11.1875
▁pervasive	-11.1875
▁shelter	-11.1875
▁spell	-11.1875
▁benign	-11.1876
▁Debt	-11.1876
▁Geneva	-11.1876
▁dissent	-11.1876
▁entrepreneurial	-11.1876
▁spike	-11.1876
▁displacement	-11.1876
▁loyalty	-11.1876
▁intelligent	-11.1877
▁shop	-11.1877
▁immune	-11.1877
$	-11.1877
▁probability	-11.1878
▁Rica	-11.1878
▁enrichment	-11.1879
▁Fear	-11.1879
▁compromises	-11.188
▁indefinitely	-11.188
▁BoE	-11.1881
▁inherited	-11.1885
▁longstanding	-11.1888
▁underestimated	-11.1893
▁highway	-11.1893
▁succession	-11.1901
▁blocking	-11.1902
quarter	-11.1902
▁domestically	-11.1903
▁sees	-11.1903
▁king	-11.1906
▁outsize	-11.1909
▁autonomous	-11.1909
▁disputed	-11.1914
▁roles	-11.192
▁2016.	-11.192
▁exchanges	-11.1921
▁Leader	-11.1925
▁rationale	-11.1932
▁Bi	-11.1937
4%	-11.1937
▁Home	-11.1937
▁stages	-11.1954
ata	-11.1955
▁hearing	-11.1958
ban	-11.1962
ji	-11.1965
▁reasoning	-11.1968
lock	-11.1984
▁provinces	-11.1989
▁spectacular	-11.199
▁derive	-11.1993
▁tolerate	-11.1994
▁trans	-11.1994
▁color	-11.2005
▁triple	-11.2006
▁trump	-11.2006
▁Inflation	-11.2007
▁Zhou	-11.2007
▁elimination	-11.2007
▁equities	-11.2007
▁paralysis	-11.2007
▁River	-11.2007
▁ruin	-11.2007
▁composition	-11.2007
▁potent	-11.2007
▁outlets	-11.2007
VEN	-11.2007
▁13%	-11.2008
▁€2	-11.2008
▁eradication	-11.2008
▁rewards	-11.2009
▁evolving	-11.2009
▁inward	-11.2011
▁Moon	-11.2012
▁gotten	-11.2012
ching	-11.2015
AN	-11.2016
▁revised	-11.2016
▁trapped	-11.2017
▁fostering	-11.2018
▁launching	-11.2023
▁sink	-11.2024
.3%	-11.2028
▁cow	-11.2028
▁repayment	-11.2038
▁Fe	-11.2052
!”	-11.2057
▁pipeline	-11.2058
▁receives	-11.2058
▁fines	-11.2065
▁flooding	-11.2069
▁starts	-11.2085
▁denying	-11.2098
social	-11.21
▁voter	-11.2102
▁(1	-11.2104
mov	-11.2105
▁sn	-11.2112
▁leak	-11.2113
Arab	-11.212
▁paint	-11.2121
▁pe	-11.2123
dor	-11.2123
▁cease	-11.2126
▁anticipate	-11.2126
▁devote	-11.2126
earth	-11.2128
▁convention	-11.2129
▁oversee	-11.2132
▁concentrate	-11.2135
▁im	-11.2136
If	-11.2137
▁leg	-11.2138
▁Marshall	-11.214
▁Ministry	-11.214
▁Moldova	-11.214
▁deciding	-11.214
▁dubious	-11.214
▁formidable	-11.214
▁penalty	-11.214
▁provincial	-11.214
▁skepticism	-11.214
▁soccer	-11.214
▁pretty	-11.214
▁domain	-11.214
▁spectrum	-11.214
▁Common	-11.214
▁Large	-11.2141
▁hint	-11.2141
▁16%	-11.2141
▁thin	-11.2142
▁aircraft	-11.2142
▁safeguards	-11.2143
▁resume	-11.2144
▁dedicated	-11.2145
▁contradiction	-11.2148
▁calculations	-11.215
▁overhang	-11.215
▁Bern	-11.2151
▁permitted	-11.2151
▁outsiders	-11.2153
▁eroded	-11.2158
▁overlook	-11.216
▁Roman	-11.2164
▁tanks	-11.2164
▁settled	-11.2166
▁swing	-11.2171
▁applying	-11.2177
▁subsequently	-11.2186
▁revived	-11.219
▁interaction	-11.2198
▁CEOs	-11.2198
▁tighten	-11.2203
▁wasted	-11.2205
▁sale	-11.2205
▁rebels	-11.2218
▁interactions	-11.2221
▁evaluate	-11.2227
cyclical	-11.2254
proliferation	-11.2255
–	-11.2255
▁perceive	-11.2261
gar	-11.2262
▁Vo	-11.2262
▁districts	-11.2267
▁packages	-11.227
disproportionate	-11.2271
▁Th	-11.2275
▁architect	-11.2275
▁cynical	-11.2275
▁Arctic	-11.2275
▁Belgium	-11.2275
▁Caribbean	-11.2275
▁ambassador	-11.2275
▁arrival	-11.2275
▁despair	-11.2275
▁disposal	-11.2275
▁fertilizer	-11.2275
▁guess	-11.2275
▁prejudice	-11.2275
▁substance	-11.2275
▁surrender	-11.2275
▁universe	-11.2275
▁cement	-11.2276
▁blueprint	-11.2276
▁cheer	-11.2276
▁1967	-11.2276
▁assertive	-11.2276
▁broadcast	-11.2276
▁Life	-11.2276
▁nomination	-11.2276
▁republic	-11.2276
YO	-11.2277
▁WHO	-11.2279
▁exploitation	-11.228
▁setback	-11.228
▁freeze	-11.2281
▁qualified	-11.2281
▁undertaking	-11.2283
▁pivot	-11.2285
EC	-11.2289
▁outstanding	-11.229
▁forgotten	-11.2291
▁fan	-11.2293
▁stalled	-11.2299
chi	-11.2303
▁incorporate	-11.2308
▁lit	-11.2313
▁fled	-11.2316
▁geo	-11.2317
▁liberals	-11.2326
▁enforced	-11.2327
▁rebel	-11.2333
▁conclusions	-11.2336
18	-11.234
▁print	-11.2349
▁oceans	-11.2349
▁spends	-11.2352
ection	-11.2358
▁2017.	-11.2371
serving	-11.2371
▁helpful	-11.2372
▁jeopardize	-11.2374
▁navigate	-11.2375
▁traded	-11.2383
▁renewables	-11.2386
10	-11.2388
▁cite	-11.2401
▁ship	-11.2402
▁Car	-11.2405
▁emerges	-11.2411
▁Out	-11.2412
+	-11.2412
▁Ayatollah	-11.2412
▁Exchange	-11.2412
▁Maastricht	-11.2412
▁Manuel	-11.2412
▁Premier	-11.2412
▁Tayy	-11.2412
▁civic	-11.2412
▁deteriorating	-11.2412
▁literacy	-11.2412
▁mirror	-11.2412
▁reunification	-11.2412
▁senator	-11.2412
▁tweet	-11.2412
▁durable	-11.2412
▁Henry	-11.2412
▁Nepal	-11.2412
▁linkages	-11.2413
▁bondholders	-11.2413
▁uncertainties	-11.2413
▁complementary	-11.2414
▁DPJ	-11.2415
▁Liu	-11.2418
ump	-11.2419
▁Rece	-11.2421
▁proof	-11.2426
▁banned	-11.2429
▁academics	-11.2431
▁dry	-11.2433
▁sad	-11.2437
▁fighters	-11.244
▁Recently	-11.2448
ez	-11.2452
uk	-11.2462
▁suggestion	-11.2465
▁trusted	-11.2476
▁boards	-11.2476
▁reformist	-11.2478
quarters	-11.2481
▁bases	-11.2482
▁Che	-11.2488
▁grid	-11.2491
▁struggled	-11.2494
▁complain	-11.2512
á	-11.2519
America	-11.2522
lie	-11.2523
▁giants	-11.2524
green	-11.2533
▁Egyptians	-11.2534
▁deliberate	-11.2534
bid	-11.2535
▁celebrate	-11.2537
▁Obviously	-11.2551
▁demonstrating	-11.2551
▁innovate	-11.2551
▁mineral	-11.2551
▁nightmare	-11.2551
▁pundits	-11.2551
▁rigorous	-11.2551
▁smoking	-11.2551
▁stimulating	-11.2551
▁tangible	-11.2551
▁variable	-11.2551
▁culminat	-11.2551
▁enshrin	-11.2551
▁instinct	-11.2551
▁malnutrition	-11.2551
▁Royal	-11.2551
▁scarcity	-11.2551
▁mistrust	-11.2552
▁biology	-11.2552
▁unintended	-11.2552
▁brave	-11.2552
▁proposition	-11.2552
ident	-11.2553
▁imagination	-11.2553
▁poet	-11.2554
▁Fight	-11.2555
▁NAFTA	-11.2558
▁statehood	-11.2559
financed	-11.2566
▁excesses	-11.2568
▁eradicate	-11.2569
▁weigh	-11.2574
▁sin	-11.2577
▁remittances	-11.2584
▁stations	-11.259
▁sounds	-11.2592
▁Area	-11.2595
ility	-11.2597
▁holders	-11.2597
▁$40	-11.2598
action	-11.2598
▁X	-11.2599
nder	-11.2608
ugh	-11.2609
▁perceptions	-11.261
▁underpin	-11.2616
▁location	-11.2617
▁disagreement	-11.2619
▁swap	-11.2623
cha	-11.2623
▁Iraqis	-11.2641
▁cool	-11.2651
human	-11.2653
▁parliaments	-11.2659
▁radically	-11.2665
capital	-11.2665
▁pump	-11.2666
source	-11.2667
just	-11.267
supply	-11.2672
▁explore	-11.2678
aging	-11.2679
▁90	-11.2681
▁Balkans	-11.269
▁Church	-11.2692
▁blunt	-11.2692
▁Lebanese	-11.2692
▁Major	-11.2692
▁Mechanism	-11.2692
▁assembly	-11.2692
▁competence	-11.2692
▁defensive	-11.2692
▁evasion	-11.2692
▁ministries	-11.2692
▁studied	-11.2692
▁personnel	-11.2692
▁transcend	-11.2692
▁admission	-11.2692
▁Franklin	-11.2692
▁marine	-11.2692
▁premise	-11.2693
▁ignorance	-11.2693
▁plight	-11.2693
▁undercut	-11.2693
-2015	-11.2694
▁execution	-11.2694
▁DNA	-11.2695
▁Matte	-11.2695
▁radio	-11.2696
▁dual	-11.2697
▁Christians	-11.2698
▁WWII	-11.2699
▁gay	-11.2699
▁breakup	-11.2702
▁hardship	-11.2702
▁factions	-11.2704
▁ga	-11.2706
▁segments	-11.2708
▁fluctuations	-11.2709
▁allegedly	-11.2718
▁refus	-11.2719
bil	-11.272
▁aged	-11.2721
▁sto	-11.2722
▁Yu	-11.2726
▁--	-11.2728
▁careers	-11.2728
▁selected	-11.273
▁disappeared	-11.2735
▁neglected	-11.2738
▁perfectly	-11.2741
▁farms	-11.2742
▁hole	-11.2747
▁signaled	-11.2754
▁title	-11.2759
▁conservatives	-11.2761
▁vehicle	-11.2763
▁Fo	-11.2771
▁pot	-11.2783
▁contend	-11.2788
▁GM	-11.2797
form	-11.2799
▁capitalize	-11.2805
▁interpret	-11.2805
▁insisting	-11.2807
its	-11.2807
seekers	-11.2815
▁150	-11.2816
▁contains	-11.2819
▁prosper	-11.2832
▁bright	-11.2832
▁Investors	-11.2835
▁accompany	-11.2835
▁backdrop	-11.2835
▁bacteria	-11.2835
▁cliff	-11.2835
▁escalation	-11.2835
▁insolvency	-11.2835
▁physics	-11.2835
▁reversing	-11.2835
▁Brexiteers	-11.2835
▁0.5%	-11.2835
▁invented	-11.2835
▁Oslo	-11.2835
▁maternal	-11.2835
▁dismal	-11.2835
▁derail	-11.2836
▁allocate	-11.2836
▁delegation	-11.2838
▁1920	-11.2838
%	-11.2841
▁Ever	-11.2842
▁Sunnis	-11.2844
▁prone	-11.2851
▁sweeping	-11.2851
▁Bay	-11.2852
hal	-11.2852
▁overlooked	-11.2864
▁exercises	-11.2865
▁surveys	-11.2865
▁2007.	-11.2869
▁describes	-11.2871
offs	-11.2887
▁monthly	-11.2893
▁score	-11.2896
room	-11.29
▁stressed	-11.2934
▁safely	-11.2936
▁tear	-11.2944
▁strengths	-11.2945
▁Start	-11.2946
▁maintains	-11.2952
▁inflict	-11.2953
dollar	-11.296
Israeli	-11.2962
▁crossing	-11.2965
▁accumulate	-11.2966
▁grouping	-11.2975
▁villages	-11.2976
▁Progress	-11.2978
▁geographical	-11.298
▁1914	-11.298
▁Administration	-11.298
▁Between	-11.298
▁Cairo	-11.298
▁assassination	-11.298
▁broadband	-11.298
▁celebration	-11.298
▁integral	-11.298
▁proposing	-11.298
▁stalemate	-11.298
▁pilot	-11.298
▁reaffirm	-11.298
▁bipartisan	-11.298
▁technocratic	-11.298
▁rice	-11.2981
▁referred	-11.2981
hand	-11.2982
▁maximum	-11.2982
▁organic	-11.2983
▁orthodoxy	-11.2983
▁fever	-11.2983
▁upgrade	-11.2986
▁certainty	-11.2986
▁Around	-11.2988
▁fake	-11.2989
▁Costa	-11.2997
▁attraction	-11.2999
▁speeches	-11.3006
▁identifying	-11.3014
▁borne	-11.3014
weapons	-11.302
▁mistaken	-11.302
nda	-11.3032
▁survived	-11.3034
▁Compar	-11.3036
▁exceptions	-11.3042
lecommunications	-11.3045
▁errors	-11.3045
nard	-11.3048
▁neutral	-11.3048
▁revelations	-11.305
▁jurisdiction	-11.3058
▁implication	-11.3059
▁affair	-11.3059
▁preference	-11.3061
▁customer	-11.3062
▁Sad	-11.3083
sky	-11.3083
▁IT	-11.3083
▁distort	-11.309
under	-11.3098
uthoritarianism	-11.3102
▁fires	-11.3103
prime	-11.3106
▁strange	-11.3109
soft	-11.3112
▁units	-11.3115
▁breath	-11.3119
▁manifest	-11.3119
integrating	-11.3127
▁Consumer	-11.3127
▁Eurobonds	-11.3127
▁Gandhi	-11.3127
▁Malaria	-11.3127
▁baby	-11.3127
▁diversify	-11.3127
▁friction	-11.3127
▁interdependence	-11.3127
▁quantity	-11.3127
▁satellite	-11.3127
▁unresolved	-11.3127
▁mild	-11.3127
▁Belt	-11.3127
▁breed	-11.3127
▁Inequality	-11.3127
▁betray	-11.3127
ontrary	-11.3127
▁ballistic	-11.3127
▁linger	-11.3128
▁traction	-11.3128
▁annexation	-11.3129
▁decentralized	-11.3131
▁illnesses	-11.3132
17	-11.3133
▁usher	-11.3135
▁indirectly	-11.3144
▁successive	-11.3151
▁Soon	-11.3151
▁consumed	-11.3153
▁ro	-11.3157
▁Land	-11.3163
▁Ku	-11.3168
▁processing	-11.3176
▁commonly	-11.318
▁democrats	-11.3181
▁earning	-11.3182
▁Da	-11.3183
▁addresse	-11.3187
▁Va	-11.3192
▁ordered	-11.3194
▁storms	-11.3194
▁fired	-11.3196
▁inform	-11.3197
▁reformers	-11.3197
▁web	-11.32
▁29	-11.3204
▁drone	-11.321
▁river	-11.321
▁pillar	-11.321
▁error	-11.3211
lf	-11.3219
▁exceeded	-11.3225
▁screen	-11.3234
used	-11.3238
child	-11.3245
CO	-11.3245
▁feat	-11.3251
public	-11.3252
dominated	-11.3256
educated	-11.3256
play	-11.3256
bond	-11.3257
▁slight	-11.3261
rum	-11.3261
▁restructure	-11.3263
▁distribute	-11.3264
▁Chi	-11.3272
▁blue	-11.3276
▁Equally	-11.3276
▁Syriza	-11.3276
▁Vienna	-11.3276
▁alcohol	-11.3276
▁correlation	-11.3276
▁elusive	-11.3276
▁fortunate	-11.3276
▁ostensibl	-11.3276
▁ratified	-11.3276
▁sequence	-11.3276
▁spearhead	-11.3276
▁vibrant	-11.3276
▁anxious	-11.3276
▁chess	-11.3276
▁mandatory	-11.3276
▁memories	-11.3276
▁Eurozone	-11.3276
▁democratization	-11.3277
▁disappointment	-11.3277
▁limitations	-11.3277
▁45%	-11.3278
▁trafficking	-11.3279
▁subjects	-11.3279
▁Election	-11.3281
▁items	-11.3282
▁foresee	-11.3282
▁compos	-11.3283
▁lament	-11.3284
▁plummeted	-11.3288
▁CN	-11.329
fired	-11.3293
▁morality	-11.3297
▁fallout	-11.3299
▁quotas	-11.33
▁unleashed	-11.3309
▁empowered	-11.3314
▁fleeing	-11.3314
▁pour	-11.3315
▁assessments	-11.3317
igi	-11.332
▁recessions	-11.3321
▁mitigat	-11.333
ware	-11.3331
▁appoint	-11.3347
▁Arm	-11.3349
iz	-11.335
ID	-11.335
▁complaints	-11.3362
▁insult	-11.3364
▁agreeing	-11.3364
▁drives	-11.3365
▁violation	-11.3365
▁Barr	-11.3372
dependent	-11.3379
7%	-11.338
▁Tel	-11.3385
▁minutes	-11.3388
▁jail	-11.3401
get	-11.3406
▁spark	-11.3407
especially	-11.3408
▁tradeoff	-11.3415
▁militias	-11.3415
face	-11.3415
▁initiate	-11.342
char	-11.3423
▁Bitcoin	-11.3428
▁Gaulle	-11.3428
▁Imagine	-11.3428
▁Independence	-11.3428
▁Ironically	-11.3428
▁atrocities	-11.3428
▁catalyst	-11.3428
▁clarity	-11.3428
▁fabric	-11.3428
▁guiding	-11.3428
▁militarily	-11.3428
▁acquisition	-11.3428
▁convey	-11.3428
▁firing	-11.3428
▁offense	-11.3428
▁incapable	-11.3428
▁separation	-11.3428
▁predominant	-11.3428
▁skeptics	-11.3428
▁legislators	-11.3428
▁prerequisite	-11.3428
▁deforestation	-11.3429
▁classroom	-11.3429
▁insistence	-11.3429
▁2019	-11.3429
▁systematically	-11.3429
▁preparation	-11.3429
garet	-11.343
▁stepped	-11.3431
▁Environmental	-11.3431
▁exporter	-11.3432
▁mitigation	-11.3432
▁standoff	-11.3433
▁businessmen	-11.3436
▁hang	-11.3437
▁irony	-11.3437
▁preceded	-11.3448
▁indirect	-11.3449
Re	-11.3453
▁burned	-11.3453
▁hardest	-11.3455
▁turnout	-11.3455
▁commander	-11.3458
▁passion	-11.3459
▁dent	-11.3463
▁technocrats	-11.3463
▁collected	-11.3474
▁Less	-11.3478
▁channeled	-11.3479
arry	-11.3479
iness	-11.3481
▁rage	-11.3483
▁sums	-11.3483
pur	-11.3491
▁rivers	-11.3496
▁Star	-11.3506
sponsored	-11.351
▁suited	-11.3517
▁incident	-11.352
▁shareholder	-11.3521
▁infection	-11.3521
▁headline	-11.3525
▁rain	-11.3535
▁mode	-11.3536
▁unfold	-11.3538
▁feels	-11.3557
specific	-11.356
productivity	-11.3562
Japanese	-11.3562
ix	-11.3562
decade	-11.3562
great	-11.3564
▁rejecting	-11.3564
communist	-11.3564
▁$8	-11.3566
▁mentioned	-11.3567
▁barr	-11.3572
▁maximiz	-11.3573
▁length	-11.3574
▁echo	-11.3578
NE	-11.358
▁Baghdad	-11.3582
▁Black	-11.3582
▁Earlier	-11.3582
▁Pradesh	-11.3582
▁Schäuble	-11.3582
▁Society	-11.3582
▁believing	-11.3582
▁deputy	-11.3582
▁divorce	-11.3582
▁entitlement	-11.3582
▁excellent	-11.3582
▁gasoline	-11.3582
▁geography	-11.3582
▁impasse	-11.3582
▁necessity	-11.3582
▁restaurant	-11.3582
▁unavoidable	-11.3582
▁contributor	-11.3582
▁suspicious	-11.3582
▁respondents	-11.3582
▁surging	-11.3582
▁Drug	-11.3582
▁Goldman	-11.3582
▁readily	-11.3582
▁feedback	-11.3582
▁1.5%	-11.3582
▁1940	-11.3583
▁rocket	-11.3583
▁finger	-11.3583
▁cosmopolitan	-11.3583
▁Everyone	-11.3584
▁Workers	-11.3584
▁belt	-11.3585
▁manipulate	-11.3587
▁tighter	-11.3592
▁endured	-11.3592
▁worldview	-11.3594
cho	-11.3596
▁Men	-11.3598
▁urged	-11.3599
▁heading	-11.3599
▁Care	-11.3601
▁clearer	-11.3602
▁Ver	-11.3604
▁sand	-11.3606
▁Young	-11.3606
▁doomed	-11.3607
▁drinking	-11.3616
▁gathered	-11.362
▁sentiments	-11.3626
▁screening	-11.3631
tory	-11.3636
▁redistribut	-11.3651
▁desired	-11.3656
▁clinics	-11.3666
▁opponent	-11.3679
▁30-	-11.3684
▁hopeful	-11.3685
▁exploiting	-11.3691
ink	-11.3692
ore	-11.3698
▁proposes	-11.3699
▁attacking	-11.3701
▁bearing	-11.3702
▁Put	-11.3708
▁encounter	-11.371
▁proclaim	-11.3712
▁performing	-11.3712
▁stall	-11.3713
▁mu	-11.3715
real	-11.3715
efficient	-11.3715
welfare	-11.3718
ese	-11.3726
▁west	-11.3729
▁compel	-11.3735
▁Chirac	-11.3738
▁Fukushima	-11.3738
▁Official	-11.3738
▁Poverty	-11.3738
▁Zealand	-11.3738
▁categories	-11.3738
▁communicate	-11.3738
▁council	-11.3738
▁gesture	-11.3738
▁gravity	-11.3738
▁influx	-11.3738
▁insolvent	-11.3738
▁physician	-11.3738
▁dampen	-11.3738
▁dissident	-11.3738
▁invention	-11.3738
▁salaries	-11.3738
▁legislature	-11.3738
▁ports	-11.3738
▁string	-11.3738
▁bullet	-11.3739
▁slack	-11.3739
▁subtle	-11.3739
▁Peter	-11.3739
▁18%	-11.3739
▁Sharon	-11.3739
▁enlightened	-11.374
▁journalism	-11.3741
▁boon	-11.3741
▁IPCC	-11.3745
▁convenient	-11.3748
handed	-11.3748
▁discredited	-11.3757
▁spoken	-11.376
▁anyway	-11.376
▁Well	-11.3767
▁peril	-11.3772
▁accurately	-11.3776
▁doors	-11.3777
▁Ni	-11.3778
going	-11.378
aid	-11.3781
read	-11.3786
tier	-11.3791
▁cleaner	-11.3798
▁exploited	-11.3801
▁patents	-11.3804
▁imagin	-11.3807
▁emphasizes	-11.3813
▁Cor	-11.3817
ita	-11.3827
▁intellectuals	-11.3829
▁ships	-11.3829
worthy	-11.3841
3%	-11.3848
▁prediction	-11.385
▁pockets	-11.3859
finance	-11.386
▁presents	-11.3862
▁Jan	-11.3865
▁warrant	-11.3869
developed	-11.3872
▁appeals	-11.3875
▁shame	-11.3876
Frank	-11.3876
lived	-11.3877
globalization	-11.3878
▁fierce	-11.3879
▁approve	-11.3882
▁praise	-11.3882
▁organizational	-11.3895
EM	-11.3895
8%	-11.3896
▁bankrupt	-11.3896
▁coincide	-11.3896
▁Achiev	-11.3897
▁Belarus	-11.3897
▁Chicago	-11.3897
▁Support	-11.3897
▁advocating	-11.3897
▁cushion	-11.3897
▁explosive	-11.3897
▁fiction	-11.3897
▁impediment	-11.3897
▁maintenance	-11.3897
▁shield	-11.3897
▁stubborn	-11.3897
▁thriving	-11.3897
UNIC	-11.3897
▁proxy	-11.3897
▁sleep	-11.3897
▁About	-11.3897
▁forefront	-11.3897
▁Risk	-11.3897
▁magic	-11.3897
▁activism	-11.3897
▁Moham	-11.3897
▁Left	-11.3899
▁Rio	-11.3902
▁satisfied	-11.3902
▁helicopter	-11.3902
▁mainland	-11.3902
▁respects	-11.3903
▁generates	-11.3903
▁morally	-11.3905
▁merger	-11.3908
EN	-11.3908
▁Abenomics	-11.3909
▁manufactured	-11.3909
▁privileged	-11.3909
▁somewhere	-11.391
▁breaks	-11.391
▁differential	-11.3912
▁strategically	-11.3913
▁buyers	-11.3917
6%	-11.3923
▁ideals	-11.3925
▁distorted	-11.3926
▁names	-11.3929
▁transitions	-11.3933
▁withstand	-11.3938
▁fa	-11.3942
▁absurd	-11.3943
▁innovators	-11.3944
▁suspected	-11.3946
ku	-11.3947
rating	-11.3964
▁profoundly	-11.3964
▁emotions	-11.3974
▁detail	-11.3978
▁bridges	-11.3978
▁Tea	-11.3979
▁disagreements	-11.3983
▁burn	-11.3984
▁reformed	-11.3989
▁Banking	-11.3999
▁Leaders	-11.4002
▁parent	-11.4002
▁militant	-11.4004
other	-11.4006
▁reviv	-11.4006
fund	-11.4015
▁Mer	-11.4022
▁troubles	-11.4024
▁immigrant	-11.4025
▁afflict	-11.403
▁hamper	-11.403
mir	-11.4032
cap	-11.4033
Qaeda	-11.4038
immigrant	-11.4038
▁stone	-11.4047
▁persists	-11.4053
media	-11.4054
▁diet	-11.4055
▁Euroskeptic	-11.4056
▁lag	-11.4057
reach	-11.4057
▁knock	-11.4058
▁Framework	-11.4058
▁Maduro	-11.4058
▁Modern	-11.4058
▁Politicians	-11.4058
▁Regulator	-11.4058
▁accommodation	-11.4058
▁category	-11.4058
▁deterioration	-11.4058
▁divisive	-11.4058
▁husband	-11.4058
▁invariably	-11.4058
▁medication	-11.4058
▁procurement	-11.4058
▁purge	-11.4058
▁subsidiaries	-11.4058
▁uniform	-11.4058
▁newcomers	-11.4058
▁sister	-11.4058
▁accusations	-11.4058
▁Dodd	-11.4058
▁emphasizing	-11.4058
▁residential	-11.4058
-2008	-11.4058
▁rampant	-11.4058
▁mature	-11.4059
▁lethal	-11.4059
▁abortion	-11.4059
▁Hugo	-11.4059
▁fragility	-11.406
▁modernize	-11.406
▁deadline	-11.4061
▁passage	-11.4062
▁destiny	-11.4063
▁underground	-11.4063
▁chip	-11.4064
CE	-11.4064
▁prohibition	-11.4065
▁ignores	-11.4069
▁motion	-11.4072
rry	-11.4073
▁disadvantaged	-11.4078
LE	-11.408
▁resigned	-11.4083
IV	-11.4092
▁attest	-11.4096
▁offices	-11.4097
nation	-11.4098
▁portfolios	-11.4103
▁footing	-11.4118
▁disconnect	-11.4118
rill	-11.4119
▁pillars	-11.413
▁scores	-11.4137
position	-11.414
▁technically	-11.4144
▁du	-11.4155
place	-11.4161
▁socialism	-11.4167
▁Service	-11.417
▁odd	-11.4171
ON	-11.4176
▁explanations	-11.418
▁hero	-11.4192
▁enrich	-11.4194
ground	-11.4197
▁metrics	-11.4197
▁scandals	-11.4198
global	-11.4201
grid	-11.4202
fiscal	-11.4202
majority	-11.4202
QE	-11.4203
stitution	-11.4203
▁relentless	-11.4204
▁tone	-11.4205
ologist	-11.4205
▁plunge	-11.4207
▁motives	-11.4212
▁functional	-11.4213
▁merits	-11.4214
▁Red	-11.4214
▁leap	-11.4222
▁Baltic	-11.4222
▁Budget	-11.4222
▁Bundesbank	-11.4222
▁Calderón	-11.4222
▁Christmas	-11.4222
▁Darfur	-11.4222
▁Disease	-11.4222
▁Oxford	-11.4222
▁Technology	-11.4222
▁William	-11.4222
▁counsel	-11.4222
▁disclosure	-11.4222
▁drift	-11.4222
▁escalate	-11.4222
▁everybody	-11.4222
▁irreversible	-11.4222
▁taboo	-11.4222
▁verdict	-11.4222
▁inhabitants	-11.4222
▁ratify	-11.4222
▁watershed	-11.4222
▁casualties	-11.4222
▁outdated	-11.4222
▁duties	-11.4222
▁Scottish	-11.4222
▁consequential	-11.4222
▁textile	-11.4222
▁therapy	-11.4222
▁neuro	-11.4222
▁submit	-11.4222
▁24%	-11.4223
▁proactive	-11.4223
▁competent	-11.4223
▁contentious	-11.4223
▁herself	-11.4224
▁overcapacity	-11.4225
▁2,000	-11.4226
▁TTIP	-11.4227
▁AKP	-11.4227
▁obliged	-11.4228
▁systematic	-11.4229
aged	-11.4233
▁executed	-11.4234
▁operates	-11.4236
▁unrealistic	-11.4242
euro	-11.4244
▁Austrian	-11.4244
ou	-11.4245
▁judged	-11.4247
▁strains	-11.4258
▁documented	-11.426
▁owes	-11.4263
▁Forces	-11.4266
▁fronts	-11.4271
▁realization	-11.4272
ok	-11.4273
unk	-11.4284
▁watched	-11.4293
▁ca	-11.43
resa	-11.4308
▁makers	-11.4308
▁pen	-11.4309
lim	-11.4312
▁manipulat	-11.4338
than	-11.4343
▁graduate	-11.435
▁station	-11.4351
▁erupt	-11.4355
▁bull	-11.4361
▁label	-11.4362
normal	-11.4369
▁behavioral	-11.437
▁nurture	-11.4374
▁bi	-11.4381
▁importer	-11.4383
▁lesser	-11.4384
▁amend	-11.4388
Proliferation	-11.4389
▁Credit	-11.4389
▁Kaczyński	-11.4389
▁Nowadays	-11.4389
▁controversy	-11.4389
▁demagogue	-11.4389
▁description	-11.4389
▁remedy	-11.4389
▁steam	-11.4389
▁stockpile	-11.4389
▁hinder	-11.4389
▁verge	-11.4389
▁Join	-11.4389
▁comply	-11.4389
▁Wolf	-11.4389
▁Children	-11.4389
▁Failure	-11.4389
▁Money	-11.4389
▁provocation	-11.4389
▁unlimited	-11.4389
▁forthcoming	-11.4389
▁dependency	-11.439
▁curve	-11.439
▁downgrade	-11.4391
▁jihad	-11.4391
▁understandably	-11.4393
▁Creat	-11.4397
▁Maybe	-11.4398
▁exhausted	-11.4398
▁fence	-11.4399
ali	-11.44
▁doom	-11.4401
hot	-11.4402
▁containing	-11.4403
ax	-11.4409
▁aspire	-11.441
▁proclaimed	-11.4418
▁masses	-11.4419
cular	-11.4421
▁strictly	-11.4421
▁Colombian	-11.4423
▁corresponding	-11.4425
▁contributes	-11.4431
rot	-11.4445
▁spin	-11.4448
▁concepts	-11.4452
▁origins	-11.4464
track	-11.4473
▁flowing	-11.4476
city	-11.4482
hir	-11.4483
▁soul	-11.4484
▁Ju	-11.4487
▁existed	-11.4505
▁plastic	-11.4512
▁scholar	-11.4512
▁underscores	-11.4527
▁constraint	-11.4529
▁committ	-11.4531
head	-11.4533
▁listed	-11.4536
ui	-11.4538
Brazil	-11.4538
natural	-11.4538
▁Col	-11.4539
million	-11.4539
▁intra	-11.4543
▁chart	-11.4544
▁greed	-11.4551
▁Building	-11.4558
▁Fifth	-11.4558
▁Mandela	-11.4558
▁Migration	-11.4558
▁Standard	-11.4558
▁Tsipras	-11.4558
▁affluent	-11.4558
▁allegations	-11.4558
▁compatible	-11.4558
▁efficacy	-11.4558
▁essence	-11.4558
▁guerrilla	-11.4558
▁mobilizing	-11.4558
▁nervous	-11.4558
▁puzzle	-11.4558
▁silver	-11.4558
▁societal	-11.4558
▁woes	-11.4558
▁Gülen	-11.4558
▁gamble	-11.4558
▁headwinds	-11.4558
▁trivial	-11.4558
▁converge	-11.4558
▁Darwin	-11.4558
▁strip	-11.4558
▁perpetrators	-11.4558
▁retaliation	-11.4559
▁neoliberal	-11.4559
▁€3	-11.4559
▁17%	-11.4559
▁bread	-11.4559
▁compelled	-11.456
▁transformative	-11.456
▁relat	-11.456
bad	-11.4561
▁alert	-11.4561
▁concede	-11.4561
▁Overall	-11.4562
▁renewal	-11.4562
▁Hence	-11.4562
▁lowered	-11.457
▁stunning	-11.4572
▁wishes	-11.4572
▁ranked	-11.4584
gang	-11.4588
▁Which	-11.4589
▁measurement	-11.46
▁violated	-11.46
ranging	-11.4606
▁Low	-11.4611
▁tended	-11.4611
▁Force	-11.462
▁dealt	-11.4621
invent	-11.4628
▁narrowly	-11.4633
lier	-11.4635
▁tie	-11.4637
rule	-11.4638
gged	-11.4638
▁permits	-11.4642
▁supportive	-11.4643
erto	-11.4645
▁Has	-11.4645
▁revealing	-11.4645
▁remembered	-11.4645
▁defect	-11.4647
▁peacefully	-11.4647
▁relate	-11.4649
fair	-11.4662
16	-11.4664
▁signing	-11.4666
▁owe	-11.4674
▁enormously	-11.4678
▁alien	-11.468
▁historians	-11.4684
▁uprising	-11.4687
▁recipient	-11.4687
▁hub	-11.4688
▁Economist	-11.4688
ria	-11.4688
▁barrier	-11.4689
▁algorithms	-11.4691
▁da	-11.4697
▁dictators	-11.4699
key	-11.4699
▁emission	-11.4701
▁suspend	-11.4703
▁sow	-11.4707
nuclear	-11.471
target	-11.471
▁spurr	-11.4711
▁provoke	-11.4716
▁educate	-11.4716
mark	-11.4719
▁contradict	-11.472
meter	-11.4721
▁underestimate	-11.4727
▁boys	-11.4728
clined	-11.4728
▁transit	-11.473
▁1982	-11.473
▁Agriculture	-11.473
▁Bulgaria	-11.473
▁Innovation	-11.473
▁Populist	-11.473
▁Senkaku	-11.473
▁abstract	-11.473
▁adversaries	-11.473
▁diversification	-11.473
▁illicit	-11.473
▁modified	-11.473
▁nominee	-11.473
▁peasant	-11.473
▁peculiar	-11.473
▁relevance	-11.473
▁sample	-11.473
▁signatories	-11.473
▁subsidy	-11.473
▁turbulence	-11.473
▁vacation	-11.473
▁variation	-11.473
▁varieties	-11.473
▁worrisome	-11.473
▁famine	-11.473
▁empty	-11.473
▁rumor	-11.473
▁footprint	-11.4731
denuclearization	-11.4731
▁tilt	-11.4731
▁mask	-11.4731
,500	-11.4731
▁outpac	-11.4731
▁2.5%	-11.4732
▁determinant	-11.4732
▁rivalry	-11.4733
▁cur	-11.4735
▁passive	-11.4736
▁Bori	-11.4739
▁reactors	-11.474
▁pie	-11.4742
▁arrow	-11.4742
▁Million	-11.4743
▁calculated	-11.4743
▁dare	-11.4745
▁administered	-11.4751
▁manageable	-11.4751
▁liberalism	-11.4751
▁offend	-11.4753
▁withdrawn	-11.4754
▁comments	-11.4757
▁suspended	-11.4758
▁imped	-11.4766
▁distributional	-11.4771
▁thinkers	-11.4776
▁killings	-11.4777
▁jeopardiz	-11.4779
▁reacted	-11.4783
arm	-11.4786
▁circles	-11.4791
▁stores	-11.4793
▁directors	-11.4795
ean	-11.4801
post	-11.4811
▁pointing	-11.4825
▁Tak	-11.4826
▁witness	-11.4831
▁mount	-11.4831
▁banker	-11.4832
▁pipelines	-11.4839
▁arises	-11.4848
▁forecasting	-11.4849
herently	-11.4849
▁documents	-11.4856
▁$12	-11.4857
▁45	-11.4858
▁pledges	-11.4862
▁scar	-11.4866
▁resign	-11.4876
▁embark	-11.4879
You	-11.4883
yield	-11.4886
correct	-11.4886
▁announce	-11.4889
▁reassure	-11.4891
▁depreciate	-11.4891
▁Success	-11.4901
▁branch	-11.4902
ij	-11.4902
▁smoke	-11.4905
▁Catalonia	-11.4906
▁FARC	-11.4906
▁Gorbachev	-11.4906
▁Medicare	-11.4906
▁Mumbai	-11.4906
▁Short	-11.4906
▁capacities	-11.4906
▁embargo	-11.4906
▁methane	-11.4906
▁quantities	-11.4906
▁repercussions	-11.4906
▁1929	-11.4906
▁payroll	-11.4906
▁temper	-11.4906
▁Adam	-11.4906
▁contradictory	-11.4906
▁exert	-11.4907
▁populat	-11.4907
▁milk	-11.4907
▁gear	-11.4907
▁193	-11.4907
▁wealthiest	-11.4907
▁unjust	-11.4909
neath	-11.4909
▁billionaire	-11.4909
▁uneven	-11.4909
▁restoration	-11.4911
▁CDU	-11.4911
▁reign	-11.4914
▁surrounded	-11.4916
▁tries	-11.4916
▁1.2	-11.4916
▁inclusiveness	-11.4916
▁evaluation	-11.492
▁assertion	-11.4922
▁directive	-11.4925
case	-11.4928
active	-11.493
▁overtake	-11.4931
▁reactions	-11.4933
▁subsidized	-11.4934
▁quas	-11.4934
▁shorter	-11.4934
defined	-11.4943
▁mobilized	-11.4946
▁prohibited	-11.4948
▁attain	-11.4949
▁debated	-11.4949
▁Northeast	-11.4952
▁sober	-11.4953
life	-11.4959
▁athletes	-11.4963
▁Bad	-11.4967
▁picked	-11.4971
▁maybe	-11.4983
▁deploying	-11.4987
▁jurisdictions	-11.4989
▁engineer	-11.4992
ym	-11.4998
▁locations	-11.5001
▁Bar	-11.5007
▁await	-11.5009
▁talented	-11.501
bust	-11.5016
nom	-11.5022
pped	-11.5023
▁privilege	-11.5033
▁Comp	-11.504
▁prevails	-11.504
▁automobile	-11.5047
▁employee	-11.5051
▁peers	-11.5052
PP	-11.5059
▁Ol	-11.5061
▁employer	-11.5062
▁bombs	-11.5062
Europe	-11.5062
regional	-11.5064
▁notorious	-11.5067
month	-11.5072
engineering	-11.5073
▁internally	-11.5073
moon	-11.5075
19	-11.5077
▁restrain	-11.5077
▁privatiz	-11.5082
sighted	-11.5083
▁hack	-11.5083
▁fulfilling	-11.5084
▁tale	-11.5084
▁astonishing	-11.5084
Semitic	-11.5084
embodied	-11.5084
▁Britons	-11.5084
▁Himalaya	-11.5084
▁Jacques	-11.5084
▁MILAN	-11.5084
▁Military	-11.5084
▁collapsing	-11.5084
▁constituencies	-11.5084
▁diffusion	-11.5084
▁doubling	-11.5084
▁globe	-11.5084
▁indifference	-11.5084
▁liberties	-11.5084
▁morning	-11.5084
▁prosecution	-11.5084
▁slaughter	-11.5084
▁substantive	-11.5084
▁unthinkable	-11.5084
▁unchanged	-11.5084
▁taste	-11.5085
▁muddle	-11.5085
▁blockchain	-11.5085
▁Nature	-11.5085
▁14%	-11.5085
▁cheat	-11.5086
▁Things	-11.5086
▁enrollment	-11.5086
▁accustomed	-11.5086
▁Eurasia	-11.5087
▁Tibetan	-11.5088
▁Annan	-11.5088
▁hungry	-11.5091
version	-11.5091
▁everyday	-11.5095
▁lucky	-11.5096
▁powerhouse	-11.5096
▁unfortunately	-11.5099
▁associations	-11.5099
▁drama	-11.5102
ammar	-11.5105
▁registered	-11.5108
▁resistant	-11.5117
▁floating	-11.5119
▁privileges	-11.5121
▁opinions	-11.5128
▁absolutely	-11.5131
▁proceeds	-11.5139
gram	-11.5143
een	-11.5156
▁rank	-11.5161
lest	-11.5162
▁drones	-11.5165
▁cat	-11.5173
ancy	-11.5185
▁counts	-11.5188
▁rot	-11.5199
▁lobby	-11.5217
▁privately	-11.5218
▁lean	-11.5224
▁outbreaks	-11.5227
▁tank	-11.5234
▁abolish	-11.5239
▁wound	-11.524
▁exempt	-11.5242
South	-11.5246
▁frame	-11.5252
▁Ow	-11.5252
▁wip	-11.5254
air	-11.5259
generation	-11.5262
▁enthusiastic	-11.5262
▁random	-11.5265
▁homeowners	-11.5266
▁Florida	-11.5266
▁Swedish	-11.5266
▁Texas	-11.5266
▁achievable	-11.5266
▁analytical	-11.5266
▁boycott	-11.5266
▁brilliant	-11.5266
▁clever	-11.5266
▁disposable	-11.5266
▁exacerbating	-11.5266
▁hybrid	-11.5266
▁magazine	-11.5266
▁obsolete	-11.5266
▁patience	-11.5266
▁persecution	-11.5266
▁protocol	-11.5266
▁sympathy	-11.5266
▁treasury	-11.5266
▁MIT	-11.5266
▁Natural	-11.5266
▁Abdullah	-11.5266
▁Anglo	-11.5266
▁geopolitics	-11.5266
▁naive	-11.5266
▁spect	-11.5266
▁ceasefire	-11.5266
-1990	-11.5266
▁confusion	-11.5266
▁hydrocarbon	-11.5267
▁pluralism	-11.5267
▁1.3	-11.5267
▁fool	-11.5268
▁collaborative	-11.5268
▁inhibit	-11.5268
▁groundwork	-11.5268
▁motor	-11.5269
▁resignation	-11.5269
▁Six	-11.5269
▁qua	-11.5269
▁extraction	-11.527
▁mutation	-11.5271
▁confused	-11.5272
▁experimentation	-11.5273
▁analyze	-11.5273
▁bout	-11.5282
▁derived	-11.5286
▁examined	-11.5288
▁Chu	-11.5295
▁homeland	-11.5295
▁Sam	-11.5313
▁surged	-11.5327
AI	-11.533
▁incidents	-11.534
▁compromised	-11.5341
rim	-11.5345
▁headquarters	-11.5347
▁realm	-11.5353
▁governors	-11.5356
▁organisms	-11.5362
▁matched	-11.5363
Ba	-11.5375
▁conditional	-11.5376
▁Judg	-11.538
▁Sta	-11.5386
date	-11.5394
▁Work	-11.5401
Revolutionary	-11.5402
igr	-11.5405
▁ingredients	-11.5415
▁statu	-11.5422
▁spillover	-11.5422
▁procedure	-11.5423
▁aversion	-11.5424
▁comment	-11.5425
ulat	-11.5429
town	-11.5431
▁abrupt	-11.5434
order	-11.5437
▁characterize	-11.5439
asset	-11.5439
▁Mor	-11.5443
▁prioritize	-11.5448
▁Malay	-11.545
▁Kyi	-11.5451
▁desert	-11.5451
▁1962	-11.5451
▁Comprehensive	-11.5451
▁Executive	-11.5451
▁Hurricane	-11.5451
▁Kirchner	-11.5451
▁Lagarde	-11.5451
▁Ottoman	-11.5451
▁Sierra	-11.5451
▁Trust	-11.5451
▁acceleration	-11.5451
▁computing	-11.5451
▁culprit	-11.5451
▁deficiencies	-11.5451
▁metaphor	-11.5451
▁monopolies	-11.5451
▁perpetuate	-11.5451
▁precarious	-11.5451
▁racism	-11.5451
▁separatist	-11.5451
▁endemic	-11.5451
▁organizing	-11.5451
▁tumor	-11.5451
▁asymmetric	-11.5451
▁helium	-11.5451
▁Slovakia	-11.5452
▁revert	-11.5452
▁lagging	-11.5452
▁peso	-11.5452
▁28%	-11.5452
▁repressive	-11.5452
▁Laden	-11.5452
▁susceptible	-11.5453
▁myself	-11.5453
▁proceedings	-11.5454
▁cook	-11.5455
▁Never	-11.5456
▁quota	-11.5457
▁clashes	-11.5458
▁Jim	-11.546
▁onset	-11.5461
▁2.5	-11.5461
Ch	-11.5464
precautionary	-11.5464
▁experimental	-11.5469
▁oldest	-11.547
▁personality	-11.5475
rely	-11.5477
RI	-11.548
▁bully	-11.5482
▁Kenyan	-11.5494
▁translated	-11.5498
▁recipients	-11.5498
▁lobbying	-11.55
▁witnessing	-11.5502
▁$9	-11.551
▁Ger	-11.551
▁aligned	-11.5513
▁handled	-11.5517
▁disrupted	-11.5522
▁NCDs	-11.5524
▁intensifying	-11.5526
▁obtained	-11.5531
IP	-11.5534
▁counted	-11.5536
edge	-11.5543
serve	-11.5548
▁rebuilding	-11.5556
▁upholding	-11.5562
PL	-11.5564
▁resemble	-11.5564
▁explaining	-11.5573
▁bother	-11.5587
▁bets	-11.5588
▁Pol	-11.5591
▁measur	-11.5596
▁award	-11.5599
▁($2	-11.5602
functioning	-11.561
▁railway	-11.5614
▁Representative	-11.5614
▁concession	-11.5617
conservative	-11.562
What	-11.562
ua	-11.5622
▁rough	-11.5623
▁deteriorate	-11.5626
▁associate	-11.5626
▁grab	-11.5639
▁flee	-11.564
▁1978	-11.564
▁Challenge	-11.564
▁Dream	-11.564
▁Individual	-11.564
▁Network	-11.564
▁Snowden	-11.564
▁Transatlantic	-11.564
▁Yeltsin	-11.564
▁havoc	-11.564
▁hectare	-11.564
▁inconsistent	-11.564
▁indicating	-11.564
▁maturity	-11.564
▁multiplier	-11.564
▁predicament	-11.564
▁redress	-11.564
▁remedies	-11.564
▁session	-11.564
▁simplistic	-11.564
▁tribunal	-11.564
▁fringe	-11.564
▁Meeting	-11.564
▁thwart	-11.564
▁Think	-11.564
▁gridlock	-11.564
▁Strong	-11.564
▁incurred	-11.564
▁moderation	-11.5641
▁Turn	-11.5641
▁deterrent	-11.5641
▁commentary	-11.5641
▁database	-11.5641
▁hardliners	-11.5642
▁Wins	-11.5642
▁beautiful	-11.5642
▁outset	-11.5642
▁Francisco	-11.5642
▁bus	-11.5643
▁exaggerated	-11.5643
▁machinery	-11.5643
▁dirty	-11.5643
▁insurgency	-11.5645
▁disappointed	-11.5645
▁nearby	-11.5645
▁Regional	-11.5645
oughly	-11.5646
▁10,000	-11.5646
▁specialized	-11.5652
far	-11.5652
▁occasionally	-11.5654
▁loosen	-11.5658
▁technologically	-11.566
▁postponed	-11.5663
▁Higher	-11.5664
▁strive	-11.5665
▁tripled	-11.5666
▁questioned	-11.5668
elected	-11.5669
▁reinforces	-11.5671
ulation	-11.5674
▁complained	-11.5677
▁$200	-11.5682
▁Wal	-11.5686
▁uprisings	-11.5687
▁39	-11.5688
▁riots	-11.5697
▁Lin	-11.5705
ball	-11.5707
▁tip	-11.5713
▁stopp	-11.5719
▁contemplate	-11.5723
▁forming	-11.5726
▁correctly	-11.5726
▁reache	-11.5727
▁Fre	-11.5735
▁exporting	-11.5738
▁leveraged	-11.5741
setting	-11.5747
ural	-11.5757
▁traits	-11.5759
▁adapted	-11.5761
▁agent	-11.5765
▁$30	-11.5767
▁freer	-11.5768
▁withdrawing	-11.5775
▁answered	-11.5776
discretionary	-11.5779
lash	-11.5785
rine	-11.579
after	-11.5805
▁finish	-11.5805
load	-11.5806
▁bind	-11.5808
▁widen	-11.5809
▁dump	-11.5809
▁segment	-11.581
▁taxpayer	-11.5811
credit	-11.5812
phone	-11.5812
▁user	-11.5812
▁tall	-11.5813
▁exact	-11.5817
▁dimensions	-11.5819
▁teacher	-11.582
▁shed	-11.5827
▁Mac	-11.5827
▁Critics	-11.5832
▁Eventually	-11.5832
▁Problem	-11.5832
▁apparatus	-11.5832
▁automated	-11.5832
▁cyberspace	-11.5832
▁devastation	-11.5832
▁embassy	-11.5832
▁holiday	-11.5832
▁impulse	-11.5832
▁lofty	-11.5832
▁logistics	-11.5832
▁prestige	-11.5832
▁reminiscen	-11.5832
▁1971	-11.5832
▁Improv	-11.5832
▁Mohammed	-11.5832
▁blunder	-11.5832
▁crunch	-11.5832
▁Address	-11.5832
▁imposition	-11.5833
▁Facility	-11.5833
▁exciting	-11.5833
▁truck	-11.5833
▁livestock	-11.5833
▁hunt	-11.5833
▁swath	-11.5833
▁slip	-11.5833
▁polarized	-11.5833
▁buck	-11.5834
▁empowerment	-11.5835
there	-11.5835
▁rebalance	-11.5836
▁Round	-11.5838
▁Warren	-11.5838
▁Historically	-11.5839
▁wealthier	-11.584
▁marketplace	-11.5841
▁underlie	-11.5841
▁defended	-11.5846
▁tailored	-11.5847
▁Mikh	-11.5849
▁denounced	-11.5852
▁decreased	-11.5855
▁quietly	-11.5859
▁wartime	-11.5863
▁outward	-11.5869
▁interpreted	-11.5869
IS	-11.587
▁portrayed	-11.5873
▁staying	-11.5874
▁Leone	-11.5878
▁Nigerian	-11.5883
▁migrate	-11.5883
▁alleviate	-11.5885
vor	-11.5886
▁persuaded	-11.5889
▁plastics	-11.589
▁autocrats	-11.5891
oke	-11.5895
▁upside	-11.5895
▁attended	-11.5901
▁scare	-11.5902
VA	-11.5916
SI	-11.5922
▁400	-11.5926
▁arena	-11.5928
▁missions	-11.5936
▁34	-11.5937
▁longest	-11.5941
very	-11.5946
▁realism	-11.5951
▁epidemics	-11.596
NC	-11.5998
▁Case	-11.6003
▁disorders	-11.6004
balance	-11.6004
field	-11.6008
benefit	-11.6008
Muslim	-11.6008
invest	-11.6009
▁Democrat	-11.601
paid	-11.6011
▁device	-11.6011
pot	-11.6014
▁Ukrainians	-11.6025
▁annex	-11.6026
▁discern	-11.6028
OUL	-11.6028
cigarette	-11.6028
▁Frankfurt	-11.6028
▁Madrid	-11.6028
▁Nicaragua	-11.6028
▁Regardless	-11.6028
▁SANTIAGO	-11.6028
▁Strategic	-11.6028
▁Volcker	-11.6028
▁coincidence	-11.6028
▁diarrhea	-11.6028
▁diaspora	-11.6028
▁espous	-11.6028
▁examination	-11.6028
▁exploring	-11.6028
▁franc	-11.6028
▁irrigation	-11.6028
▁merchan	-11.6028
▁oppression	-11.6028
▁perpetual	-11.6028
▁pessimistic	-11.6028
▁precious	-11.6028
▁rapprochement	-11.6028
▁regret	-11.6028
▁satisfaction	-11.6028
▁twist	-11.6028
▁volunteer	-11.6028
▁LDP	-11.6029
▁Rowhani	-11.6029
▁dress	-11.6029
▁horse	-11.6029
▁Way	-11.6029
▁millennia	-11.6029
▁Self	-11.6029
▁exploration	-11.6029
▁Deep	-11.6029
▁continuity	-11.6029
▁Limit	-11.6029
▁mismanagement	-11.6029
▁submitted	-11.603
▁95%	-11.603
▁frequency	-11.603
▁unskilled	-11.6031
▁poison	-11.6031
▁hail	-11.6033
▁systemically	-11.6034
▁refine	-11.6035
▁paralyzed	-11.6039
▁retired	-11.6041
▁tempting	-11.6043
▁overwhelmed	-11.6046
▁buttress	-11.6046
open	-11.6047
skilled	-11.6056
▁meters	-11.6056
▁finished	-11.6056
▁resembles	-11.6059
▁engineered	-11.6059
▁cont	-11.606
▁Member	-11.6065
9%	-11.6066
▁cry	-11.6069
▁stifle	-11.607
▁evidently	-11.6072
▁developers	-11.6072
▁anytime	-11.6075
▁proponents	-11.6088
▁fat	-11.6088
▁deepened	-11.6093
▁covert	-11.6094
▁transitional	-11.6096
▁$300	-11.61
changing	-11.6101
▁operators	-11.611
▁readers	-11.6115
▁peg	-11.6117
▁eradicat	-11.6136
lar	-11.6138
▁collaborate	-11.6139
▁murdered	-11.6143
▁band	-11.6143
▁$60	-11.615
▁picking	-11.6156
▁talents	-11.6157
▁trees	-11.6167
lands	-11.6172
iest	-11.6179
▁tactic	-11.6183
▁centered	-11.6184
▁dreams	-11.6185
tress	-11.619
▁preced	-11.62
road	-11.6202
employment	-11.6206
▁enjoying	-11.6206
script	-11.6208
science	-11.6208
Year	-11.6209
book	-11.6211
▁virtue	-11.6214
▁prosecutor	-11.6214
▁calculate	-11.6214
▁calculation	-11.6215
▁file	-11.6218
▁shake	-11.622
coup	-11.6222
▁cleric	-11.6223
round	-11.6224
▁Protect	-11.6227
diagnose	-11.6228
▁Academy	-11.6228
▁Emirates	-11.6228
▁FIFA	-11.6228
▁Koizumi	-11.6228
▁Silvi	-11.6228
▁Tanzania	-11.6228
▁Universal	-11.6228
▁abundance	-11.6228
▁cholera	-11.6228
▁discouraging	-11.6228
▁eighteenth	-11.6228
▁fisheries	-11.6228
▁grassroots	-11.6228
▁harassment	-11.6228
▁harbor	-11.6228
▁incompatible	-11.6228
▁liberation	-11.6228
▁literature	-11.6228
▁mobilization	-11.6228
▁ominous	-11.6228
▁penalties	-11.6228
▁photo	-11.6228
▁tendencies	-11.6228
▁tuberculosis	-11.6228
centric	-11.6229
▁Information	-11.6229
▁Jeff	-11.6229
▁Karl	-11.6229
▁afraid	-11.6229
▁exhibit	-11.6229
▁robotics	-11.6229
▁defy	-11.6229
▁overestimate	-11.6229
censor	-11.6229
▁planners	-11.6229
▁bird	-11.6229
▁worthwhile	-11.6229
▁email	-11.6229
▁shopping	-11.6229
▁reassuring	-11.6229
▁stringent	-11.623
veraging	-11.623
▁obsession	-11.623
▁analogy	-11.623
▁glut	-11.623
▁enjoys	-11.6231
▁Morales	-11.6231
established	-11.6231
▁mantra	-11.6231
▁retirees	-11.6232
▁Harry	-11.6232
▁equation	-11.6233
▁devalue	-11.6233
▁hoc	-11.6235
▁siege	-11.6235
▁prosecutors	-11.6243
▁crossed	-11.6245
▁golden	-11.6246
▁provoked	-11.6248
▁sizeable	-11.6249
▁takeover	-11.6249
▁37	-11.6255
▁sky	-11.6256
▁caste	-11.6258
▁widened	-11.6259
▁detain	-11.626
▁embarked	-11.626
▁depressing	-11.6272
osni	-11.6273
▁intervened	-11.6274
▁disorderly	-11.6275
▁Jane	-11.6276
▁hugely	-11.628
▁seekers	-11.6285
hak	-11.6286
▁servants	-11.6289
▁markedly	-11.6294
semblance	-11.6299
dmittedly	-11.6305
▁crowded	-11.631
▁chi	-11.6315
▁asserting	-11.6322
▁$500	-11.633
PA	-11.6337
▁swaps	-11.6337
▁misuse	-11.6338
▁Cap	-11.6343
▁Conservatives	-11.6343
▁eating	-11.6356
▁tam	-11.6373
▁Accord	-11.6385
▁Bur	-11.6385
pay	-11.6386
▁insists	-11.6387
▁herald	-11.6387
▁presid	-11.6388
▁wing	-11.6391
▁31	-11.6399
▁Institution	-11.6406
▁seed	-11.6406
▁visiting	-11.6406
▁slash	-11.6406
▁pin	-11.6407
▁rents	-11.641
▁incorporat	-11.6411
commerce	-11.6412
profile	-11.6412
Qaddafi	-11.6412
peace	-11.6413
managed	-11.6413
heart	-11.6415
▁antibiotic	-11.6423
▁squeeze	-11.6424
▁hurricanes	-11.6425
90	-11.6425
AC	-11.6429
▁reactor	-11.643
▁royal	-11.6432
í	-11.6433
▁1968	-11.6433
▁1988	-11.6433
▁Bahrain	-11.6433
▁Bhutan	-11.6433
▁Buddhist	-11.6433
▁Bundestag	-11.6433
▁Kissinger	-11.6433
▁Muhammad	-11.6433
▁OXFORD	-11.6433
▁Small	-11.6433
▁Tehran	-11.6433
▁Wilders	-11.6433
▁analyses	-11.6433
▁diamond	-11.6433
▁lecture	-11.6433
▁pragmatism	-11.6433
▁ruthless	-11.6433
▁sacred	-11.6433
▁strides	-11.6433
▁vegetable	-11.6433
▁vigilant	-11.6433
▁GCC	-11.6433
▁domination	-11.6433
▁intervening	-11.6433
▁0.7%	-11.6433
▁spiritual	-11.6433
▁supranational	-11.6433
▁inertia	-11.6433
▁irre	-11.6433
▁spotlight	-11.6433
▁horrific	-11.6433
▁victories	-11.6433
▁entertainment	-11.6433
▁Litt	-11.6433
▁foolish	-11.6433
▁fundamentalists	-11.6434
▁layer	-11.6434
▁21%	-11.6434
▁medal	-11.6435
▁dogma	-11.6435
▁garment	-11.6436
▁Clos	-11.6436
▁superiority	-11.6437
▁san	-11.6437
core	-11.6437
poor	-11.6437
▁pages	-11.6439
ilton	-11.6439
▁busy	-11.644
▁Gett	-11.6441
▁brutality	-11.6441
▁Anwar	-11.6442
▁invite	-11.6443
▁Cities	-11.6443
▁Shah	-11.6445
▁commerce	-11.6453
▁acknowledging	-11.6454
▁wire	-11.6462
24	-11.6465
▁flying	-11.6467
mus	-11.6467
FC	-11.6468
▁forged	-11.6469
▁opted	-11.648
▁preventable	-11.6482
▁emit	-11.6486
aga	-11.6491
▁purchased	-11.6492
▁CD	-11.6498
▁lags	-11.6501
gent	-11.6516
▁highlighting	-11.6517
▁intensive	-11.6526
▁Main	-11.6539
▁listening	-11.6551
▁fans	-11.6564
▁discussing	-11.6581
▁objections	-11.6583
▁tapp	-11.6592
▁designing	-11.6593
cited	-11.6597
▁stifl	-11.6597
▁escap	-11.66
▁register	-11.6614
Japan	-11.6621
cultural	-11.6621
common	-11.6623
▁investigate	-11.6626
▁revise	-11.6627
▁intends	-11.6633
▁Chen	-11.6635
▁colleague	-11.6636
duct	-11.6636
hem	-11.6639
▁Alibaba	-11.6641
▁Antarctic	-11.6641
▁BOJ	-11.6641
▁Break	-11.6641
▁Drawing	-11.6641
▁Efforts	-11.6641
▁Guantánamo	-11.6641
▁Xinjiang	-11.6641
▁capturing	-11.6641
▁clarify	-11.6641
▁deliberation	-11.6641
▁delicate	-11.6641
▁demonstrators	-11.6641
▁depict	-11.6641
▁detention	-11.6641
▁dismantling	-11.6641
▁longevity	-11.6641
▁lucrative	-11.6641
▁muscle	-11.6641
▁opaque	-11.6641
▁presuppose	-11.6641
▁proximity	-11.6641
▁prudence	-11.6641
▁resurgence	-11.6641
▁xenophobia	-11.6641
▁orientation	-11.6641
▁unconditional	-11.6641
▁website	-11.6641
▁misery	-11.6641
▁proving	-11.6641
▁bypass	-11.6641
▁conspiracy	-11.6641
▁tropic	-11.6641
▁Promise	-11.6641
▁wholesale	-11.6641
▁lever	-11.6641
▁resonate	-11.6641
▁disclose	-11.6641
▁incursion	-11.6641
▁Unemployment	-11.6641
▁continuation	-11.6642
▁viability	-11.6642
▁shutdown	-11.6642
▁Monti	-11.6642
▁glance	-11.6642
▁22%	-11.6642
▁coefficient	-11.6642
▁pronounced	-11.6643
▁geographic	-11.6643
▁bonuses	-11.6643
▁Congo	-11.6644
▁physicist	-11.6645
▁imprisoned	-11.6646
▁restrictive	-11.6647
▁ODA	-11.6648
▁SPD	-11.6649
▁endure	-11.665
▁ICT	-11.6652
▁avoidance	-11.6652
▁egg	-11.6654
▁convened	-11.6655
▁advised	-11.6657
grade	-11.6658
▁page	-11.6659
▁institute	-11.6661
cro	-11.6665
taining	-11.6675
▁practitioners	-11.6676
▁sparked	-11.6679
last	-11.6688
pha	-11.6688
thinking	-11.6692
▁hubs	-11.6693
▁asserted	-11.6696
nut	-11.6698
▁constructed	-11.6701
nts	-11.6705
ndowment	-11.6715
▁impeded	-11.6716
▁payoff	-11.6717
▁insure	-11.6724
▁collaborat	-11.6731
To	-11.6736
▁connecting	-11.6738
linked	-11.6742
▁locally	-11.6749
▁lab	-11.6751
▁etc	-11.6755
▁Hy	-11.676
▁employing	-11.6761
▁structured	-11.6762
▁depress	-11.6764
X	-11.6768
▁illustrates	-11.6775
▁inspiring	-11.6776
▁bite	-11.6779
▁speaker	-11.6799
▁44	-11.6808
▁tourists	-11.6808
▁seal	-11.6813
▁steal	-11.6816
recapitalization	-11.6817
▁inject	-11.6824
▁accus	-11.6827
▁Interest	-11.6828
▁Alas	-11.6831
affected	-11.6833
system	-11.6834
▁walls	-11.6836
import	-11.6836
▁endorse	-11.6836
▁unfortunate	-11.6836
oil	-11.684
▁dysfunction	-11.6848
hin	-11.6852
▁Journal	-11.6853
▁copy	-11.6853
▁demonstration	-11.6853
cryptocurrencies	-11.6854
fledged	-11.6854
▁1947	-11.6854
▁1985	-11.6854
▁Amendment	-11.6854
▁Barroso	-11.6854
▁College	-11.6854
▁Control	-11.6854
▁Management	-11.6854
▁Osborne	-11.6854
▁Studies	-11.6854
▁announcing	-11.6854
▁bizarre	-11.6854
▁chaotic	-11.6854
▁conceal	-11.6854
▁copper	-11.6854
▁elephant	-11.6854
▁overarching	-11.6854
▁solvency	-11.6854
▁xenophobic	-11.6854
ö	-11.6854
▁heritage	-11.6854
▁Osama	-11.6854
▁Early	-11.6854
▁Persian	-11.6854
▁blessing	-11.6854
▁leveraging	-11.6854
▁backstop	-11.6854
▁tipping	-11.6854
▁client	-11.6854
hour	-11.6854
▁Local	-11.6854
▁battlefield	-11.6854
▁shipping	-11.6854
▁stamp	-11.6854
▁persistence	-11.6855
▁loop	-11.6855
▁uncomfortable	-11.6855
▁disappearance	-11.6855
▁courageous	-11.6855
▁apartheid	-11.6857
org	-11.6857
▁subsidize	-11.6857
▁reinvent	-11.6858
▁scant	-11.6858
▁SMEs	-11.6859
▁ravag	-11.6859
▁externalities	-11.6859
▁lawmakers	-11.686
▁nuanced	-11.686
▁notwithstanding	-11.6861
▁Press	-11.6865
▁BRIC	-11.6866
▁owed	-11.6872
▁plunged	-11.6873
maker	-11.6874
▁Call	-11.6874
ike	-11.6877
▁deprived	-11.6877
▁adapting	-11.6877
▁beating	-11.6878
▁awarded	-11.6887
21	-11.689
existent	-11.6895
rey	-11.691
▁$15	-11.6911
▁champions	-11.6923
SS	-11.6924
▁Services	-11.6926
stone	-11.6927
▁distinguished	-11.6928
▁taxi	-11.693
payments	-11.6932
▁cent	-11.6938
▁conduc	-11.694
▁Kha	-11.694
▁escaped	-11.695
▁havens	-11.695
dip	-11.6958
▁36	-11.696
ada	-11.696
▁insurgents	-11.6966
▁Pri	-11.6966
▁curbing	-11.6967
▁ball	-11.6972
gging	-11.6988
▁pu	-11.6988
▁enforc	-11.6997
▁quote	-11.7007
▁expire	-11.7013
▁Bio	-11.7016
▁coordinat	-11.7019
mill	-11.7021
▁drink	-11.7023
▁correspond	-11.7023
paying	-11.703
held	-11.7031
▁dictatorships	-11.7043
▁concert	-11.7044
▁discredit	-11.7045
▁assign	-11.7047
people	-11.7048
competitive	-11.7049
technology	-11.7051
treat	-11.7051
special	-11.7051
seeking	-11.7051
▁vigorous	-11.7054
burg	-11.7055
▁convene	-11.7057
Russian	-11.7057
▁owner	-11.7062
▁advent	-11.707
▁Chris	-11.707
▁slave	-11.7071
communicable	-11.7071
▁1948	-11.7071
▁Certainly	-11.7071
▁Guatemala	-11.7071
▁Iceland	-11.7071
▁Tiananmen	-11.7071
▁Unsurprisingly	-11.7071
▁advocacy	-11.7071
▁definitive	-11.7071
▁detriment	-11.7071
▁dubbed	-11.7071
▁eligible	-11.7071
▁kids	-11.7071
▁minimizing	-11.7071
▁pessimism	-11.7071
▁prevalent	-11.7071
▁punitive	-11.7071
▁subdued	-11.7071
▁Bhutto	-11.7071
▁Hollywood	-11.7071
▁Jiabao	-11.7071
▁Medvedev	-11.7071
▁Mohammad	-11.7071
▁TFP	-11.7071
▁chancellor	-11.7071
▁duration	-11.7071
▁elaborate	-11.7071
▁racist	-11.7071
▁wreak	-11.7071
▁married	-11.7071
▁therapies	-11.7071
▁bipolar	-11.7071
▁rainfall	-11.7071
▁audit	-11.7071
▁arising	-11.7071
▁Resolution	-11.7071
▁unhappy	-11.7072
▁dissolve	-11.7072
▁donations	-11.7072
valence	-11.7072
▁emitter	-11.7072
▁bump	-11.7073
▁discoveries	-11.7073
▁3.5%	-11.7073
reliant	-11.7073
▁landmark	-11.7073
▁sway	-11.7073
▁circulation	-11.7073
▁Balkan	-11.7075
▁heroic	-11.7076
▁fascist	-11.7077
▁assembled	-11.7077
▁conscious	-11.708
▁percent	-11.708
▁soften	-11.7084
▁dust	-11.7085
▁faction	-11.7086
▁sanction	-11.7086
▁bottle	-11.7086
▁possession	-11.7086
▁stricter	-11.7086
▁boy	-11.7093
▁Coal	-11.7093
▁defenders	-11.7095
▁transferred	-11.7096
▁hopeless	-11.7097
▁differentiat	-11.7099
ohan	-11.7103
▁wisely	-11.7114
▁critically	-11.7124
▁jumped	-11.7126
▁bailed	-11.7135
gricultural	-11.7139
▁rear	-11.7154
▁rewarded	-11.7156
▁contractor	-11.7162
gna	-11.7185
▁fulfilled	-11.7188
▁underpins	-11.7189
▁Kan	-11.719
▁Aid	-11.7191
▁Leave	-11.7194
bod	-11.7196
nyone	-11.7197
▁retained	-11.7201
▁traveled	-11.7224
think	-11.7226
▁symptom	-11.7238
designed	-11.7241
▁occupy	-11.7245
▁departments	-11.725
view	-11.7252
hud	-11.7261
▁insider	-11.7264
▁elevat	-11.7266
Islam	-11.7271
front	-11.7273
giving	-11.7273
▁manufacture	-11.7274
▁Char	-11.7278
▁complicate	-11.7279
▁recovering	-11.7282
▁intend	-11.7287
▁hegemon	-11.7288
▁normalize	-11.7288
▁1984	-11.7293
▁Adviser	-11.7293
▁Annual	-11.7293
▁FBI	-11.7293
▁GENE	-11.7293
▁Kashmir	-11.7293
▁Liberation	-11.7293
▁Luxembourg	-11.7293
▁STANFORD	-11.7293
▁Seoul	-11.7293
▁Solidarity	-11.7293
▁Yugoslavia	-11.7293
▁accumulating	-11.7293
▁acquiring	-11.7293
▁brake	-11.7293
▁chamber	-11.7293
▁chapter	-11.7293
▁combining	-11.7293
▁debacle	-11.7293
▁delusion	-11.7293
▁disparate	-11.7293
▁pneumonia	-11.7293
▁rebellion	-11.7293
▁referenda	-11.7293
▁scapegoat	-11.7293
▁staunch	-11.7293
▁virtuous	-11.7293
▁vivid	-11.7293
▁contingent	-11.7293
▁varied	-11.7293
▁vocational	-11.7293
▁Voters	-11.7293
▁Boston	-11.7293
▁Gini	-11.7293
▁hesitate	-11.7293
▁secession	-11.7293
▁pause	-11.7293
▁reiterate	-11.7293
▁Securities	-11.7293
▁outlined	-11.7294
▁versa	-11.7294
▁sidelines	-11.7294
▁penalize	-11.7294
▁imprisonment	-11.7294
▁Castro	-11.7294
▁slavery	-11.7294
▁MPs	-11.7294
▁interdependent	-11.7294
▁mixture	-11.7294
▁wholly	-11.7295
▁killers	-11.7295
▁Nordic	-11.7295
▁armies	-11.7295
▁85%	-11.7295
Remain	-11.7295
▁undergone	-11.7296
▁hegemonic	-11.7296
▁selective	-11.7297
▁repaid	-11.7297
▁bosses	-11.7297
▁MENA	-11.7298
▁Scandinavian	-11.7298
▁betting	-11.7298
▁3,000	-11.7299
▁guilty	-11.73
urging	-11.73
▁inflated	-11.7301
▁tail	-11.7301
▁reproductive	-11.7302
▁hurricane	-11.7302
▁lawyer	-11.7303
▁invaded	-11.7303
▁girl	-11.7303
▁ministerial	-11.7304
▁CCS	-11.7304
▁Gore	-11.7305
▁consuming	-11.7305
▁Fall	-11.7306
▁citing	-11.7306
▁dose	-11.7308
▁editor	-11.7308
▁virtues	-11.731
▁vowed	-11.7316
▁killer	-11.7324
▁wag	-11.7328
▁depended	-11.7332
producing	-11.7333
▁starkly	-11.7334
▁Pay	-11.7337
▁tightened	-11.7339
▁handed	-11.7341
▁occupying	-11.7341
idi	-11.7345
bound	-11.7352
▁artificially	-11.7362
▁pile	-11.7364
▁evaluat	-11.7366
▁punished	-11.7367
▁questionable	-11.737
ati	-11.7388
▁burdened	-11.7394
▁ruler	-11.7403
anti	-11.7411
▁commissioner	-11.7438
▁replicate	-11.7439
▁catalyze	-11.7439
▁studying	-11.7441
say	-11.7445
▁airports	-11.7446
▁obsess	-11.7447
▁abound	-11.7448
▁shocked	-11.7454
▁blam	-11.7472
▁Reduc	-11.7475
Israel	-11.7497
▁jihadists	-11.7498
tradable	-11.7501
Shia	-11.7501
two	-11.7501
democracy	-11.7501
President	-11.7501
particularly	-11.7502
from	-11.7502
▁swift	-11.7503
▁Alternative	-11.7503
▁simultaneous	-11.7503
▁resisting	-11.7504
commun	-11.7516
▁Serb	-11.7519
▁drastic	-11.7519
▁1987	-11.7521
▁AMLO	-11.7521
▁Criminal	-11.7521
▁Einstein	-11.7521
▁McCain	-11.7521
▁Schengen	-11.7521
▁Senegal	-11.7521
▁Zedong	-11.7521
▁autumn	-11.7521
▁chaebol	-11.7521
▁criterion	-11.7521
▁diversified	-11.7521
▁identical	-11.7521
▁inferior	-11.7521
▁meddling	-11.7521
▁modification	-11.7521
▁panacea	-11.7521
▁plentiful	-11.7521
▁populous	-11.7521
▁stupid	-11.7521
▁suffice	-11.7521
▁telephone	-11.7521
▁unbalanced	-11.7521
▁utilities	-11.7521
▁1986	-11.7521
▁GNP	-11.7521
▁GST	-11.7521
▁Guinea	-11.7521
▁Target	-11.7521
▁charity	-11.7521
▁embolden	-11.7521
▁perverse	-11.7521
▁qualify	-11.7521
▁unchecked	-11.7521
▁wreck	-11.7521
▁evade	-11.7521
▁undervalued	-11.7521
▁fray	-11.7521
▁Rico	-11.7521
▁abnormal	-11.7521
▁milestone	-11.7521
▁pathogen	-11.7521
▁Rich	-11.7521
▁caliphate	-11.7521
▁disinformation	-11.7521
▁smartphone	-11.7521
▁2007-2008	-11.7522
▁insurers	-11.7522
▁refinancing	-11.7522
▁hair	-11.7523
▁Communism	-11.7523
▁likewise	-11.7524
▁Later	-11.7524
bio	-11.7525
▁38	-11.7526
▁invisible	-11.7526
▁morph	-11.7527
▁personally	-11.7529
▁regulator	-11.7529
▁specialists	-11.753
print	-11.753
away	-11.7532
▁doses	-11.7534
▁motive	-11.7535
▁Chilean	-11.7535
▁district	-11.7535
▁heating	-11.7536
headed	-11.7537
▁deteriorated	-11.7538
▁outperform	-11.754
▁inappropriate	-11.7541
▁majorities	-11.7542
▁celebrated	-11.7544
▁5,000	-11.7545
▁rape	-11.7548
▁smarter	-11.755
▁fruits	-11.7552
▁abide	-11.7553
▁frightening	-11.7555
▁allied	-11.7557
▁devised	-11.7564
▁modernity	-11.7565
▁appreciated	-11.7565
▁fundamentalist	-11.7566
▁pressed	-11.7567
▁Par	-11.7572
ternal	-11.7574
▁vo	-11.758
▁deferr	-11.7583
defeating	-11.7584
ridden	-11.7585
safe	-11.7587
95	-11.7588
clusive	-11.7595
kar	-11.7601
drew	-11.7603
▁unify	-11.7605
▁PA	-11.7607
▁countryside	-11.7615
▁upend	-11.7625
▁particles	-11.7631
▁Mayor	-11.7632
nia	-11.7633
▁75	-11.7635
stage	-11.7639
▁jointly	-11.764
▁valuations	-11.7641
▁injections	-11.7642
▁sat	-11.7644
dise	-11.766
▁pr	-11.7661
self	-11.7669
▁propell	-11.7672
phy	-11.7691
▁fleet	-11.7695
▁pieces	-11.7696
▁trace	-11.772
▁endanger	-11.7726
▁administer	-11.7726
▁renew	-11.7731
▁incur	-11.7732
author	-11.7733
▁retire	-11.7733
equity	-11.7733
president	-11.7733
guard	-11.7734
▁habit	-11.7735
secular	-11.7738
▁cancel	-11.7739
chain	-11.774
▁exported	-11.7742
▁destin	-11.7744
▁Chang	-11.7745
▁Catholics	-11.7747
There	-11.7751
▁enroll	-11.7751
▁cents	-11.7753
▁trauma	-11.7753
▁1972	-11.7753
▁BRCA	-11.7753
▁Caucasus	-11.7753
▁Coalition	-11.7753
▁Columbia	-11.7753
▁Domestic	-11.7753
▁Dubai	-11.7753
▁Intelligence	-11.7753
▁Jerem	-11.7753
▁Jintao	-11.7753
▁Napoleon	-11.7753
▁Peña	-11.7753
▁Protestant	-11.7753
▁Silva	-11.7753
▁Stiglitz	-11.7753
▁Turks	-11.7753
▁Yasukuni	-11.7753
▁emperor	-11.7753
▁endeavor	-11.7753
▁exposing	-11.7753
▁hypocrisy	-11.7753
▁incompetence	-11.7753
▁issuance	-11.7753
▁lunch	-11.7753
▁mathematics	-11.7753
▁peninsula	-11.7753
▁replied	-11.7753
▁roadmap	-11.7753
▁salary	-11.7753
▁scourge	-11.7753
▁seldom	-11.7753
▁sensitivity	-11.7753
▁signature	-11.7753
▁tacit	-11.7753
▁tyranny	-11.7753
▁utility	-11.7753
▁variant	-11.7753
▁yellow	-11.7753
▁Atomic	-11.7753
▁Dilma	-11.7753
▁Nieto	-11.7753
▁skyrocket	-11.7753
▁advisor	-11.7753
▁grain	-11.7753
▁outsourcing	-11.7753
▁Angola	-11.7753
▁multiply	-11.7753
▁extraordinarily	-11.7753
▁Rising	-11.7753
ttorney	-11.7753
▁ugly	-11.7753
▁Warsaw	-11.7753
▁assurances	-11.7753
▁conscience	-11.7754
▁outlays	-11.7754
▁precondition	-11.7754
▁properties	-11.7754
▁syn	-11.7754
▁Shiite	-11.7754
▁passport	-11.7754
▁loath	-11.7754
▁stuff	-11.7754
ounding	-11.7754
▁Thai	-11.7755
▁1933	-11.7755
▁scrap	-11.7755
▁supreme	-11.7755
▁Ensur	-11.7756
▁manifestation	-11.7757
▁Fail	-11.7757
▁goodwill	-11.7757
▁ironic	-11.7757
▁unlock	-11.7757
▁dread	-11.7757
▁300,000	-11.7759
▁designated	-11.7759
▁boss	-11.7762
▁earners	-11.7765
▁liberalizing	-11.7766
▁conceived	-11.7767
plete	-11.7768
▁prudential	-11.7768
▁slide	-11.7769
▁Income	-11.7771
▁framed	-11.7772
▁militia	-11.7773
▁supplier	-11.7773
▁coined	-11.7779
▁Test	-11.778
▁elevated	-11.7782
▁civilized	-11.7782
▁exemption	-11.7784
▁BE	-11.7791
▁automobiles	-11.7802
▁inflicted	-11.781
▁Working	-11.7814
▁participated	-11.7814
▁antimicrobial	-11.7818
▁thoughtful	-11.7819
▁stabilized	-11.7821
▁manager	-11.7825
▁rescued	-11.7828
▁supervis	-11.7829
var	-11.7831
▁diets	-11.7833
▁constituents	-11.7845
rent	-11.7848
▁Pra	-11.7851
▁arch	-11.786
▁absorbed	-11.7862
rdin	-11.7868
▁surveyed	-11.788
ama	-11.7881
connected	-11.7881
▁grids	-11.7886
▁staged	-11.7887
cover	-11.7887
▁swings	-11.7903
▁Pat	-11.7904
▁stayed	-11.7918
▁fixing	-11.7929
ICO	-11.7931
▁useless	-11.7939
▁counting	-11.7942
▁talked	-11.7947
▁complet	-11.7949
Maliki	-11.7949
▁campaigned	-11.7951
zo	-11.7954
loaded	-11.796
trust	-11.7969
▁scaled	-11.797
transfer	-11.7971
plus	-11.7971
Great	-11.7971
tolerance	-11.7971
polar	-11.7971
strong	-11.7972
block	-11.7975
▁accuse	-11.7976
▁isolate	-11.7977
▁formulate	-11.7979
smart	-11.7981
▁Albania	-11.7982
▁delegat	-11.7983
▁guilt	-11.7984
▁Direct	-11.7986
echnological	-11.7991
cientific	-11.7991
▁1981	-11.7991
▁Effective	-11.7991
▁Elsewhere	-11.7991
▁Employment	-11.7991
▁Financing	-11.7991
▁Fischer	-11.7991
▁Ibrahim	-11.7991
▁Katrina	-11.7991
▁Likud	-11.7991
▁Mueller	-11.7991
▁Survey	-11.7991
▁Uribe	-11.7991
▁academia	-11.7991
▁circumvent	-11.7991
▁comprehend	-11.7991
▁constituency	-11.7991
▁convenience	-11.7991
▁fatigue	-11.7991
▁futile	-11.7991
▁persuasive	-11.7991
▁responsibly	-11.7991
▁secrecy	-11.7991
▁speculators	-11.7991
▁unambiguous	-11.7991
▁unveiled	-11.7991
▁veteran	-11.7991
▁voluntarily	-11.7991
▁amplify	-11.7991
▁appalling	-11.7991
▁pleasure	-11.7991
▁clearinghouse	-11.7991
▁decay	-11.7991
▁diagnosed	-11.7991
▁inquiry	-11.7991
Saxon	-11.7991
▁Carney	-11.7991
▁Santos	-11.7991
▁warrior	-11.7991
▁vocal	-11.7991
▁excluding	-11.7992
▁€4	-11.7992
▁multipolar	-11.7992
▁43%	-11.7992
▁Abdel	-11.7992
▁Daniel	-11.7992
▁invitation	-11.7993
▁paradoxical	-11.7993
them	-11.7993
▁completion	-11.7993
▁pit	-11.7993
▁Haram	-11.7993
▁unregulated	-11.7993
▁dense	-11.7993
▁recourse	-11.7993
▁farmland	-11.7993
▁standpoint	-11.7994
▁acid	-11.7994
▁authorized	-11.7995
▁Grand	-11.7996
▁branches	-11.7997
▁Capitalism	-11.7997
ducing	-11.7999
▁stagnated	-11.7999
▁meaningless	-11.7999
▁motivate	-11.8
▁skewed	-11.8
▁200,000	-11.8
▁overdue	-11.8001
▁poster	-11.8001
▁coach	-11.8001
▁Lack	-11.8002
▁toppled	-11.8005
exporting	-11.8005
▁Hard	-11.8006
▁relieve	-11.8007
▁jihadist	-11.802
▁holy	-11.8027
▁reckoning	-11.8036
▁shooting	-11.8036
▁Mass	-11.8036
▁mad	-11.8042
▁Dam	-11.8042
▁statesman	-11.8043
▁simpler	-11.8047
▁Str	-11.8048
▁installed	-11.805
▁noble	-11.8052
bling	-11.8071
▁altered	-11.8078
ux	-11.8083
▁32	-11.8085
▁Yo	-11.8092
focused	-11.8093
▁2.0	-11.811
▁fun	-11.8124
▁violat	-11.8128
▁continual	-11.8134
▁universally	-11.8146
letting	-11.8163
▁provider	-11.8168
▁cede	-11.818
▁Refugees	-11.8183
holders	-11.8186
▁Sustain	-11.8191
▁oligarchs	-11.8201
▁wood	-11.8204
▁accrue	-11.8212
Q	-11.8214
Palestine	-11.8215
Chinese	-11.8215
This	-11.8215
terrorism	-11.8216
▁independently	-11.8219
▁topple	-11.8221
type	-11.8222
▁bann	-11.8225
▁assure	-11.8227
▁opportun	-11.8233
▁inaugura	-11.8235
▁ensured	-11.8235
▁Citizens	-11.8235
▁congress	-11.8235
▁BEACH	-11.8235
▁CIT	-11.8235
▁Century	-11.8235
▁Fillon	-11.8235
▁José	-11.8235
▁Thirty	-11.8235
▁Urban	-11.8235
▁accuracy	-11.8235
▁applaud	-11.8235
▁coercion	-11.8235
▁cohort	-11.8235
▁creator	-11.8235
▁credentials	-11.8235
▁curricula	-11.8235
▁curriculum	-11.8235
▁egalitarian	-11.8235
▁eroding	-11.8235
▁intrinsic	-11.8235
▁landslide	-11.8235
▁opium	-11.8235
▁petroleum	-11.8235
▁reassert	-11.8235
▁straight	-11.8235
▁unequivocal	-11.8235
▁untenable	-11.8235
▁bloodshed	-11.8235
▁encompass	-11.8235
▁levy	-11.8235
▁conquer	-11.8235
▁Medical	-11.8235
collar	-11.8235
▁indulg	-11.8235
▁statist	-11.8235
▁conceptual	-11.8235
▁charismatic	-11.8236
▁Governance	-11.8236
▁radiation	-11.8236
▁inauguration	-11.8236
▁readiness	-11.8236
▁deadlock	-11.8236
▁cruel	-11.8236
▁36%	-11.8236
▁arose	-11.8236
▁44%	-11.8236
▁Boko	-11.8236
▁pair	-11.8237
▁clock	-11.8237
▁countercyclical	-11.8237
▁Uber	-11.8237
▁attainment	-11.8237
▁6.5%	-11.8237
▁depositors	-11.8238
▁Progressive	-11.8238
▁1.4	-11.8238
▁dropping	-11.8238
▁Fox	-11.8239
▁endorsement	-11.8239
▁monarchy	-11.824
▁classified	-11.824
▁boil	-11.824
▁denie	-11.8241
▁laboratory	-11.8242
▁devastated	-11.8242
▁input	-11.8243
▁axis	-11.8243
▁Seven	-11.8243
▁AfD	-11.8245
▁unanimously	-11.8246
▁cling	-11.8247
▁Eight	-11.8247
ttering	-11.8247
▁advancement	-11.825
▁“[	-11.825
▁squandered	-11.8254
▁positively	-11.8254
nior	-11.8257
▁riskier	-11.8261
▁reside	-11.8265
▁federalism	-11.8265
will	-11.8265
▁III	-11.8266
▁oligarch	-11.8269
▁aspiration	-11.8269
▁unusually	-11.827
▁railways	-11.827
best	-11.827
▁preoccupie	-11.827
▁incite	-11.8271
▁coin	-11.8272
▁spillovers	-11.8275
▁enriched	-11.8276
▁anymore	-11.8285
▁usage	-11.829
▁compensated	-11.829
▁preach	-11.8297
▁promptly	-11.8299
▁PLO	-11.8303
spiring	-11.8304
▁pesticides	-11.8309
▁cage	-11.8317
llen	-11.8319
illa	-11.8335
▁cheaply	-11.8343
production	-11.8343
▁cla	-11.8352
race	-11.8362
leaning	-11.8401
▁horrors	-11.8409
▁pi	-11.8419
▁divid	-11.842
▁IS	-11.8428
▁heated	-11.8431
▁hosting	-11.8434
▁Com	-11.8437
▁float	-11.8437
rained	-11.8439
▁consolidat	-11.844
▁Lama	-11.8453
through	-11.8464
▁edit	-11.8465
tariff	-11.8465
billion	-11.8465
violent	-11.8465
property	-11.8465
Pakistan	-11.8465
business	-11.8465
governance	-11.8465
▁redefine	-11.8468
New	-11.8468
mission	-11.8469
fusion	-11.8469
return	-11.8469
▁dismantle	-11.8471
▁please	-11.8475
▁Environment	-11.8479
▁Prince	-11.8485
▁ATHENS	-11.8485
▁Bridge	-11.8485
▁CTBT	-11.8485
▁Enlightenment	-11.8485
▁Istanbul	-11.8485
▁Medicine	-11.8485
▁Olmert	-11.8485
▁Populism	-11.8485
▁Portuguese	-11.8485
▁Relations	-11.8485
▁Sovereign	-11.8485
▁Tobacco	-11.8485
▁cricket	-11.8485
▁depleted	-11.8485
▁disparity	-11.8485
▁dwarf	-11.8485
▁egregious	-11.8485
▁entrants	-11.8485
▁impetus	-11.8485
▁intractable	-11.8485
▁passenger	-11.8485
▁pessimists	-11.8485
▁ratification	-11.8485
▁recycling	-11.8485
▁spectacle	-11.8485
▁testimony	-11.8485
▁turbulent	-11.8485
▁unsurprising	-11.8485
▁Bureau	-11.8485
▁embody	-11.8485
▁generic	-11.8485
▁lavish	-11.8485
▁Gender	-11.8485
▁stipulat	-11.8485
▁overheating	-11.8485
▁Hamilton	-11.8485
▁emanat	-11.8485
▁2°	-11.8486
▁lining	-11.8486
CSU	-11.8486
▁confer	-11.8486
▁startups	-11.8486
▁Mitt	-11.8486
▁alienated	-11.8486
▁windfall	-11.8486
▁23%	-11.8486
▁reshap	-11.8487
▁snow	-11.8487
▁Rajan	-11.8487
▁lip	-11.8487
▁fed	-11.8488
▁stature	-11.8488
▁assertiveness	-11.8488
▁wishful	-11.8489
▁anonymous	-11.8492
▁Hun	-11.8493
have	-11.8493
▁Cultural	-11.8493
had	-11.8494
▁Wide	-11.8495
▁retaining	-11.8496
▁specialization	-11.8498
▁Dala	-11.8499
settling	-11.85
▁fearful	-11.85
structive	-11.8501
▁filed	-11.8503
▁Alternatively	-11.8504
▁hinge	-11.8505
▁messy	-11.8505
ecognizing	-11.8505
▁drilling	-11.8509
▁Van	-11.8514
give	-11.8518
blown	-11.852
▁BC	-11.8521
▁subjected	-11.8524
▁discouraged	-11.8525
▁metric	-11.8526
▁briefly	-11.853
vy	-11.8531
▁observer	-11.8533
▁wondering	-11.8533
▁diplomat	-11.8535
▁unexpectedly	-11.8538
▁nationalistic	-11.8539
▁heft	-11.8539
averse	-11.8539
▁manipulated	-11.855
▁chaired	-11.8553
▁vessels	-11.8556
void	-11.8556
▁song	-11.8567
▁officer	-11.8585
▁hurdles	-11.859
▁Commissioner	-11.8596
▁broadening	-11.8599
▁reinvigorate	-11.861
keep	-11.8619
27	-11.862
▁bribes	-11.8624
▁attending	-11.8642
▁peaked	-11.8645
▁pandemics	-11.8664
▁cartels	-11.8669
▁propp	-11.8692
▁reckon	-11.8694
▁Amid	-11.8699
▁shoot	-11.8705
aya	-11.8708
▁valued	-11.8721
strategic	-11.8721
▁prolong	-11.8722
week	-11.8723
super	-11.8728
▁bas	-11.8729
▁Take	-11.873
▁quit	-11.8731
▁overrid	-11.8736
▁optimist	-11.8739
▁reshape	-11.874
°	-11.8741
▁transmit	-11.8741
▁Lead	-11.8741
▁biomedic	-11.8742
▁magnet	-11.8742
onversely	-11.8742
▁Alexander	-11.8742
▁Experts	-11.8742
▁Medicaid	-11.8742
▁Nokia	-11.8742
▁Philip	-11.8742
▁Suppose	-11.8742
▁aluminum	-11.8742
▁disdain	-11.8742
▁dynasty	-11.8742
▁embodies	-11.8742
▁excitement	-11.8742
▁fantasy	-11.8742
▁fertile	-11.8742
▁fraught	-11.8742
▁identification	-11.8742
▁ideologies	-11.8742
▁knee	-11.8742
▁leisure	-11.8742
▁measles	-11.8742
▁petition	-11.8742
▁qualities	-11.8742
▁reservoir	-11.8742
▁resolute	-11.8742
▁stagnating	-11.8742
▁strife	-11.8742
▁suspension	-11.8742
▁tertiary	-11.8742
▁unimaginable	-11.8742
▁Athens	-11.8742
▁Sinai	-11.8742
▁avenue	-11.8742
▁Edward	-11.8742
▁dragged	-11.8742
▁folly	-11.8742
▁mosque	-11.8742
▁Model	-11.8742
synthetic	-11.8742
▁contempt	-11.8742
▁divergent	-11.8742
▁wheat	-11.8742
▁grass	-11.8742
▁ghost	-11.8742
▁Corruption	-11.8742
▁conversion	-11.8742
▁Confront	-11.8742
▁criticizing	-11.8742
▁adventure	-11.8742
▁extinction	-11.8742
▁Leadership	-11.8742
▁Lord	-11.8742
▁47%	-11.8743
▁Koran	-11.8743
▁revenge	-11.8743
▁19%	-11.8743
zone	-11.8744
▁blog	-11.8745
▁measurable	-11.8745
▁depart	-11.8745
▁roil	-11.8745
▁indebtedness	-11.8745
▁Za	-11.8745
▁Zone	-11.8746
▁Hope	-11.8746
Zionist	-11.8746
▁murderous	-11.8746
▁posing	-11.8746
▁recoveries	-11.8746
▁FOMC	-11.8746
▁pale	-11.8746
▁marry	-11.8747
▁Manm	-11.8747
▁bode	-11.8749
neck	-11.8749
▁disability	-11.8749
▁Lower	-11.8751
▁lengthy	-11.8754
▁bombers	-11.8755
vian	-11.8755
▁posture	-11.8755
▁Make	-11.8757
▁passes	-11.8761
▁depreciated	-11.8763
▁apartment	-11.8765
▁conception	-11.8768
▁relentlessly	-11.8769
▁Frank	-11.8775
▁compassion	-11.8777
▁survivors	-11.8779
▁buildup	-11.878
▁recapitalize	-11.878
▁abolished	-11.878
▁warranted	-11.8786
▁jailed	-11.8788
▁financiers	-11.8791
▁bow	-11.8793
▁complications	-11.8797
▁33	-11.8801
▁fairer	-11.8803
▁rob	-11.8814
▁championed	-11.8819
▁Indonesian	-11.882
▁unfolding	-11.8822
▁individually	-11.8826
▁inefficiency	-11.8829
▁capitalization	-11.8829
wan	-11.8831
motion	-11.8843
▁requested	-11.8844
▁IP	-11.8844
▁indoor	-11.8845
▁upset	-11.8847
working	-11.8876
▁Jobs	-11.8878
▁proteins	-11.889
5,000	-11.8891
aire	-11.8894
▁contracted	-11.8895
▁$11	-11.89
▁clusters	-11.8901
ascent	-11.8908
stream	-11.8908
▁nationality	-11.8916
▁polling	-11.8917
cide	-11.8926
▁shortsighted	-11.8949
easing	-11.8965
▁illiquid	-11.8967
▁cru	-11.897
▁vanish	-11.8978
product	-11.8981
▁erect	-11.8984
­	-11.8984
Leave	-11.8984
fulfilling	-11.8985
colonial	-11.8985
middle	-11.8985
whatever	-11.8985
▁fade	-11.8992
▁aggravate	-11.9002
▁prince	-11.9005
▁descend	-11.9005
▁Chernobyl	-11.9005
▁Deputy	-11.9005
▁Dialogue	-11.9005
▁Manchester	-11.9005
▁Orleans	-11.9005
▁Scientists	-11.9005
▁allegiance	-11.9005
▁analytics	-11.9005
▁blatant	-11.9005
▁bloated	-11.9005
▁buoy	-11.9005
▁burgeoning	-11.9005
▁commensurate	-11.9005
▁comparing	-11.9005
▁compromising	-11.9005
▁dairy	-11.9005
▁fascism	-11.9005
▁hijack	-11.9005
▁hypothesis	-11.9005
▁illiteracy	-11.9005
▁injured	-11.9005
▁junta	-11.9005
▁overshadow	-11.9005
▁shrunk	-11.9005
▁vitamin	-11.9005
▁Club	-11.9005
▁Wilson	-11.9005
▁harmony	-11.9005
▁interior	-11.9005
▁stolen	-11.9005
▁verification	-11.9005
▁amplifie	-11.9005
▁hiding	-11.9005
▁proverb	-11.9005
▁Standing	-11.9005
▁veil	-11.9005
▁Hassan	-11.9005
▁Lessons	-11.9005
▁apology	-11.9005
lasting	-11.9005
▁spoil	-11.9005
▁Sharif	-11.9005
▁conform	-11.9005
▁petty	-11.9005
▁homegrown	-11.9005
▁transmitted	-11.9006
▁roof	-11.9006
▁flash	-11.9006
▁Carter	-11.9006
▁skin	-11.9007
▁Orthodox	-11.9007
▁lax	-11.9008
▁pave	-11.9008
▁weekend	-11.901
▁surgery	-11.901
▁colonialism	-11.9011
wash	-11.9013
▁ESM	-11.9013
▁imperialism	-11.9013
▁Timo	-11.9014
▁halved	-11.9014
▁Youth	-11.9014
▁helm	-11.9015
▁legitimize	-11.9018
atomic	-11.902
▁Needle	-11.9021
▁20,000	-11.9024
▁updated	-11.9031
wind	-11.9032
liest	-11.9033
▁Slow	-11.9033
▁radicalism	-11.9033
▁believers	-11.9035
▁vow	-11.9035
▁sixth	-11.9037
liable	-11.9038
▁spared	-11.904
▁infamous	-11.9042
dumping	-11.9044
▁Indo	-11.9045
▁smoothly	-11.9049
▁redirect	-11.9051
▁Fin	-11.9053
▁Coming	-11.9055
empt	-11.9055
▁ingredient	-11.9056
▁department	-11.9057
▁characteristic	-11.9058
▁robot	-11.9059
▁instrumental	-11.906
▁narrowing	-11.9061
▁pitt	-11.9062
100	-11.9062
▁reporters	-11.9068
▁carrier	-11.9077
▁instruction	-11.9079
EX	-11.9087
▁contested	-11.9095
▁propel	-11.9102
▁crown	-11.9102
▁lawsuits	-11.9103
▁deductions	-11.9115
▁Em	-11.9121
▁soar	-11.9151
▁dim	-11.9151
onian	-11.9162
UR	-11.917
llowing	-11.9183
▁rolling	-11.9185
▁Nu	-11.9185
taper	-11.9202
▁beef	-11.9222
pivot	-11.9255
bottom	-11.9255
depend	-11.9255
culture	-11.9256
Islamic	-11.9258
▁BRI	-11.9259
having	-11.9261
fail	-11.9267
▁agro	-11.9274
▁equip	-11.9274
▁Consequently	-11.9275
▁Currency	-11.9275
▁Deutsche	-11.9275
▁Hayek	-11.9275
▁Interpol	-11.9275
▁Learning	-11.9275
▁Outlook	-11.9275
▁Rumsfeld	-11.9275
▁SINGAPORE	-11.9275
▁ambiguity	-11.9275
▁babies	-11.9275
▁calamity	-11.9275
▁candidacy	-11.9275
▁cocaine	-11.9275
▁coffee	-11.9275
▁crippling	-11.9275
▁critique	-11.9275
▁cronies	-11.9275
▁debating	-11.9275
▁decreasing	-11.9275
▁excellence	-11.9275
▁frustrating	-11.9275
▁glimpse	-11.9275
▁intermediaries	-11.9275
▁negligible	-11.9275
▁subordinate	-11.9275
▁supremacy	-11.9275
▁ticket	-11.9275
▁unpleasant	-11.9275
▁unreliable	-11.9275
▁Karzai	-11.9275
▁Khrushchev	-11.9275
▁Stock	-11.9275
▁balloon	-11.9275
▁filter	-11.9275
▁peacekeeping	-11.9275
▁sterling	-11.9275
quantum	-11.9275
▁Cross	-11.9275
▁Thaksin	-11.9275
▁indices	-11.9275
▁rift	-11.9275
▁Living	-11.9275
▁gauge	-11.9275
▁remarks	-11.9275
▁lens	-11.9275
▁Eurogroup	-11.9275
▁optimiz	-11.9275
▁adherence	-11.9275
▁blackmail	-11.9275
▁1975	-11.9276
▁($3	-11.9276
▁patriotism	-11.9276
▁hook	-11.9276
▁38%	-11.9276
▁Normal	-11.9276
▁stunt	-11.9276
▁Kyiv	-11.9276
▁perilous	-11.9276
▁drastically	-11.9276
▁hover	-11.9279
▁Diet	-11.9279
▁affiliate	-11.9279
▁stoke	-11.9279
▁suppression	-11.928
▁nationwide	-11.928
supported	-11.9281
▁unilateralism	-11.9283
▁stepping	-11.9283
▁plagu	-11.9284
▁Pan	-11.9284
▁Meli	-11.9285
▁isolationism	-11.9285
fly	-11.9286
▁momentous	-11.9287
▁Yale	-11.9289
▁radicalization	-11.929
▁troika	-11.929
sult	-11.929
batter	-11.9292
▁update	-11.9294
▁deepest	-11.9295
▁polar	-11.9295
▁articulated	-11.9295
▁unrelated	-11.9296
night	-11.9297
▁aggravated	-11.9297
▁shell	-11.93
▁Weak	-11.9306
▁cable	-11.9306
▁endangered	-11.9307
▁unraveling	-11.931
▁plummeting	-11.9314
fashioned	-11.9314
▁tortured	-11.9316
▁fundamentalism	-11.9321
▁midterm	-11.9325
▁implicitly	-11.9325
▁pumped	-11.9328
▁establishes	-11.9329
▁nurses	-11.9333
▁crafted	-11.9333
▁Refugee	-11.9334
▁algorithm	-11.9337
mulating	-11.9338
▁ancestors	-11.9339
▁Obamacare	-11.934
▁consolidated	-11.9342
FOR	-11.9342
cade	-11.9346
▁worsened	-11.9351
▁discretion	-11.9351
holding	-11.9352
▁tourist	-11.9357
ilateral	-11.9387
▁Mc	-11.939
ttled	-11.9391
▁halted	-11.9403
▁renounce	-11.9411
▁wi	-11.9448
mail	-11.9462
▁assessed	-11.9464
▁narrowed	-11.9466
▁influenc	-11.9478
fits	-11.948
▁allocat	-11.9482
▁filling	-11.9484
▁signaling	-11.9487
▁analyz	-11.9492
▁proportional	-11.9497
▁Nik	-11.9501
ney	-11.9517
▁App	-11.9518
▁distract	-11.952
logical	-11.9528
certain	-11.953
Abenomics	-11.9533
SDGs	-11.9533
except	-11.9533
demand	-11.9533
imposed	-11.9533
general	-11.9533
food	-11.9534
▁plea	-11.9534
▁$25	-11.9536
▁Armenia	-11.9543
cutting	-11.9545
▁circulat	-11.955
▁arbitra	-11.9551
▁Fried	-11.9552
skeptic	-11.9552
▁charisma	-11.9552
adequacy	-11.9553
▁Bharat	-11.9553
▁Carbon	-11.9553
▁Croatia	-11.9553
▁Gazprom	-11.9553
▁Manafort	-11.9553
▁Mozambique	-11.9553
▁Schröder	-11.9553
▁Structural	-11.9553
▁Taylor	-11.9553
▁UNICEF	-11.9553
▁Uruguay	-11.9553
▁apologize	-11.9553
▁causal	-11.9553
▁charities	-11.9553
▁chauvinism	-11.9553
▁chicken	-11.9553
▁closure	-11.9553
▁communiqué	-11.9553
▁complacent	-11.9553
▁conglomerate	-11.9553
▁corridor	-11.9553
▁eminent	-11.9553
▁exponential	-11.9553
▁happily	-11.9553
▁holistic	-11.9553
▁inclination	-11.9553
▁indictment	-11.9553
▁linguistic	-11.9553
▁misplaced	-11.9553
▁philosophical	-11.9553
▁proxies	-11.9553
▁recurrence	-11.9553
▁revamp	-11.9553
▁tepid	-11.9553
▁unfettered	-11.9553
▁unwanted	-11.9553
▁abilities	-11.9553
▁meager	-11.9553
▁polity	-11.9553
▁rife	-11.9553
▁genomic	-11.9553
▁dawn	-11.9553
▁vain	-11.9553
▁Dalit	-11.9553
▁erratic	-11.9553
▁addiction	-11.9553
▁lease	-11.9553
▁waning	-11.9553
▁1.5°	-11.9553
▁retrenchment	-11.9553
▁impartial	-11.9553
▁joke	-11.9553
▁biotechnology	-11.9553
▁EEA	-11.9553
▁Princeton	-11.9553
▁ponder	-11.9553
▁curious	-11.9553
▁oath	-11.9553
▁-3.	-11.9553
▁Christin	-11.9554
laundering	-11.9554
▁referring	-11.9554
▁rivalries	-11.9554
▁charm	-11.9554
▁Niger	-11.9554
Cold	-11.9554
▁Order	-11.9555
▁token	-11.9555
▁55%	-11.9555
▁jet	-11.9555
▁foreclos	-11.9555
▁Bond	-11.9555
▁65%	-11.9555
actic	-11.9556
▁1900	-11.9556
▁Lenin	-11.9556
▁frozen	-11.9556
▁recruitment	-11.9557
▁mold	-11.9557
▁hollow	-11.9558
▁rub	-11.9559
▁Trap	-11.956
▁MGI	-11.9562
▁passionate	-11.9563
▁Albanian	-11.9563
▁Outside	-11.9564
▁eruption	-11.9564
▁invoked	-11.9565
▁shaken	-11.9566
▁preferable	-11.9566
▁retailers	-11.9567
▁section	-11.9567
▁childcare	-11.9567
▁mentor	-11.9568
▁lung	-11.9568
▁thoroughly	-11.9569
▁vigorously	-11.9575
▁fusion	-11.9575
▁haunt	-11.9577
▁interfere	-11.9578
▁Media	-11.9579
ür	-11.9582
▁canceled	-11.9586
▁warmer	-11.9587
▁banner	-11.9588
▁Raj	-11.9589
▁faltering	-11.959
▁wounded	-11.9595
▁noticed	-11.9596
▁labeled	-11.9599
ella	-11.9607
▁loved	-11.9609
▁withdrew	-11.9614
▁adher	-11.9616
▁pocket	-11.9626
ography	-11.9627
▁exercised	-11.9633
▁campaigners	-11.9636
peer	-11.9636
▁pipe	-11.9655
▁constraining	-11.9659
▁transferr	-11.9662
▁row	-11.9664
stability	-11.9673
solve	-11.9675
▁bolstered	-11.9688
▁repeating	-11.9697
▁Path	-11.971
cast	-11.9711
die	-11.9713
▁appropriately	-11.9717
PO	-11.973
berg	-11.9749
▁yielded	-11.9751
break	-11.9761
▁handl	-11.9765
rov	-11.9766
75	-11.9775
▁Ken	-11.9777
support	-11.9791
▁prey	-11.9794
ichi	-11.9796
friend	-11.9801
▁infect	-11.9809
ü	-11.9809
protect	-11.9817
foreign	-11.9818
traditional	-11.9818
spending	-11.9819
trapped	-11.9819
labor	-11.982
▁120	-11.9821
▁Current	-11.9821
rational	-11.9822
▁bent	-11.9822
▁sham	-11.9823
▁refuge	-11.9824
▁suppose	-11.9824
rock	-11.9829
▁articulate	-11.983
▁resent	-11.9835
▁Govern	-11.9836
-2014	-11.9838
tmospheric	-11.9838
▁1949	-11.9838
▁9/11	-11.9838
▁Affordable	-11.9838
▁Botswana	-11.9838
▁Catalan	-11.9838
▁Company	-11.9838
▁Hundred	-11.9838
▁Khomeini	-11.9838
▁Massachusetts	-11.9838
▁Multilateral	-11.9838
▁Murdoch	-11.9838
▁Recovery	-11.9838
▁Rodrik	-11.9838
▁Rogoff	-11.9838
▁arriving	-11.9838
▁clothing	-11.9838
▁clue	-11.9838
▁cripple	-11.9838
▁deficient	-11.9838
▁furious	-11.9838
▁immunity	-11.9838
▁inadvertently	-11.9838
▁incipient	-11.9838
▁inexpensive	-11.9838
▁inspection	-11.9838
▁interlocutor	-11.9838
▁invaluable	-11.9838
▁nostalgia	-11.9838
▁precipitous	-11.9838
▁preclude	-11.9838
▁rupture	-11.9838
▁starvation	-11.9838
▁sympathetic	-11.9838
▁vengeance	-11.9838
▁wrought	-11.9838
▁Continu	-11.9838
▁Delta	-11.9838
▁Rabin	-11.9838
▁Threat	-11.9838
▁UNESCO	-11.9838
▁confess	-11.9838
▁epic	-11.9838
▁marshal	-11.9838
▁relinquish	-11.9838
▁teeth	-11.9838
▁unsuccessful	-11.9838
▁Establish	-11.9838
▁Ryan	-11.9838
▁domino	-11.9838
▁elicit	-11.9838
▁overvalued	-11.9838
▁biofuels	-11.9839
▁Panama	-11.9839
▁scaling	-11.9839
▁confusing	-11.9839
▁hubris	-11.9839
▁Paradoxical	-11.9839
▁Kenne	-11.9839
▁disaffected	-11.984
▁yourself	-11.984
▁Half	-11.984
▁Tiger	-11.984
▁subprime	-11.984
▁Single	-11.984
▁friendship	-11.984
▁Orwell	-11.984
▁limb	-11.984
▁Key	-11.9841
▁decree	-11.9841
▁Wealth	-11.9841
▁Return	-11.9841
▁uncover	-11.9841
▁nice	-11.9841
▁gangs	-11.9842
pick	-11.9842
▁tune	-11.9842
marty	-11.9843
▁dislike	-11.9843
▁undeniable	-11.9844
▁ego	-11.9845
▁malign	-11.9845
Zero	-11.9845
▁heroes	-11.9846
▁tired	-11.9847
▁spare	-11.9847
▁hydro	-11.9848
▁tant	-11.9849
▁mutualization	-11.9849
▁tolerant	-11.985
▁bone	-11.9851
▁Wang	-11.9853
scheduled	-11.9853
▁30,000	-11.9853
▁offsetting	-11.9854
lm	-11.9854
▁Currently	-11.9856
97	-11.9857
▁encouragement	-11.9859
▁swiftly	-11.986
▁­	-11.9861
▁pensioners	-11.9862
▁Have	-11.9863
▁praised	-11.9865
▁Algerian	-11.9865
▁startling	-11.9866
▁notoriously	-11.9866
▁Andrew	-11.9867
▁Rate	-11.9869
▁bare	-11.9871
▁subscribe	-11.9875
create	-11.9877
▁Marxist	-11.9878
▁smallest	-11.9883
▁tenth	-11.9886
hai	-11.9886
▁flaw	-11.989
▁Mik	-11.9893
▁animat	-11.9894
▁weighed	-11.9895
▁mal	-11.9898
▁shun	-11.9899
▁Live	-11.9899
harm	-11.99
▁rushed	-11.9902
logy	-11.9908
▁Wood	-11.9919
▁strained	-11.9921
▁healthcare	-11.9922
▁minute	-11.9929
▁brutally	-11.9932
▁wai	-11.9933
▁load	-11.9946
▁painfully	-11.9947
je	-11.9952
ocracy	-11.9953
▁ideally	-11.9961
▁hell	-11.9965
▁heir	-11.9971
▁Dan	-11.9971
▁mandated	-11.9979
▁redistribute	-11.9997
▁scramble	-12.0004
▁neutralize	-12.0006
▁sometime	-12.0022
▁Fat	-12.0042
▁Nicol	-12.0044
▁alleviat	-12.0053
▁pet	-12.0057
half	-12.0061
▁$13	-12.0063
India	-12.0066
directed	-12.0075
▁Cost	-12.0102
emission	-12.0102
▁pack	-12.0105
sphere	-12.0112
respect	-12.0112
wealth	-12.0112
indebted	-12.0113
determined	-12.0113
centered	-12.0113
meaning	-12.0113
index	-12.0113
ranking	-12.0114
legal	-12.0115
check	-12.0115
regulated	-12.0116
deep	-12.0116
▁confine	-12.0118
▁admire	-12.0118
often	-12.0122
▁mismatch	-12.0128
nomics	-12.0129
▁patron	-12.0131
resumption	-12.0132
ransparency	-12.0132
▁Micro	-12.0132
▁embryo	-12.0133
fetched	-12.0133
▁Bachelet	-12.0133
▁Battle	-12.0133
▁Kerala	-12.0133
▁Khatami	-12.0133
▁Munich	-12.0133
▁Stanford	-12.0133
▁Stream	-12.0133
▁Tamil	-12.0133
▁administrator	-12.0133
▁ambiguous	-12.0133
▁anticipation	-12.0133
▁bottlenecks	-12.0133
▁defiance	-12.0133
▁engulf	-12.0133
▁implosion	-12.0133
▁intimidation	-12.0133
▁legacies	-12.0133
▁loophole	-12.0133
▁moratorium	-12.0133
▁naïve	-12.0133
▁palpable	-12.0133
▁psychologist	-12.0133
▁rallied	-12.0133
▁scratch	-12.0133
▁subsistence	-12.0133
▁tainted	-12.0133
▁traffickers	-12.0133
▁woeful	-12.0133
▁mankind	-12.0133
▁plug	-12.0133
▁reallocat	-12.0133
▁propensit	-12.0133
▁punch	-12.0133
▁Provid	-12.0133
▁modify	-12.0133
▁Alexi	-12.0133
▁misunderstand	-12.0133
▁envoy	-12.0133
▁superstar	-12.0133
▁suburb	-12.0133
▁timetable	-12.0133
▁Powell	-12.0133
▁grace	-12.0133
-1980	-12.0133
▁€6	-12.0133
▁harmonize	-12.0133
▁intact	-12.0134
▁blockade	-12.0134
▁26%	-12.0134
▁42%	-12.0134
▁Soros	-12.0134
-2010	-12.0134
▁genius	-12.0135
▁brightest	-12.0135
▁bag	-12.0136
▁Play	-12.0136
▁unpaid	-12.0136
▁maize	-12.0136
▁wasteful	-12.0137
▁occasional	-12.0137
▁sustainably	-12.0137
▁reopen	-12.0138
▁artists	-12.0138
▁conservatism	-12.0138
▁slim	-12.0138
▁polluted	-12.0138
▁stir	-12.0138
▁lure	-12.0138
▁frontline	-12.014
▁denounce	-12.0141
▁reelection	-12.0143
▁misses	-12.0144
▁Ideal	-12.0145
▁possesses	-12.0145
▁brighter	-12.0145
▁pleased	-12.015
▁fixes	-12.0151
▁convicted	-12.0152
▁Restor	-12.0152
▁sorry	-12.0153
▁accommodating	-12.0154
▁alignment	-12.0157
▁wane	-12.0158
▁objection	-12.0161
breaking	-12.0161
▁grade	-12.0162
▁crushing	-12.0162
▁paved	-12.0166
▁rig	-12.0166
▁Iron	-12.0168
▁BP	-12.0171
▁melting	-12.0171
▁Serbian	-12.0173
▁Independent	-12.0177
▁observe	-12.0177
▁prematurely	-12.018
▁tightly	-12.0188
▁shy	-12.0193
▁47	-12.0194
▁seiz	-12.02
▁gar	-12.0205
▁cartel	-12.0216
▁fee	-12.0217
▁Child	-12.0229
▁cooling	-12.0235
powered	-12.0238
▁rolled	-12.0248
▁hat	-12.0248
aught	-12.0249
▁math	-12.0258
▁describ	-12.0261
▁190	-12.0263
▁empowering	-12.0264
▁suppressing	-12.0272
hyp	-12.0281
▁fly	-12.0292
▁collecting	-12.0293
itz	-12.0303
starve	-12.0323
pressed	-12.0328
▁Art	-12.036
awa	-12.0363
▁Val	-12.0368
▁55	-12.0375
establish	-12.0384
▁85	-12.0388
▁monument	-12.0398
▁backfire	-12.0403
▁entrench	-12.0408
military	-12.0415
informed	-12.0416
sovereign	-12.0416
▁thorough	-12.0418
legitimiz	-12.0419
How	-12.0423
▁Mill	-12.0427
▁interrupt	-12.0428
▁equat	-12.0428
▁phenomena	-12.0432
▁adamant	-12.0436
▁polite	-12.0436
▁superficial	-12.0436
nunciation	-12.0436
▁1974	-12.0436
▁Azerbaijan	-12.0436
▁Competition	-12.0436
▁Corporate	-12.0436
▁Cypriot	-12.0436
▁Fundamental	-12.0436
▁Gujarat	-12.0436
▁Helsinki	-12.0436
▁Initially	-12.0436
▁Insurance	-12.0436
▁KGB	-12.0436
▁Lithuania	-12.0436
▁Mitchell	-12.0436
▁NTC	-12.0436
▁Nicholas	-12.0436
▁Norwegian	-12.0436
▁Novartis	-12.0436
▁Question	-12.0436
▁Schumpeter	-12.0436
▁Stephen	-12.0436
▁Zuckerberg	-12.0436
▁ceremony	-12.0436
▁crumbling	-12.0436
▁deception	-12.0436
▁deficiency	-12.0436
▁federation	-12.0436
▁intertwined	-12.0436
▁league	-12.0436
▁mafia	-12.0436
▁mathematical	-12.0436
▁nicotine	-12.0436
▁occurrence	-12.0436
▁parochial	-12.0436
▁precision	-12.0436
▁pretext	-12.0436
▁reassess	-12.0436
▁receipts	-12.0436
▁rupee	-12.0436
▁servicing	-12.0436
▁shaky	-12.0436
▁soybean	-12.0436
▁telecom	-12.0436
▁unwise	-12.0436
▁wheel	-12.0436
▁Export	-12.0436
▁guest	-12.0436
▁essay	-12.0436
▁zeal	-12.0436
▁Therefore	-12.0436
▁welcoming	-12.0436
▁forgiveness	-12.0436
▁defuse	-12.0436
▁Bavaria	-12.0436
▁Tusk	-12.0436
▁blend	-12.0436
▁idle	-12.0436
▁railroad	-12.0436
▁cornerstone	-12.0436
▁farther	-12.0436
▁entrust	-12.0436
▁insect	-12.0436
▁scholarship	-12.0436
▁Everything	-12.0436
▁fester	-12.0436
▁orbit	-12.0437
worm	-12.0437
MDG	-12.0437
▁View	-12.0437
▁Albert	-12.0437
▁parliamentarian	-12.0437
▁microeconomic	-12.0437
▁2100	-12.0437
-2007	-12.0438
stein	-12.0438
▁fluid	-12.0438
▁whip	-12.0439
▁settlers	-12.0439
ALI	-12.044
▁humiliated	-12.044
▁raid	-12.0441
▁Rice	-12.0441
▁Jordanian	-12.0442
▁PAS	-12.0442
▁specified	-12.0443
▁Bali	-12.0444
▁viewpoint	-12.0444
▁Basic	-12.0447
▁mob	-12.0447
▁attractiveness	-12.0448
▁cleansing	-12.0448
▁upheld	-12.0448
▁similarities	-12.0449
▁admired	-12.0451
▁biases	-12.0451
▁secularism	-12.0452
▁relaxed	-12.0453
▁deterred	-12.0459
▁deprive	-12.046
▁embarrassing	-12.0462
▁isolationist	-12.0463
▁abruptly	-12.0464
▁stresses	-12.0465
▁restructured	-12.0465
▁vitality	-12.0469
▁sentenced	-12.0473
▁sincere	-12.0474
come	-12.0474
▁spectacularly	-12.0476
▁attained	-12.0482
▁stok	-12.0486
▁reconcil	-12.0502
did	-12.0505
▁converted	-12.0508
macroprudential	-12.0513
cluding	-12.0514
▁separated	-12.0516
▁flooded	-12.0519
▁Sun	-12.0522
▁custom	-12.0522
▁dia	-12.0527
nger	-12.0528
▁pandemic	-12.0529
300	-12.0529
▁horror	-12.0529
▁tree	-12.0529
▁SDG	-12.0531
▁troop	-12.0531
▁separately	-12.0532
▁ethically	-12.0541
▁adversely	-12.0543
▁Nation	-12.0545
▁Westerners	-12.0545
▁definite	-12.0551
▁generational	-12.056
▁spat	-12.0563
▁publishing	-12.0565
KA	-12.0578
▁challenger	-12.058
▁belonging	-12.0619
you	-12.0623
▁tit	-12.0626
▁observ	-12.0642
ference	-12.0669
▁overwhelm	-12.0673
▁$600	-12.0688
oC	-12.0693
▁frighten	-12.07
Russia	-12.0719
▁envision	-12.0721
regulation	-12.0726
hill	-12.0726
neighbor	-12.0728
group	-12.0728
confidence	-12.0728
modern	-12.0728
poverty	-12.0728
because	-12.0728
quantitative	-12.0728
leader	-12.0729
buying	-12.0729
▁cultivate	-12.0734
▁Ran	-12.0734
▁victor	-12.074
AGO	-12.0741
▁totalitarian	-12.0746
▁residu	-12.0748
▁Rapid	-12.0748
▁spontaneous	-12.0748
▁Aleppo	-12.0748
▁Chamber	-12.0748
▁ExxonMobil	-12.0748
▁Lawrence	-12.0748
▁NASA	-12.0748
▁OSCE	-12.0748
▁Politburo	-12.0748
▁Reinhart	-12.0748
▁Salvador	-12.0748
▁abolition	-12.0748
▁auction	-12.0748
▁awkward	-12.0748
▁buried	-12.0748
▁celebrating	-12.0748
▁cherish	-12.0748
▁clothes	-12.0748
▁cohesive	-12.0748
▁conundrum	-12.0748
▁depletion	-12.0748
▁disarray	-12.0748
▁empathy	-12.0748
▁espionage	-12.0748
▁frank	-12.0748
▁generosity	-12.0748
▁humiliating	-12.0748
▁insurmountable	-12.0748
▁intuition	-12.0748
▁mediocre	-12.0748
▁nonsense	-12.0748
▁palace	-12.0748
▁rogue	-12.0748
▁severity	-12.0748
▁speculate	-12.0748
▁strategist	-12.0748
▁suicidal	-12.0748
▁yesterday	-12.0748
▁zombie	-12.0748
Diaoyu	-12.0748
É	-12.0748
▁1.1	-12.0748
▁PLA	-12.0748
▁languish	-12.0748
▁stymie	-12.0748
▁battery	-12.0748
▁histories	-12.0748
▁unprepared	-12.0748
▁0.1%	-12.0748
▁Besides	-12.0748
▁Coast	-12.0748
▁preempt	-12.0748
▁0.3%	-12.0748
▁geostrategic	-12.0748
▁primacy	-12.0748
-1945	-12.0748
▁descent	-12.0748
▁provocative	-12.0748
▁bidding	-12.0748
▁programming	-12.0748
▁relegat	-12.0749
▁Sunday	-12.0749
▁garner	-12.0749
▁recede	-12.0749
▁Abdul	-12.0749
▁glory	-12.0749
▁Biden	-12.0749
▁freshwater	-12.0749
▁cardio	-12.0749
▁EFSF	-12.075
▁27%	-12.075
▁ironically	-12.075
▁beset	-12.075
▁demonetization	-12.075
▁overlap	-12.075
▁ears	-12.075
▁mock	-12.075
▁upswing	-12.075
▁Stern	-12.075
▁varies	-12.075
▁7.5%	-12.0751
▁3.5	-12.0751
▁antitrust	-12.0751
▁renegotiation	-12.0752
▁Nowhere	-12.0752
▁downstream	-12.0752
▁Port	-12.0753
▁hackers	-12.0753
▁Fast	-12.0753
▁complexities	-12.0755
person	-12.0756
▁disabled	-12.0756
▁solvent	-12.0756
▁condemnation	-12.0756
▁Shell	-12.0757
▁homeless	-12.0759
▁Daily	-12.076
host	-12.0761
▁attached	-12.0763
▁mayhem	-12.0763
▁bli	-12.0765
▁breathe	-12.0766
▁189	-12.0771
▁weakest	-12.0771
▁Worldwide	-12.0774
▁charter	-12.0774
trained	-12.0775
ville	-12.0777
▁1.7	-12.0778
▁originate	-12.0782
▁basin	-12.0783
▁Gold	-12.0784
▁youngest	-12.0789
▁slashed	-12.0791
▁habitat	-12.0797
▁pope	-12.08
▁$2.5	-12.0802
arrow	-12.0809
▁pioneered	-12.0816
▁Nord	-12.0821
Do	-12.0826
bla	-12.0832
▁averted	-12.0834
solving	-12.0834
▁appointing	-12.0849
siders	-12.0854
▁airport	-12.0856
denomination	-12.0857
phil	-12.0859
▁recommendation	-12.0859
path	-12.0861
▁boldly	-12.0885
▁nutritional	-12.0899
▁farmer	-12.0915
▁precipitate	-12.0921
▁denominat	-12.0927
▁contemplat	-12.093
▁pop	-12.0938
▁$18	-12.0987
▁choke	-12.0988
▁authentic	-12.0993
▁periodic	-12.1002
seated	-12.1008
▁vaccinat	-12.1038
convenient	-12.1051
SOEs	-12.1051
deflation	-12.1051
rooted	-12.1051
reason	-12.1051
▁advise	-12.1051
ownership	-12.1051
recession	-12.1052
▁invoke	-12.1056
▁displace	-12.1057
Iran	-12.1057
▁invade	-12.1062
about	-12.1064
▁eve	-12.1069
▁appease	-12.1069
▁0.3	-12.1071
-2011	-12.1071
AGEN	-12.1071
è	-12.1071
▁Absent	-12.1071
▁Chechnya	-12.1071
▁External	-12.1071
▁LGBT	-12.1071
▁Mecca	-12.1071
▁Nairobi	-12.1071
▁Namibia	-12.1071
▁OMT	-12.1071
▁Policies	-12.1071
▁Province	-12.1071
▁STOCKHOLM	-12.1071
▁Student	-12.1071
▁Vatican	-12.1071
▁adversary	-12.1071
▁airplane	-12.1071
▁calculus	-12.1071
▁calorie	-12.1071
▁cleavage	-12.1071
▁compulsory	-12.1071
▁cooperating	-12.1071
▁creature	-12.1071
▁dissatisfaction	-12.1071
▁eligibility	-12.1071
▁emergencies	-12.1071
▁eschew	-12.1071
▁evoke	-12.1071
▁harmonization	-12.1071
▁hierarchy	-12.1071
▁intrusive	-12.1071
▁ladder	-12.1071
▁logistical	-12.1071
▁patrol	-12.1071
▁piecemeal	-12.1071
▁psychiatri	-12.1071
▁registration	-12.1071
▁relocate	-12.1071
▁resurgent	-12.1071
▁shark	-12.1071
▁smuggling	-12.1071
▁sophistication	-12.1071
▁stadium	-12.1071
▁supplied	-12.1071
▁tycoon	-12.1071
▁ubiquitous	-12.1071
▁umbrella	-12.1071
▁watchdog	-12.1071
▁Cyber	-12.1071
▁FSB	-12.1071
▁MBS	-12.1071
▁backbone	-12.1071
▁fallacy	-12.1071
▁gravitat	-12.1071
▁invading	-12.1071
▁nerve	-12.1071
▁Watch	-12.1071
▁examining	-12.1071
▁pray	-12.1071
▁partition	-12.1071
▁Cancer	-12.1071
▁Estonia	-12.1071
▁metropolitan	-12.1071
▁Latvia	-12.1071
PENH	-12.1071
▁Victor	-12.1071
▁stewardship	-12.1071
NIA	-12.1071
▁Charlie	-12.1071
VER	-12.1071
▁0.0	-12.1071
▁Valls	-12.1071
▁diesel	-12.1071
▁paramount	-12.1071
▁hydropower	-12.1071
▁Morgan	-12.1071
▁Bengal	-12.1071
▁Access	-12.1071
▁Help	-12.1072
▁reneg	-12.1072
▁1.7%	-12.1072
▁salt	-12.1072
▁1.6%	-12.1072
▁33%	-12.1072
▁37%	-12.1072
▁turnaround	-12.1072
▁Sandy	-12.1072
▁Golden	-12.1073
▁Broad	-12.1073
▁outrageous	-12.1073
▁raging	-12.1073
▁CDS	-12.1074
▁shall	-12.1074
▁Bomb	-12.1075
▁Prior	-12.1075
▁pill	-12.1076
▁Haitian	-12.1076
▁FTA	-12.1076
▁showdown	-12.1078
▁fashionable	-12.1079
▁500,000	-12.108
▁brun	-12.108
▁patriotic	-12.108
▁visitors	-12.1081
hra	-12.1083
▁prescribed	-12.1085
▁Avoid	-12.1086
▁cultivated	-12.1086
▁preparedness	-12.1087
45	-12.1087
▁instantly	-12.1088
Tech	-12.1088
▁navy	-12.1091
▁pitch	-12.1093
▁ethnicity	-12.1095
▁eco	-12.1099
▁lying	-12.1102
▁distracted	-12.1103
▁script	-12.1104
▁confrontational	-12.1107
▁explored	-12.1109
▁Measure	-12.1118
▁apes	-12.1118
udge	-12.112
▁See	-12.1123
▁arrang	-12.1124
▁Spi	-12.1125
▁hampered	-12.1126
▁theater	-12.1127
▁barred	-12.1131
▁wildly	-12.1131
▁immensely	-12.1132
▁printed	-12.1137
▁leaked	-12.1138
▁Aung	-12.1147
▁Come	-12.1148
▁loosening	-12.1155
▁fold	-12.116
▁Fred	-12.1174
▁NGO	-12.1199
▁spar	-12.1201
dragging	-12.1209
▁aides	-12.121
▁Forest	-12.1213
▁precipitat	-12.1223
cell	-12.1225
▁Shar	-12.1249
lud	-12.1252
▁stumble	-12.1254
provoking	-12.1257
▁$250	-12.1263
▁$90	-12.1299
For	-12.1311
▁migrat	-12.1314
▁ICC	-12.132
▁plummet	-12.1329
export	-12.1339
tail	-12.1358
▁striv	-12.136
performance	-12.1361
terestingly	-12.1363
▁Nationalist	-12.1371
search	-12.1381
revolution	-12.1383
word	-12.1384
anticipated	-12.1384
imperial	-12.1384
emerge	-12.1384
Jewish	-12.1384
education	-12.1384
When	-12.1384
▁instant	-12.1387
▁performer	-12.1388
▁gripp	-12.1388
▁jihadi	-12.1391
beat	-12.1392
One	-12.1401
▁cult	-12.1404
▁inhabit	-12.1404
BOUR	-12.1404
▁Ababa	-12.1404
▁Continent	-12.1404
▁Czechoslovakia	-12.1404
▁Keqiang	-12.1404
▁Lincoln	-12.1404
▁Regulation	-12.1404
▁Rohingya	-12.1404
▁Settlements	-12.1404
▁Wahhabi	-12.1404
▁cervical	-12.1404
▁colossal	-12.1404
▁combustion	-12.1404
▁debilitating	-12.1404
▁decarbonization	-12.1404
▁disturbance	-12.1404
▁educators	-12.1404
▁hesitation	-12.1404
▁ingenuity	-12.1404
▁intangible	-12.1404
▁judging	-12.1404
▁maturities	-12.1404
▁pretense	-12.1404
▁securitization	-12.1404
▁stomach	-12.1404
▁surgical	-12.1404
▁BBC	-12.1404
▁BNP	-12.1404
▁Burmese	-12.1404
▁JPMorgan	-12.1404
▁NAM	-12.1404
▁Shenzhen	-12.1404
▁intolerable	-12.1404
▁lottery	-12.1404
▁outstrip	-12.1404
▁photograph	-12.1404
▁proliferate	-12.1404
▁unhealthy	-12.1404
▁beauty	-12.1404
▁glaring	-12.1404
▁refrigerat	-12.1404
▁slope	-12.1404
▁specify	-12.1404
▁Demand	-12.1404
▁sweet	-12.1404
▁abstain	-12.1404
▁Kohl	-12.1404
▁ransom	-12.1404
▁drac	-12.1404
▁Down	-12.1404
▁Malawi	-12.1404
▁Saving	-12.1404
▁Transition	-12.1404
▁flames	-12.1404
▁diversion	-12.1404
▁kingdom	-12.1404
▁($6	-12.1405
▁Joko	-12.1405
▁microfinance	-12.1405
▁Strip	-12.1405
▁1.8	-12.1405
▁Taiwanese	-12.1405
▁copyright	-12.1405
▁rigidities	-12.1405
▁suck	-12.1405
▁patronage	-12.1405
▁Lake	-12.1406
▁Joe	-12.1406
▁41%	-12.1407
▁PPP	-12.1407
▁ignorant	-12.1407
▁2040	-12.1408
▁conditionality	-12.1408
▁polluting	-12.1409
▁joblessness	-12.1409
▁circuit	-12.1409
▁pending	-12.141
▁headway	-12.141
▁gut	-12.141
▁realistically	-12.141
▁hardware	-12.141
▁predictability	-12.1411
hel	-12.1412
▁overshoot	-12.1412
▁correlated	-12.1412
▁Successful	-12.1413
▁LAG	-12.1415
▁degraded	-12.1417
▁besides	-12.1419
contain	-12.1419
▁Carlo	-12.1421
▁lion	-12.1421
▁thereafter	-12.1422
▁restart	-12.1423
▁oneself	-12.1427
▁forcefully	-12.1427
▁formulated	-12.1427
▁investigated	-12.1427
▁Romanian	-12.143
▁Internal	-12.1437
▁$35	-12.1439
▁smallholder	-12.1446
▁stranger	-12.1448
▁detained	-12.145
▁Gul	-12.145
▁van	-12.1452
▁ameliorate	-12.1463
keeper	-12.1474
▁Moral	-12.1488
▁$75	-12.149
yard	-12.1502
▁displayed	-12.1508
payment	-12.1509
mile	-12.151
▁illustrate	-12.1516
▁enlarge	-12.1519
▁seminar	-12.1529
▁trait	-12.1534
▁Maria	-12.1534
▁Addi	-12.1539
▁reclaim	-12.154
▁contender	-12.1544
▁Spa	-12.1558
UN	-12.1569
▁rip	-12.1578
▁$800	-12.1578
▁reorganiz	-12.1597
▁relation	-12.1609
!)	-12.1639
prudential	-12.1641
▁reproduc	-12.1649
otted	-12.1654
emitting	-12.166
▁subsidiz	-12.1692
represented	-12.1695
▁pledg	-12.1707
▁repress	-12.1718
usual	-12.1728
ethnic	-12.1729
increasing	-12.1729
First	-12.1729
ISIS	-12.1729
shift	-12.1729
firm	-12.173
fake	-12.1731
money	-12.1731
named	-12.1741
assurance	-12.1746
▁disseminat	-12.1747
▁Multi	-12.1747
And	-12.1747
▁obstruct	-12.1748
Yes	-12.1748
▁vigor	-12.1748
▁consequent	-12.1748
▁coexist	-12.1748
ó	-12.1749
ATT	-12.1749
disciplinary	-12.1749
mnesty	-12.1749
▁$0.	-12.1749
▁1951	-12.1749
▁1957	-12.1749
▁1969	-12.1749
▁Assistance	-12.1749
▁Cristina	-12.1749
▁Eisenhower	-12.1749
▁Filipino	-12.1749
▁Geert	-12.1749
▁Investing	-12.1749
▁Jonathan	-12.1749
▁Kurdistan	-12.1749
▁Nelson	-12.1749
▁Opportunity	-12.1749
▁Prague	-12.1749
▁Productivity	-12.1749
▁Resistance	-12.1749
▁antagonism	-12.1749
▁anxieties	-12.1749
▁bankruptcies	-12.1749
▁collision	-12.1749
▁educating	-12.1749
▁energetic	-12.1749
▁fracture	-12.1749
▁heterodox	-12.1749
▁ideologue	-12.1749
▁incidence	-12.1749
▁indiscriminate	-12.1749
▁licensing	-12.1749
▁nanotechnology	-12.1749
▁residence	-12.1749
▁steadfast	-12.1749
▁tandem	-12.1749
▁tumultuous	-12.1749
▁unaware	-12.1749
▁uneasy	-12.1749
▁unnecessarily	-12.1749
▁worship	-12.1749
▁Piñera	-12.1749
▁ceremoni	-12.1749
▁commut	-12.1749
▁decimat	-12.1749
▁dominating	-12.1749
▁evict	-12.1749
▁hammer	-12.1749
▁justifiabl	-12.1749
▁pitfalls	-12.1749
▁refute	-12.1749
▁resurrect	-12.1749
▁supplant	-12.1749
▁CBO	-12.1749
▁EMU	-12.1749
▁Negotiat	-12.1749
▁Strait	-12.1749
▁Yukos	-12.1749
▁dismay	-12.1749
creditworthiness	-12.1749
▁crossroads	-12.1749
▁ousted	-12.1749
▁Salman	-12.1749
▁Luther	-12.1749
▁hallmark	-12.1749
▁Macedonia	-12.1749
▁Mauric	-12.1749
▁communal	-12.1749
▁disgrace	-12.1749
▁resounding	-12.1749
HIC	-12.1749
glorious	-12.1749
▁mimic	-12.1749
▁radioactive	-12.1749
▁Lyn	-12.1749
ood	-12.1749
▁analogous	-12.1749
▁dissolution	-12.1749
▁ICTY	-12.1749
▁Gavi	-12.1749
▁undocumented	-12.1749
▁rebate	-12.1749
▁bribery	-12.175
▁editorial	-12.175
▁politicized	-12.175
▁2.2%	-12.175
▁emitted	-12.175
▁Terrorism	-12.1751
▁recurring	-12.1751
enchant	-12.1751
▁800	-12.1752
citing	-12.1752
▁villagers	-12.1752
▁Taj	-12.1752
▁simplify	-12.1752
▁lobbies	-12.1752
olonel	-12.1753
▁stating	-12.1753
▁presumed	-12.1754
▁Hill	-12.1754
▁republican	-12.1754
went	-12.1754
▁deport	-12.1755
▁counteract	-12.1755
▁Kill	-12.1758
▁baseline	-12.1759
▁spawned	-12.1759
▁insulated	-12.1761
▁mentality	-12.1761
▁undu	-12.1762
▁columnist	-12.1763
▁Bear	-12.1767
ác	-12.1767
won	-12.1767
▁hill	-12.1773
▁selfish	-12.1776
▁outlaw	-12.1778
▁envisioned	-12.1779
▁linear	-12.178
▁relaxing	-12.1784
▁featur	-12.1787
▁fiercely	-12.1787
▁tolerated	-12.1788
▁protective	-12.1795
Sisi	-12.1797
▁hired	-12.1799
▁stoked	-12.1799
▁$400	-12.1799
▁bolder	-12.1803
▁businessman	-12.181
▁encountered	-12.181
▁Maoist	-12.1822
▁AV	-12.1828
▁acutely	-12.1834
▁remotely	-12.1835
▁trickle	-12.1843
▁reserved	-12.1851
▁Kon	-12.1862
▁fend	-12.1869
▁commissioned	-12.1869
▁$1.5	-12.1873
▁critic	-12.1877
▁Line	-12.1882
▁cluster	-12.1887
▁competitor	-12.1888
▁corporation	-12.1889
fusing	-12.1891
7,000	-12.1892
▁42	-12.1911
▁130	-12.192
share	-12.1941
▁140	-12.1951
▁revitalize	-12.1975
written	-12.1995
▁Swa	-12.2009
Term	-12.2025
▁700	-12.2042
▁releas	-12.2053
▁falter	-12.2058
▁initiat	-12.2062
▁Fu	-12.207
▁squander	-12.2079
nationalist	-12.2083
▁devis	-12.2085
neutral	-12.2086
amount	-12.2086
foot	-12.2086
NPT	-12.2086
determination	-12.2086
white	-12.2086
learning	-12.2086
positive	-12.2086
process	-12.2086
when	-12.2086
three	-12.2086
mainly	-12.2086
earned	-12.2088
TPP	-12.2089
▁envisage	-12.2091
▁prosecute	-12.2091
▁prescribe	-12.2091
▁column	-12.2092
▁phas	-12.2092
Asian	-12.2093
twithstanding	-12.2094
▁Holland	-12.2095
€	-12.2098
▁Count	-12.2099
hanging	-12.21
▁church	-12.2102
▁bonus	-12.2102
▁orthodox	-12.2103
monetization	-12.2104
▁penetrat	-12.2104
▁premier	-12.2106
▁unwitting	-12.2106
dimensional	-12.2106
▁1944	-12.2106
▁1977	-12.2106
▁Blue	-12.2106
▁Concern	-12.2106
▁Correa	-12.2106
▁Crucially	-12.2106
▁Deflation	-12.2106
▁Different	-12.2106
▁Elizabeth	-12.2106
▁Higgs	-12.2106
▁Nobody	-12.2106
▁Obrador	-12.2106
▁SWFs	-12.2106
▁Sichuan	-12.2106
▁Statistics	-12.2106
▁Tillerson	-12.2106
▁Treasuries	-12.2106
▁Trichet	-12.2106
▁Truth	-12.2106
▁Tuberculosis	-12.2106
▁Vaccine	-12.2106
▁admiration	-12.2106
▁adolescent	-12.2106
▁coherence	-12.2106
▁conquest	-12.2106
▁convertibility	-12.2106
▁dislocation	-12.2106
▁feminist	-12.2106
▁graduation	-12.2106
▁hypothetical	-12.2106
▁identifies	-12.2106
▁inconceivable	-12.2106
▁injuries	-12.2106
▁insurrection	-12.2106
▁intrusion	-12.2106
▁liberated	-12.2106
▁mandarins	-12.2106
▁moribund	-12.2106
▁paraphrase	-12.2106
▁pendulum	-12.2106
▁profligate	-12.2106
▁prominence	-12.2106
▁ramifications	-12.2106
▁relocation	-12.2106
▁repatriate	-12.2106
▁romantic	-12.2106
▁sabotage	-12.2106
▁schoolchildren	-12.2106
▁sinister	-12.2106
▁stroke	-12.2106
▁terrain	-12.2106
[...]
