<pad>	0
<s>	0
</s>	0
<unk>	0
▁	-2.64261
,	-3.27182
的	-3.33769
。	-3.72869
和	-4.16482
、	-4.57427
在	-4.79969
.	-5.12669
年	-5.2175
)	-5.22096
了	-5.26074
(	-5.29572
是	-5.40961
对	-5.60499
月	-5.7437
为	-5.75702
中	-5.7773
人	-5.81193
有	-5.82972
;	-5.83522
/	-5.85353
与	-5.86795
不	-5.88807
:	-5.89668
并	-5.96357
》	-6.01522
《	-6.05624
日	-6.06489
"	-6.07553
将	-6.11509
上	-6.13114
或	-6.2076
以	-6.22742
第	-6.22843
一	-6.24716
委员会	-6.25924
国家	-6.27311
1	-6.28142
性	-6.29638
问题	-6.31503
地	-6.32142
其	-6.35362
提供	-6.37242
所	-6.38507
我	-6.4149
以及	-6.42417
联合国	-6.44279
会	-6.4528
向	-6.49455
国际	-6.49497
就	-6.49943
▁在	-6.49974
时	-6.51489
于	-6.53139
他	-6.53486
而	-6.54396
包括	-6.55453
7	-6.56216
大	-6.57075
进行	-6.5774
8	-6.58219
3	-6.61296
应	-6.61534
报告	-6.61769
关于	-6.6242
6	-6.62962
工作	-6.63122
还	-6.64532
到	-6.64747
说	-6.6533
▁(	-6.65472
你	-6.66695
政府	-6.6738
方案	-6.67727
2	-6.68517
也	-6.68617
可	-6.69169
发展	-6.69305
被	-6.72294
5	-6.73623
9	-6.73925
来	-6.74401
通过	-6.74618
会议	-6.74754
机构	-6.74817
a	-6.74853
及	-6.75352
下	-6.75379
该	-6.75459
组织	-6.77297
一个	-6.78114
者	-6.78268
法	-6.78501
我们	-6.78653
有关	-6.79604
A	-6.80287
这些	-6.80296
4	-6.80825
方面	-6.80984
执行	-6.81651
活动	-6.85073
都	-6.87417
用	-6.89002
多	-6.89109
从	-6.89713
-	-6.9074
出	-6.92343
管理	-6.92351
公约	-6.92722
已	-6.93656
条	-6.93921
需要	-6.941
10	-6.94929
这	-6.95076
妇女	-6.95591
各	-6.95979
后	-6.96228
要	-6.96256
可以	-6.98012
12	-6.98258
没有	-6.98405
使	-6.99261
所有	-6.99804
经济	-6.9989
个	-7.00373
内	-7.01437
国	-7.01717
建议	-7.02146
但	-7.03495
由	-7.03502
?	-7.03906
支持	-7.05393
等	-7.06555
本	-7.06634
社会	-7.07128
名	-7.08886
里	-7.09569
服务	-7.09573
能	-7.11163
他们	-7.11191
项目	-7.1161
分	-7.12172
区域	-7.12243
人权	-7.13034
行动	-7.13506
前	-7.15146
保护	-7.15876
合作	-7.16696
更	-7.17059
必须	-7.17236
措施	-7.17842
尔	-7.20096
安全	-7.2011
促进	-7.20499
着	-7.20914
加强	-7.2148
法律	-7.2179
要求	-7.22009
情况	-7.22825
力	-7.23928
新	-7.24501
外	-7.24611
斯	-7.25358
C	-7.2543
研究	-7.25719
人员	-7.26031
使用	-7.26058
认为	-7.26262
儿童	-7.26622
技术	-7.26754
化	-7.26908
19	-7.26964
无	-7.27007
政策	-7.27048
e	-7.27476
▁我	-7.27547
同	-7.27672
这一	-7.2809
代表	-7.28111
段	-7.29133
计划	-7.29722
根据	-7.2978
大会	-7.30313
教育	-7.30453
它	-7.30622
权	-7.30809
11	-7.30933
·	-7.31412
b	-7.32055
高	-7.32447
决定	-7.32939
之	-7.33222
给	-7.33399
系统	-7.33532
一些	-7.34098
可能	-7.34156
长	-7.34392
把	-7.34678
继续	-7.34862
其他	-7.37269
小	-7.37657
S	-7.37736
作为	-7.37746
至	-7.38188
好	-7.38567
缔约国	-7.38923
c	-7.39292
过	-7.39761
采取	-7.398
P	-7.39801
部	-7.40894
水	-7.41303
规定	-7.41554
▁我们	-7.41763
资源	-7.41765
环境	-7.41814
拉	-7.41946
确保	-7.44037
次	-7.4512
子	-7.45204
家	-7.45231
已经	-7.45272
发	-7.46186
号	-7.47149
)。	-7.47417
▁他	-7.47472
自	-7.4772
见	-7.48736
审查	-7.48799
行	-7.48904
号决议	-7.49336
提出	-7.49562
中国	-7.49603
战略	-7.49777
特	-7.49802
努力	-7.50002
文	-7.5007
非	-7.50211
她	-7.50604
行为	-7.50622
款	-7.51128
实现	-7.51736
实施	-7.51799
先生	-7.5203
最	-7.52436
面	-7.52516
文件	-7.52732
学	-7.52797
事	-7.53112
影响	-7.53307
任何	-7.53608
定	-7.53658
全球	-7.53844
参与	-7.53875
世界	-7.54115
o	-7.54183
i	-7.5492
因为	-7.55176
20	-7.55739
成员	-7.55816
克	-7.55861
受	-7.562
公司	-7.56716
如	-7.57067
很	-7.57267
作出	-7.57695
三	-7.57933
处	-7.57937
部门	-7.58038
生	-7.5908
点	-7.59214
地区	-7.59302
得到	-7.59413
建立	-7.59419
天	-7.59592
去	-7.59677
政治	-7.60108
特别	-7.60482
得	-7.60591
程序	-7.60626
作	-7.60738
协调	-7.60947
美国	-7.61577
15	-7.61641
表示	-7.61759
开展	-7.61839
获得	-7.62129
期	-7.62225
那	-7.62389
审议	-7.62662
▁这	-7.62675
解决	-7.62828
起	-7.62968
主要	-7.63203
体	-7.6321
指出	-7.64224
增加	-7.64229
权利	-7.64366
中心	-7.64638
d	-7.65428
目标	-7.65758
这种	-7.66242
区	-7.66377
物	-7.6651
未	-7.6668
方	-7.67084
调查	-7.6718
处理	-7.67771
利	-7.67844
”	-7.68235
开	-7.68701
支助	-7.68907
成	-7.69402
培训	-7.69644
相关	-7.70789
度	-7.71271
30	-7.71855
各国	-7.72088
s	-7.72119
量	-7.72569
L	-7.72934
信息	-7.73427
和平	-7.73706
此	-7.73991
援助	-7.74173
提交	-7.74328
一项	-7.74533
能够	-7.74776
二	-7.75223
正	-7.75666
加	-7.75732
领域	-7.76247
预算	-7.76495
▁委员会	-7.76907
美元	-7.76982
工作人员	-7.77268
讨论	-7.7728
让	-7.77487
能力	-7.78011
两	-7.78126
标准	-7.78235
进一步	-7.78374
E	-7.78467
同时	-7.78667
比	-7.79158
“	-7.79368
做	-7.79726
海	-7.80157
信	-7.80916
它们	-7.80942
提高	-7.80982
18	-7.8122
员	-7.81247
代表团	-7.81415
届会议	-7.81552
机制	-7.8178
▁--	-7.81813
德	-7.82061
开始	-7.82103
约	-7.82365
行政	-7.82483
间	-7.82673
这个	-7.82886
说明	-7.83112
原则	-7.83149
心	-7.83194
秘书处	-7.83247
入	-7.83248
制定	-7.83367
看	-7.83809
确定	-7.83855
请	-7.84106
利用	-7.84345
表	-7.84404
强调	-7.85228
减少	-7.85236
项	-7.85575
生活	-7.86006
及其	-7.86256
评估	-7.86475
非洲	-7.86653
秘书长	-7.86719
重	-7.86998
期间	-7.87259
正在	-7.8753
率	-7.87793
各种	-7.87982
方法	-7.8803
▁第	-7.88032
制	-7.88068
想	-7.88209
的报告	-7.88301
即	-7.88324
动	-7.88474
基金	-7.88486
总	-7.88512
公	-7.88624
手	-7.88641
主席	-7.8865
联	-7.88757
数	-7.88786
许多	-7.89066
有效	-7.89382
又	-7.89472
其中	-7.89531
13	-7.90015
特别是	-7.90104
制度	-7.91146
分析	-7.91251
小组	-7.9159
马	-7.9176
人民	-7.91779
机	-7.91895
理事会	-7.92007
费用	-7.92367
数据	-7.92858
16	-7.92985
工作组	-7.9317
14	-7.9332
以便	-7.93504
当	-7.93872
资料	-7.94188
方面的	-7.94414
节	-7.94466
发生	-7.94716
具体	-7.9498
电	-7.95343
而且	-7.95514
部分	-7.95747
回	-7.95782
条约	-7.95819
D	-7.95855
贸易	-7.96217
参加	-7.96476
头	-7.96612
充分	-7.96614
道	-7.96765
特派团	-7.96808
的工作	-7.96858
具有	-7.96927
核	-7.9698
I	-7.97373
g	-7.97432
和其他	-7.97542
考虑	-7.9769
第二	-7.97741
文化	-7.97875
希望	-7.97959
关系	-7.9815
金	-7.98664
四	-7.98794
事务	-7.98837
司法	-7.99008
科	-7.99182
17	-7.99276
时间	-7.9948
局	-7.99549
生产	-7.99656
R	-7.99728
重要	-7.99779
家庭	-8.0014
会员国	-8.00159
法院	-8.00327
存在	-8.00539
全面	-8.00791
T	-8.00793
成为	-8.00832
应当	-8.00856
作用	-8.01243
▁一	-8.01301
共同	-8.01351
按照	-8.01371
接受	-8.01816
负责	-8.02236
意	-8.02374
举行	-8.02486
条件	-8.02563
地方	-8.02603
▁A	-8.02605
全	-8.0283
什么	-8.03315
是否	-8.03361
经	-8.03541
▁该	-8.03683
进程	-8.03872
任务	-8.04257
发言	-8.04338
企业	-8.04478
线	-8.0476
因	-8.0483
达	-8.05088
u	-8.05118
自由	-8.05476
▁因此	-8.05557
的人	-8.05868
称	-8.05927
市场	-8.05936
应该	-8.06209
级	-8.06292
之间	-8.06397
t	-8.0643
对于	-8.0723
一种	-8.07307
严重	-8.07417
2008	-8.07442
发展中国家	-8.0774
安全理事会	-8.07808
阿	-8.07839
每	-8.07873
资金	-8.08178
中的	-8.08289
基	-8.08581
受到	-8.08655
转	-8.08797
新的	-8.09313
产生	-8.09321
只	-8.09434
▁此外	-8.0954
投资	-8.09626
合	-8.09707
协助	-8.09765
明	-8.0978
则	-8.09949
进	-8.10047
人口	-8.1023
▁联合国	-8.10266
个人	-8.10279
2005	-8.10313
西	-8.10572
框架	-8.10597
注意到	-8.107
理	-8.10958
承诺	-8.11212
意见	-8.11373
费	-8.11532
列	-8.11562
亚	-8.11581
B	-8.11714
责任	-8.11779
义务	-8.11871
鼓励	-8.11983
军	-8.12033
不能	-8.12375
卡	-8.12451
商	-8.12833
原	-8.13226
选	-8.13352
公共	-8.13379
2010	-8.13481
实	-8.1359
安	-8.13759
控制	-8.13884
车	-8.1396
M	-8.14249
自己	-8.14256
▁如果	-8.14549
格	-8.14592
如果	-8.14947
产	-8.14955
图	-8.15098
2009	-8.15476
团	-8.15624
监测	-8.15871
帮助	-8.15987
2006	-8.15993
欢迎	-8.16264
2007	-8.16623
如何	-8.1669
巴	-8.168
犯罪	-8.1703
布	-8.17059
▁关于	-8.17167
并且	-8.17234
▁这些	-8.17319
安排	-8.17323
部队	-8.17349
业务	-8.17522
用于	-8.17546
以色列	-8.17665
p	-8.17773
再	-8.17919
日第	-8.17988
方式	-8.18147
不同	-8.18662
的问题	-8.18699
冲突	-8.18752
流	-8.18777
就是	-8.1886
结果	-8.18954
件	-8.19093
纳	-8.19356
改革	-8.19356
收	-8.19487
协定	-8.19734
带	-8.19767
组	-8.19815
设立	-8.19819
办法	-8.2036
▁你	-8.20392
21	-8.20422
职	-8.2043
健康	-8.20532
打	-8.21338
相	-8.21399
草案	-8.21641
情	-8.21659
目的	-8.21678
报	-8.21684
!	-8.22119
接	-8.22246
涉及	-8.22499
50	-8.22604
25	-8.22744
an	-8.22769
的国家	-8.22772
语	-8.2282
目前	-8.22821
选举	-8.22937
国内	-8.23115
运	-8.23252
吗	-8.2327
位	-8.23283
气	-8.23352
2004	-8.23428
维	-8.23665
批准	-8.23684
按	-8.23686
0	-8.23688
空	-8.24299
完成	-8.24951
指	-8.25069
身	-8.25286
走	-8.25297
器	-8.2535
h	-8.25621
决议	-8.2563
日至	-8.25749
歧视	-8.2576
种	-8.25781
▁2.	-8.25862
人们	-8.26009
2011	-8.26311
挑战	-8.2646
主	-8.26468
▁“	-8.26473
第一	-8.26632
y	-8.26717
民	-8.26992
当局	-8.27346
由于	-8.27625
一次	-8.27653
决议草案	-8.27805
书	-8.27917
或者	-8.27925
周	-8.28235
业	-8.28551
现在	-8.28582
军事	-8.2873
爱	-8.2879
教	-8.28841
成果	-8.28957
深	-8.28992
立法	-8.28994
形式	-8.29204
第三	-8.29205
交	-8.29287
N	-8.29394
万	-8.29565
取得	-8.29673
办事处	-8.29877
东	-8.30024
单	-8.30076
专家	-8.30249
那些	-8.30389
金融	-8.30478
);	-8.30524
南	-8.30692
市	-8.30814
因此	-8.30916
仍	-8.31039
收入	-8.31158
他的	-8.31315
注意	-8.3149
2000	-8.31792
状况	-8.32073
欧洲	-8.32134
路	-8.32151
限	-8.32313
美	-8.32412
卫生	-8.32432
类	-8.32498
改善	-8.3252
表明	-8.32586
一切	-8.32665
基础	-8.32668
罗	-8.327
离	-8.32802
f	-8.32821
场	-8.32837
占	-8.32934
出现	-8.33176
老	-8.3318
联合	-8.33261
积极	-8.33354
之后	-8.33556
31	-8.33709
▁根据	-8.33744
工	-8.33766
五	-8.33806
采用	-8.3385
以下	-8.33899
预防	-8.33978
er	-8.34026
F	-8.3405
2003	-8.34261
尼	-8.34342
适当	-8.34616
k	-8.34785
22	-8.34885
问题的	-8.3508
财政	-8.35208
n	-8.35219
取	-8.35412
光	-8.35441
基本	-8.35519
规划	-8.35554
结构	-8.35562
派	-8.35617
消除	-8.35749
独立	-8.3595
武器	-8.36022
24	-8.36053
案件	-8.36084
综合	-8.36413
▁1.	-8.36855
2002	-8.3721
限制	-8.37231
解	-8.37347
仍然	-8.37439
23	-8.37444
额	-8.37616
2012	-8.37618
1.	-8.37686
性别	-8.37723
法庭	-8.37725
/2	-8.37748
极	-8.37961
关注	-8.38071
社区	-8.38104
听	-8.38284
案	-8.38285
]	-8.38471
稳定	-8.38573
警察	-8.38626
之前	-8.38824
真	-8.38979
色	-8.39208
非政府组织	-8.39444
反	-8.39524
们	-8.39643
造成	-8.39652
除	-8.39732
无法	-8.39783
评价	-8.39821
28	-8.40268
重申	-8.40811
机会	-8.40829
禁止	-8.40912
增	-8.41361
字	-8.41373
六	-8.41413
谈判	-8.41693
均	-8.41791
病	-8.41903
难民	-8.42131
ar	-8.42238
层	-8.42339
几	-8.42406
风险	-8.42662
产品	-8.42788
口	-8.428
现有	-8.42823
▁《	-8.43013
防止	-8.43045
供	-8.43049
银行	-8.4317
提	-8.43204
界	-8.43306
▁但是	-8.43552
范围	-8.43725
指导	-8.43814
▁-	-8.43828
提出的	-8.43829
的权利	-8.4402
型	-8.44027
才	-8.44132
办公室	-8.44247
品	-8.44283
O	-8.44433
27	-8.44541
各项	-8.44598
全国	-8.44765
通	-8.44765
米	-8.44788
内容	-8.4479
非常	-8.44828
最近	-8.44829
领土	-8.44848
l	-8.4487
开发	-8.45053
这项	-8.45086
政	-8.45156
针对	-8.45278
有关的	-8.45284
共和国	-8.45314
▁本	-8.4543
直接	-8.45516
同意	-8.45583
之间的	-8.45718
务	-8.459
▁她	-8.45913
但是	-8.46026
效	-8.46149
增长	-8.46233
常	-8.46267
一份	-8.46306
安理会	-8.46367
需求	-8.46381
的影响	-8.46394
因素	-8.46412
联系	-8.46884
复	-8.47191
远	-8.47221
▁对	-8.47267
▁他们	-8.47415
像	-8.4754
60	-8.47562
▁3.	-8.47566
2001	-8.47927
低	-8.48012
住	-8.48022
太	-8.48051
感	-8.48203
哈	-8.48348
申请	-8.48551
26	-8.48554
议程	-8.48751
实际	-8.48797
两个	-8.48807
代	-8.49044
的情况	-8.49051
.1	-8.49072
司	-8.49139
缔约方	-8.49367
选择	-8.49452
城市	-8.49525
▁B	-8.49551
40	-8.49559
门	-8.4959
民主	-8.49901
近	-8.49908
了解	-8.49983
巴勒斯坦	-8.50004
这样	-8.5002
山	-8.50086
最后	-8.5033
热	-8.50463
r	-8.50525
请求	-8.50596
履行	-8.50604
1999	-8.50648
监督	-8.50703
▁它	-8.5085
成功	-8.50987
长期	-8.50989
▁但	-8.51049
运动	-8.51102
G	-8.51207
不是	-8.51282
%	-8.51292
一直	-8.51295
发现	-8.51345
保障	-8.51415
却	-8.51494
重新	-8.51731
推动	-8.51746
导致	-8.51807
网络	-8.51979
29	-8.52082
证	-8.5213
变	-8.52178
附件	-8.52405
强	-8.52647
打击	-8.5266
呼吁	-8.52796
非法	-8.53028
结束	-8.53038
送	-8.5311
协议	-8.53212
论坛	-8.53303
边	-8.53341
on	-8.53357
章	-8.53409
)、	-8.53455
夫	-8.53489
国际社会	-8.53506
放	-8.53711
收到	-8.5382
省	-8.53869
雷	-8.53924
▁*	-8.53973
设计	-8.54076
对话	-8.54173
总统	-8.54281
网	-8.54302
保证	-8.54391
符合	-8.54402
调	-8.54499
视	-8.54521
威胁	-8.54547
地位	-8.54571
明确	-8.54575
某些	-8.54637
规则	-8.54665
扩大	-8.54852
不会	-8.55027
管	-8.55218
al	-8.55239
平等	-8.55295
减	-8.55336
儿	-8.55348
林	-8.5536
纳入	-8.55414
人道主义	-8.5547
2.	-8.55866
一般	-8.55887
完全	-8.56004
制订	-8.56054
材料	-8.56123
尤其是	-8.56147
遵守	-8.56168
承认	-8.5625
女	-8.5629
议程项目	-8.56318
传	-8.5651
你的	-8.56586
2013	-8.56599
伊拉克	-8.56697
谈	-8.56961
1998	-8.56994
考虑到	-8.57033
事件	-8.57173
阶段	-8.57226
土地	-8.57353
股	-8.57402
持续	-8.57629
in	-8.57868
花	-8.57884
声	-8.57902
上述	-8.58082
发挥	-8.58098
保持	-8.58243
进展	-8.58355
署	-8.58405
您	-8.5849
一致	-8.58645
利益	-8.58741
是一个	-8.58972
任	-8.59001
较	-8.5901
问	-8.59149
违反	-8.59175
记录	-8.59223
危机	-8.59446
必要	-8.59618
3.	-8.5975
公民	-8.59763
▁请	-8.5978
事项	-8.59894
面临	-8.59949
现	-8.5998
K	-8.59985
▁4.	-8.60093
咨询	-8.60102
式	-8.6012
科学	-8.60147
普	-8.60185
学校	-8.60192
然	-8.60349
人的	-8.60368
条款	-8.60429
结	-8.60445
少	-8.60487
统计	-8.60683
大学	-8.60771
恐怖主义	-8.60939
设施	-8.60953
举行的	-8.60995
下列	-8.61109
▁然而	-8.61183
准备	-8.61222
员额	-8.61358
十	-8.61409
知道	-8.61813
保健	-8.61896
/1	-8.61947
之一	-8.6198
暴力	-8.62037
北	-8.62076
份	-8.62097
经验	-8.62491
不断	-8.62493
协商	-8.62843
质	-8.6295
战	-8.63011
适用	-8.63104
在其	-8.63267
计	-8.63301
自己的	-8.63554
我的	-8.63643
可持续发展	-8.63732
重点	-8.63764
加入	-8.63811
重大	-8.64016
集	-8.64017
财务	-8.64153
该国	-8.64362
合同	-8.64413
次会议	-8.64479
火	-8.64483
只有	-8.64818
空间	-8.64845
关切	-8.64847
进行了	-8.6486
属	-8.65158
值	-8.65211
来自	-8.65363
就业	-8.65395
营	-8.65499
提供了	-8.65666
岁	-8.65757
程度	-8.65832
审	-8.65877
感到	-8.65892
届	-8.65907
▁”	-8.6595
联合国系统	-8.6609
▁S	-8.6625
整个	-8.66363
当地	-8.66423
从而	-8.66461
集团	-8.66542
事实	-8.66661
共	-8.66677
设备	-8.66695
en	-8.66865
风	-8.66882
日本	-8.67028
4.	-8.67194
恢复	-8.67207
词	-8.67234
塞	-8.67239
致	-8.6726
▁由于	-8.67322
质量	-8.67432
波	-8.67598
的建议	-8.6775
原因	-8.67755
成员国	-8.67813
内部	-8.68042
州	-8.6805
正式	-8.68064
临时	-8.68069
部长	-8.68073
便	-8.68129
预	-8.68203
变化	-8.68351
以来	-8.68452
准则	-8.68475
普遍	-8.6853
首	-8.68572
萨	-8.68584
Add	-8.68677
查	-8.68709
学生	-8.68744
确认	-8.68763
V	-8.68768
的规定	-8.68769
设	-8.68806
宪法	-8.6889
▁5.	-8.68975
议定书	-8.69174
宣言	-8.69177
台	-8.69391
年度	-8.69401
新闻	-8.69413
清	-8.69442
维持	-8.69494
水平	-8.69536
平	-8.69823
知识	-8.69978
早	-8.7
先	-8.70041
改进	-8.70196
伙伴关系	-8.70228
反对	-8.70443
▁000	-8.70578
更加	-8.70885
拥有	-8.71047
一样	-8.71052
联盟	-8.71242
出口	-8.71269
站	-8.71412
工具	-8.71418
例如	-8.71464
切	-8.71704
建	-8.71969
规定的	-8.72011
人类	-8.7204
的主要	-8.7215
片	-8.72155
立	-8.72181
应用	-8.72252
解释	-8.72303
改	-8.72403
一级	-8.72409
你们	-8.72459
标	-8.72466
尊重	-8.72744
经费	-8.72745
海洋	-8.73208
应对	-8.73404
编	-8.73585
演	-8.73656
▁会议	-8.73666
过去	-8.739
官员	-8.74025
▁国际	-8.74086
的作用	-8.74246
回顾	-8.74569
的一个	-8.7457
元	-8.74606
贡献	-8.74874
没	-8.74898
本国	-8.74979
保留	-8.74982
支	-8.7499
农业	-8.75146
旨在	-8.75268
达到	-8.75273
介绍	-8.75385
法官	-8.7546
假	-8.75486
更多	-8.75564
文书	-8.75635
同样	-8.75653
显示	-8.75732
局势	-8.75781
编写	-8.75853
这是	-8.76073
▁为	-8.7624
未来	-8.76246
助	-8.76494
工业	-8.76679
干	-8.76744
资产	-8.76764
主义	-8.76787
人数	-8.76848
▁通过	-8.76883
令	-8.77054
难	-8.77164
球	-8.77177
做出	-8.77209
有助于	-8.77333
宗教	-8.7734
密	-8.77441
危险	-8.77506
两年期	-8.77513
落实	-8.77716
队	-8.77741
简	-8.77797
存	-8.77837
宣传	-8.7791
特别报告员	-8.77911
通知	-8.78011
女士	-8.78037
付	-8.78042
保	-8.78067
留	-8.78074
00	-8.78179
价值	-8.78207
国际法	-8.78345
专	-8.78409
装	-8.78448
写	-8.78486
价	-8.78645
精	-8.78694
构成	-8.78758
结论	-8.78791
还是	-8.79052
达成	-8.79053
倡议	-8.79139
票	-8.79231
条第	-8.79344
的所有	-8.79425
的能力	-8.7954
初	-8.79587
每个	-8.79625
优先	-8.79733
实体	-8.79812
油	-8.7984
▁M	-8.79934
编制	-8.79947
需	-8.80039
伊	-8.80136
印度	-8.80148
带来	-8.80163
传统	-8.80262
令人	-8.80299
关	-8.80429
▁大会	-8.80445
黑	-8.8045
青年	-8.80474
导	-8.80477
证明	-8.8056
样	-8.80659
居	-8.80707
拘留	-8.80766
登记	-8.80834
算	-8.80997
刑事	-8.81051
备	-8.81059
管制	-8.81211
做法	-8.81313
审计	-8.8132
死	-8.81462
上的	-8.81556
分配	-8.81644
现象	-8.81657
▁国家	-8.81798
很多	-8.81823
m	-8.81839
微	-8.81868
商业	-8.81921
条例	-8.81963
指标	-8.8201
协会	-8.82078
获	-8.82269
办	-8.82279
受害者	-8.82293
杀	-8.82307
的活动	-8.82411
领导	-8.82425
1997	-8.82455
姆	-8.82465
紧急	-8.82487
还有	-8.82493
▁C	-8.82573
的法律	-8.82586
引	-8.8264
形	-8.82756
访问	-8.82848
支付	-8.82932
他们的	-8.8294
九	-8.82943
民族	-8.82989
基于	-8.83042
调整	-8.83156
艾滋病	-8.83333
士	-8.83393
给予	-8.83477
声明	-8.83502
[	-8.83523
医疗	-8.83539
伤	-8.83632
奥	-8.83667
一名	-8.83671
托	-8.83693
进入	-8.83712
运输	-8.83721
曾	-8.8375
改变	-8.83861
提交人	-8.83936
院	-8.8394
缺乏	-8.83966
罪	-8.84003
知	-8.84117
总部	-8.84185
专业	-8.84655
1996	-8.85019
广泛	-8.85406
反映	-8.85428
注	-8.85476
列入	-8.85507
过程	-8.85568
厅	-8.85687
班	-8.85751
例	-8.85808
落	-8.85913
活	-8.85944
电子	-8.85959
照	-8.86105
手段	-8.86177
w	-8.86406
▁为了	-8.86446
享有	-8.86456
精神	-8.86483
.2	-8.86699
的时候	-8.86774
伙伴	-8.86927
别	-8.87093
白	-8.87111
观	-8.87169
70	-8.87313
议会	-8.87367
H	-8.87432
论	-8.87467
经常	-8.87471
价格	-8.87545
理由	-8.87696
组成	-8.87823
都是	-8.87839
话	-8.87849
钱	-8.87887
今天	-8.88059
允许	-8.88083
满足	-8.88147
讲	-8.88167
创造	-8.88238
兰	-8.88254
签署	-8.88433
多边	-8.8854
酷刑	-8.88564
来说	-8.88626
最大	-8.88661
并不	-8.88671
z	-8.88976
W	-8.89064
起来	-8.89102
;(	-8.89135
排	-8.89157
有些	-8.8917
补充	-8.89181
机关	-8.89251
▁尽管	-8.8926
犯	-8.89277
▁6.	-8.89288
宣布	-8.89336
可持续	-8.89582
船	-8.89589
数量	-8.89612
提出了	-8.89768
若干	-8.89824
房	-8.89874
裁军	-8.89894
授权	-8.90005
瓦	-8.90076
望	-8.90106
下午	-8.9012
能源	-8.90213
超过	-8.90218
群	-8.9025
提议	-8.9025
成立	-8.90413
联邦	-8.90433
交流	-8.90488
财产	-8.90489
的情况下	-8.90581
第四	-8.90594
必	-8.90617
载	-8.90711
防	-8.90912
的方式	-8.90991
看到	-8.91011
以上	-8.91067
认识	-8.9113
半	-8.91184
实行	-8.91233
土著	-8.91328
配	-8.91372
行动计划	-8.91411
提到	-8.91595
也是	-8.91858
服	-8.91932
高级	-8.91984
那么	-8.91989
来源	-8.92036
所以	-8.92081
塔	-8.922
职业	-8.92233
养	-8.92268
大量	-8.92281
修订	-8.92316
艾滋病毒	-8.92579
关键	-8.92703
英	-8.92809
建设	-8.93217
了一个	-8.93245
历史	-8.93299
为此	-8.93377
交易	-8.93453
困难	-8.93574
换	-8.93843
各方	-8.93848
决策	-8.939
法国	-8.94003
支出	-8.94027
1995	-8.94386
大多数	-8.94508
女性	-8.94519
意义	-8.94535
加拿大	-8.94595
单位	-8.94598
采购	-8.94921
如此	-8.94962
检查	-8.94964
免	-8.95005
言	-8.95079
求	-8.95102
职能	-8.95267
我国	-8.95277
移民	-8.95304
学习	-8.95361
阿富汗	-8.95488
连	-8.95587
相互	-8.95633
警	-8.95642
索	-8.95878
失	-8.9597
生物	-8.96056
十年	-8.96117
另一	-8.96156
修	-8.96287
un	-8.96705
J	-8.96762
越	-8.96859
含	-8.96868
吧	-8.97041
而言	-8.97067
情况下	-8.97071
发表	-8.97071
音	-8.97087
赔偿	-8.97109
王	-8.9716
阿拉伯	-8.97209
大会第	-8.97224
待	-8.97233
尽	-8.97367
or	-8.97403
呢	-8.97529
副	-8.97681
权力	-8.97709
债务	-8.97783
统一	-8.97833
证据	-8.97868
官	-8.98008
境内	-8.98051
往	-8.98191
是在	-8.98201
万美元	-8.98205
过程中	-8.98247
然后	-8.98528
差	-8.98544
工作的	-8.9857
索赔	-8.98608
特殊	-8.98609
不可	-8.98668
三个	-8.98679
避免	-8.9874
地点	-8.98881
神	-8.98882
效率	-8.9911
核心	-8.99212
▁—	-8.99279
号决定	-8.99342
苏丹	-8.99382
救	-8.9939
2014	-8.99412
重要的	-8.99493
亿美元	-8.99519
治疗	-8.99542
压	-8.998
的发展	-8.99999
驻	-9.00047
纽约	-9.00048
容	-9.00281
满	-9.00319
仅	-9.00437
感谢	-9.0053
成本	-9.00553
创	-9.00687
100	-9.0079
收集	-9.0085
具	-9.00938
估计	-9.01061
所载	-9.01136
森林	-9.01215
一定	-9.01303
属于	-9.01376
架	-9.01525
十分	-9.01588
0.	-9.0169
张	-9.017
模式	-9.01735
增强	-9.01744
拟订	-9.01795
据	-9.0196
自愿	-9.01983
石	-9.02003
今后	-9.02184
如下	-9.02265
48	-9.02283
素	-9.02369
社	-9.02394
吃	-9.024
贫困	-9.02594
》(	-9.02595
通常	-9.02596
竞争	-9.02666
▁7.	-9.02702
千	-9.02746
能力建设	-9.02768
损失	-9.02785
再次	-9.02788
观察员	-9.02818
题为	-9.02875
尽管	-9.02945
▁虽然	-9.03149
只是	-9.032
程	-9.03221
奇	-9.03241
主管	-9.03258
▁政府	-9.03273
述	-9.03285
尚未	-9.03305
库	-9.03317
我们的	-9.03323
直	-9.03373
快	-9.03417
优	-9.03442
维护	-9.03458
每年	-9.03518
专门	-9.0353
80	-9.03575
另外	-9.03601
七	-9.03614
税	-9.037
▁当	-9.03776
超	-9.03781
勒	-9.03795
加以	-9.03839
从事	-9.03866
害	-9.03984
沙	-9.03991
媒体	-9.03994
群体	-9.04032
体制	-9.04043
附	-9.04047
X	-9.04075
资	-9.04107
承担	-9.04143
的各项	-9.04174
55	-9.0426
残疾人	-9.04283
目	-9.04306
德国	-9.04324
▁秘书长	-9.04329
族	-9.04354
传播	-9.04515
党	-9.0464
最终	-9.04719
课程	-9.04813
步骤	-9.04902
▁这种	-9.04945
既	-9.04974
▁将	-9.05025
步	-9.05117
公平	-9.05136
详细	-9.05174
es	-9.05261
敦促	-9.05366
专题	-9.05394
领	-9.05483
答复	-9.05483
象	-9.05529
师	-9.05806
抗	-9.05935
欧	-9.06074
所述	-9.06093
定期	-9.06121
计算	-9.06165
退	-9.06209
通过了	-9.06238
侵犯	-9.06275
孩子	-9.06524
担任	-9.06604
血	-9.06608
依照	-9.06642
罪行	-9.06656
工程	-9.0667
保险	-9.06705
部署	-9.0672
电话	-9.06749
议	-9.06874
底	-9.06979
比例	-9.07122
零	-9.07197
记	-9.07202
推	-9.07227
第六	-9.07393
眼	-9.07423
客	-9.07546
认识到	-9.07618
决	-9.07643
身份	-9.07713
1993	-9.07882
占领	-9.07916
▁其他	-9.0809
试	-9.08096
料	-9.08391
5%	-9.08437
诉讼	-9.08438
的资料	-9.08442
拟议	-9.0861
举办	-9.08755
v	-9.08801
这类	-9.09
几个	-9.09012
比较	-9.09039
语言	-9.09061
造	-9.09071
抵	-9.09159
境	-9.09364
告诉	-9.09385
公开	-9.09574
喜欢	-9.09596
▁主席	-9.09676
批	-9.09698
为了	-9.09767
反应	-9.0979
35	-9.09795
最不发达国家	-9.09799
劳动	-9.09818
不足	-9.09837
58	-9.09865
的信息	-9.10009
八	-9.10074
义	-9.10115
并在	-9.10282
生命	-9.10355
古巴	-9.10443
57	-9.10444
其它	-9.10457
予以	-9.10532
曼	-9.10532
香港	-9.10575
商定	-9.10644
续	-9.10645
终	-9.10792
核武器	-9.10903
双	-9.10979
规	-9.11027
召开	-9.11031
▁个	-9.1106
亲	-9.11067
45	-9.11139
以前	-9.11189
67	-9.11204
训练	-9.11365
基础设施	-9.11409
断	-9.11411
过渡	-9.1144
绝	-9.1152
各国政府	-9.11529
贫穷	-9.11558
障碍	-9.11674
愿	-9.11788
迅速	-9.11874
公众	-9.11915
整	-9.12081
至少	-9.12094
药	-9.1211
el	-9.12121
主题	-9.12128
百	-9.12244
将在	-9.12277
英国	-9.12307
古	-9.12345
座	-9.12412
移徙	-9.12422
欧洲联盟	-9.12544
执行情况	-9.12605
治	-9.1261
室	-9.12629
借	-9.12662
引起	-9.12681
49	-9.12713
)(	-9.12754
▁从	-9.12757
经济及社会理事会	-9.12758
黎巴嫩	-9.12795
轮	-9.12827
气候变化	-9.1288
缩	-9.12885
有权	-9.12948
律师	-9.13041
毒	-9.13049
范围内	-9.13241
跟	-9.13328
准	-9.13357
▁8.	-9.13373
源	-9.13461
圣	-9.13465
的任何	-9.13485
城	-9.13493
依据	-9.13553
她们	-9.13581
运作	-9.13628
易	-9.13813
其中包括	-9.13834
90	-9.13847
不要	-9.13853
农	-9.13883
甚至	-9.13965
药物	-9.14008
此类	-9.14019
顾问	-9.14038
核准	-9.1405
归	-9.14096
数字	-9.1418
59	-9.14281
的其他	-9.14311
am	-9.14334
迫	-9.14336
板	-9.14392
概念	-9.14417
有人	-9.14445
体系	-9.14627
不仅	-9.14652
日内瓦	-9.14671
不得	-9.14678
观点	-9.14771
酒	-9.14924
短	-9.15046
须	-9.15181
任命	-9.15202
破坏	-9.15232
剂	-9.1527
日在	-9.15296
随	-9.15315
趋势	-9.15401
37	-9.1542
相信	-9.15443
岛	-9.15588
重视	-9.1559
一位	-9.15601
领域的	-9.15648
农村	-9.15683
示	-9.15803
河	-9.15923
红	-9.16076
表现	-9.16095
居民	-9.16256
举	-9.16265
战争	-9.16369
团体	-9.1645
"。	-9.16604
理解	-9.16852
):	-9.16883
▁D	-9.1691
物质	-9.16973
双方	-9.17072
的努力	-9.17101
激	-9.17124
录	-9.17327
立即	-9.174
击	-9.17427
的目标	-9.17566
首脑会议	-9.17594
亚洲	-9.17608
的话	-9.17821
预期	-9.1785
才能	-9.17868
政策和	-9.17901
定义	-9.17984
邀请	-9.18049
有效的	-9.18054
的第	-9.1806
贝	-9.18132
销	-9.18135
众	-9.18136
国民	-9.18151
复杂	-9.18177
建筑	-9.18184
网站	-9.1822
恩	-9.18241
转让	-9.183
▁这个	-9.18333
各个	-9.1843
一起	-9.18431
56	-9.18459
平民	-9.18479
举措	-9.18538
U	-9.18573
住房	-9.1865
外国	-9.18666
游	-9.18714
澳大利亚	-9.18723
划	-9.18893
除了	-9.18907
最高	-9.18947
余	-9.19019
似乎	-9.19032
出席	-9.19054
控	-9.19134
性质	-9.19186
合理	-9.19186
死亡	-9.19465
必要的	-9.19489
自然	-9.19513
吉	-9.1952
77	-9.19544
扩散	-9.19595
确	-9.19658
33	-9.19691
真正	-9.19697
本报告	-9.19704
53	-9.19718
粮食	-9.19796
.4	-9.19867
磋商	-9.19997
读	-9.20016
首先	-9.20074
盟	-9.201
次会议上	-9.20185
as	-9.2023
遭受	-9.20248
私	-9.20262
职位	-9.20313
散	-9.20344
个月	-9.20385
公正	-9.20496
的任务	-9.20516
降低	-9.20552
邮	-9.20572
包	-9.2059
分别	-9.20601
补	-9.20675
供应	-9.20688
麻	-9.20744
预计	-9.21003
星	-9.21014
本组织	-9.21086
相关的	-9.21109
▁目前	-9.21124
65	-9.21262
树	-9.21284
外交	-9.21295
▁[	-9.21335
指控	-9.21352
国际组织	-9.21553
47	-9.21702
的重要	-9.21732
朋友	-9.21845
命	-9.22086
另	-9.2216
▁9.	-9.22189
墨西哥	-9.22197
东西	-9.22228
合法	-9.22254
埃	-9.22295
▁最后	-9.22297
和发展	-9.22326
货	-9.22344
汇	-9.22541
及时	-9.22651
迪	-9.22658
适用于	-9.22687
▁在这方面	-9.22707
福利	-9.22838
买	-9.22879
起诉	-9.22974
民间社会	-9.23135
庭	-9.23228
实质性	-9.23307
乐	-9.23324
征	-9.23357
的新	-9.23513
发出	-9.23523
行使	-9.23611
损害	-9.23614
木	-9.23635
印	-9.23637
平均	-9.23692
停	-9.2374
弹	-9.23818
38	-9.23832
鱼	-9.23998
辩论	-9.24065
高级别	-9.24103
36	-9.24163
华	-9.24175
威	-9.24177
63	-9.24225
在内的	-9.24234
寻求	-9.24244
延	-9.24248
的重要性	-9.24266
紧	-9.24334
愿意	-9.24352
贸发会议	-9.24371
j	-9.24382
制造	-9.24392
审判	-9.24494
西班牙	-9.2454
叫	-9.24622
晚	-9.24657
世	-9.24727
目的是	-9.24728
力量	-9.24749
:“	-9.2479
日期	-9.24826
适当的	-9.24836
货币	-9.24886
ch	-9.24894
足	-9.25001
典	-9.2503
校	-9.25087
广	-9.25099
类似	-9.25161
——	-9.25165
采	-9.25174
34	-9.2539
洛	-9.25427
轻	-9.25471
码	-9.25478
当前	-9.25543
.3	-9.25638
的行为	-9.25684
ri	-9.25808
巴西	-9.25877
一年	-9.25927
资助	-9.25955
第五	-9.25963
来文	-9.26147
疑	-9.26256
时候	-9.26283
生效	-9.26287
随着	-9.26579
非正式	-9.26661
适应	-9.26685
守	-9.26829
订	-9.26853
以确保	-9.26953
拒绝	-9.26962
第十	-9.26988
下降	-9.27153
疾病	-9.27173
航	-9.27175
负	-9.27184
商品	-9.2719
开发署	-9.27215
明显	-9.27275
更多的	-9.27329
报告中	-9.2736
妇	-9.27555
莱	-9.27618
何	-9.27693
缔约方会议	-9.277
捐款	-9.27767
'	-9.2782
指定	-9.27893
残	-9.28109
上诉	-9.28152
灾	-9.28234
哥	-9.28293
这里	-9.28335
各级	-9.28437
温	-9.28457
告	-9.28466
形成	-9.28526
禁	-9.28527
39	-9.28595
介绍了	-9.28734
脑	-9.28755
皮	-9.28766
清单	-9.2886
工人	-9.28927
有必要	-9.29031
个国家	-9.29052
怎么	-9.29242
专家组	-9.2929
▁不过	-9.2929
聚	-9.29302
贩运	-9.29419
旅	-9.29572
提交的	-9.29601
到了	-9.29618
几乎	-9.29681
哪	-9.29708
索马里	-9.29786
探讨	-9.29841
穿	-9.29946
笔	-9.2998
32	-9.29983
000	-9.29987
良	-9.29989
虽然	-9.30003
她的	-9.30064
而不是	-9.30155
儿童基金会	-9.30236
土著人民	-9.30236
中央	-9.30258
re	-9.3027
’	-9.30312
礼	-9.30426
的代表	-9.30451
赛	-9.30472
捐助	-9.30492
▁E	-9.30508
找	-9.30545
▁10.	-9.30562
年龄	-9.3058
ra	-9.30583
施	-9.30606
第二十	-9.30627
64	-9.30726
特定	-9.30745
一般性	-9.30805
土	-9.30849
相当	-9.31066
有限	-9.31083
请秘书长	-9.31128
人士	-9.31135
系	-9.3117
那样	-9.31211
在此	-9.31288
讲习班	-9.31308
蒙	-9.31335
对其	-9.31344
鲁	-9.31382
66	-9.31441
福	-9.31512
且	-9.31515
委	-9.31542
射	-9.31595
飞机	-9.31601
毛	-9.31832
刑	-9.31912
域	-9.31992
卫	-9.32007
事情	-9.32008
采取行动	-9.32095
找到	-9.32101
68	-9.32181
▁例如	-9.32248
51	-9.32312
土耳其	-9.32321
承	-9.32408
那个	-9.32436
认	-9.32456
题	-9.32575
全部	-9.3264
有所	-9.32763
一系列	-9.32793
参	-9.32875
也不	-9.32912
容易	-9.32962
61	-9.33027
在这方面	-9.33068
干事	-9.33164
根	-9.33296
园	-9.33331
at	-9.33431
日益	-9.33456
上午	-9.33464
最新	-9.33476
食	-9.33481
与会者	-9.3349
种族	-9.33546
构	-9.33625
赫	-9.33782
▁据	-9.33805
接触	-9.33844
飞	-9.33875
拿	-9.33926
可能会	-9.33968
异	-9.33971
草	-9.3398
的机会	-9.33983
修改	-9.34023
富	-9.34101
足够	-9.34125
藏	-9.34134
咨询委员会	-9.34194
46	-9.34303
的决定	-9.34353
残疾	-9.34556
名单	-9.34584
的意见	-9.34605
缴	-9.34722
之外	-9.34729
职责	-9.34842
诺	-9.34877
领导人	-9.3511
提案	-9.35147
遗	-9.3518
造成的	-9.35184
时期	-9.35204
本身	-9.35224
致力于	-9.35445
平衡	-9.35542
护	-9.35565
矿	-9.35683
私营部门	-9.35756
数额	-9.35804
筹备	-9.35806
巨大	-9.35909
流动	-9.36077
投	-9.36136
巴基斯坦	-9.36177
CN	-9.36182
店	-9.36314
货物	-9.36454
国际合作	-9.3649
角	-9.36529
密切	-9.36541
无论	-9.36545
评论	-9.36675
往往	-9.3669
欧盟	-9.36751
小时	-9.36768
与发展	-9.36777
此种	-9.36844
44	-9.36892
外地	-9.36898
投票	-9.369
创新	-9.36943
主权	-9.37034
俄罗斯联邦	-9.37046
经过	-9.37061
it	-9.37077
撤	-9.37119
世纪	-9.37141
至关重要	-9.37198
销售	-9.37303
任择议定书	-9.3745
不同的	-9.37489
今年	-9.37527
苏	-9.37535
的方法	-9.37569
表决	-9.3761
政府间	-9.37825
所涉	-9.3795
技术援助	-9.3798
筹资	-9.38013
开放	-9.38033
优先事项	-9.38037
人权委员会	-9.38115
良好	-9.38266
意大利	-9.38273
秘书	-9.38311
1990	-9.38313
英语	-9.38323
停止	-9.38427
监狱	-9.38516
坐	-9.38764
南非	-9.38782
的合作	-9.38842
62	-9.3885
急	-9.3887
行动纲领	-9.38874
后续行动	-9.38923
越来越	-9.38932
若	-9.38942
蒂	-9.38952
乱	-9.38957
处于	-9.39098
这样的	-9.39103
便利	-9.39107
会议室	-9.39113
第七	-9.39134
有可能	-9.39183
最低	-9.39241
我想	-9.39243
块	-9.39282
集中	-9.39349
用户	-9.39362
尤其	-9.39409
模	-9.39411
的时间	-9.39467
果	-9.39495
▁11.	-9.39519
跨	-9.39535
截至	-9.39561
的一部分	-9.40079
兵	-9.40095
伯	-9.40119
意味着	-9.40174
埃及	-9.40176
积	-9.40264
错	-9.40359
人口基金	-9.4039
▁决议	-9.40452
升	-9.40467
污染	-9.4049
小组委员会	-9.40654
什	-9.40695
两性平等	-9.40701
出来	-9.40801
谨	-9.40874
双边	-9.40946
以外	-9.40958
研讨会	-9.41176
立场	-9.41236
研究所	-9.41303
▁G	-9.41381
将其	-9.41485
▁现在	-9.41504
以后	-9.41524
美洲	-9.41535
婚	-9.41543
恶	-9.41654
各自	-9.41724
那里	-9.41822
▁H	-9.42065
北京	-9.42178
函	-9.42267
离开	-9.4227
在本	-9.42277
制裁	-9.42337
拟	-9.42363
句	-9.42389
压力	-9.42408
数目	-9.42436
.5	-9.42518
瑞士	-9.42542
大约	-9.42546
秘书长关于	-9.42579
武装冲突	-9.4259
总体	-9.42632
偏	-9.42786
敌	-9.42835
版	-9.42964
500	-9.43014
规范	-9.43074
2015	-9.43079
顿	-9.43106
虐待	-9.43109
损	-9.43183
理论	-9.43405
镇	-9.4348
套	-9.43495
主任	-9.43598
执法	-9.43675
增进	-9.43681
即使	-9.43904
人权理事会	-9.44049
暴	-9.44242
亿	-9.44297
善	-9.44309
冷	-9.44356
季	-9.44557
贷款	-9.44714
▁12.	-9.44735
益	-9.44969
卢旺达	-9.44987
▁这是	-9.45107
一下	-9.45162
街	-9.45225
交通	-9.45259
伦	-9.45337
剧	-9.45349
le	-9.45553
户	-9.45588
所作的	-9.45627
谋	-9.45629
破	-9.45631
为什么	-9.45702
69	-9.45764
症	-9.4612
概	-9.4615
排放	-9.46178
工作方案	-9.4628
主持	-9.46305
资本	-9.46315
通信	-9.46321
ro	-9.46348
访	-9.46402
完	-9.46583
延长	-9.46597
父母	-9.46634
千年发展目标	-9.46637
is	-9.46689
序	-9.46891
切实	-9.47085
后果	-9.47131
就会	-9.47135
很大	-9.47137
食物	-9.47206
1992	-9.47221
ic	-9.47318
预测	-9.47376
大部分	-9.47503
随后	-9.47519
助理	-9.47723
待遇	-9.47773
测	-9.47839
男子	-9.47908
降	-9.47913
经营	-9.47923
治理	-9.47931
案文	-9.47999
缺	-9.48052
获取	-9.4815
98	-9.48178
吸	-9.48254
刻	-9.48258
觉得	-9.48344
一条	-9.48354
刚果民主共和国	-9.48371
42	-9.48443
固	-9.48511
私人	-9.48542
武装	-9.48614
势	-9.48654
联络	-9.48809
结合	-9.48822
将会	-9.48832
盘	-9.48881
进口	-9.48894
博	-9.49006
移	-9.49025
汽车	-9.49066
不到	-9.49216
43	-9.49241
根本	-9.49268
的结果	-9.49319
惊	-9.49342
电视	-9.49381
思	-9.49457
账户	-9.49462
替代	-9.49498
科索沃	-9.49516
笑	-9.49537
审计委员会	-9.49622
评	-9.49637
技能	-9.49781
历	-9.49785
互	-9.49786
相同	-9.49988
课	-9.49998
资格	-9.50022
表达	-9.50031
状态	-9.50036
严	-9.50056
52	-9.50071
科威特	-9.5012
所需	-9.50202
倒	-9.50256
医	-9.50266
静	-9.50416
化学	-9.50444
维也纳	-9.50574
最好	-9.5065
仲裁	-9.50756
海地	-9.50774
烟	-9.5078
的执行情况	-9.50816
陆	-9.50968
枪	-9.51021
200	-9.51027
打算	-9.51058
置	-9.51147
攻击	-9.51246
申诉	-9.51257
诚	-9.51329
息	-9.51417
试验	-9.51502
供资	-9.51577
追	-9.51591
也许	-9.51592
影	-9.51605
裁	-9.51626
谁	-9.51665
临时议程	-9.51675
▁13.	-9.51691
第一次	-9.51733
希	-9.51773
享受	-9.51789
org	-9.51831
中东	-9.51847
▁鉴于	-9.52038
母亲	-9.52099
清楚	-9.52115
途径	-9.52246
馆	-9.52272
研	-9.52288
75	-9.52336
观察	-9.52342
法治	-9.52367
捕	-9.5245
ur	-9.52511
严格	-9.52539
这次	-9.52612
修正	-9.52624
一点	-9.5277
态	-9.52785
期限	-9.52954
规模	-9.52956
环	-9.53328
作了	-9.53389
景	-9.53485
消	-9.53507
54	-9.53526
适	-9.53597
有一个	-9.53758
国籍	-9.53759
判	-9.54009
贵	-9.54093
另一个	-9.54127
旅行	-9.54272
安保	-9.54287
遭到	-9.5441
掉	-9.54452
介	-9.54465
讯	-9.54471
酌情	-9.54477
*	-9.54513
判决	-9.54665
母	-9.54676
未能	-9.54682
经济和社会	-9.54699
不应	-9.54723
所列	-9.54753
重建	-9.54858
及其他	-9.5498
男女	-9.55029
▁14.	-9.55074
持	-9.55101
袭击	-9.55102
启动	-9.55117
li	-9.55197
正常	-9.55199
是一种	-9.55364
阿根廷	-9.55404
签	-9.5547
速	-9.55472
信托基金	-9.55483
分发	-9.55499
石油	-9.5552
卖	-9.5552
客户	-9.55575
提及	-9.55693
▁1994	-9.55738
利比里亚	-9.55756
41	-9.55805
胜	-9.55811
更新	-9.55853
兼	-9.55858
脆弱	-9.55858
餐	-9.55886
航空	-9.55895
沉	-9.56
劳	-9.56004
ha	-9.56064
将继续	-9.56071
检察官	-9.56134
状	-9.56255
剥夺	-9.56256
发布	-9.56306
荷兰	-9.56378
当然	-9.5647
女孩	-9.5648
类型	-9.56541
俄罗斯	-9.56542
方针	-9.56555
道路	-9.56571
维持和平行动	-9.56647
特别代表	-9.56695
唯一	-9.56744
的做法	-9.56763
人力资源	-9.56782
大使	-9.56794
初步	-9.56799
查明	-9.56843
背景	-9.56875
指南	-9.56887
效果	-9.569
封	-9.56951
挪威	-9.5703
卷	-9.5707
卫星	-9.57093
哥伦比亚	-9.57115
消费	-9.57142
外部	-9.5716
不再	-9.57162
公布	-9.57217
村	-9.57231
对此	-9.57237
x	-9.57304
租	-9.57355
在第	-9.57379
完整	-9.57457
露	-9.57564
美利坚合众国	-9.57659
展	-9.5767
的基本	-9.57679
ol	-9.57698
投入	-9.57848
缓	-9.57923
脱	-9.58009
这个问题	-9.58068
松	-9.58095
om	-9.5816
数据库	-9.58164
画	-9.58194
使其	-9.58306
违	-9.58316
用途	-9.58382
杰	-9.58571
集体	-9.58625
南部	-9.58713
弗	-9.58742
态度	-9.58748
转移	-9.58757
。”	-9.58779
宽	-9.5886
印度尼西亚	-9.5888
同一	-9.58945
实际上	-9.58997
维持和平	-9.59075
武	-9.59089
起草	-9.59195
刑法	-9.59208
徒	-9.59239
许	-9.59263
甲	-9.59452
原子能机构	-9.59458
育	-9.59462
提请	-9.59516
行业	-9.59583
高度	-9.59584
会议上	-9.59614
代理	-9.59625
年期间	-9.59651
废物	-9.59772
大家	-9.59814
摩	-9.5997
坏	-9.59984
常驻	-9.60069
1991	-9.60113
工资	-9.6015
夜	-9.60243
曲	-9.60342
宜	-9.60397
堂	-9.60429
现实	-9.605
是个	-9.60515
现金	-9.60594
动物	-9.60744
莫	-9.60764
伊朗	-9.60812
撒	-9.60817
特别是在	-9.60912
功能	-9.60969
边界	-9.61001
倍	-9.6101
▁15.	-9.61042
食品	-9.61045
著	-9.61051
----	-9.61052
协作	-9.61119
液	-9.61133
的责任	-9.61294
居住	-9.61372
放在	-9.61406
会计	-9.61448
阵	-9.61524
下来	-9.6165
牌	-9.61728
幸	-9.61728
有效地	-9.61792
帕	-9.61802
共同体	-9.61949
港	-9.6205
止	-9.62067
额外	-9.62071
团结	-9.6208
变得	-9.62355
包含	-9.62416
方向	-9.62421
化学品	-9.62522
某	-9.62531
de	-9.62602
并将	-9.62665
核查	-9.62678
开发计划署	-9.62691
la	-9.62719
不过	-9.62764
医生	-9.62769
诉	-9.62832
刚	-9.62897
当时	-9.62973
之下	-9.62974
高兴	-9.63049
页	-9.63099
科特迪瓦	-9.63164
独	-9.63249
报道	-9.63264
举行了	-9.6328
科技	-9.63416
净	-9.63517
歌	-9.63565
安全理事会第	-9.63626
逮捕	-9.63736
号决议第	-9.63984
学院	-9.64033
展开	-9.64099
ou	-9.641
瑞典	-9.6413
野	-9.64147
心理	-9.64159
折	-9.64168
次级方案	-9.64283
失业	-9.64295
持久	-9.64465
订正	-9.6455
通报	-9.64582
星期	-9.64591
专员	-9.6461
遗憾	-9.64637
总额	-9.6475
▁16.	-9.64789
侧	-9.64792
取得了	-9.64847
种族主义	-9.6488
十二	-9.64942
不受	-9.64999
旧	-9.65024
登	-9.65046
书面	-9.65082
友	-9.65093
灵	-9.65197
奖	-9.65225
些	-9.65238
购	-9.65249
简单	-9.65271
坚持	-9.65275
联合王国	-9.65277
黄	-9.65277
返回	-9.65352
种族歧视	-9.65364
每天	-9.65371
语文	-9.65383
特别委员会	-9.65468
都有	-9.65493
探	-9.65501
毒品	-9.6567
总是	-9.65671
实践	-9.65694
营养	-9.65724
满意	-9.65738
ah	-9.65794
艺术	-9.65854
所有国家	-9.65861
这一点	-9.65985
st	-9.65998
广泛的	-9.66063
丹	-9.66074
软件	-9.66139
援	-9.66142
正确	-9.66221
指示	-9.66265
载于	-9.66282
苦	-9.66369
建设和平	-9.66372
子女	-9.66385
一天	-9.6641
拨	-9.66415
采取措施	-9.66454
伊斯兰	-9.6646
哪些	-9.6648
最佳	-9.66498
透	-9.66561
ti	-9.66766
特设	-9.66769
主席团	-9.66786
误	-9.66833
ad	-9.66878
现行	-9.66902
频	-9.66943
错误	-9.66966
更为	-9.6707
候选人	-9.67071
仅仅	-9.67126
执行局	-9.67135
常设	-9.67204
多数	-9.6723
弱	-9.67252
差异	-9.67348
久	-9.67387
倾	-9.67447
争取	-9.67477
智	-9.67501
利益攸关方	-9.67525
地球	-9.67572
依然	-9.67617
工发组织	-9.67628
检	-9.67638
酸	-9.67653
乌克兰	-9.67701
着重	-9.67709
术	-9.67749
特点	-9.67756
工作队	-9.67833
技术合作	-9.67835
裁决	-9.67878
模型	-9.67909
购买	-9.67933
森	-9.67935
受益	-9.6796
赞赏	-9.67983
主流	-9.68115
杜	-9.6813
这么	-9.68226
慢	-9.6828
予	-9.683
难以	-9.68433
觉	-9.68496
1994	-9.68579
法规	-9.68586
审议了	-9.68615
儿童权利	-9.68846
宪章	-9.68859
身体	-9.68872
参考	-9.68875
可靠	-9.69018
更好地	-9.69022
尚	-9.69028
层面	-9.69049
使得	-9.69129
遭	-9.69352
向大会	-9.69407
侵	-9.69546
付款	-9.69606
地雷	-9.69637
玩	-9.69668
楼	-9.69692
只要	-9.69713
牛	-9.69895
担保	-9.69905
或其他	-9.70043
丽	-9.70047
建立一个	-9.70085
▁17.	-9.70113
以期	-9.70152
显然	-9.70163
对妇女	-9.70194
全世界	-9.70198
普通	-9.70231
值得	-9.70265
事务部	-9.70296
发达国家	-9.70432
上升	-9.70447
扎	-9.70585
透明度	-9.70597
试图	-9.70673
强制	-9.70689
测试	-9.70711
是因为	-9.70724
分享	-9.70795
颁布	-9.7092
我要	-9.7093
新西兰	-9.70931
逃	-9.7097
分类	-9.70995
这一问题	-9.71
相比	-9.71032
全球化	-9.7107
累	-9.71093
雅	-9.71109
细	-9.71131
的关键	-9.71335
气候	-9.71375
默	-9.71421
念	-9.71421
脚	-9.7145
▁委员会还	-9.71519
ed	-9.71523
递	-9.71594
参加了	-9.71616
铁	-9.71626
太平洋	-9.71635
载有	-9.71669
伤害	-9.71734
相对	-9.71751
出版	-9.71798
难民署	-9.71798
监	-9.7183
睡	-9.71848
强迫	-9.71958
灭	-9.71976
il	-9.72179
容忍	-9.72201
相应	-9.72262
味	-9.72266
考	-9.72282
医院	-9.72287
吁请	-9.72305
冲	-9.72314
毁	-9.72355
情报	-9.72392
号文件	-9.72444
的基础上	-9.7245
进步	-9.72474
非洲联盟	-9.72548
差距	-9.72561
-2	-9.72586
依赖	-9.72612
(1)	-9.72656
兴	-9.72755
▁18.	-9.7277
干预	-9.72833
中期	-9.7291
尽可能	-9.73071
基金会	-9.73132
体育	-9.73176
迈	-9.73182
us	-9.7322
之中	-9.73231
法令	-9.73261
并没有	-9.73305
快速	-9.73476
雇员	-9.73477
习	-9.73505
塞浦路斯	-9.73563
梅	-9.73566
劳工组织	-9.73574
97	-9.73582
任期	-9.73709
有利于	-9.73716
吸引	-9.73727
津贴	-9.73746
尼日利亚	-9.73839
组成部分	-9.73876
教师	-9.7395
充	-9.7399
有时	-9.74189
第二次	-9.74205
端	-9.74221
并非	-9.74248
况	-9.74276
将于	-9.74277
第四十	-9.74347
感染	-9.74347
这样做	-9.74365
年代	-9.74396
世界银行	-9.74411
条规定	-9.74421
摘要	-9.74425
现代	-9.74437
父亲	-9.74548
失踪	-9.74582
300	-9.74664
每一	-9.74697
摩洛哥	-9.74759
分子	-9.74854
回答	-9.74856
年以来	-9.74856
采取了	-9.74864
埃塞俄比亚	-9.75038
朗	-9.75108
-1	-9.75141
所需的	-9.7522
赞扬	-9.75276
燃料	-9.7534
遇到	-9.75396
乡	-9.75474
不知道	-9.75712
教学	-9.75849
跨国	-9.75891
管辖	-9.75901
布隆迪	-9.7598
否	-9.76025
逐步	-9.76093
宣	-9.76109
性别平等	-9.76124
志愿	-9.76165
框架内	-9.76183
-3	-9.76225
争	-9.76231
自治	-9.76245
显	-9.76247
雨	-9.76365
拟定	-9.76456
车辆	-9.76535
os	-9.76538
岸	-9.76562
旅游	-9.76666
机构间	-9.76688
思想	-9.76703
效力	-9.7671
塞拉利昂	-9.7676
暴力行为	-9.76795
灾害	-9.76816
信任	-9.76864
盖	-9.76895
朝	-9.76901
防治	-9.7692
透明	-9.76926
押	-9.76955
爆炸	-9.77013
自动	-9.77048
and	-9.77054
72	-9.77054
成就	-9.77064
速度	-9.77077
肉	-9.77102
缘	-9.77119
取消	-9.77136
废	-9.77179
洗	-9.77182
决心	-9.77211
▁19.	-9.77314
计算机	-9.7734
交换	-9.77736
一家	-9.77843
法案	-9.77863
负担	-9.77894
东帝汶	-9.77928
潜在	-9.77934
监管	-9.78102
贯	-9.78261
Y	-9.78377
替	-9.78575
恐怖	-9.78581
略	-9.78601
多少	-9.78753
故	-9.78791
增加了	-9.78834
只能	-9.78855
就此	-9.78874
不可能	-9.78877
婚姻	-9.7889
灵活	-9.78913
所有人	-9.78968
隐	-9.79048
与其他	-9.79081
戈	-9.79125
军队	-9.79251
始	-9.79367
用来	-9.79423
面对	-9.79485
暴力侵害	-9.79517
储存	-9.79523
伙	-9.79535
泰国	-9.79551
菲律宾	-9.79576
合并	-9.7963
社会发展	-9.79653
操作	-9.79694
感觉	-9.79737
面前	-9.79778
联合国宪章	-9.79838
十五	-9.79844
材	-9.79916
背	-9.79918
环境署	-9.79993
男性	-9.80059
减轻	-9.80103
诸如	-9.80151
其他国家	-9.80204
在一起	-9.80208
强烈	-9.80221
原因是	-9.80225
阻碍	-9.80312
希腊	-9.80333
惩罚	-9.80427
裂	-9.80451
啊	-9.80465
制止	-9.80515
出版物	-9.80528
96	-9.80553
除非	-9.80693
开支	-9.80781
特征	-9.8085
靠	-9.80944
后续	-9.80978
日期间	-9.81036
跑	-9.81065
卢	-9.81088
暗	-9.81219
平台	-9.81249
▁20.	-9.81391
全体	-9.8146
习惯	-9.81462
-4	-9.81463
亦	-9.81488
角度	-9.81529
青少年	-9.81815
委会	-9.81851
AC	-9.81938
舞	-9.82031
生殖	-9.82041
经历	-9.82056
死刑	-9.82096
》、《	-9.82096
迟	-9.82175
赋予	-9.82204
单独	-9.82255
7%	-9.82369
te	-9.82508
免费	-9.82547
忍	-9.8257
染	-9.82581
确实	-9.82606
男	-9.82628
扫	-9.82652
II	-9.82697
担心	-9.82711
两年	-9.8273
丝	-9.8274
迁	-9.82798
奥地利	-9.8281
推进	-9.82813
该区域	-9.82898
争端	-9.8296
3%	-9.83011
玛	-9.83057
记者	-9.83068
箱	-9.83101
坦	-9.83104
即将	-9.83161
出生	-9.83245
业绩	-9.83381
是为了	-9.83383
厂	-9.83418
三年	-9.83447
么	-9.83491
肯定	-9.83529
仪	-9.8354
烈	-9.83657
输	-9.8366
「	-9.83756
饮	-9.8379
场所	-9.83805
」	-9.83893
侵犯人权	-9.83915
比赛	-9.84018
谷	-9.84018
丁	-9.84051
滥用	-9.84116
推广	-9.84301
装置	-9.84359
▁21.	-9.84371
腐败	-9.84383
因而	-9.84415
建立了	-9.84435
位置	-9.84455
责	-9.84569
滑	-9.8461
事业	-9.84705
链	-9.84747
大规模	-9.8478
阿塞拜疆	-9.84798
准确	-9.84826
顾	-9.84836
纪念	-9.84899
经济增长	-9.84902
麦	-9.8502
去年	-9.851
取得的进展	-9.85144
衣	-9.85212
得以	-9.85309
申诉人	-9.85316
et	-9.85422
牙	-9.85455
电影	-9.85456
刚果	-9.85475
定期报告	-9.85503
阿尔及利亚	-9.85512
青	-9.8553
ir	-9.85532
意识	-9.85532
史	-9.856
解决办法	-9.85706
少数	-9.85867
周期	-9.8595
夏	-9.85954
暂	-9.85957
缅甸	-9.86017
稿	-9.86023
叙利亚	-9.86048
休	-9.86071
汉	-9.86071
剥削	-9.86108
...	-9.86181
讨论会	-9.86181
问题上	-9.86243
招	-9.86322
顶	-9.8635
调动	-9.86467
智利	-9.86489
证实	-9.86552
药品	-9.86596
肯尼亚	-9.8673
类别	-9.86744
ay	-9.86796
这些国家	-9.86796
生育	-9.86896
国防	-9.86997
被告	-9.87042
命令	-9.87048
督	-9.87086
抱	-9.871
未经	-9.87122
有力	-9.87166
役	-9.87191
弃	-9.87232
促请	-9.87236
赞同	-9.8725
战斗	-9.87292
加勒比	-9.87355
2%	-9.87402
家庭暴力	-9.8743
ta	-9.87494
氯	-9.87529
四个	-9.87764
帮	-9.87827
制作	-9.87897
www	-9.87944
地理	-9.87975
效益	-9.88002
硬	-9.88132
幅	-9.88137
体现	-9.88259
彻底	-9.88306
扣	-9.88332
际	-9.88332
联合会	-9.88338
冰	-9.88374
克罗地亚	-9.8839
雇	-9.88493
释放	-9.88638
毫	-9.88805
▁22.	-9.89004
突出	-9.89006
乌干达	-9.89091
议题	-9.89189
答	-9.89241
约束	-9.89342
反恐	-9.8938
惩	-9.89392
墙	-9.89423
CO	-9.89464
以往	-9.89543
惠	-9.89629
痛	-9.89646
.1)	-9.89666
段中	-9.8974
适合	-9.89743
实地	-9.89777
薪	-9.89786
融资	-9.89812
格鲁吉亚	-9.89816
梦	-9.89849
谴责	-9.89856
整体	-9.8989
成绩	-9.89911
以英语发言	-9.89969
专门机构	-9.89985
协调员	-9.90077
估计数	-9.90118
救济	-9.90128
认可	-9.90265
饭	-9.90389
伴	-9.90466
浪	-9.90472
径	-9.90491
今	-9.90498
几年	-9.9052
坚	-9.90528
凡	-9.90558
辞	-9.90606
马来西亚	-9.90622
末	-9.90649
也没有	-9.90666
凯	-9.90704
龙	-9.90744
8%	-9.90745
田	-9.90767
小型	-9.90864
紧张	-9.90941
纪	-9.90965
学家	-9.90985
审理	-9.91
自身	-9.9104
欧元	-9.91077
多种	-9.91132
波兰	-9.91136
纸	-9.91304
寻找	-9.91315
消息	-9.91339
丹麦	-9.91396
贫	-9.91406
证人	-9.91459
大幅	-9.91477
骨	-9.91539
顺	-9.91578
给我	-9.91746
促使	-9.91794
6%	-9.91871
附件一	-9.91876
对象	-9.91876
深入	-9.91895
验	-9.91938
自我	-9.91961
时代	-9.91994
驱逐	-9.92067
▁23.	-9.92185
依	-9.92258
注册	-9.92273
音乐	-9.92286
99	-9.92463
连续	-9.9247
阐述	-9.92482
世界上	-9.92735
飞行	-9.9276
年底	-9.92843
一部分	-9.92913
一旦	-9.92923
取决于	-9.92957
妨碍	-9.92977
巩固	-9.93284
毫无	-9.93309
菲	-9.93332
策	-9.93363
艾	-9.93543
常常	-9.93561
床	-9.93577
偿	-9.93597
通讯	-9.93626
400	-9.93753
涵盖	-9.93934
很好	-9.94013
估	-9.94047
刊	-9.94084
4%	-9.94136
分钟	-9.94149
英文	-9.94209
后来	-9.94217
别人	-9.9422
直到	-9.94337
得出	-9.94398
律	-9.944
运行	-9.94402
ov	-9.94411
五年	-9.94411
▁24.	-9.94413
齐	-9.9446
议员	-9.94536
十三	-9.94562
旋	-9.9457
荒漠化	-9.94578
手册	-9.94588
圆	-9.94636
官方	-9.94668
回应	-9.94704
次区域	-9.94725
敏感	-9.9473
怕	-9.94755
im	-9.94829
受理	-9.94836
虚	-9.94878
芬兰	-9.94883
电脑	-9.94938
武装部队	-9.94983
永远	-9.95005
债	-9.95006
总理	-9.9502
讨论了	-9.9506
执行主任	-9.95066
一体化	-9.95072
海关	-9.95117
族裔	-9.95119
国集团	-9.95142
第八	-9.95197
悲	-9.95278
ul	-9.95338
附近	-9.95468
显著	-9.9556
失去	-9.95647
道德	-9.95669
曾经	-9.95786
叶	-9.95965
职务	-9.96092
有利	-9.96117
练	-9.96122
儿子	-9.96209
多个	-9.96221
这两个	-9.96228
物品	-9.96257
劳工	-9.96299
欣	-9.9631
马里	-9.96349
确立	-9.96428
县	-9.96465
湖	-9.96515
1%	-9.96538
宝	-9.96554
款项	-9.96586
细则	-9.96612
十七	-9.96612
大陆	-9.96686
烧	-9.96741
约旦	-9.96749
返	-9.96782
最佳做法	-9.96786
细胞	-9.96821
译	-9.96952
实验	-9.96986
怎样	-9.97023
放弃	-9.97088
融入	-9.97109
爱尔兰	-9.97126
争议	-9.9717
概述	-9.97193
极端	-9.97221
十八	-9.9723
经济发展	-9.97237
人权高专办	-9.97309
副主席	-9.97359
秩序	-9.97367
例子	-9.97367
位于	-9.97395
信息技术	-9.97405
白俄罗斯	-9.97424
让我	-9.97471
脸	-9.97481
乌	-9.9751
香	-9.97556
钢	-9.97641
扰	-9.97649
补救	-9.97679
大韩民国	-9.97681
储	-9.97709
常驻联合国代表	-9.97736
生物多样性	-9.97747
视为	-9.97818
加快	-9.97854
(2)	-9.97892
这些问题	-9.97967
捐助者	-9.98027
Z	-9.98048
阻	-9.98248
跳	-9.98285
患	-9.98344
软	-9.98401
迷	-9.98468
喜	-9.98647
执	-9.9922
翻	-9.9929
屋	-9.99349
览	-9.99681
闭	-10.0035
菜	-10.0047
忙	-10.0078
沃	-10.0084
志	-10.0096
沿	-10.0112
乘	-10.0116
临	-10.0119
窗	-10.0128
避	-10.0224
欠	-10.0244
符	-10.0275
佩	-10.029
聘	-10.033
偷	-10.0335
碳	-10.0338
炸	-10.0351
彩	-10.0353
围	-10.0355
兹	-10.0358
册	-10.0368
龄	-10.0395
舍	-10.0398
阶	-10.042
姐	-10.0437
遇	-10.0456
涨	-10.0466
抽	-10.0467
鉴	-10.0483
灯	-10.0486
氧	-10.0505
爾	-10.0509
誉	-10.0519
辆	-10.0534
穆	-10.0538
泰	-10.0552
孤	-10.0553
拍	-10.0567
醉	-10.0584
碎	-10.06
妥	-10.0612
诸	-10.0637
售	-10.0643
佛	-10.0653
辩	-10.0662
籍	-10.0664
粉	-10.0669
混	-10.0704
癌	-10.0723
污	-10.0726
献	-10.073
耶	-10.0732
姓	-10.0735
俄	-10.0749
宗	-10.0756
协	-10.0787
篇	-10.0805
虫	-10.0808
峰	-10.0831
胡	-10.0837
扶	-10.0857
浓	-10.0898
播	-10.0903
孕	-10.0948
乳	-10.0958
绩	-10.0968
察	-10.0981
怪	-10.0986
荣	-10.0988
账	-10.1009
寄	-10.1015
拜	-10.1041
候	-10.1044
乔	-10.1073
蓝	-10.1079
赤	-10.1094
艰	-10.1115
镜	-10.1119
喝	-10.1138
>	-10.1142
帐	-10.1156
盲	-10.1158
敬	-10.1178
奶	-10.1195
呈	-10.1216
雪	-10.1222
菌	-10.1225
谢	-10.1235
邻	-10.1278
戴	-10.1296
亡	-10.1296
李	-10.1309
席	-10.1319
燃	-10.1363
杯	-10.1432
q	-10.1453
幕	-10.1455
京	-10.1479
纯	-10.151
摄	-10.1531
稳	-10.1544
隔	-10.1587
春	-10.159
伸	-10.1615
宫	-10.162
旁	-10.1657
佣	-10.1658
危	-10.1663
祖	-10.1694
巨	-10.1698
突	-10.1719
汤	-10.173
繁	-10.1742
似	-10.1756
触	-10.1763
启	-10.1797
昂	-10.1803
吨	-10.1842
挂	-10.1856
拖	-10.187
桥	-10.1873
抓	-10.1874
赶	-10.1909
亮	-10.1918
币	-10.1944
识	-10.1961
担	-10.1966
遵	-10.1978
桌	-10.199
_	-10.2003
牧	-10.2003
讨	-10.2026
仿	-10.2033
宁	-10.2038
嫌	-10.2066
怀	-10.2076
杂	-10.2084
罚	-10.2142
奋	-10.2186
唱	-10.2187
霍	-10.2189
阴	-10.219
跌	-10.2221
竟	-10.2224
鼠	-10.2228
恐	-10.2265
陈	-10.2269
童	-10.2343
堡	-10.237
湾	-10.238
冒	-10.2397
薄	-10.2403
挑	-10.2406
填	-10.2427
廉	-10.2434
狗	-10.2435
烦	-10.2454
伟	-10.2468
阳	-10.2473
呼	-10.2484
扬	-10.2488
尤	-10.2499
涉	-10.2518
财	-10.2519
娜	-10.2532
池	-10.2558
贸	-10.2561
辛	-10.2581
继	-10.2583
Q	-10.2612
皇	-10.262
國	-10.2621
塑	-10.2629
袋	-10.2643
址	-10.2661
肥	-10.2664
弄	-10.2681
侦	-10.2695
桑	-10.2715
诊	-10.2731
范	-10.2745
振	-10.2746
尾	-10.2754
奉	-10.277
耐	-10.2781
旗	-10.2786
洋	-10.2819
途	-10.2828
申	-10.2835
叙	-10.2837
钟	-10.2856
鲜	-10.2866
脏	-10.2871
於	-10.2892
煤	-10.29
汞	-10.2919
鸟	-10.2927
尺	-10.2954
孔	-10.2987
拘	-10.302
震	-10.3032
胶	-10.3036
韦	-10.3051
潮	-10.3056
糖	-10.3066
迹	-10.3079
炮	-10.3105
遥	-10.3117
扩	-10.3145
勇	-10.3148
割	-10.315
膜	-10.3194
焦	-10.32
盛	-10.3211
叛	-10.3215
敢	-10.3219
牵	-10.324
功	-10.324
纷	-10.3276
漫	-10.3282
释	-10.3292
洲	-10.3319
磨	-10.3321
宿	-10.3329
逐	-10.3347
贴	-10.3378
澳	-10.3387
灰	-10.3401
携	-10.341
陪	-10.3412
雄	-10.3412
诗	-10.3447
竞	-10.345
午	-10.3498
逆	-10.3499
夺	-10.3501
洞	-10.3528
壁	-10.3531
岩	-10.3544
渐	-10.3591
插	-10.3592
困	-10.3595
凭	-10.3605
邦	-10.3613
宾	-10.3658
饰	-10.3659
=	-10.366
井	-10.3664
云	-10.3703
磁	-10.3707
脉	-10.372
湿	-10.3727
劫	-10.3763
详	-10.3767
耳	-10.378
宇	-10.3805
狂	-10.3806
拆	-10.3834
赖	-10.384
吓	-10.3881
虑	-10.3886
抑	-10.3918
趣	-10.3926
淡	-10.3928
隆	-10.3945
厚	-10.395
银	-10.3964
妹	-10.3967
媒	-10.3976
裔	-10.3999
糊	-10.4019
戒	-10.4028
羊	-10.4045
荡	-10.4048
荷	-10.406
肯	-10.4063
横	-10.4072
脂	-10.4085
措	-10.4088
织	-10.4088
牢	-10.4093
莉	-10.414
摇	-10.4147
险	-10.4175
寻	-10.4187
乙	-10.4192
苯	-10.4239
赞	-10.4331
耗	-10.4344
搬	-10.4349
搜	-10.435
炎	-10.4353
疗	-10.4373
堆	-10.4376
泥	-10.4412
刺	-10.4423
鸡	-10.4429
赠	-10.4442
抢	-10.4463
乎	-10.449
贾	-10.4524
枚	-10.453
植	-10.4538
舒	-10.4544
粒	-10.4545
兑	-10.4564
谐	-10.4573
暖	-10.4574
醒	-10.4583
喀	-10.4587
泽	-10.4606
怒	-10.4656
宪	-10.4656
康	-10.4675
扭	-10.4686
茨	-10.4692
跃	-10.4704
纵	-10.4704
契	-10.4721
江	-10.4754
漏	-10.4764
甚	-10.4801
绘	-10.483
刀	-10.4845
蛋	-10.4855
盐	-10.4881
逊	-10.4884
珍	-10.4887
+	-10.4889
瑞	-10.4931
忘	-10.4934
熟	-10.4944
欲	-10.4992
掌	-10.5012
捷	-10.5034
忠	-10.504
懂	-10.5047
卜	-10.5047
爵	-10.505
勃	-10.5054
亞	-10.5085
渔	-10.5134
忆	-10.5143
响	-10.5182
摆	-10.522
尊	-10.5224
挤	-10.5263
潜	-10.5292
偶	-10.5329
粗	-10.5333
颗	-10.5341
嘴	-10.5346
帝	-10.5367
统	-10.5377
档	-10.5378
瓶	-10.5386
—	-10.5389
瑟	-10.5393
忽	-10.5397
圈	-10.5415
喷	-10.5417
辱	-10.5428
愈	-10.5429
碰	-10.5447
é	-10.5477
缔	-10.5483
攻	-10.5484
骗	-10.5486
劣	-10.5495
莎	-10.5497
诱	-10.5506
冬	-10.5512
豪	-10.5513
欢	-10.5514
岗	-10.5527
左	-10.5557
$	-10.5592
永	-10.5595
氟	-10.563
鞋	-10.563
胎	-10.5642
努	-10.5649
革	-10.5651
冠	-10.5664
○	-10.5677
祝	-10.5707
右	-10.5708
栏	-10.5721
蓬	-10.576
戏	-10.5772
绿	-10.5813
泡	-10.5813
洁	-10.5818
障	-10.5832
揭	-10.5835
纤	-10.5845
斗	-10.5848
操	-10.5851
炼	-10.5862
丧	-10.5868
颁	-10.5887
败	-10.5894
泛	-10.5963
晤	-10.5965
貌	-10.5972
荒	-10.5978
闻	-10.5985
魔	-10.5991
秀	-10.6003
恰	-10.6008
拥	-10.6025
撞	-10.6027
茶	-10.6046
厉	-10.605
迎	-10.609
阅	-10.6112
胆	-10.6113
父	-10.6121
妙	-10.6127
@	-10.6136
伍	-10.6148
悬	-10.6195
闪	-10.62
剩	-10.6201
描	-10.6202
浮	-10.6202
洪	-10.626
佳	-10.6292
勤	-10.6307
棒	-10.6343
抚	-10.6347
厌	-10.638
伐	-10.6383
稍	-10.6387
巧	-10.6409
谱	-10.6426
穷	-10.6432
匹	-10.6442
杆	-10.6451
辅	-10.6467
盈	-10.6469
忧	-10.6472
娘	-10.6495
尖	-10.6528
截	-10.6583
炉	-10.6612
棉	-10.6615
吹	-10.6641
铺	-10.6641
翼	-10.6652
叠	-10.6657
氏	-10.6677
肌	-10.6724
‘	-10.6734
锁	-10.6738
盗	-10.6752
涂	-10.6786
`	-10.6836
综	-10.6867
灌	-10.6872
趋	-10.6881
硫	-10.6893
贷	-10.6899
梯	-10.6902
鼓	-10.6913
汽	-10.6917
晶	-10.6926
驱	-10.693
呆	-10.6959
珠	-10.697
拓	-10.6983
歉	-10.6985
妻	-10.6989
川	-10.701
凝	-10.7021
技	-10.7048
竭	-10.709
催	-10.712
腿	-10.7127
奏	-10.7135
伪	-10.7138
溶	-10.7145
遍	-10.7163
丰	-10.7205
柔	-10.7217
括	-10.7226
究	-10.7245
疲	-10.7283
撰	-10.7324
赦	-10.7343
轴	-10.7347
闲	-10.735
丢	-10.7355
拒	-10.7355
猫	-10.7362
仓	-10.7371
训	-10.7393
猛	-10.7396
御	-10.7413
渴	-10.7414
肺	-10.7439
针	-10.7451
滞	-10.7467
埋	-10.747
晨	-10.747
骑	-10.7516
腐	-10.7524
厄	-10.7544
询	-10.7545
董	-10.755
幼	-10.7564
辨	-10.7573
彼	-10.7584
束	-10.7584
纹	-10.7598
坎	-10.76
胀	-10.7606
蓄	-10.7619
敏	-10.7648
梁	-10.7684
甘	-10.7694
筹	-10.7707
豆	-10.7708
郎	-10.7724
馈	-10.7731
搞	-10.7733
弟	-10.7736
劲	-10.774
鬼	-10.7766
掘	-10.7791
怨	-10.7824
赏	-10.7831
妮	-10.7837
恋	-10.7875
寸	-10.7911
爆	-10.7951
搭	-10.8002
崇	-10.8048
握	-10.805
培	-10.8059
疫	-10.8059
區	-10.8068
掩	-10.8079
滴	-10.8091
<	-10.81
毕	-10.8108
秋	-10.8112
漠	-10.8136
瘤	-10.815
屠	-10.8154
健	-10.8163
遏	-10.8177
授	-10.8186
俗	-10.8189
抛	-10.8191
肩	-10.8203
贩	-10.8211
朱	-10.8221
挖	-10.8245
奠	-10.8283
幻	-10.8293
慰	-10.83
坡	-10.8334
衷	-10.8338
肿	-10.8341
哲	-10.8361
宏	-10.8368
衡	-10.8391
瓜	-10.8397
壳	-10.8399
猜	-10.8411
庄	-10.8418
狱	-10.8506
捞	-10.8524
猎	-10.8526
尸	-10.8541
齿	-10.8558
愉	-10.856
乃	-10.858
孙	-10.8593
赋	-10.8631
犹	-10.8646
─	-10.8663
泳	-10.8664
倡	-10.8671
僵	-10.8686
纠	-10.8697
罢	-10.8697
腺	-10.8699
麽	-10.8699
叉	-10.8702
壮	-10.8709
粮	-10.8713
嘉	-10.8744
蚀	-10.876
臣	-10.8774
滚	-10.8777
奴	-10.8783
疯	-10.8787
恒	-10.8817
酷	-10.8821
魂	-10.883
愤	-10.8846
眠	-10.8847
虽	-10.8856
扮	-10.8888
聪	-10.8893
畜	-10.8949
尘	-10.8949
般	-10.895
敲	-10.8959
哭	-10.8963
胸	-10.8966
缝	-10.8975
甜	-10.9021
呀	-10.9024
惨	-10.903
唐	-10.9034
腹	-10.9039
屏	-10.9057
稀	-10.908
荐	-10.9081
窃	-10.9085
吻	-10.9086
阁	-10.9098
逾	-10.91
姑	-10.9107
陷	-10.9121
擦	-10.9123
螺	-10.9151
疏	-10.9156
祸	-10.918
耕	-10.921
粹	-10.9221
夹	-10.9232
廷	-10.9236
纽	-10.9249
轨	-10.9256
渗	-10.9261
辖	-10.9266
绕	-10.9275
肠	-10.9285
艘	-10.9305
秘	-10.9312
哦	-10.9324
晰	-10.9336
遣	-10.9357
肝	-10.9381
柏	-10.939
铜	-10.9405
虎	-10.9406
賽	-10.9425
伏	-10.9463
贪	-10.9465
滤	-10.9478
粘	-10.9503
猪	-10.9516
啦	-10.953
钩	-10.9546
溴	-10.9572
琴	-10.9576
氢	-10.9579
舰	-10.958
拔	-10.96
仁	-10.9618
&	-10.9629
誓	-10.9636
柱	-10.9691
孩	-10.972
涌	-10.973
玉	-10.9756
寒	-10.9763
剪	-10.9789
昨	-10.9874
惜	-10.9883
番	-10.9911
赚	-10.9911
赢	-10.9918
舌	-10.9922
崩	-10.9951
惑	-10.9955
艺	-10.9955
椅	-10.9957
奈	-10.9959
鼻	-10.9972
串	-10.9981
泄	-10.9993
堪	-11.0002
钻	-11.0011
仇	-11.002
镑	-11.0032
谊	-11.0036
泪	-11.0058
峻	-11.0075
衰	-11.0087
囊	-11.0109
欺	-11.0109
阔	-11.0117
促	-11.0121
够	-11.0123
佐	-11.0123
乏	-11.0161
篮	-11.0167
馬	-11.0202
噪	-11.0224
庞	-11.0254
蔓	-11.0284
柴	-11.0291
丑	-11.0307
央	-11.0311
昆	-11.0318
享	-11.0329
珊	-11.034
苹	-11.0352
喂	-11.0363
懈	-11.0365
锡	-11.0365
弯	-11.0386
覆	-11.0389
润	-11.0406
斜	-11.0409
垂	-11.0415
柜	-11.0433
丙	-11.044
郁	-11.0445
慨	-11.0447
垒	-11.0473
逝	-11.0478
朵	-11.0483
摸	-11.0502
卸	-11.0503
琳	-11.0525
芬	-11.0545
爬	-11.0545
蒸	-11.0567
浅	-11.057
淘	-11.0588
侣	-11.0607
溃	-11.0642
胺	-11.0642
艇	-11.0645
厨	-11.0646
颇	-11.0646
沟	-11.0652
聊	-11.0655
颈	-11.0671
熊	-11.0728
府	-11.0728
墨	-11.0765
庆	-11.0787
敦	-11.0789
框	-11.08
踏	-11.0807
召	-11.081
羅	-11.0819
帽	-11.0841
袭	-11.0854
轰	-11.0882
亨	-11.0886
酬	-11.0889
饱	-11.0916
甄	-11.0918
宙	-11.0935
慎	-11.0938
纺	-11.0953
殖	-11.0973
桶	-11.0976
谎	-11.0978
枝	-11.0979
醇	-11.0982
怜	-11.1001
耀	-11.1022
婴	-11.1027
盒	-11.1064
疼	-11.1066
喊	-11.1091
旱	-11.1118
炭	-11.1132
寓	-11.1145
卓	-11.117
拯	-11.1186
臂	-11.1197
】	-11.1208
歇	-11.121
洽	-11.1211
腔	-11.1222
纲	-11.1225
履	-11.1226
铀	-11.1228
厘	-11.1248
夸	-11.1274
肤	-11.1274
雾	-11.1276
唤	-11.129
慕	-11.1325
挫	-11.1342
屈	-11.1364
禽	-11.137
辜	-11.1385
廊	-11.1405
矩	-11.1408
秒	-11.1456
融	-11.1496
紫	-11.1509
狭	-11.1518
榜	-11.1554
潘	-11.158
罐	-11.1591
晋	-11.1612
颠	-11.1636
撑	-11.166
析	-11.1673
傲	-11.1719
哀	-11.1727
浏	-11.173
逼	-11.1758
寺	-11.1762
弊	-11.1768
摘	-11.1783
肃	-11.1799
慷	-11.1803
纂	-11.1804
泉	-11.1867
筛	-11.1869
阀	-11.1889
拼	-11.1891
殿	-11.1896
學	-11.1911
键	-11.1916
腾	-11.1924
津	-11.1925
笼	-11.1928
兽	-11.1971
裕	-11.1974
浆	-11.1998
酶	-11.2004
姿	-11.2007
蜜	-11.2022
凌	-11.2054
邀	-11.2059
墓	-11.206
晓	-11.2066
畅	-11.2099
愚	-11.2122
琼	-11.2137
吞	-11.2153
汰	-11.2154
羞	-11.2157
抬	-11.2164
仆	-11.2181
斑	-11.2182
舱	-11.2201
祷	-11.221
胃	-11.2213
缉	-11.2216
饼	-11.2219
闹	-11.2223
胖	-11.2226
巡	-11.2236
锻	-11.2238
驳	-11.224
幽	-11.2249
劝	-11.2267
滩	-11.2278
斤	-11.2282
淋	-11.2298
添	-11.2299
葬	-11.231
會	-11.232
滥	-11.2325
剑	-11.2329
冻	-11.2333
恼	-11.2338
蜂	-11.2338
悉	-11.2357
黎	-11.2385
腰	-11.2392
赌	-11.2398
盆	-11.2422
映	-11.2443
咨	-11.2473
祭	-11.2502
【	-11.2503
铅	-11.2517
烯	-11.253
躺	-11.2535
峡	-11.2539
亏	-11.2542
痕	-11.2556
贿	-11.2561
扔	-11.2565
绳	-11.2571
滋	-11.2635
恨	-11.264
陶	-11.2704
俩	-11.2731
凶	-11.2741
詹	-11.2746
磷	-11.2822
挣	-11.285
挺	-11.2868
疡	-11.2888
吵	-11.2891
循	-11.291
雕	-11.2915
唯	-11.2923
鲍	-11.2924
铝	-11.293
挡	-11.2938
烂	-11.2981
吊	-11.3002
橡	-11.3008
躲	-11.301
蔬	-11.3022
罕	-11.3038
铲	-11.3053
啸	-11.3061
糟	-11.3067
寡	-11.307
胁	-11.3098
肇	-11.3112
奔	-11.3115
衬	-11.3134
烤	-11.3157
泊	-11.317
妈	-11.3213
刘	-11.3222
郊	-11.3228
浴	-11.3264
丛	-11.327
蜡	-11.329
凉	-11.3311
贬	-11.3319
焊	-11.3332
涅	-11.3341
裤	-11.336
拐	-11.3387
尿	-11.3397
哨	-11.3422
殴	-11.3423
驶	-11.343
匀	-11.3448
砍	-11.345
鹿	-11.3453
娩	-11.3466
蘭	-11.3466
钥	-11.3525
丘	-11.3536
婆	-11.3538
浸	-11.3543
脊	-11.3545
窝	-11.3546
肢	-11.3548
漆	-11.3563
汁	-11.3567
挥	-11.3581
á	-11.3614
斡	-11.3624
君	-11.3626
弥	-11.3631
肾	-11.3644
惯	-11.3645
娃	-11.3654
後	-11.3654
縣	-11.3687
蛇	-11.3704
泵	-11.3716
硕	-11.3751
刷	-11.3752
翁	-11.3755
渡	-11.3775
恤	-11.3782
锋	-11.3787
辉	-11.3787
悔	-11.3789
驾	-11.3829
烷	-11.3829
爷	-11.3843
蠢	-11.3844
衫	-11.387
募	-11.3892
肪	-11.3928
匆	-11.3936
沫	-11.3943
膀	-11.3943
動	-11.3966
匙	-11.3966
挠	-11.3976
柯	-11.4008
胞	-11.4011
狼	-11.402
斥	-11.4038
搁	-11.4063
距	-11.4072
悦	-11.4082
辈	-11.4087
耻	-11.4089
擎	-11.4091
狮	-11.4091
掠	-11.4103
叔	-11.4117
挽	-11.4121
垄	-11.4149
汗	-11.4158
礁	-11.4169
吐	-11.4182
烃	-11.4199
卵	-11.4217
择	-11.4261
厦	-11.4273
筒	-11.4277
嫁	-11.43
侨	-11.4302
垫	-11.4304
兆	-11.4327
锦	-11.4333
罩	-11.4353
祈	-11.4358
肆	-11.436
溯	-11.4362
讶	-11.4373
嘛	-11.4375
捐	-11.4402
芝	-11.4424
氨	-11.4428
島	-11.4462
韩	-11.448
衍	-11.4483
旺	-11.4484
杨	-11.4494
溢	-11.4507
赐	-11.4512
锐	-11.456
藉	-11.4573
汲	-11.4577
鸿	-11.4627
睦	-11.4629
宴	-11.4629
維	-11.4633
í	-11.4644
碱	-11.4646
枯	-11.4659
奧	-11.4663
昏	-11.4676
仔	-11.4722
窄	-11.4746
忌	-11.4761
燥	-11.4802
坑	-11.4867
瑚	-11.4888
悄	-11.49
睹	-11.4923
铸	-11.4933
瑙	-11.4933
哺	-11.4992
卧	-11.5024
納	-11.5033
辍	-11.5041
拳	-11.5074
捉	-11.5082
#	-11.5084
咱	-11.5107
勾	-11.5127
衔	-11.5145
饲	-11.5149
擅	-11.5157
ć	-11.5184
涯	-11.5192
卑	-11.5224
酯	-11.5242
電	-11.5254
牲	-11.5327
邪	-11.5335
稻	-11.5355
己	-11.5357
摊	-11.5433
飓	-11.5444
鸦	-11.5446
济	-11.5464
锅	-11.5534
噢	-11.5536
裙	-11.5548
遮	-11.556
滨	-11.5562
彻	-11.5579
顷	-11.5616
羽	-11.5626
赴	-11.563
桩	-11.5641
	-11.5643
坛	-11.5653
瞧	-11.5668
夕	-11.5684
踢	-11.5701
囚	-11.5702
钉	-11.5709
扑	-11.572
犬	-11.5753
缆	-11.5759
兄	-11.5761
傻	-11.5768
凸	-11.5776
顽	-11.5787
膝	-11.5799
皆	-11.5801
诞	-11.5809
骄	-11.5826
氮	-11.5829
亟	-11.5831
慌	-11.5839
宠	-11.5848
硅	-11.5854
芒	-11.586
企	-11.5907
孟	-11.5907
喻	-11.5911
悠	-11.5945
堵	-11.5964
旨	-11.5977
砂	-11.5996
瓷	-11.6026
旬	-11.6033
涵	-11.6037
逗	-11.6063
辟	-11.6087
俱	-11.6091
舆	-11.6091
坝	-11.61
侮	-11.6104
瘾	-11.613
咬	-11.613
飘	-11.6139
眉	-11.6147
攀	-11.6152
毯	-11.6152
桃	-11.616
畏	-11.6182
盼	-11.6193
拦	-11.6217
慈	-11.6219
蹈	-11.6233
酌	-11.6237
槽	-11.6239
芯	-11.6263
扇	-11.6292
谅	-11.6322
棘	-11.6367
疆	-11.6374
沮	-11.6392
砖	-11.6394
嗯	-11.6401
饥	-11.6425
谘	-11.6434
車	-11.6452
瑰	-11.6454
剖	-11.6481
豫	-11.6531
ó	-11.6542
惟	-11.6554
渥	-11.6558
漂	-11.6585
尝	-11.6588
溉	-11.6599
棵	-11.6604
蛮	-11.6606
删	-11.6613
妆	-11.6619
铃	-11.6697
辑	-11.6718
诈	-11.6722
魅	-11.6723
筋	-11.6794
裹	-11.6801
叹	-11.6808
寿	-11.683
酮	-11.6841
玫	-11.6866
僚	-11.6876
赂	-11.6878
鸣	-11.6897
運	-11.6916
蚊	-11.6918
骂	-11.6923
陌	-11.6939
巾	-11.6944
缠	-11.6951
唇	-11.6958
挪	-11.6966
陵	-11.6979
肖	-11.7027
抹	-11.7029
懒	-11.7036
苗	-11.705
∶	-11.706
焚	-11.7067
饿	-11.7091
苍	-11.7112
枢	-11.7141
谓	-11.7165
杉	-11.7189
浦	-11.7216
谤	-11.725
贮	-11.7255
–	-11.7274
侯	-11.7284
啤	-11.7284
倦	-11.7291
筑	-11.7299
臭	-11.7337
绑	-11.7381
濒	-11.7382
瞬	-11.7387
兔	-11.7402
隙	-11.7402
匿	-11.7411
達	-11.7426
芳	-11.7436
仙	-11.7451
體	-11.7473
惕	-11.7486
宰	-11.7491
髓	-11.7506
赔	-11.7539
吕	-11.7551
勘	-11.758
俘	-11.7581
員	-11.7581
仰	-11.7599
蔑	-11.7613
赎	-11.7618
挨	-11.7621
钦	-11.7679
喉	-11.7704
碑	-11.7712
旷	-11.7715
嵌	-11.773
扼	-11.7753
虐	-11.7762
衅	-11.7766
竹	-11.7781
矮	-11.7786
驰	-11.7827
棕	-11.784
盯	-11.784
裸	-11.7861
碗	-11.7866
绵	-11.7873
讽	-11.7889
熔	-11.7892
蔽	-11.7928
贺	-11.7933
糕	-11.7941
蝶	-11.7954
冈	-11.7954
闷	-11.7964
栖	-11.7996
笨	-11.8001
隧	-11.8014
帆	-11.8022
朴	-11.8024
慑	-11.8025
棍	-11.803
寂	-11.8035
奢	-11.804
翅	-11.8072
嘲	-11.808
摔	-11.8111
诽	-11.8117
允	-11.8125
簿	-11.813
瘦	-11.8135
栋	-11.8149
伞	-11.8157
箭	-11.8158
郡	-11.8183
厕	-11.8191
拾	-11.8194
械	-11.8218
酚	-11.8258
纱	-11.8266
霉	-11.8309
屬	-11.8334
塌	-11.8334
疹	-11.8339
磅	-11.8363
钮	-11.8377
骚	-11.8396
萧	-11.8396
徙	-11.8412
薩	-11.8418
吴	-11.8431
坪	-11.8445
猴	-11.8453
霸	-11.8462
塘	-11.8467
雀	-11.8467
乍	-11.8469
伽	-11.853
株	-11.855
搅	-11.8572
抖	-11.8614
恳	-11.8619
渣	-11.8639
鹰	-11.8661
溜	-11.8672
鲸	-11.8686
膏	-11.8694
仑	-11.87
圭	-11.8711
焰	-11.8734
妓	-11.881
瞻	-11.8813
機	-11.887
敞	-11.891
酵	-11.8913
穴	-11.8922
晕	-11.893
坠	-11.8942
脾	-11.8988
―	-11.8994
皂	-11.9017
洒	-11.9037
刮	-11.9046
匮	-11.9054
辣	-11.906
钓	-11.9089
隶	-11.9092
泌	-11.9101
酋	-11.911
匠	-11.9116
〕	-11.9133
惹	-11.9154
悼	-11.9163
芽	-11.9166
煮	-11.9177
篷	-11.9189
毗	-11.9201
〔	-11.9207
聖	-11.9227
肚	-11.923
椎	-11.9254
券	-11.9268
淀	-11.9278
喘	-11.9284
庸	-11.9287
咒	-11.9299
矫	-11.9305
迦	-11.9308
颤	-11.9323
鸭	-11.9341
榴	-11.9344
巫	-11.935
妊	-11.9374
迭	-11.9374
绪	-11.9386
恕	-11.9407
盾	-11.9419
杠	-11.944
珀	-11.9443
氛	-11.9446
巢	-11.9464
倚	-11.9476
悖	-11.9476
郑	-11.9485
瘫	-11.9497
鹅	-11.9503
奎	-11.951
膨	-11.9513
挚	-11.9522
锈	-11.9522
屿	-11.953
娠	-11.9568
萎	-11.9571
痴	-11.958
酱	-11.9592
诫	-11.9629
樂	-11.9641
惧	-11.9675
溪	-11.9691
祥	-11.9694
皱	-11.9694
贡	-11.9703
凿	-11.9703
戰	-11.9725
咎	-11.975
栽	-11.9759
聯	-11.9825
楚	-11.9826
棋	-11.9853
榄	-11.9863
烛	-11.9885
疾	-11.9885
撕	-11.9901
魁	-11.9907
烹	-11.991
歪	-11.9923
彰	-11.9951
钙	-11.9955
怎	-11.9978
渊	-12.0006
戚	-12.0044
锥	-12.0044
陀	-12.0067
咐	-12.0076
~	-12.0108
倘	-12.0112
暑	-12.016
栅	-12.0173
践	-12.0211
披	-12.0228
谦	-12.0232
柄	-12.0239
勉	-12.0242
胚	-12.0252
霜	-12.0258
娅	-12.0265
韧	-12.0271
酿	-12.0281
恭	-12.0294
庙	-12.0298
耍	-12.0308
琐	-12.0311
橄	-12.0317
徽	-12.0327
諾	-12.0341
沦	-12.036
镀	-12.0364
晃	-12.038
涛	-12.039
邓	-12.0394
淹	-12.0397
袖	-12.0399
膳	-12.0407
悟	-12.042
夷	-12.0427
瓣	-12.044
龟	-12.044
辰	-12.045
掷	-12.0457
藻	-12.0467
翔	-12.0474
猩	-12.0474
內	-12.048
弦	-12.0497
壤	-12.0544
削	-12.0546
硝	-12.0571
锌	-12.0575
闯	-12.0575
葛	-12.0578
爽	-12.0582
棚	-12.0588
茂	-12.0588
萊	-12.0602
瞒	-12.0656
柳	-12.0684
藤	-12.0691
坟	-12.0704
沼	-12.0708
蕾	-12.0711
纬	-12.0728
涡	-12.0739
耽	-12.0739
圳	-12.0749
茄	-12.078
晒	-12.0811
碟	-12.0811
矶	-12.0822
匪	-12.0832
岭	-12.0849
狄	-12.0877
挝	-12.0898
逢	-12.0916
芭	-12.093
沾	-12.0944
泻	-12.0951
冗	-12.0954
鞭	-12.099
愧	-12.1004
薯	-12.1007
嘱	-12.1029
栓	-12.1032
屡	-12.1057
粟	-12.1057
勋	-12.1096
槛	-12.11
堤	-12.11
	-12.1114
場	-12.1125
奸	-12.1125
嘿	-12.1128
崛	-12.1128
愁	-12.1128
钠	-12.1132
谬	-12.1135
驯	-12.1146
雌	-12.1168
抄	-12.1168
酪	-12.1178
戮	-12.1225
淆	-12.1233
颖	-12.1247
魚	-12.1258
嫩	-12.1269
莲	-12.1294
酰	-12.1305
茫	-12.1327
泣	-12.1349
萝	-12.1367
乞	-12.1389
狠	-12.1397
妒	-12.1411
丸	-12.1415
遂	-12.1433
泼	-12.1493
凑	-12.1493
汀	-12.1493
吩	-12.15
绒	-12.1504
胳	-12.1511
畔	-12.1515
贼	-12.1515
迅	-12.1548
虾	-12.1567
°	-12.1582
浇	-12.159
涕	-12.1593
咳	-12.1616
卿	-12.1631
灣	-12.1635
脆	-12.1638
鲨	-12.1646
幢	-12.1672
憎	-12.1672
聆	-12.1706
谍	-12.1725
拷	-12.1729
拌	-12.1729
粪	-12.1733
痪	-12.1752
龍	-12.176
侈	-12.1767
缸	-12.1767
茎	-12.1771
黛	-12.1771
弧	-12.1783
蛙	-12.1794
亵	-12.1805
淫	-12.1808
喇	-12.1817
扯	-12.1825
搏	-12.1825
屁	-12.1836
舟	-12.1871
缚	-12.1882
呵	-12.1902
娶	-12.1917
昌	-12.1937
燕	-12.1944
艳	-12.1944
胰	-12.1944
轿	-12.1964
罂	-12.1968
帜	-12.1975
酗	-12.1979
晴	-12.1995
颜	-12.1997
逍	-12.2034
勿	-12.2034
颂	-12.2034
碌	-12.2046
捆	-12.2046
恪	-12.2065
躁	-12.2085
東	-12.2117
坊	-12.2121
妄	-12.2121
煌	-12.2125
彭	-12.2152
遴	-12.2172
渎	-12.2184
陛	-12.2188
逸	-12.2204
帅	-12.222
虹	-12.2256
咽	-12.226
浩	-12.2276
魯	-12.228
膊	-12.2284
绸	-12.2296
鄉	-12.2296
貝	-12.23
俊	-12.2312
斟	-12.2316
屑	-12.2344
莓	-12.2377
砸	-12.2401
倫	-12.2425
陋	-12.2438
扁	-12.2446
儒	-12.245
蛛	-12.2491
線	-12.2503
竖	-12.2507
滕	-12.2524
爸	-12.2606
狐	-12.2615
聋	-12.2619
垮	-12.2627
〉	-12.2656
踪	-12.2669
褐	-12.269
軍	-12.2698
^	-12.2698
嗣	-12.2698
坞	-12.2706
蕴	-12.2736
俯	-12.274
稽	-12.2744
梭	-12.2748
盔	-12.2757
梳	-12.2778
尉	-12.2782
咸	-12.282
矢	-12.2854
脖	-12.2863
瞄	-12.2871
橱	-12.2871
轧	-12.2871
痹	-12.288
侍	-12.288
蚁	-12.2914
烏	-12.2922
诀	-12.2935
約	-12.2935
仗	-12.294
醚	-12.2948
〈	-12.2961
華	-12.3008
畸	-12.3013
椒	-12.303
耦	-12.3039
鐵	-12.3047
坯	-12.3069
冶	-12.3078
剥	-12.313
肘	-12.313
嫉	-12.3135
饶	-12.3227
旦	-12.3245
鄙	-12.3262
飙	-12.3324
岌	-12.3356
浑	-12.336
爪	-12.3369
凹	-12.3391
骸	-12.3441
廓	-12.3441
尬	-12.3454
谜	-12.3454
號	-12.3464
赡	-12.3477
趟	-12.3477
钞	-12.3482
尴	-12.3504
沥	-12.3513
绍	-12.3522
锚	-12.3536
锯	-12.355
烫	-12.3568
荧	-12.3577
碍	-12.3594
茅	-12.3605
苔	-12.3628
宵	-12.3641
谣	-12.366
厢	-12.3711
歧	-12.3743
帖	-12.3748
惰	-12.3757
歐	-12.3762
炬	-12.3766
汶	-12.378
踩	-12.378
瘘	-12.3794
柬	-12.3804
弓	-12.3813
剔	-12.3813
黏	-12.3832
宋	-12.3846
昭	-12.3846
睁	-12.3846
玻	-12.3851
镍	-12.3869
崎	-12.3879
悯	-12.3879
澡	-12.3893
杖	-12.3898
糙	-12.3917
逛	-12.3936
斐	-12.3983
團	-12.3983
醋	-12.3988
桂	-12.3997
辽	-12.4007
蘇	-12.404
戳	-12.4045
橙	-12.4069
曝	-12.4079
绞	-12.4083
豹	-12.4107
驴	-12.4108
隘	-12.4112
袜	-12.4146
络	-12.415
獎	-12.4156
紊	-12.4175
炒	-12.4175
蕉	-12.419
秉	-12.4195
園	-12.42
耸	-12.4229
翰	-12.4235
拱	-12.4243
瞩	-12.4248
碘	-12.4253
壶	-12.4268
帘	-12.4273
庫	-12.4283
趁	-12.4288
語	-12.4292
梗	-12.4342
魏	-12.4356
徐	-12.4361
攸	-12.4371
哑	-12.4386
枕	-12.4396
譬	-12.4406
〇	-12.4411
際	-12.4441
毅	-12.4466
藐	-12.4466
崭	-12.4466
馀	-12.4521
隊	-12.4526
绅	-12.4531
蟹	-12.4536
狸	-12.4551
頓	-12.4586
灿	-12.4586
萘	-12.4612
摒	-12.4617
豚	-12.4622
紀	-12.4632
昧	-12.4663
阱	-12.4673
苛	-12.4683
哇	-12.4698
祂	-12.4703
岂	-12.475
崖	-12.476
缮	-12.4775
徵	-12.478
淇	-12.4791
蝴	-12.4791
喧	-12.4832
乾	-12.4843
盃	-12.4868
煎	-12.4895
昔	-12.4895
級	-12.4973
愛	-12.5005
磺	-12.5005
钾	-12.5021
烘	-12.5026
烁	-12.5047
圖	-12.5068
躯	-12.5068
笛	-12.5089
蝇	-12.51
捏	-12.5121
沸	-12.5127
僧	-12.5132
冥	-12.5175
凤	-12.5191
亭	-12.5196
驼	-12.5207
饪	-12.5218
標	-12.5229
唆	-12.5234
佑	-12.5272
锤	-12.5272
缀	-12.5315
诵	-12.5332
嗨	-12.5337
菊	-12.5359
腕	-12.5364
哮	-12.5375
钝	-12.5392
ñ	-12.5397
睫	-12.5403
缅	-12.5414
沈	-12.5441
秦	-12.5463
洄	-12.5469
姨	-12.5502
贞	-12.5513
涤	-12.5569
彬	-12.5574
杭	-12.5574
刹	-12.5585
贤	-12.5585
吾	-12.5636
嗓	-12.5641
敷	-12.5647
棱	-12.5653
浙	-12.5664
靴	-12.5664
瞎	-12.5686
熬	-12.5698
葱	-12.5698
殊	-12.5721
婪	-12.5732
稠	-12.58
巷	-12.5806
氰	-12.5811
芋	-12.5852
墟	-12.5857
ü	-12.5863
渠	-12.5876
鸽	-12.5909
屯	-12.5915
芦	-12.599
捡	-12.6008
嚼	-12.6037
靶	-12.6066
瑜	-12.6066
萃	-12.6072
掺	-12.6072
伺	-12.609
冯	-12.6119
谚	-12.6137
僻	-12.6137
長	-12.6149
堕	-12.6154
窍	-12.6166
』	-12.6166
镶	-12.6166
韋	-12.6172
籽	-12.6172
岳	-12.6178
義	-12.6202
柠	-12.6244
簧	-12.625
贱	-12.625
拙	-12.625
兜	-12.6256
荫	-12.6285
赵	-12.6297
●	-12.6297
咀	-12.6304
ö	-12.6309
恫	-12.634
碧	-12.634
嚷	-12.6364
阈	-12.6394
翠	-12.6406
骇	-12.6418
～	-12.6418
殷	-12.6424
猖	-12.6449
檬	-12.6449
颊	-12.6455
鎮	-12.6473
闸	-12.6485
宅	-12.6492
捣	-12.6497
館	-12.6497
嗅	-12.6504
熏	-12.651
蜘	-12.6522
诅	-12.6528
怯	-12.6547
葵	-12.6571
妖	-12.6584
沛	-12.6614
冤	-12.6627
虔	-12.667
捧	-12.6683
暨	-12.6683
甩	-12.6695
裨	-12.6714
阐	-12.672
毋	-12.6727
亩	-12.6764
椭	-12.6764
肮	-12.6783
惫	-12.6783
诠	-12.6821
秃	-12.6827
绣	-12.6834
窒	-12.684
葡	-12.6859
寥	-12.6859
傍	-12.6865
诋	-12.6878
锰	-12.6904
溺	-12.6916
狩	-12.6923
羡	-12.6948
趾	-12.6955
钴	-12.6961
『	-12.698
炫	-12.698
乖	-12.6987
媚	-12.7
業	-12.7
韵	-12.7025
侪	-12.7051
嗜	-12.7071
掏	-12.7077
朽	-12.7084
嗽	-12.7129
總	-12.7162
诡	-12.7208
喃	-12.7214
甸	-12.7228
栗	-12.7234
辊	-12.7234
梨	-12.7241
腊	-12.7246
颅	-12.7254
掀	-12.7261
姚	-12.7294
錦	-12.73
骼	-12.7313
薇	-12.7327
窥	-12.7333
哎	-12.7347
š	-12.7353
铬	-12.7367
獗	-12.738
姜	-12.7394
灶	-12.7407
窑	-12.7407
刃	-12.7407
抨	-12.742
弘	-12.7434
痒	-12.7434
麥	-12.7461
哩	-12.7467
麗	-12.7488
渺	-12.7488
關	-12.7494
姬	-12.7494
疤	-12.7508
绊	-12.7542
袍	-12.7549
熄	-12.7562
敛	-12.7569
單	-12.7576
橘	-12.759
時	-12.7596
稚	-12.7624
骤	-12.7626
埔	-12.7631
篡	-12.7638
钚	-12.7651
萌	-12.7706
撇	-12.772
铭	-12.7726
灼	-12.7748
辐	-12.7754
竣	-12.7762
樱	-12.7783
腥	-12.779
哄	-12.7797
睐	-12.7818
昼	-12.7838
醛	-12.7845
篱	-12.786
乒	-12.7888
盧	-12.7888
腻	-12.7888
陡	-12.7888
門	-12.7902
傅	-12.793
馏	-12.7937
組	-12.7944
郭	-12.7958
垦	-12.7965
茲	-12.7979
镁	-12.7987
孢	-12.8029
蹄	-12.8036
乓	-12.8079
斧	-12.8101
寞	-12.8108
缪	-12.813
铐	-12.8188
茜	-12.8188
袒	-12.8195
琪	-12.8202
芙	-12.8217
啥	-12.8231
髦	-12.8231
滔	-12.8246
咯	-12.8275
暇	-12.8282
姊	-12.829
蔗	-12.8312
亥	-12.8319
稼	-12.8334
è	-12.8334
選	-12.8341
骆	-12.8356
瞪	-12.8363
跪	-12.8393
視	-12.8393
蚂	-12.8393
梵	-12.84
ç	-12.8407
婉	-12.8407
崔	-12.8407
疮	-12.8452
馨	-12.8452
孵	-12.8459
眩	-12.8459
钛	-12.8467
撼	-12.8467
瀑	-12.8474
冉	-12.8489
拮	-12.8504
牟	-12.8504
歷	-12.8519
盎	-12.8527
呕	-12.8594
杏	-12.8594
秽	-12.861
肋	-12.8617
凋	-12.864
傑	-12.867
吟	-12.867
肽	-12.8701
俭	-12.8731
噬	-12.8762
渍	-12.8777
羔	-12.8777
甫	-12.8831
蝠	-12.8831
墅	-12.8839
冕	-12.8839
桨	-12.8839
妨	-12.8884
癖	-12.8948
呃	-12.8956
狡	-12.8971
疵	-12.8979
眷	-12.8987
胱	-12.9019
吼	-12.9034
屉	-12.9034
窘	-12.905
抉	-12.9082
拣	-12.9106
拢	-12.9161
慧	-12.9169
焕	-12.9169
穗	-12.9209
孜	-12.9209
鼎	-12.9225
術	-12.9225
蜗	-12.925
盏	-12.9258
揽	-12.9282
•	-12.9282
瑕	-12.929
苷	-12.9298
凄	-12.9339
鳞	-12.9347
凱	-12.9355
町	-12.9355
谟	-12.9363
峙	-12.9379
臀	-12.9388
莽	-12.9404
蒜	-12.9445
咪	-12.9461
喔	-12.947
凳	-12.947
徊	-12.9511
棺	-12.9519
舵	-12.9528
眨	-12.9536
讷	-12.9561
榈	-12.9569
艦	-12.9569
咕	-12.9602
潭	-12.9602
觅	-12.9602
砾	-12.9636
ú	-12.9661
×	-12.9669
徘	-12.9686
劇	-12.972
劃	-12.9762
與	-12.9762
蹦	-12.9779
娇	-12.9788
钳	-12.9796
怡	-12.9796
虏	-12.9822
汪	-12.9839
拇	-12.9839
哼	-12.9856
陨	-12.9908
怂	-12.9916
鳄	-12.9916
罹	-12.9925
瘟	-12.9933
風	-12.9933
肴	-12.9959
卒	-12.9977
惶	-12.9977
蹂	-12.9994
柿	-13.002
弛	-13.002
斋	-13.0029
溅	-13.0029
孝	-13.0064
咙	-13.0081
來	-13.009
椰	-13.0099
茵	-13.0099
嘘	-13.0108
涩	-13.0108
靡	-13.0116
喬	-13.0125
開	-13.0125
孽	-13.0134
噩	-13.0143
蹲	-13.0143
議	-13.0169
馅	-13.0187
疚	-13.0196
侠	-13.0196
躏	-13.0214
蔡	-13.024
苑	-13.024
懦	-13.0249
颌	-13.0249
阪	-13.0276
黯	-13.0276
菱	-13.0294
侄	-13.0294
━	-13.0312
砌	-13.0321
唉	-13.033
黨	-13.033
嘎	-13.033
栈	-13.0366
釜	-13.0366
鞍	-13.0366
|	-13.0367
摧	-13.0392
蠕	-13.042
毙	-13.0429
奄	-13.0447
蚕	-13.0474
恿	-13.0493
淤	-13.0493
菇	-13.0493
戊	-13.052
踝	-13.0529
唾	-13.0538
峭	-13.0538
玲	-13.0538
曹	-13.0566
條	-13.0584
勺	-13.0584
汹	-13.0603
辙	-13.0612
網	-13.0612
邸	-13.064
協	-13.0658
叭	-13.0668
剃	-13.0686
绷	-13.0696
熙	-13.0696
羟	-13.0705
嗡	-13.0733
齊	-13.0752
缕	-13.077
槟	-13.0789
ä	-13.0789
筝	-13.0817
俟	-13.0874
嚣	-13.0893
吝	-13.0903
珂	-13.0912
癫	-13.0931
腓	-13.0931
饵	-13.0941
師	-13.0979
砷	-13.0998
粥	-13.1008
簇	-13.1027
統	-13.1037
浊	-13.1056
揉	-13.1066
漢	-13.1143
朋	-13.1152
蝙	-13.1182
洼	-13.1192
沐	-13.1192
厥	-13.1221
卤	-13.1231
矛	-13.1231
膛	-13.1231
庇	-13.124
\	-13.1241
鳍	-13.1261
锂	-13.1261
荃	-13.1261
瞥	-13.1271
讳	-13.13
遊	-13.131
舅	-13.133
叨	-13.135
荆	-13.135
沌	-13.136
畫	-13.136
霞	-13.137
湄	-13.14
叮	-13.143
俾	-13.143
珥	-13.143
č	-13.146
哗	-13.147
弈	-13.149
數	-13.149
悍	-13.152
蒋	-13.1531
類	-13.1531
書	-13.1541
牡	-13.1541
翘	-13.1541
跤	-13.1541
頭	-13.1551
幌	-13.1561
鹤	-13.1612
寨	-13.1612
榨	-13.1622
瑪	-13.1622
費	-13.1632
仲	-13.1642
別	-13.1643
褪	-13.1653
纫	-13.1673
玄	-13.1673
雙	-13.1694
鸥	-13.1704
廖	-13.1735
寝	-13.1766
禅	-13.1777
玷	-13.1787
黃	-13.1818
囱	-13.1818
劈	-13.1818
躬	-13.1829
妃	-13.1829
忱	-13.1849
掳	-13.1849
纾	-13.186
經	-13.187
桔	-13.187
→	-13.1881
垢	-13.1881
楷	-13.1881
湛	-13.1891
猿	-13.1891
韓	-13.1976
唑	-13.1976
犀	-13.1997
構	-13.2008
酝	-13.2029
澤	-13.2029
妳	-13.205
槍	-13.205
魄	-13.2071
竿	-13.2093
擊	-13.2114
題	-13.2147
暮	-13.2147
惮	-13.2157
励	-13.2166
谭	-13.219
帧	-13.2211
狙	-13.2222
疟	-13.2228
蔼	-13.2233
拂	-13.2233
粤	-13.2244
窜	-13.2255
铵	-13.2288
橋	-13.232
怠	-13.2342
氓	-13.2353
皿	-13.2386
箴	-13.2397
喋	-13.2453
呐	-13.2475
砰	-13.2475
舉	-13.2486
丈	-13.2507
銀	-13.2508
扳	-13.2508
梢	-13.2508
驭	-13.2531
翩	-13.2553
窦	-13.2576
權	-13.2587
蝎	-13.2632
築	-13.2632
歹	-13.2643
澜	-13.2655
丐	-13.27
疽	-13.2723
嬉	-13.2723
蒲	-13.2746
邊	-13.2746
硼	-13.2757
猾	-13.278
跋	-13.278
忡	-13.2792
蝗	-13.2826
斩	-13.2826
橇	-13.2861
紐	-13.2861
镉	-13.2872
褶	-13.2872
熨	-13.2896
睾	-13.293
脓	-13.293
鹦	-13.293
娱	-13.2941
柑	-13.2954
雏	-13.2954
讼	-13.3004
囤	-13.3012
說	-13.3024
痫	-13.3059
拧	-13.3071
痰	-13.3083
絮	-13.3107
羚	-13.3119
夭	-13.3142
衛	-13.3166
赘	-13.3166
紅	-13.3178
廣	-13.3202
∕	-13.3202
啡	-13.3214
陕	-13.3238
螨	-13.3238
挛	-13.325
窟	-13.3262
岔	-13.3274
绰	-13.3286
犁	-13.3298
渝	-13.331
耿	-13.3322
澈	-13.3335
涝	-13.3347
吱	-13.3347
鞘	-13.3347
嘶	-13.3359
绌	-13.3359
係	-13.3395
無	-13.3395
謝	-13.3395
烙	-13.342
懊	-13.342
宮	-13.3444
戲	-13.3444
笆	-13.3457
濟	-13.3469
環	-13.3481
兢	-13.3481
鹉	-13.3481
兮	-13.3518
茱	-13.3518
痊	-13.353
鲑	-13.3543
脈	-13.358
茹	-13.363
Š	-13.363
筷	-13.363
呋	-13.3642
佬	-13.3667
秤	-13.3667
睬	-13.3705
殉	-13.3718
賓	-13.373
蜥	-13.373
菠	-13.3794
蟾	-13.387
發	-13.387
炽	-13.387
唔	-13.3883
坍	-13.3883
計	-13.3883
拭	-13.3883
襟	-13.3896
撮	-13.3947
绎	-13.3947
溫	-13.396
肛	-13.396
卉	-13.3973
幔	-13.3973
枫	-13.3986
啬	-13.3986
皈	-13.4025
飛	-13.4025
攒	-13.4038
庚	-13.4051
蚤	-13.4064
逞	-13.4077
苟	-13.409
茸	-13.409
扛	-13.4116
搂	-13.4156
碾	-13.4156
焉	-13.4169
诬	-13.4182
芥	-13.4195
咄	-13.4222
羁	-13.4248
蘑	-13.4248
勞	-13.4262
迥	-13.4275
薛	-13.4275
娴	-13.4288
伎	-13.4288
俏	-13.4302
藝	-13.4302
琢	-13.4302
痘	-13.4302
缎	-13.4342
姻	-13.4353
織	-13.4369
蛾	-13.4423
咆	-13.4423
曙	-13.4436
帶	-13.445
跻	-13.445
嫖	-13.4463
钨	-13.4477
俚	-13.4477
萬	-13.449
仕	-13.449
鞠	-13.4504
專	-13.4518
蒿	-13.4518
汐	-13.4545
{	-13.4545
煞	-13.4572
痉	-13.4586
忏	-13.4586
檀	-13.46
葉	-13.4614
}	-13.4614
淑	-13.4614
鯰	-13.4641
渲	-13.4655
桅	-13.4655
傳	-13.4669
啼	-13.4669
巅	-13.4683
彗	-13.4697
缄	-13.4697
阮	-13.4794
淌	-13.4794
и	-13.4809
腮	-13.4809
嘟	-13.4823
邑	-13.4837
殆	-13.4851
绽	-13.4865
朦	-13.4879
禾	-13.4893
憩	-13.4907
穹	-13.4907
踊	-13.4922
焙	-13.4936
趴	-13.495
啮	-13.4964
楠	-13.4979
谕	-13.4979
拽	-13.4993
腱	-13.5007
叁	-13.5036
夥	-13.5036
娥	-13.5036
凰	-13.505
惋	-13.5065
烬	-13.5065
讥	-13.5079
	-13.5094
攫	-13.5094
產	-13.5108
拴	-13.5108
孚	-13.5137
睿	-13.5152
枣	-13.5152
呜	-13.5181
臺	-13.5195
儡	-13.5195
′	-13.5195
逮	-13.5209
唠	-13.521
α	-13.521
蓋	-13.5225
結	-13.5239
窖	-13.5254
咖	-13.5254
壕	-13.5254
绚	-13.5254
舷	-13.5269
芜	-13.5283
傀	-13.5283
項	-13.5298
朔	-13.5313
掸	-13.5328
湍	-13.5328
節	-13.5328
镖	-13.5372
笋	-13.5417
胧	-13.5417
間	-13.5462
蜒	-13.5462
ê	-13.5462
簸	-13.5477
吁	-13.5486
熱	-13.5507
轩	-13.5507
曳	-13.5537
瘠	-13.5567
腌	-13.5598
邱	-13.5598
揍	-13.5628
爭	-13.5644
饺	-13.5659
侏	-13.5659
釉	-13.5659
笃	-13.5674
忿	-13.5674
颓	-13.569
鄂	-13.5705
螂	-13.572
吠	-13.572
炊	-13.5782
刨	-13.5798
點	-13.5813
爹	-13.5813
禧	-13.5829
娼	-13.586
嬷	-13.5875
猥	-13.5907
疱	-13.5922
墩	-13.5922
靖	-13.5938
姗	-13.597
锣	-13.5985
哟	-13.6017
抒	-13.6017
赃	-13.6033
氣	-13.6033
箔	-13.6033
蜷	-13.6033
嘈	-13.6049
灸	-13.6049
饷	-13.6065
诧	-13.6097
爲	-13.6097
論	-13.6113
呻	-13.6113
磐	-13.6129
陸	-13.6129
雲	-13.6145
枉	-13.6145
ë	-13.6161
纶	-13.6177
谛	-13.6193
悚	-13.6209
眶	-13.6274
铣	-13.629
岖	-13.6323
瞰	-13.634
檐	-13.6356
尧	-13.6356
蔚	-13.6372
丫	-13.6372
憧	-13.6438
罔	-13.6455
髋	-13.6455
脐	-13.6505
诲	-13.6538
楔	-13.6538
虞	-13.6538
揣	-13.6555
萤	-13.6572
啪	-13.6572
舔	-13.6588
蜿	-13.6588
睛	-13.6604
旭	-13.6622
炖	-13.6639
钼	-13.6639
湘	-13.6656
扪	-13.6656
個	-13.669
扒	-13.669
鳕	-13.6706
婶	-13.6707
蛤	-13.6707
陳	-13.6707
牠	-13.6707
秆	-13.6707
記	-13.6741
恍	-13.6741
憬	-13.6741
铰	-13.6758
帷	-13.6792
裳	-13.6809
孀	-13.6861
兒	-13.6861
蜍	-13.6895
晦	-13.693
琵	-13.6947
媲	-13.6947
岡	-13.6965
枷	-13.6982
嘻	-13.6982
硒	-13.7
莹	-13.7
殃	-13.7017
鹏	-13.7035
腋	-13.7035
啶	-13.7035
珈	-13.7052
靈	-13.7052
惭	-13.7052
匣	-13.7052
札	-13.707
愕	-13.7087
芹	-13.7141
帚	-13.7141
□	-13.7158
廢	-13.7176
跚	-13.7194
雹	-13.7194
轭	-13.7194
踱	-13.7212
屎	-13.723
β	-13.723
嚏	-13.7248
睑	-13.7248
撬	-13.7266
漩	-13.7284
豌	-13.7284
職	-13.7302
闩	-13.732
參	-13.732
們	-13.7356
熵	-13.7356
練	-13.7356
笞	-13.7374
沧	-13.7374
吡	-13.7374
圃	-13.7392
為	-13.7392
宛	-13.741
筐	-13.741
蹒	-13.741
寶	-13.7429
矗	-13.7429
卯	-13.7447
禄	-13.7447
絲	-13.7465
崽	-13.7465
ž	-13.7484
褥	-13.752
錫	-13.752
殺	-13.7539
媳	-13.7594
荔	-13.7594
晾	-13.7594
涸	-13.7594
盹	-13.7613
摈	-13.7632
徇	-13.765
彈	-13.7688
冀	-13.7688
镰	-13.7706
曰	-13.7707
噜	-13.7744
踵	-13.7744
對	-13.7744
惇	-13.7763
齒	-13.7763
啃	-13.7763
寧	-13.7782
導	-13.7782
惬	-13.7782
茧	-13.7782
沪	-13.782
遜	-13.7839
缭	-13.7839
恙	-13.7858
噶	-13.7896
淬	-13.7896
鼹	-13.7896
霆	-13.7915
嗦	-13.7934
骏	-13.7954
蛎	-13.7973
領	-13.7992
苇	-13.7992
張	-13.8012
缤	-13.8012
邁	-13.8031
酥	-13.807
龋	-13.807
犊	-13.807
淮	-13.8089
炙	-13.8089
陽	-13.8089
侥	-13.8089
莺	-13.8128
駐	-13.8148
創	-13.8168
禮	-13.8168
啄	-13.8168
挟	-13.8207
劾	-13.8227
掣	-13.8266
鲤	-13.8266
鱿	-13.8286
筏	-13.8286
蕊	-13.8286
鳏	-13.8306
镣	-13.8306
ã	-13.8306
資	-13.8326
卦	-13.8346
妞	-13.8346
馁	-13.8346
臼	-13.8366
吏	-13.8386
咧	-13.8406
醫	-13.8406
袁	-13.8427
眺	-13.8427
唬	-13.8447
俺	-13.8467
嶺	-13.8467
菩	-13.8467
變	-13.8467
萦	-13.8467
讫	-13.8467
虱	-13.8487
茁	-13.8508
痢	-13.8528
翌	-13.8528
極	-13.8548
搀	-13.8569
決	-13.8569
設	-13.8569
炳	-13.8569
旳	-13.8569
阂	-13.8569
绥	-13.8589
嫂	-13.8589
蚓	-13.8589
連	-13.8589
瞌	-13.8589
蟑	-13.861
龈	-13.863
鳥	-13.863
坤	-13.8651
當	-13.8672
汝	-13.8672
雁	-13.8672
跛	-13.8692
茉	-13.8692
炯	-13.8693
瘀	-13.8713
琶	-13.8734
秸	-13.8734
ï	-13.8755
彦	-13.8755
籃	-13.8755
栩	-13.8776
麟	-13.8797
務	-13.8818
赈	-13.8839
蜕	-13.886
薰	-13.8881
潦	-13.8923
鬥	-13.8944
藍	-13.8944
嗤	-13.8966
賈	-13.8966
彷	-13.9008
蜴	-13.903
掐	-13.9051
現	-13.9051
钽	-13.9094
迄	-13.9115
汕	-13.9116
遐	-13.9137
胫	-13.9137
腈	-13.9138
蛀	-13.9159
俸	-13.9159
荟	-13.9181
颐	-13.9225
鳗	-13.9225
捂	-13.9246
桐	-13.9246
葫	-13.9268
铂	-13.929
酐	-13.929
	-13.9312
潇	-13.9312
氦	-13.9334
憾	-13.9378
藜	-13.9379
■	-13.9401
護	-13.9401
楞	-13.9423
涎	-13.9423
搐	-13.9423
禀	-13.9423
琥	-13.9423
恢	-13.9432
锄	-13.9446
颚	-13.9446
俣	-13.9468
悴	-13.9468
Á	-13.949
镯	-13.949
婿	-13.949
臘	-13.9513
暧	-13.9535
搓	-13.9558
湯	-13.9558
輯	-13.9558
诘	-13.9581
憔	-13.9603
瀚	-13.9626
à	-13.9626
迂	-13.9626
孪	-13.9626
岑	-13.9626
阑	-13.9649
汛	-13.9649
钵	-13.9671
鹃	-13.9672
報	-13.9672
篝	-13.9672
榆	-13.9694
苞	-13.9717
樹	-13.9717
褒	-13.974
羹	-13.9763
脯	-13.9763
敕	-13.9786
讹	-13.9786
姥	-13.9786
祀	-13.9786
斌	-13.981
紋	-13.981
應	-13.9833
昵	-13.9833
瘸	-13.9833
貂	-13.9856
袱	-13.9856
翡	-13.9903
寐	-13.9903
奕	-13.9926
桁	-13.9926
伶	-13.995
賴	-13.995
倪	-13.995
糠	-13.9973
荚	-13.9997
§	-13.9997
毡	-14.002
踌	-14.002
磕	-14.0044
臆	-14.0044
柚	-14.0044
嗪	-14.0045
捅	-14.0068
躇	-14.0068
堰	-14.0092
佼	-14.0092
å	-14.0115
叽	-14.0116
屆	-14.0116
蕨	-14.0116
苣	-14.0139
扉	-14.0139
鸠	-14.0139
唧	-14.0163
馑	-14.0212
實	-14.0212
鮮	-14.0212
锭	-14.026
筵	-14.0284
寅	-14.0308
亢	-14.0308
迸	-14.0309
辗	-14.0357
琉	-14.0357
蹭	-14.0357
箍	-14.0382
孰	-14.0382
誊	-14.0382
呱	-14.0406
桦	-14.0406
驅	-14.0431
榻	-14.0431
盥	-14.0456
涟	-14.0456
徑	-14.0481
哆	-14.0505
揪	-14.0505
漓	-14.0505
豁	-14.0529
蓉	-14.053
祟	-14.0555
咋	-14.058
劍	-14.0605
寇	-14.0605
喙	-14.0605
編	-14.063
殡	-14.0656
鹫	-14.0656
摺	-14.0681
圍	-14.0731
蝉	-14.0731
瞅	-14.0731
剽	-14.0834
敝	-14.0834
澄	-14.0857
異	-14.0859
壹	-14.0885
擬	-14.0885
眯	-14.0885
鼾	-14.0885
⁄	-14.0911
進	-14.0911
獸	-14.0937
铢	-14.0963
搔	-14.1015
種	-14.1015
咏	-14.1015
睽	-14.1015
靼	-14.1041
匕	-14.1041
尹	-14.1067
裝	-14.1094
難	-14.1094
★	-14.112
喳	-14.112
週	-14.112
輪	-14.112
鯛	-14.112
鰭	-14.112
瞭	-14.1147
	-14.1147
浚	-14.1147
ø	-14.1173
嚎	-14.1173
瞳	-14.1173
攘	-14.12
篪	-14.12
蘸	-14.1226
惚	-14.1253
辫	-14.1253
孺	-14.128
裘	-14.128
侬	-14.128
鞑	-14.128
‰	-14.128
	-14.1307
祢	-14.1307
螯	-14.1307
潺	-14.1307
槿	-14.1334
芸	-14.1334
忒	-14.1334
γ	-14.1361
將	-14.1361
藓	-14.1361
蓿	-14.1361
萍	-14.1388
恺	-14.1388
見	-14.1415
袄	-14.1415
泞	-14.1415
猝	-14.1415
廿	-14.1415
霹	-14.1415
潢	-14.1442
厩	-14.1442
嘀	-14.147
羧	-14.147
蚜	-14.147
細	-14.1497
锢	-14.1497
強	-14.1497
腭	-14.1497
霄	-14.1525
獭	-14.158
邃	-14.1607
偎	-14.1607
吭	-14.1607
钡	-14.1635
╱	-14.1635
脲	-14.1635
藩	-14.1691
倔	-14.1691
哉	-14.1691
莞	-14.1691
笺	-14.1691
霾	-14.1691
訊	-14.1719
鰻	-14.1719
辘	-14.1747
沓	-14.1747
袤	-14.1747
哝	-14.1775
樟	-14.1775
鹭	-14.1803
輕	-14.1803
遠	-14.1803
啉	-14.1803
婊	-14.1832
瘪	-14.1832
錄	-14.186
戶	-14.186
鬚	-14.186
惺	-14.186
跆	-14.186
坂	-14.1889
啰	-14.1889
蜚	-14.1889
蹋	-14.1917
垩	-14.1917
疣	-14.1946
榷	-14.1946
跷	-14.1975
£	-14.1975
嗒	-14.1975
俐	-14.2003
製	-14.2032
坷	-14.2032
巍	-14.2032
琅	-14.2032
蜓	-14.2032
摹	-14.2061
證	-14.2061
競	-14.209
茬	-14.209
苜	-14.209
矣	-14.212
炔	-14.2149
侃	-14.2149
罄	-14.2149
哒	-14.2149
蜻	-14.2149
捻	-14.2178
颱	-14.2178
梧	-14.2178
凛	-14.2208
鼬	-14.2208
處	-14.2208
揚	-14.2208
漱	-14.2208
猶	-14.2208
琦	-14.2208
髅	-14.2208
蹑	-14.2208
恣	-14.2208
绢	-14.2237
莅	-14.2237
終	-14.2267
鬃	-14.2296
澎	-14.2296
婷	-14.2296
屹	-14.2296
洙	-14.2326
綠	-14.2326
俑	-14.2326
辄	-14.2326
➢	-14.2356
獾	-14.2356
赊	-14.2356
軟	-14.2356
骷	-14.2356
耙	-14.2356
話	-14.2386
雳	-14.2386
瘢	-14.2386
夢	-14.2416
黝	-14.2446
豐	-14.2446
麝	-14.2446
喽	-14.2446
岐	-14.2446
恬	-14.2446
萼	-14.2476
铆	-14.2476
兀	-14.2476
	-14.2476
莴	-14.2506
羯	-14.2507
熠	-14.2507
钒	-14.2537
蕃	-14.2537
叼	-14.2537
漪	-14.2537
惴	-14.2567
枞	-14.2567
糜	-14.2598
恃	-14.2659
鸵	-14.2659
虛	-14.2659
孳	-14.2659
蟲	-14.2659
許	-14.269
剛	-14.2721
邹	-14.2721
猕	-14.2752
圓	-14.2752
蹊	-14.2752
窿	-14.2783
靓	-14.2783
骡	-14.2815
劉	-14.2815
興	-14.2815
殘	-14.2815
渤	-14.2815
叩	-14.2815
煽	-14.2842
−	-14.2846
贻	-14.2846
吮	-14.2846
粱	-14.2846
诙	-14.2878
瓢	-14.2878
麓	-14.2878
愣	-14.2878
喹	-14.2878
疙	-14.2909
猬	-14.2909
鱸	-14.2941
涓	-14.2941
擂	-14.2941
埠	-14.2972
蔷	-14.2972
瘩	-14.3004
鳟	-14.3004
郝	-14.3036
峽	-14.3036
質	-14.3036
轶	-14.3036
怦	-14.3036
搪	-14.3068
剌	-14.3068
垣	-14.3068
菅	-14.31
锆	-14.3101
霓	-14.3101
佃	-14.3101
醺	-14.3101
祛	-14.3133
滓	-14.3133
眸	-14.3165
紹	-14.3165
斓	-14.3165
厮	-14.3198
捎	-14.3198
谩	-14.3198
憋	-14.3198
嗖	-14.323
邋	-14.323
锑	-14.323
喱	-14.323
牒	-14.3263
衝	-14.3263
榮	-14.3296
腆	-14.3296
親	-14.3328
啜	-14.3328
狈	-14.3361
鏡	-14.3361
歼	-14.3395
秧	-14.3395
遛	-14.3395
铛	-14.3395
颞	-14.3395
蹬	-14.3395
敖	-14.3395
龜	-14.3428
匐	-14.3461
疝	-14.3461
壑	-14.3461
鳃	-14.3495
楊	-14.3495
磊	-14.3495
農	-14.3495
酣	-14.3495
鹊	-14.3528
辦	-14.3562
・	-14.3562
杞	-14.3562
缰	-14.3562
迴	-14.3562
俞	-14.3629
氡	-14.3629
獨	-14.363
臻	-14.363
啟	-14.363
婢	-14.3664
轉	-14.3664
觀	-14.3698
擒	-14.3698
寮	-14.3698
槌	-14.3732
绯	-14.3732
翱	-14.3732
荼	-14.3732
谙	-14.3732
拎	-14.3732
濱	-14.3766
緬	-14.3766
腑	-14.3766
準	-14.3766
戀	-14.3801
痤	-14.3801
蹩	-14.3801
遢	-14.3801
戟	-14.3801
	-14.3835
蚱	-14.3835
鹑	-14.387
戛	-14.3905
峨	-14.3905
谧	-14.394
踉	-14.394
驮	-14.394
葺	-14.394
峦	-14.394
麸	-14.3975
聂	-14.3975
撵	-14.401
漾	-14.401
賀	-14.4045
邝	-14.4046
匈	-14.4081
昙	-14.4117
觑	-14.4117
沁	-14.4117
〖	-14.4152
刁	-14.4152
騎	-14.4152
阡	-14.4152
蟒	-14.4188
夯	-14.4188
鑫	-14.4224
鯉	-14.4224
霰	-14.4224
癣	-14.426
ô	-14.426
湮	-14.426
偕	-14.426
碼	-14.426
蜀	-14.426
恸	-14.4296
芪	-14.4296
跄	-14.4296
剿	-14.4296
隼	-14.4296
咭	-14.4333
隅	-14.4333
瑶	-14.4369
潛	-14.4369
蛹	-14.4369
臃	-14.4406
漉	-14.4406
襄	-14.4406
鳌	-14.4443
樓	-14.4443
骋	-14.4443
娄	-14.448
矽	-14.448
哌	-14.448
祠	-14.4517
〗	-14.4517
戎	-14.4517
啻	-14.4517
遺	-14.4517
寰	-14.4517
裴	-14.4554
魮	-14.4554
腼	-14.4554
龚	-14.4554
狒	-14.4555
葆	-14.4591
怖	-14.462
耘	-14.4629
邵	-14.4629
闺	-14.4629
懷	-14.4629
砧	-14.4629
腦	-14.4629
逅	-14.4629
僭	-14.4666
鬣	-14.4704
芮	-14.4704
璀	-14.4704
溥	-14.4704
Ş	-14.4704
铎	-14.4742
勳	-14.4742
桎	-14.4742
邂	-14.4742
Ž	-14.478
險	-14.478
雍	-14.478
骰	-14.478
淳	-14.478
	-14.478
阜	-14.4818
呛	-14.4818
榔	-14.4818
æ	-14.4818
	-14.4856
琌	-14.4856
袅	-14.4856
驹	-14.4856
兩	-14.4895
蹴	-14.4895
鱷	-14.4895
庐	-14.4895
吳	-14.4933
梏	-14.4933
甥	-14.4933
妾	-14.4933
璨	-14.4972
蚌	-14.5011
蓓	-14.5011
幂	-14.505
荨	-14.505
纭	-14.5089
貓	-14.5089
過	-14.5089
獲	-14.5089
媛	-14.5129
蔻	-14.5129
Č	-14.5129
锹	-14.5168
眾	-14.5168
氩	-14.5168
噻	-14.5168
彝	-14.5208
暹	-14.5208
滇	-14.5208
彤	-14.5208
綜	-14.5248
惦	-14.5248
撩	-14.5248
驿	-14.5288
麋	-14.5327
※	-14.5328
鮑	-14.5368
氙	-14.5368
闽	-14.5409
â	-14.5409
則	-14.5449
魇	-14.5449
鲈	-14.549
麼	-14.549
聲	-14.5531
勝	-14.5531
貴	-14.5531
樊	-14.5531
踮	-14.5614
痔	-14.5614
悸	-14.5614
亘	-14.5614
ぃ	-14.5655
彪	-14.5655
榛	-14.5655
冢	-14.5655
垛	-14.5655
渭	-14.5655
呂	-14.5697
鞣	-14.5697
铉	-14.5697
匍	-14.5697
問	-14.5739
膦	-14.5739
棠	-14.5781
遁	-14.5781
咫	-14.5781
褛	-14.5823
Ö	-14.5823
晖	-14.5823
鳳	-14.5865
镭	-14.5865
褴	-14.5908
垠	-14.595
霖	-14.595
嫦	-14.595
翟	-14.5951
舊	-14.5993
攥	-14.5993
弩	-14.6036
調	-14.6036
皑	-14.608
盂	-14.608
盤	-14.608
〞	-14.608
載	-14.6123
菁	-14.6123
佯	-14.6123
肱	-14.6123
鄭	-14.6167
拗	-14.6167
楣	-14.6167
甾	-14.6167
巩	-14.621
钎	-14.6211
復	-14.6211
鲱	-14.6211
蟋	-14.6211
沽	-14.6211
湃	-14.6211
糯	-14.6211
槐	-14.6255
±	-14.6255
廳	-14.6299
	-14.6299
缛	-14.6299
诣	-14.6344
鱂	-14.6344
狀	-14.6344
樽	-14.6344
膺	-14.6344
徹	-14.6388
鷹	-14.6388
皙	-14.6388
迩	-14.6388
營	-14.6433
灘	-14.6433
μ	-14.6433
宕	-14.6433
蟆	-14.6433
а	-14.6478
鹌	-14.6478
┈	-14.6522
钧	-14.6523
積	-14.6523
俨	-14.6523
蟀	-14.6523
跺	-14.6523
▲	-14.6523
阉	-14.6569
雜	-14.6569
岬	-14.6569
態	-14.6614
曦	-14.6614
剁	-14.6614
輸	-14.6614
規	-14.6614
刽	-14.6614
嘧	-14.6614
坳	-14.6614
谄	-14.666
肼	-14.6661
嗝	-14.6706
唁	-14.6706
莪	-14.6753
酊	-14.6753
鱗	-14.6753
甙	-14.6753
測	-14.6799
軌	-14.6799
邢	-14.6799
喏	-14.6846
苄	-14.6846
蜢	-14.6846
匝	-14.6846
瘙	-14.6893
謀	-14.6893
廠	-14.694
欽	-14.694
粕	-14.694
踞	-14.694
鈴	-14.694
枭	-14.694
桉	-14.6987
骶	-14.6987
缜	-14.6987
浣	-14.6988
聞	-14.7035
驗	-14.7035
佔	-14.7035
蛊	-14.7035
雯	-14.7035
钶	-14.7083
ı	-14.7083
誌	-14.7083
瓊	-14.7083
傷	-14.7131
拚	-14.7131
獵	-14.7131
伫	-14.7131
庶	-14.7131
弭	-14.7131
荞	-14.7131
獅	-14.7179
怅	-14.7179
崧	-14.7228
奚	-14.7228
讪	-14.7228
箕	-14.7228
皓	-14.7228
诏	-14.7276
沒	-14.7277
咚	-14.7277
摁	-14.7277
忻	-14.7277
毂	-14.7277
龛	-14.7277
橫	-14.7326
桡	-14.7326
捶	-14.7326
竺	-14.7375
詩	-14.7375
赣	-14.7375
沂	-14.7424
啾	-14.7424
祁	-14.7424
娟	-14.7424
霭	-14.7424
镛	-14.7474
э	-14.7474
飲	-14.7474
哽	-14.7474
烩	-14.7474
岱	-14.7474
铯	-14.7524
燈	-14.7524
忐	-14.7574
覺	-14.7574
◆	-14.7625
鹛	-14.7625
脫	-14.7625
揩	-14.7625
韶	-14.7625
蓟	-14.7625
惡	-14.7676
忑	-14.7727
讓	-14.7727
噎	-14.7727
刍	-14.7727
觐	-14.7727
蚝	-14.7727
髻	-14.7778
這	-14.7778
镳	-14.7778
離	-14.7778
惘	-14.783
枸	-14.783
Ć	-14.783
皎	-14.7881
慶	-14.7881
疸	-14.7933
疥	-14.7933
噁	-14.7986
烽	-14.7986
燎	-14.7986
幺	-14.7986
舀	-14.7986
娛	-14.8038
貢	-14.8038
湎	-14.8038
洱	-14.8038
儆	-14.8091
囔	-14.8091
妩	-14.8091
匡	-14.8144
膈	-14.8144
蛆	-14.8145
癸	-14.8145
痣	-14.8198
鹬	-14.8198
嶼	-14.8198
蓮	-14.8198
觎	-14.8198
靜	-14.8198
蛺	-14.8198
楂	-14.8198
闰	-14.8198
籁	-14.8198
胥	-14.8252
黜	-14.8252
掂	-14.8252
矜	-14.8252
玺	-14.8252
馒	-14.8252
啧	-14.8252
砜	-14.8306
诃	-14.8306
鐘	-14.8306
É	-14.8306
倩	-14.8306
呤	-14.8306
铈	-14.8306
锶	-14.836
麒	-14.836
♦	-14.836
贊	-14.836
監	-14.836
粽	-14.8415
矾	-14.847
拈	-14.847
貨	-14.847
嘌	-14.847
忖	-14.847
欖	-14.8525
诿	-14.8525
稱	-14.8525
響	-14.8525
珐	-14.858
飕	-14.858
о	-14.8581
挎	-14.8581
韭	-14.8581
螳	-14.8636
堑	-14.8636
铍	-14.8636
蝌	-14.8636
輝	-14.8636
泾	-14.8636
蜱	-14.8693
觊	-14.8693
	-14.8693
優	-14.8693
蚪	-14.8693
搡	-14.8693
煲	-14.8749
俠	-14.8749
鳅	-14.8749
榕	-14.8749
廈	-14.8806
璜	-14.8806
幾	-14.8806
箫	-14.8806
靛	-14.8806
幣	-14.8863
紙	-14.8863
莊	-14.8863
錢	-14.8863
钯	-14.8863
咔	-14.8863
镕	-14.8863
趸	-14.8921
噗	-14.8978
诩	-14.8978
裱	-14.9036
ş	-14.9036
鋼	-14.9036
頻	-14.9036
巿	-14.9036
‛	-14.9095
芷	-14.9095
樣	-14.9095
珑	-14.9095
妍	-14.9154
矸	-14.9154
铋	-14.9154
憲	-14.9213
巳	-14.9213
瞟	-14.9272
鄧	-14.9272
傢	-14.9272
評	-14.9272
踹	-14.9272
镐	-14.9272
缥	-14.9272
隽	-14.9272
	-14.9272
赝	-14.9332
魨	-14.9332
鲷	-14.9332
蓖	-14.9393
蜃	-14.9393
詞	-14.9393
鳖	-14.9393
霎	-14.9393
瞠	-14.9393
冽	-14.9453
敘	-14.9453
慵	-14.9453
簡	-14.9453
р	-14.9453
壬	-14.9453
簌	-14.9453
藥	-14.9514
◎	-14.9514
礎	-14.9514
櫻	-14.9575
試	-14.9575
邨	-14.9575
倉	-14.9576
璃	-14.9576
铤	-14.9576
癞	-14.9576
鹳	-14.9637
災	-14.9637
賢	-14.9637
煅	-14.9637
娓	-14.9637
戾	-14.9699
醌	-14.9699
ğ	-14.9699
滿	-14.9699
胛	-14.9699
訥	-14.9699
卟	-14.9762
蛰	-14.9762
鮋	-14.9762
倌	-14.9762
隋	-14.9762
丶	-14.9825
歲	-14.9825
輔	-14.9825
髂	-14.9825
擘	-14.9825
锲	-14.9825
哔	-14.9888
篓	-14.9888
姣	-14.9888
輛	-14.9888
偉	-14.9888
孫	-14.9888
療	-14.9888
铠	-14.9952
層	-14.9952
搽	-14.9952
辕	-14.9952
绺	-14.9952
豺	-14.9952
谀	-15.0016
艮	-15.0016
麵	-15.0016
毓	-15.0016
镓	-15.008
е	-15.008
牦	-15.008
佤	-15.008
桓	-15.008
荪	-15.008
壓	-15.008
缇	-15.008
薮	-15.008
汾	-15.008
笠	-15.008
▪	-15.0145
戍	-15.0145
犸	-15.0145
缈	-15.0145
锉	-15.0211
鲟	-15.0211
陣	-15.0211
槲	-15.0211
鍊	-15.0211
撷	-15.0211
祇	-15.0211
髁	-15.0211
徕	-15.0276
徨	-15.0276
執	-15.0276
狎	-15.0276
璧	-15.0276
茴	-15.0276
蜇	-15.0343
缦	-15.0343
歡	-15.0343
讬	-15.0343
唷	-15.0343
寬	-15.0409
镊	-15.0409
拄	-15.0409
陰	-15.0409
榭	-15.0409
煦	-15.0409
泯	-15.0476
砥	-15.0476
囗	-15.0476
樵	-15.0476
諸	-15.0476
孱	-15.0476
椿	-15.0544
訴	-15.0544
給	-15.0544
絕	-15.0612
锗	-15.0612
	-15.0612
瓮	-15.0612
燊	-15.0612
绮	-15.0612
磋	-15.0678
涣	-15.068
掰	-15.068
锇	-15.0681
嬗	-15.0681
頁	-15.0681
涮	-15.0681
淖	-15.0681
畿	-15.0749
锵	-15.0749
堅	-15.0749
塚	-15.0749
挞	-15.0749
樸	-15.0749
诟	-15.0749
閃	-15.075
嚓	-15.075
嶙	-15.075
狞	-15.0819
砼	-15.0819
認	-15.0819
谑	-15.0819
濑	-15.0889
佰	-15.0889
呗	-15.0889
頂	-15.0889
儀	-15.0889
н	-15.0889
绉	-15.0889
捲	-15.0889
螈	-15.0889
沏	-15.0889
鲭	-15.0959
炜	-15.0959
璇	-15.0959
盜	-15.0959
砺	-15.0959
綱	-15.0959
耷	-15.0959
豬	-15.0959
飯	-15.0959
铌	-15.0959
識	-15.0959
雉	-15.0959
硂	-15.103
祗	-15.103
髌	-15.103
汩	-15.1102
嫣	-15.1102
祿	-15.1102
芩	-15.1102
請	-15.1102
隱	-15.1102
畢	-15.1102
磡	-15.1102
涧	-15.1102
閒	-15.1102
遨	-15.1102
谆	-15.1102
秩	-15.1173
阄	-15.1174
刈	-15.1174
匾	-15.1174
順	-15.1174
飒	-15.1174
備	-15.1174
鯨	-15.1174
懵	-15.1174
黔	-15.1174
淅	-15.1174
耆	-15.1174
阎	-15.1246
範	-15.1246
馮	-15.1246
蝦	-15.1246
蒽	-15.1246
铿	-15.1246
鬓	-15.1246
弋	-15.1246
蹶	-15.1246
呎	-15.1246
噼	-15.1246
璐	-15.1246
谴	-15.1319
绦	-15.1319
換	-15.1319
徜	-15.1319
Ø	-15.1319
粼	-15.1319
峋	-15.1319
舜	-15.1319
榉	-15.1392
邯	-15.1393
赅	-15.1393
叟	-15.1393
瀨	-15.1393
臨	-15.1393
傣	-15.1393
帑	-15.1393
杳	-15.1393
晌	-15.1393
褓	-15.1393
痂	-15.1467
礦	-15.1467
銅	-15.1467
鮠	-15.1467
幹	-15.1467
蝮	-15.1467
徉	-15.1467
槭	-15.1467
褂	-15.1541
黍	-15.1541
檔	-15.1616
勢	-15.1616
瘁	-15.1616
還	-15.1616
雞	-15.1616
菸	-15.1616
朊	-15.1617
鏢	-15.1692
惆	-15.1692
喵	-15.1692
萜	-15.1692
饯	-15.1692
抯	-15.1768
楝	-15.1769
貿	-15.1769
啁	-15.1769
緣	-15.1769
遽	-15.1769
鋸	-15.1769
胭	-15.1769
偻	-15.1845
肓	-15.1845
镌	-15.1845
颧	-15.1845
摞	-15.1845
壽	-15.1845
迢	-15.1845
掮	-15.1846
砝	-15.1923
铱	-15.1923
笙	-15.1923
酩	-15.1923
鹽	-15.1923
癜	-15.1923
殓	-15.1923
眈	-15.1923
嗎	-15.2001
碲	-15.2001
蝽	-15.2001
坩	-15.2001
岚	-15.208
據	-15.208
憶	-15.208
栎	-15.208
鸢	-15.208
吆	-15.208
咩	-15.208
羰	-15.208
颶	-15.2159
赭	-15.2159
荻	-15.2159
佝	-15.2239
頜	-15.2239
訓	-15.2239
钕	-15.2239
钍	-15.2239
埚	-15.2239
т	-15.232
筆	-15.232
鋒	-15.232
憨	-15.232
閉	-15.232
囿	-15.232
馥	-15.232
捍	-15.2399
撅	-15.2401
續	-15.2401
鑑	-15.2401
階	-15.2401
鸚	-15.2401
琛	-15.2401
鸫	-15.2483
複	-15.2483
禹	-15.2483
倭	-15.2483
尓	-15.2566
羌	-15.2566
咦	-15.2566
偵	-15.2566
昊	-15.2566
額	-15.2566
с	-15.2566
牍	-15.2566
郵	-15.2566
萸	-15.2566
镂	-15.2566
痼	-15.2566
Ç	-15.2649
側	-15.2649
鯊	-15.2649
鱨	-15.2649
彌	-15.2649
抠	-15.2649
顯	-15.2649
讣	-15.2649
铟	-15.2733
戋	-15.2733
祐	-15.2733
彥	-15.2733
蛭	-15.2733
讧	-15.2733
鵝	-15.2733
財	-15.2733
胍	-15.2733
裡	-15.2733
沱	-15.2818
懑	-15.2818
攝	-15.2818
迳	-15.2818
√	-15.2818
潔	-15.2818
潍	-15.2818
榫	-15.2903
趙	-15.2903
鱔	-15.2903
痿	-15.2903
須	-15.2903
馋	-15.2903
擞	-15.2903
衙	-15.299
該	-15.299
龐	-15.299
娑	-15.299
戌	-15.299
買	-15.3076
貞	-15.3077
鶴	-15.3077
∙	-15.3164
蕈	-15.3164
碴	-15.3164
伱	-15.3164
郸	-15.3164
純	-15.3164
鰍	-15.3164
泮	-15.3253
哧	-15.3253
覽	-15.3253
帛	-15.3253
暄	-15.3253
栀	-15.3253
镗	-15.3253
撂	-15.3253
猷	-15.3253
氚	-15.3342
ā	-15.3342
吲	-15.3342
扈	-15.3342
蚣	-15.3342
亂	-15.3342
杵	-15.3342
鮭	-15.3342
啕	-15.3342
梓	-15.3342
甭	-15.3342
闵	-15.3342
畴	-15.3432
襲	-15.3432
誠	-15.3432
诛	-15.3432
斷	-15.3432
莠	-15.3432
鴨	-15.3432
蹙	-15.3432
镧	-15.3432
陇	-15.3432
襁	-15.3432
铧	-15.3523
翎	-15.3523
堇	-15.3523
蜈	-15.3523
驚	-15.3523
Ñ	-15.3523
贲	-15.3523
並	-15.3615
蒡	-15.3615
Ü	-15.3615
庵	-15.3615
đ	-15.3707
潟	-15.3707
芍	-15.3707
麾	-15.3707
恆	-15.3707
捱	-15.3707
胄	-15.3707
苋	-15.3707
屍	-15.3707
痍	-15.3707
蓦	-15.3707
藕	-15.3801
幟	-15.3801
碉	-15.3801
閣	-15.3801
鯽	-15.3801
噱	-15.3801
穦	-15.3801
ė	-15.3895
燧	-15.3895
诮	-15.3895
卅	-15.3895
韬	-15.3895
犷	-15.3895
螟	-15.3896
訇	-15.399
鲶	-15.399
鹈	-15.399
酞	-15.399
鱈	-15.399
鳝	-15.399
掬	-15.399
浃	-15.399
綫	-15.399
抿	-15.399
氖	-15.399
蹉	-15.399
钹	-15.399
筲	-15.399
阙	-15.3991
峪	-15.4087
唛	-15.4087
曉	-15.4087
嵩	-15.4087
臊	-15.4087
鼩	-15.4087
夙	-15.4087
芎	-15.4087
莘	-15.4184
滾	-15.4184
	-15.4184
寫	-15.4184
檢	-15.4184
铮	-15.4184
扦	-15.4184
	-15.4282
┱	-15.4282
噤	-15.4282
轟	-15.4282
婦	-15.4282
澍	-15.4381
颏	-15.4381
叻	-15.4381
譯	-15.4381
鍾	-15.4381
塊	-15.4381
頸	-15.4381
遑	-15.4381
倏	-15.4381
審	-15.4381
殒	-15.4381
怔	-15.448
俪	-15.4481
棗	-15.4481
壘	-15.4481
媽	-15.4481
鵙	-15.4481
痞	-15.4481
徳	-15.4481
漳	-15.4481
鰕	-15.4582
鹕	-15.4582
嵴	-15.4582
蹼	-15.4684
跖	-15.4684
搖	-15.4684
咝	-15.4684
哚	-15.4684
溝	-15.4684
鰓	-15.4684
钜	-15.4684
棣	-15.4684
蹿	-15.4684
	-15.4684
淄	-15.4684
袂	-15.4684
蛞	-15.4684
绶	-15.4787
磯	-15.4787
誕	-15.4787
獄	-15.4787
習	-15.4787
蕭	-15.4787
幡	-15.4787
肟	-15.4787
龊	-15.4787
ㄓ	-15.4787
皖	-15.4787
梆	-15.4787
晟	-15.4891
荤	-15.4891
蚴	-15.4891
價	-15.4891
從	-15.4891
蝾	-15.4891
龌	-15.4891
氘	-15.4891
仟	-15.4996
玮	-15.4996
稔	-15.4996
	-15.4996
裆	-15.4996
鲫	-15.5102
窠	-15.5103
桀	-15.5103
廟	-15.5103
İ	-15.5103
饕	-15.5103
舶	-15.5209
糅	-15.521
餅	-15.521
铑	-15.521
埗	-15.521
嫔	-15.521
蝓	-15.521
筱	-15.5319
鳐	-15.5319
媾	-15.5319
棲	-15.5319
碞	-15.5319
鬈	-15.5319
捺	-15.5319
囹	-15.5319
愆	-15.5319
甬	-15.5319
螫	-15.5429
肄	-15.5429
◇	-15.5429
晷	-15.5429
篙	-15.5429
¥	-15.5429
麂	-15.5429
羿	-15.5429
杓	-15.554
叵	-15.554
齡	-15.554
黠	-15.554
舐	-15.554
̈	-15.554
δ	-15.554
養	-15.554
淙	-15.554
淺	-15.554
î	-15.554
宦	-15.554
掖	-15.554
柩	-15.554
纰	-15.554
泓	-15.554
郴	-15.554
珲	-15.5652
骁	-15.5652
靳	-15.5652
骛	-15.5652
玖	-15.5652
ぐ	-15.5652
況	-15.5652
砚	-15.5652
蘿	-15.5652
髮	-15.5652
劑	-15.5652
氪	-15.5652
滅	-15.5652
蠡	-15.5652
柞	-15.5652
	-15.5652
嗷	-15.5652
誤	-15.5652
軸	-15.5652
侗	-15.5652
圄	-15.5652
焓	-15.5652
Τ	-15.5766
硷	-15.5766
	-15.5766
浜	-15.5766
醣	-15.5766
擀	-15.5766
膠	-15.5766
饨	-15.5766
昴	-15.5766
掴	-15.5766
佘	-15.5766
蜊	-15.5881
蠹	-15.5881
檗	-15.5881
緯	-15.5881
畦	-15.5881
萱	-15.5881
顏	-15.5881
晉	-15.5881
璶	-15.5881
鮈	-15.5881
仃	-15.5881
妲	-15.5881
塾	-15.5881
飚	-15.5881
颍	-15.5997
酉	-15.5997
彀	-15.5997
殼	-15.5997
	-15.5997
婀	-15.5997
蛔	-15.5997
馊	-15.5997
钇	-15.5997
鸯	-15.5997
闆	-15.5997
泸	-15.5997
鲽	-15.6115
呦	-15.6115
曜	-15.6115
莆	-15.6115
擤	-15.6115
絡	-15.6115
胯	-15.6115
譚	-15.6115
預	-15.6115
葩	-15.6115
桢	-15.6115
谒	-15.6115
鏈	-15.6115
峇	-15.6234
嗑	-15.6234
谗	-15.6234
沖	-15.6234
狰	-15.6234
砲	-15.6234
贰	-15.6234
焖	-15.6234
恻	-15.6354
抡	-15.6354
尋	-15.6354
坨	-15.6354
虻	-15.6354
隕	-15.6354
鱇	-15.6354
鳚	-15.6354
嗳	-15.6354
镎	-15.6354
顛	-15.6354
	-15.6354
ò	-15.6354
熹	-15.6354
篾	-15.6354
蒺	-15.6476
铊	-15.6476
鲣	-15.6476
堀	-15.6476
聽	-15.6476
跎	-15.6476
	-15.6476
д	-15.6476
濯	-15.6476
鸪	-15.66
в	-15.66
叱	-15.66
犄	-15.66
蘖	-15.66
轼	-15.66
鮟	-15.66
繪	-15.66
藿	-15.66
璞	-15.66
蒴	-15.66
к	-15.66
劵	-15.66
吋	-15.66
咻	-15.66
怏	-15.66
滂	-15.6725
冼	-15.6725
嗥	-15.6725
煙	-15.6725
匯	-15.6725
針	-15.6725
桠	-15.6725
笵	-15.6725
硖	-15.6725
€	-15.6725
Α	-15.6851
嘹	-15.6851
淵	-15.6851
腳	-15.6851
幫	-15.6851
碇	-15.6851
簽	-15.6851
	-15.6851
莨	-15.6851
螅	-15.6851
	-15.6851
佻	-15.6851
奂	-15.6851
脒	-15.6852
鲛	-15.6979
鸬	-15.6979
璋	-15.6979
鴻	-15.6979
怆	-15.6979
鸳	-15.6979
衆	-15.6979
篆	-15.698
椋	-15.7109
锃	-15.7109
呷	-15.7109
觸	-15.7109
魟	-15.7109
獒	-15.7109
祺	-15.7109
腎	-15.7109
烊	-15.7109
菪	-15.7109
棂	-15.7109
濠	-15.7109
礙	-15.7241
骜	-15.7241
馄	-15.7241
栉	-15.7241
曆	-15.7241
歸	-15.7241
鵡	-15.7241
椽	-15.7241
談	-15.7241
晏	-15.7241
荽	-15.7241
铒	-15.7241
杈	-15.7374
討	-15.7374
呸	-15.7374
捋	-15.7374
斛	-15.7374
燒	-15.7374
	-15.7374
獻	-15.7374
顧	-15.7374
汨	-15.7509
銷	-15.7509
譽	-15.7509
ω	-15.7509
崴	-15.7509
苓	-15.7509
芫	-15.7509
騰	-15.7509
鯡	-15.7509
蕙	-15.7509
懿	-15.7509
補	-15.7509
鮨	-15.7509
鲎	-15.7509
蛐	-15.7509
戕	-15.7509
☆	-15.7509
嫡	-15.7509
卞	-15.7509
埂	-15.7509
豉	-15.7509
旌	-15.751
沆	-15.751
巯	-15.7646
壞	-15.7646
殚	-15.7646
蝰	-15.7646
鹧	-15.7646
羲	-15.7646
鱲	-15.7646
鹜	-15.7646
禺	-15.7646
擢	-15.7646
窈	-15.7647
荠	-15.7785
岷	-15.7785
捩	-15.7785
譜	-15.7785
釋	-15.7785
浒	-15.7785
鍵	-15.7785
蠓	-15.7785
俳	-15.7785
錯	-15.7785
嘭	-15.7785
锺	-15.7926
缨	-15.7926
萄	-15.7926
箩	-15.7926
緒	-15.7926
腸	-15.7926
ň	-15.7926
†	-15.7926
偃	-15.7926
槁	-15.7926
繩	-15.7926
嬴	-15.7926
笏	-15.7926
陲	-15.7926
圩	-15.8069
诨	-15.8069
嚴	-15.8069
菖	-15.8069
軒	-15.8069
錐	-15.8069
鹪	-15.8069
谏	-15.8069
孑	-15.8069
揄	-15.8069
渚	-15.8069
伉	-15.8214
昇	-15.8214
稅	-15.8214
槳	-15.8214
鎖	-15.8214
鱥	-15.8214
荀	-15.8214
у	-15.8214
嗬	-15.8214
谔	-15.8214
锏	-15.8214
揶	-15.8214
赳	-15.8214
钣	-15.8214
鸶	-15.8214
瀣	-15.8214
嗄	-15.836
峁	-15.8361
噘	-15.8361
̧	-15.8361
ń	-15.8361
л	-15.8361
抰	-15.8361
鹟	-15.8361
潤	-15.8361
̄	-15.8361
毀	-15.8361
啷	-15.8361
犒	-15.8361
庖	-15.8361
础	-15.8508
盅	-15.851
鄱	-15.851
荏	-15.851
珏	-15.851
願	-15.851
婭	-15.851
鑽	-15.851
愫	-15.851
擴	-15.851
槃	-15.851
泗	-15.851
鲔	-15.851
偌	-15.851
杷	-15.851
窕	-15.851
妁	-15.8661
鸨	-15.8662
噴	-15.8662
縱	-15.8662
鳴	-15.8662
桿	-15.8662
羸	-15.8662
吖	-15.8662
鹚	-15.8662
亳	-15.8662
ś	-15.8662
苎	-15.8662
馐	-15.8815
咿	-15.8815
醯	-15.8815
缬	-15.8815
繼	-15.8816
霧	-15.8816
尻	-15.8816
潴	-15.8816
賣	-15.8816
鑲	-15.8816
籠	-15.8816
玳	-15.8816
舛	-15.8816
旖	-15.8816
濡	-15.8816
胝	-15.8816
餮	-15.8816
嗔	-15.8972
嵘	-15.8972
餘	-15.8972
獠	-15.8972
碁	-15.8972
籼	-15.8972
ㄆ	-15.8972
瘴	-15.8972
隨	-15.8972
飾	-15.8972
偽	-15.8972
壯	-15.8972
焯	-15.8972
祯	-15.8972
镫	-15.8972
犰	-15.8972
産	-15.8972
確	-15.8972
篦	-15.8972
胬	-15.8972
痨	-15.8972
礴	-15.8972
洩	-15.8972
〃	-15.8972
Đ	-15.913
瞿	-15.913
蔫	-15.913
г	-15.913
峥	-15.913
А	-15.913
膘	-15.913
鞅	-15.913
髯	-15.913
汊	-15.9131
ネ	-15.9131
讀	-15.9131
骅	-15.9131
阖	-15.9131
稗	-15.9131
丞	-15.9131
宥	-15.9131
ý	-15.9131
濮	-15.9131
旎	-15.9131
枇	-15.9131
沅	-15.9131
愎	-15.9292
緊	-15.9292
僱	-15.9292
縮	-15.9292
齋	-15.9292
煨	-15.9292
镅	-15.9292
θ	-15.9292
讦	-15.9292
蹟	-15.9292
瀛	-15.9292
蓼	-15.9456
ß	-15.9456
蜆	-15.9456
‵	-15.9622
笈	-15.9622
靥	-15.9622
檫	-15.9622
繆	-15.9622
赀	-15.9622
髭	-15.9622
鹩	-15.9622
	-15.9622
õ	-15.9622
傭	-15.9622
钌	-15.9622
囧	-15.9623
鲆	-15.9792
仄	-15.9792
掇	-15.9792
	-15.9792
衪	-15.9792
鰈	-15.9792
儲	-15.9792
蒼	-15.9792
蟻	-15.9792
	-15.9792
狳	-15.9792
臧	-15.9792
ł	-15.9792
蛟	-15.9792
豢	-15.9792
屐	-15.9792
О	-15.9964
崂	-15.9964
婕	-15.9964
徏	-15.9964
佈	-15.9964
噙	-15.9964
豇	-15.9964
⊙	-15.9964
碩	-15.9964
鯪	-15.9964
佗	-15.9964
傘	-15.9964
廚	-15.9964
邏	-15.9964
鈍	-15.9964
黴	-15.9964
龇	-15.9964
ら	-15.9964
„	-15.9964
怩	-15.9964
壅	-15.9965
咛	-16.014
懋	-16.014
稜	-16.014
聒	-16.014
	-16.014
珞	-16.014
薏	-16.014
敗	-16.014
м	-16.014
蚧	-16.014
俎	-16.014
怙	-16.014
奬	-16.0318
茗	-16.0318
瑁	-16.0318
胴	-16.0318
鲇	-16.0318
咂	-16.0318
啲	-16.0318
撲	-16.0318
蘋	-16.0318
飨	-16.0318
蓣	-16.0318
の	-16.0318
胼	-16.0318
よ	-16.0318
朕	-16.0318
З	-16.0318
舫	-16.0319
赁	-16.0499
拋	-16.05
茏	-16.05
胪	-16.05
腩	-16.05
诶	-16.05
哞	-16.05
昕	-16.05
甑	-16.05
Œ	-16.05
壺	-16.05
蓑	-16.05
謬	-16.05
貫	-16.05
鈎	-16.05
钰	-16.05
œ	-16.05
腴	-16.05
蚋	-16.05
霏	-16.05
̊	-16.05
淼	-16.05
辋	-16.05
遙	-16.05
	-16.05
骺	-16.0685
嶂	-16.0685
糗	-16.0685
龉	-16.0685
埼	-16.0685
漁	-16.0685
纔	-16.0685
诂	-16.0685
	-16.0685
ì	-16.0685
壇	-16.0685
穌	-16.0685
蒐	-16.0685
諜	-16.0685
滦	-16.0685
眔	-16.0685
	-16.0685
诰	-16.0685
鸮	-16.0685
忸	-16.0685
烨	-16.0685
稣	-16.0874
	-16.0874
龃	-16.0874
剜	-16.0874
忤	-16.0874
榧	-16.0874
衢	-16.0874
轄	-16.0874
狹	-16.0874
篑	-16.0874
適	-16.0874
钊	-16.0874
ε	-16.0874
叢	-16.0874
岿	-16.0874
珩	-16.0874
粳	-16.0874
膽	-16.0874
蔣	-16.0874
鲢	-16.0874
楸	-16.0874
舢	-16.0874
娣	-16.0874
睚	-16.0874
罟	-16.0874
貉	-16.0874
蚬	-16.0874
訪	-16.1066
増	-16.1066
瘿	-16.1066
衲	-16.1066
»	-16.1066
鉤	-16.1066
镦	-16.1066
鮃	-16.1066
聰	-16.1066
遞	-16.1066
鹞	-16.1066
る	-16.1066
诳	-16.1066
	-16.1066
κ	-16.1067
い	-16.1262
ř	-16.1262
橼	-16.1262
燮	-16.1262
菀	-16.1262
蜉	-16.1262
⊿	-16.1262
纖	-16.1262
謎	-16.1262
賊	-16.1262
輻	-16.1262
鄰	-16.1262
啐	-16.1262
瑾	-16.1262
硐	-16.1262
稷	-16.1262
	-16.1262
π	-16.1262
悻	-16.1262
較	-16.1262
	-16.1262
纨	-16.1262
焗	-16.1262
逵	-16.1262
钸	-16.1262
铙	-16.1459
忾	-16.1462
黩	-16.1462
Ó	-16.1462
埸	-16.1462
疊	-16.1462
菏	-16.1462
賭	-16.1462
跡	-16.1462
鲀	-16.1462
渦	-16.1462
瓯	-16.1462
綿	-16.1462
聿	-16.1462
蘆	-16.1462
鵰	-16.1462
愠	-16.1462
滁	-16.1462
箝	-16.1462
罅	-16.1462
姘	-16.1666
負	-16.1666
冊	-16.1666
悅	-16.1666
濃	-16.1666
瘋	-16.1666
穀	-16.1666
篤	-16.1666
鯙	-16.1666
́	-16.1666
啭	-16.1666
弑	-16.1666
脍	-16.1666
镬	-16.1666
駝	-16.1666
課	-16.1667
桧	-16.1667
薹	-16.1667
‧	-16.1667
蠊	-16.1667
躅	-16.1667
趄	-16.1667
踯	-16.1667
邬	-16.1667
	-16.1875
橛	-16.1875
蛉	-16.1875
捌	-16.1875
蝣	-16.1875
诌	-16.1875
­	-16.1875
炕	-16.1875
猁	-16.1875
疖	-16.1875
託	-16.1875
鯔	-16.1875
涼	-16.1875
紗	-16.1875
翳	-16.1875
襞	-16.1875
謙	-16.1875
醬	-16.1875
骐	-16.1875
嘅	-16.1875
瑛	-16.1875
祜	-16.1875
ð	-16.1875
ī	-16.1875
釆	-16.1875
巽	-16.1875
悭	-16.1875
減	-16.1875
鄢	-16.1875
椴	-16.2087
瞑	-16.2087
珉	-16.2087
	-16.2087
¤	-16.2088
弼	-16.2088
飑	-16.2088
碛	-16.2088
觞	-16.2088
颔	-16.2088
丕	-16.2088
佚	-16.2088
帼	-16.2088
潼	-16.2088
籴	-16.2088
舂	-16.2088
蠟	-16.2088
鹂	-16.2088
殭	-16.2088
苤	-16.2088
鲂	-16.2088
嘁	-16.2088
钋	-16.2088
趔	-16.2088
栾	-16.2305
‡	-16.2305
卻	-16.2305
瓤	-16.2305
牆	-16.2305
塵	-16.2305
壩	-16.2305
彎	-16.2305
猞	-16.2305
獴	-16.2305
竽	-16.2305
鰺	-16.2305
唏	-16.2305
潸	-16.2305
糸	-16.2305
髡	-16.2305
鬍	-16.2305
涔	-16.2305
	-16.2305
喑	-16.2305
裾	-16.2305
畑	-16.2527
б	-16.2527
呓	-16.2527
夠	-16.2527
嵊	-16.2527
帥	-16.2527
煜	-16.2527
爐	-16.2527
鸲	-16.2527
煸	-16.2527
	-16.2527
癔	-16.2527
酢	-16.2527
	-16.2527
ō	-16.2527
砒	-16.2527
锒	-16.2527
芡	-16.2527
ǎ	-16.2754
咣	-16.2754
铼	-16.2754
Å	-16.2754
帳	-16.2754
銘	-16.2754
鮡	-16.2754
鮰	-16.2754
鱧	-16.2754
勁	-16.2754
氫	-16.2754
淚	-16.2754
簪	-16.2754
绫	-16.2754
裏	-16.2754
钗	-16.2754
娲	-16.2754
媪	-16.2754
琏	-16.2754
秕	-16.2754
睇	-16.2755
唰	-16.2755
笹	-16.2986
嵋	-16.2987
馍	-16.2987
燠	-16.2987
顎	-16.2987
骥	-16.2987
䲁	-16.2987
奪	-16.2987
棟	-16.2987
蠅	-16.2987
讚	-16.2987
鰨	-16.2987
枳	-16.2987
τ	-16.2987
й	-16.2987
荇	-16.2987
Ο	-16.2987
∑	-16.2987
墉	-16.3225
噌	-16.3225
悌	-16.3225
С	-16.3225
缟	-16.3225
勐	-16.3225
娈	-16.3225
	-16.3225
傧	-16.3225
億	-16.3225
銮	-16.3225
愀	-16.3225
狨	-16.3225
蔺	-16.3225
蛱	-16.3225
鉛	-16.3225
韻	-16.3225
駒	-16.3225
茔	-16.3225
轫	-16.3225
沭	-16.3225
纛	-16.3225
钬	-16.3225
鲵	-16.3225
椹	-16.3225
碜	-16.3225
	-16.3225
厝	-16.3225
氐	-16.3225
п	-16.3469
橹	-16.3469
盡	-16.3469
逻	-16.3469
黉	-16.3469
ˉ	-16.3469
堯	-16.3469
嵐	-16.3469
幄	-16.3469
椐	-16.3469
艉	-16.3469
苡	-16.3469
鲃	-16.3469
Ω	-16.3469
筠	-16.3469
購	-16.3469
铨	-16.3469
Δ	-16.3469
я	-16.3469
揿	-16.3469
砭	-16.3469
饬	-16.3469
ū	-16.3469
△	-16.3719
Ä	-16.3719
	-16.3719
玟	-16.3719
衩	-16.3719
鶯	-16.3719
鷲	-16.3719
	-16.3719
	-16.3719
櫃	-16.3719
絨	-16.3719
腫	-16.3719
註	-16.3719
頌	-16.3719
骠	-16.3719
	-16.3719
夾	-16.3719
耄	-16.3719
腘	-16.3719
嗟	-16.3719
聩	-16.3719
講	-16.3719
锕	-16.3719
嶦	-16.3719
裥	-16.3719
谲	-16.3719
抟	-16.3719
	-16.3975
蟠	-16.3975
輋	-16.3975
狺	-16.3975
	-16.3975
Σ	-16.3975
獺	-16.3975
¢	-16.3975
铷	-16.3975
懸	-16.3975
擇	-16.3975
敵	-16.3975
蔭	-16.3975
谵	-16.3975
醜	-16.3975
鴉	-16.3975
鴞	-16.3975
┮	-16.3975
婺	-16.3975
懼	-16.3975
畲	-16.3975
眞	-16.3975
辯	-16.3975
竒	-16.3975
筁	-16.3975
绀	-16.3975
踟	-16.3975
ă	-16.3976
柢	-16.3976
镱	-16.3976
辎	-16.4238
瓿	-16.4238
轾	-16.4239
歎	-16.4239
苒	-16.4239
鲕	-16.4239
Ð	-16.4239
嶋	-16.4239
‚	-16.4239
揮	-16.4239
櫛	-16.4239
瀧	-16.4239
煥	-16.4239
爺	-16.4239
牝	-16.4239
臥	-16.4239
蟬	-16.4239
袢	-16.4239
閩	-16.4239
鮫	-16.4239
	-16.4239
娆	-16.4239
髑	-16.4239
ы	-16.4239
岘	-16.4239
採	-16.4239
淨	-16.4239
缢	-16.4239
褔	-16.4239
鸻	-16.4239
抎	-16.4239
嘣	-16.4239
	-16.4239
泱	-16.4239
濛	-16.4239
裟	-16.4239
隹	-16.4509
В	-16.4509
稃	-16.4509
胤	-16.4509
鳉	-16.4509
殇	-16.4509
鲉	-16.4509
侖	-16.4509
墳	-16.4509
崗	-16.4509
曷	-16.4509
棄	-16.4509
樞	-16.4509
濕	-16.4509
禦	-16.4509
禪	-16.4509
綾	-16.4509
纜	-16.4509
頒	-16.4509
鷗	-16.4509
聶	-16.4509
	-16.4509
挲	-16.4509
莳	-16.4509
槎	-16.4509
郅	-16.4509
抻	-16.4509
黢	-16.4509
珙	-16.4509
╳	-16.4786
穑	-16.4787
¿	-16.4787
臟	-16.4787
凫	-16.4787
❑	-16.4787
キ	-16.4787
佢	-16.4787
慾	-16.4787
菟	-16.4787
跗	-16.4787
	-16.4787
茛	-16.4787
讴	-16.4787
挈	-16.4787
鹀	-16.4787
ㄒ	-16.4787
钅	-16.5072
睨	-16.5072
茯	-16.5072
̃	-16.5072
λ	-16.5072
粑	-16.5072
債	-16.5072
噔	-16.5072
穩	-16.5072
窩	-16.5072
粵	-16.5072
菂	-16.5072
饴	-16.5072
鲯	-16.5072
鳩	-16.5072
鵬	-16.5072
ا	-16.5072
寵	-16.5072
玎	-16.5072
豔	-16.5072
Β	-16.5072
僮	-16.5072
峒	-16.5072
窨	-16.5072
迤	-16.5072
爰	-16.5072
涪	-16.5072
垭	-16.5072
缁	-16.5073
ж	-16.5073
佟	-16.5366
谌	-16.5366
丟	-16.5366
姝	-16.5366
撾	-16.5366
痱	-16.5366
矍	-16.5366
誘	-16.5366
誼	-16.5366
騷	-16.5366
鶇	-16.5366
ǐ	-16.5366
燦	-16.5366
眦	-16.5366
蛸	-16.5366
誰	-16.5366
铪	-16.5366
掃	-16.5366
漕	-16.5366
翊	-16.5366
缙	-16.5367
蚺	-16.5367
	-16.5367
撸	-16.5367
栢	-16.5367
缒	-16.5367
蹰	-16.5367
〝	-16.5367
灏	-16.5367
楦	-16.5669
钆	-16.5669
〜	-16.5669
≥	-16.5669
抣	-16.5669
磬	-16.5669
醪	-16.5669
堺	-16.5669
昱	-16.5669
氲	-16.5669
篠	-16.5669
铩	-16.5669
䲗	-16.5669
俬	-16.5669
戡	-16.5669
楓	-16.5669
玑	-16.5669
肅	-16.5669
蹤	-16.5669
钪	-16.5669
鱉	-16.5669
鳔	-16.5669
剎	-16.567
逡	-16.567
铳	-16.567
鼢	-16.567
	-16.567
辇	-16.567
塬	-16.567
毘	-16.567
煩	-16.567
庾	-16.567
粲	-16.567
芾	-16.5982
岫	-16.5982
芘	-16.5982
鄯	-16.5982
褚	-16.5982
闊	-16.5982
沵	-16.5982
	-16.5982
م	-16.5982
厭	-16.5982
呣	-16.5982
抦	-16.5982
績	-16.5982
纣	-16.5982
蓊	-16.5982
蝸	-16.5982
銳	-16.5982
鱘	-16.5982
乜	-16.5982
妪	-16.5982
婁	-16.5982
彙	-16.5982
皲	-16.5982
窸	-16.5982
緋	-16.5982
莖	-16.5982
螢	-16.5982
賞	-16.5982
銜	-16.5982
鎧	-16.5982
铄	-16.5982
頰	-16.5982
驕	-16.5982
鱒	-16.5982
鷺	-16.5982
	-16.5982
	-16.5982
囵	-16.5982
罰	-16.5982
虬	-16.5982
艏	-16.5982
責	-16.5982
郯	-16.5982
逖	-16.5982
鍋	-16.5982
钏	-16.5982
ぷ	-16.5982
餍	-16.5982
	-16.5982
旮	-16.6304
鹎	-16.6304
垃	-16.6304
Í	-16.6304
疳	-16.6304
薑	-16.6304
傩	-16.6305
颉	-16.6305
	-16.6305
孬	-16.6305
	-16.6305
≤	-16.6305
侶	-16.6305
兖	-16.6305
湟	-16.6305
濁	-16.6305
皋	-16.6305
詠	-16.6305
躄	-16.6305
駿	-16.6305
鵑	-16.6305
И	-16.6305
哐	-16.6305
漿	-16.6305
祕	-16.6305
窣	-16.6305
	-16.6305
←	-16.6305
囫	-16.6305
疭	-16.6305
縩	-16.6305
	-16.6305
	-16.6305
墒	-16.6305
敎	-16.6305
焘	-16.6305
曩	-16.6305
绔	-16.6305
鸸	-16.6638
鎏	-16.6638
锨	-16.6638
ƒ	-16.6638
倨	-16.6638
旻	-16.6638
墜	-16.6638
楹	-16.6638
侩	-16.6638
樨	-16.6638
欄	-16.6638
猡	-16.6638
鐸	-16.6638
隍	-16.6638
隸	-16.6638
髒	-16.6638
鴿	-16.6638
傾	-16.6638
崙	-16.6638
錶	-16.6638
骊	-16.6638
鶲	-16.6638
鹼	-16.6638
忪	-16.6638
栃	-16.6638
芨	-16.6638
鲼	-16.6638
	-16.6638
嗲	-16.6638
癬	-16.6638
缫	-16.6638
蛄	-16.6638
隈	-16.6638
岀	-16.6638
闫	-16.6638
呶	-16.6638
鄞	-16.6638
凇	-16.6638
奘	-16.6638
嫘	-16.6638
鲡	-16.6638
颀	-16.6638
砻	-16.6638
浠	-16.6639
喁	-16.6982
揖	-16.6983
	-16.6983
鸷	-16.6983
咁	-16.6983
剐	-16.6983
滙	-16.6983
旯	-16.6983
檳	-16.6983
嗫	-16.6983
嬌	-16.6983
漸	-16.6983
蠍	-16.6983
	-16.6983
ρ	-16.6983
塢	-16.6983
揆	-16.6983
泠	-16.6983
禗	-16.6983
籤	-16.6983
紳	-16.6983
臉	-16.6983
蘚	-16.6983
螣	-16.6983
铕	-16.6983
閱	-16.6983
韃	-16.6983
÷	-16.6983
冇	-16.6983
犟	-16.6983
	-16.6983
宸	-16.6983
泔	-16.6983
滘	-16.6983
秣	-16.6983
绗	-16.6983
鼱	-16.6983
颦	-16.6983
鲲	-16.6983
橥	-16.6983
ù	-16.734
鹋	-16.734
怵	-16.734
σ	-16.734
	-16.734
ㄇ	-16.734
Φ	-16.734
Н	-16.734
锝	-16.734
У	-16.734
咤	-16.734
覃	-16.734
毽	-16.734
褫	-16.734
铡	-16.734
镝	-16.734
鹮	-16.734
	-16.734
屙	-16.734
峯	-16.734
穎	-16.734
薔	-16.734
訶	-16.734
鯧	-16.734
涐	-16.734
訂	-16.734
迺	-16.734
鹱	-16.734
仨	-16.734
唢	-16.734
帏	-16.734
淞	-16.734
з	-16.734
褊	-16.734
貼	-16.734
谪	-16.734
	-16.734
琨	-16.734
氵	-16.734
衮	-16.734
│	-16.771
辚	-16.771
奁	-16.771
绛	-16.771
魣	-16.771
そ	-16.771
诓	-16.771
铽	-16.771
	-16.771
ě	-16.771
鯷	-16.771
は	-16.771
瑤	-16.771
虺	-16.771
齣	-16.771
摂	-16.771
桤	-16.771
犭	-16.771
窮	-16.771
醴	-16.771
饒	-16.771
	-16.771
垅	-16.771
撙	-16.771
葶	-16.771
黒	-16.771
Ф	-16.771
な	-16.771
嘤	-16.771
痧	-16.771
砣	-16.771
稞	-16.771
瓴	-16.771
睢	-16.771
鸩	-16.771
孛	-16.771
幷	-16.771
だ	-16.771
芑	-16.771
凼	-16.8095
怼	-16.8095
	-16.8095
ˆ	-16.8095
違	-16.8095
鳎	-16.8095
憂	-16.8095
損	-16.8095
胨	-16.8095
襪	-16.8095
Ú	-16.8095
昶	-16.8095
樑	-16.8095
萩	-16.8095
踽	-16.8095
∠	-16.8095
僑	-16.8095
喪	-16.8095
濾	-16.8095
緝	-16.8095
纡	-16.8095
褲	-16.8095
遷	-16.8095
鉉	-16.8095
獐	-16.8095
綃	-16.8095
耋	-16.8095
	-16.8095
燭	-16.8095
箨	-16.8095
	-16.8095
Р	-16.8095
姹	-16.8095
恹	-16.8095
渌	-16.8095
滢	-16.8095
谶	-16.8095
埕	-16.8095
鲅	-16.8095
椤	-16.8095
祆	-16.8095
劭	-16.8095
洮	-16.8095
砀	-16.8095
枰	-16.8095
袈	-16.8095
砟	-16.8495
帙	-16.8495
玥	-16.8495
祚	-16.8495
	-16.8495
	-16.8495
疃	-16.8495
	-16.8495
	-16.8495
ţ	-16.8495
氤	-16.8495
«	-16.8495
抳	-16.8495
辔	-16.8495
驷	-16.8495
	-16.8495
悒	-16.8495
П	-16.8495
み	-16.8495
勰	-16.8495
勵	-16.8495
喚	-16.8495
樺	-16.8495
橢	-16.8495
膚	-16.8495
莜	-16.8495
蔔	-16.8495
靂	-16.8495
ᆼ	-16.8495
硪	-16.8495
馳	-16.8495
鮗	-16.8495
鳢	-16.8495
咲	-16.8495
泅	-16.8495
猭	-16.8495
鎌	-16.8495
暸	-16.8495
澹	-16.8495
嬰	-16.8495
圹	-16.8495
牾	-16.8495
澧	-16.8495
	-16.8495
猓	-16.8911
ノ	-16.8911
噹	-16.8911
≡	-16.8911
筘	-16.8911
狯	-16.8911
併	-16.8912
奮	-16.8912
饽	-16.8912
齦	-16.8912
凍	-16.8912
擲	-16.8912
笤	-16.8912
絹	-16.8912
脔	-16.8912
艷	-16.8912
蝨	-16.8912
詢	-16.8912
謠	-16.8912
貧	-16.8912
遼	-16.8912
鉀	-16.8912
鎚	-16.8912
鐮	-16.8912
顆	-16.8912
魴	-16.8912
鰾	-16.8912
	-16.8912
®	-16.8912
呯	-16.8912
喆	-16.8912
砑	-16.8912
臾	-16.8912
蝕	-16.8912
謊	-16.8912
钐	-16.8912
	-16.8912
	-16.8912
槓	-16.8912
爿	-16.8912
苴	-16.8912
莼	-16.8912
骈	-16.8912
嵯	-16.8912
薅	-16.8912
赧	-16.8912
鼯	-16.8912
閘	-16.8912
胂	-16.9346
虢	-16.9346
竦	-16.9346
	-16.9346
駕	-16.9346
暢	-16.9346
鹨	-16.9346
	-16.9346
¶	-16.9346
勸	-16.9346
妝	-16.9346
怄	-16.9346
擾	-16.9346
栲	-16.9346
湧	-16.9346
辭	-16.9346
濤	-16.9346
磧	-16.9346
繡	-16.9346
蟎	-16.9346
蠶	-16.9346
騙	-16.9346
鬆	-16.9346
鬱	-16.9346
Θ	-16.9346
≈	-16.9346
夔	-16.9346
溼	-16.9346
禱	-16.9346
苁	-16.9346
阒	-16.9346
	-16.9346
ل	-16.9346
ウ	-16.9346
璁	-16.9346
羣	-16.9346
芴	-16.9346
鑷	-16.9346
黧	-16.9346
刋	-16.9346
啓	-16.9346
挢	-16.9346
擔	-16.9346
柰	-16.9346
煊	-16.9346
馔	-16.9346
菝	-16.9346
衞	-16.9346
祉	-16.98
蟮	-16.98
砵	-16.9801
箸	-16.9801
∪	-16.9801
溘	-16.9801
橐	-16.9801
	-16.9801
呲	-16.9801
鲦	-16.9801
侑	-16.9801
眖	-16.9801
ē	-16.9801
哋	-16.9801
柘	-16.9801
葜	-16.9801
潞	-16.9801
醍	-16.9801
闾	-16.9801
嚅	-16.9801
盪	-16.9801
糨	-16.9801
荊	-16.9801
駁	-16.9801
ν	-16.9801
Г	-16.9801
昀	-16.9801
檸	-16.9801
瘰	-16.9801
蚩	-16.9801
貪	-16.9801
跶	-16.9801
鋁	-16.9801
阓	-16.9801
阛	-16.9801
韪	-16.9801
倖	-16.9801
僖	-16.9801
洹	-16.9801
璸	-16.9801
磴	-16.9801
禍	-16.9801
鈣	-16.9801
秈	-16.9801
魑	-16.9801
褡	-16.9801
吒	-16.9801
荸	-16.9801
恁	-16.9801
轲	-16.9801
	-16.9801
	-16.9801
Х	-17.0277
ず	-17.0277
	-17.0277
	-17.0277
圬	-17.0277
倜	-17.0277
圜	-17.0277
檄	-17.0277
淦	-17.0277
圾	-17.0277
糞	-17.0277
謨	-17.0277
刎	-17.0277
懶	-17.0277
搋	-17.0277
擁	-17.0277
磚	-17.0277
罘	-17.0277
贖	-17.0277
	-17.0277
χ	-17.0277
ヘ	-17.0277
僕	-17.0277
恚	-17.0277
搶	-17.0277
瑩	-17.0277
睪	-17.0277
禿	-17.0277
紡	-17.0277
綏	-17.0277
諧	-17.0277
赉	-17.0277
錘	-17.0277
鎬	-17.0277
鑰	-17.0277
镏	-17.0277
›	-17.0277
壆	-17.0277
枱	-17.0277
濂	-17.0277
袮	-17.0277
鎊	-17.0277
	-17.0277
	-17.0277
	-17.0277
坭	-17.0277
旃	-17.0277
毬	-17.0277
煉	-17.0277
脘	-17.0277
氅	-17.0277
狦	-17.0277
砩	-17.0277
肫	-17.0277
镞	-17.0277
陂	-17.0277
∧	-17.0277
辺	-17.0277
Ы	-17.0277
癒	-17.0277
⋅	-17.0277
钤	-17.0277
Б	-17.0277
ĕ	-17.0278
蹇	-17.0776
	-17.0777
啖	-17.0777
缱	-17.0777
觥	-17.0777
亍	-17.0777
锍	-17.0777
鳊	-17.0777
Ÿ	-17.0777
仞	-17.0777
屌	-17.0777
腙	-17.0777
鰂	-17.0777
	-17.0777
ч	-17.0777
緩	-17.0777
臬	-17.0777
襻	-17.0777
鲮	-17.0777
ő	-17.0777
Ч	-17.0777
ٱ	-17.0777
嘯	-17.0777
塗	-17.0777
巖	-17.0777
擺	-17.0777
疇	-17.0777
笷	-17.0777
箬	-17.0777
绻	-17.0777
辻	-17.0777
遲	-17.0777
隻	-17.0777
鯖	-17.0777
鼴	-17.0777
	-17.0777
û	-17.0777
嚇	-17.0777
菘	-17.0777
診	-17.0777
逶	-17.0777
韌	-17.0777
艽	-17.0777
菰	-17.0777
	-17.0777
〆	-17.0777
カ	-17.0777
劬	-17.0777
娉	-17.0777
掛	-17.0777
莒	-17.0777
Γ	-17.0777
跹	-17.0777
鞯	-17.0777
茚	-17.0777
礚	-17.0777
	-17.1303
瘛	-17.1303
ㄤ	-17.1303
呔	-17.1303
赓	-17.1303
筴	-17.1303
笕	-17.1303
髹	-17.1303
	-17.1303
莰	-17.1303
圮	-17.1303
笫	-17.1303
ˋ	-17.1303
哂	-17.1303
弁	-17.1303
ㄈ	-17.1303
禬	-17.1303
苫	-17.1303
鲳	-17.1303
鲹	-17.1303
ぱ	-17.1303
嘬	-17.1303
桫	-17.1303
罴	-17.1303
薊	-17.1303
魆	-17.1303
	-17.1303
ζ	-17.1303
傈	-17.1303
疴	-17.1303
脇	-17.1303
蜑	-17.1303
蠔	-17.1303
衿	-17.1303
鈉	-17.1303
魷	-17.1303
鯻	-17.1303
鯿	-17.1303
鳀	-17.1303
و	-17.1303
ア	-17.1303
涿	-17.1303
脷	-17.1303
	-17.1303
ン	-17.1303
婧	-17.1303
柒	-17.1303
碣	-17.1303
薜	-17.1303
	-17.1303
	-17.1303
菈	-17.1303
	-17.1303
φ	-17.1303
査	-17.1303
痈	-17.1303
虮	-17.1303
翕	-17.1304
	-17.1304
蜮	-17.1304
	-17.1304
嫒	-17.1858
	-17.1859
苻	-17.1859
	-17.1859
甶	-17.1859
	-17.1859
恏	-17.1859
嗐	-17.1859
孓	-17.1859
楤	-17.1859
皒	-17.1859
舨	-17.1859
蠋	-17.1859
貘	-17.1859
賦	-17.1859
	-17.1859
ο	-17.1859
儂	-17.1859
唿	-17.1859
崆	-17.1859
撫	-17.1859
蚶	-17.1859
躍	-17.1859
醐	-17.1859
阇	-17.1859
ь	-17.1859
湊	-17.1859
澀	-17.1859
玡	-17.1859
碏	-17.1859
竊	-17.1859
翹	-17.1859
訟	-17.1859
銼	-17.1859
鍬	-17.1859
鑄	-17.1859
閔	-17.1859
餓	-17.1859
駛	-17.1859
鷸	-17.1859
	-17.1859
こ	-17.1859
掼	-17.1859
攜	-17.1859
溏	-17.1859
貯	-17.1859
ц	-17.1859
漯	-17.1859
秭	-17.1859
胙	-17.1859
挹	-17.1859
沤	-17.1859
フ	-17.1859
溟	-17.1859
邕	-17.1859
て	-17.1859
豸	-17.1859
Т	-17.1859
丨	-17.1859
檎	-17.1859
梶	-17.1859
孖	-17.1859
逦	-17.1859
娌	-17.1859
セ	-17.2447
狻	-17.2447
碓	-17.2447
厲	-17.2447
蠖	-17.2447
薷	-17.2447
ľ	-17.2447
廪	-17.2447
镙	-17.2447
↓	-17.2447
贽	-17.2447
鏖	-17.2447
	-17.2447
嘞	-17.2447
暫	-17.2447
綦	-17.2447
鱚	-17.2447
鵜	-17.2447
	-17.2447
	-17.2447
η	-17.2447
↑	-17.2447
ル	-17.2447
僳	-17.2447
崾	-17.2447
悳	-17.2447
椟	-17.2447
櫟	-17.2447
絢	-17.2447
綺	-17.2447
緻	-17.2447
腧	-17.2447
蛏	-17.2447
詛	-17.2447
釣	-17.2447
銃	-17.2447
闇	-17.2447
闖	-17.2447
鱊	-17.2447
麴	-17.2447
た	-17.2447
瀏	-17.2447
砆	-17.2447
萁	-17.2447
	-17.2447
∥	-17.2447
ぇ	-17.2447
爛	-17.2447
粿	-17.2447
鼋	-17.2447
	-17.2447
罡	-17.2447
郞	-17.2447
饧	-17.2447
艙	-17.2447
鹄	-17.2447
¡	-17.2447
囯	-17.2447
藁	-17.2447
谥	-17.2447
伧	-17.2447
茕	-17.2447
鲐	-17.2447
	-17.3072
ㄊ	-17.3072
ą	-17.3072
樯	-17.3072
‹	-17.3072
乇	-17.3072
М	-17.3072
蛴	-17.3072
	-17.3072
宓	-17.3072
	-17.3072
搧	-17.3072
も	-17.3072
咗	-17.3072
朐	-17.3072
杲	-17.3072
ξ	-17.3072
傥	-17.3072
啵	-17.3072
圻	-17.3072
媞	-17.3072
憑	-17.3072
諒	-17.3072
遒	-17.3072
邡	-17.3072
鼷	-17.3072
	-17.3072
す	-17.3072
び	-17.3072
佞	-17.3072
僅	-17.3072
慄	-17.3072
瑋	-17.3072
簾	-17.3072
诤	-17.3072
販	-17.3072
趵	-17.3072
遯	-17.3072
鈾	-17.3072
龔	-17.3072
	-17.3072
っ	-17.3072
伥	-17.3072
偈	-17.3072
呑	-17.3072
嗉	-17.3072
廁	-17.3072
戗	-17.3072
斬	-17.3072
炀	-17.3072
皺	-17.3072
締	-17.3072
脹	-17.3072
蜣	-17.3072
釐	-17.3072
鋰	-17.3072
鑼	-17.3072
镨	-17.3072
闳	-17.3072
鮄	-17.3072
	-17.3072
∞	-17.3072
刪	-17.3072
歆	-17.3072
龅	-17.3072
	-17.3072
	-17.3072
丌	-17.3072
償	-17.3072
紮	-17.3072
釀	-17.3072
魈	-17.3072
	-17.3072
Μ	-17.3072
ー	-17.3072
慊	-17.3072
沬	-17.3072
湜	-17.3072
囟	-17.3072
	-17.3072
呒	-17.3072
萋	-17.3072
蓁	-17.3072
蕞	-17.3072
さ	-17.3072
	-17.3072
	-17.3072
唳	-17.3072
骞	-17.3072
	-17.3737
庑	-17.3738
璹	-17.3739
笱	-17.3739
嵬	-17.3739
ψ	-17.3739
庥	-17.3739
ι	-17.3739
欤	-17.3739
殁	-17.3739
	-17.3739
せ	-17.3739
喟	-17.3739
嵛	-17.3739
浔	-17.3739
詐	-17.3739
飆	-17.3739
驽	-17.3739
	-17.3739
匦	-17.3739
嘚	-17.3739
婵	-17.3739
璟	-17.3739
飄	-17.3739
鴷	-17.3739
	-17.3739
┘	-17.3739
茭	-17.3739
郇	-17.3739
醅	-17.3739
	-17.3739
	-17.3739
	-17.3739
ų	-17.3739
吔	-17.3739
堊	-17.3739
墮	-17.3739
嬪	-17.3739
憤	-17.3739
櫚	-17.3739
潑	-17.3739
牽	-17.3739
瑠	-17.3739
痲	-17.3739
竇	-17.3739
綴	-17.3739
縫	-17.3739
罷	-17.3739
芊	-17.3739
蒌	-17.3739
蔥	-17.3739
蠻	-17.3739
鈞	-17.3739
鋤	-17.3739
馴	-17.3739
髏	-17.3739
鮀	-17.3739
鸱	-17.3739
鹹	-17.3739
	-17.3739
К	-17.3739
∝	-17.3739
兇	-17.3739
咴	-17.3739
慘	-17.3739
曇	-17.3739
瓠	-17.3739
籌	-17.3739
繞	-17.3739
阗	-17.3739
雛	-17.3739
餾	-17.3739
	-17.3739
ま	-17.3739
奭	-17.3739
樾	-17.3739
泷	-17.3739
轱	-17.3739
鄄	-17.3739
馗	-17.3739
	-17.3739
剝	-17.3739
尢	-17.3739
	-17.3739
歙	-17.3739
葚	-17.3739
鬟	-17.3739
缏	-17.3739
┰	-17.3739
戽	-17.3739
沣	-17.3739
慮	-17.3739
錾	-17.3739
鲠	-17.3739
谰	-17.3739
妫	-17.3739
ш	-17.3739
	-17.3739
醮	-17.3739
	-17.3739
き	-17.4453
暝	-17.4453
芰	-17.4453
┑	-17.4453
稹	-17.4453
骟	-17.4453
	-17.4453
馕	-17.4453
廝	-17.4453
©	-17.4453
Ś	-17.4453
ت	-17.4453
荬	-17.4453
貸	-17.4453
顸	-17.4453
莸	-17.4453
蠃	-17.4453
賤	-17.4453
	-17.4453
屄	-17.4453
盍	-17.4453
糍	-17.4453
荜	-17.4453
轳	-17.4453
¦	-17.4453
凖	-17.4453
昰	-17.4453
珮	-17.4453
瓒	-17.4453
紈	-17.4453
臌	-17.4453
邈	-17.4453
阋	-17.4453
ę	-17.4453
►	-17.4453
ど	-17.4453
ゞ	-17.4453
吶	-17.4453
崚	-17.4453
慣	-17.4453
楯	-17.4453
槻	-17.4453
樫	-17.4453
檜	-17.4453
氈	-17.4453
溧	-17.4453
滯	-17.4453
琮	-17.4453
畠	-17.4453
痷	-17.4453
禎	-17.4453
糧	-17.4453
綸	-17.4453
纏	-17.4453
耵	-17.4453
諏	-17.4453
踐	-17.4453
閥	-17.4453
顫	-17.4453
駱	-17.4453
鰧	-17.4453
鲻	-17.4453
鵟	-17.4453
鸛	-17.4453
∫	-17.4453
峴	-17.4453
晗	-17.4453
檠	-17.4453
礛	-17.4453
綁	-17.4453
軛	-17.4453
钿	-17.4453
阍	-17.4453
飢	-17.4453
	-17.4453
剀	-17.4453
卍	-17.4453
埭	-17.4453
柃	-17.4453
蝥	-17.4453
鸾	-17.4453
鹘	-17.4453
琊	-17.4453
璽	-17.4453
蚵	-17.4453
頑	-17.4453
	-17.4453
碚	-17.4453
ゅ	-17.4453
ㄏ	-17.4453
炱	-17.4453
瞋	-17.4453
艄	-17.4453
鋈	-17.4453
驸	-17.4453
锷	-17.4453
硌	-17.4453
	-17.4453
	-17.4453
盿	-17.4453
裢	-17.4453
煳	-17.4453
庠	-17.4453
诒	-17.4453
ㄘ	-17.4454
ㄛ	-17.4454
	-17.5222
悫	-17.5222
	-17.5222
れ	-17.5222
箇	-17.5222
ё	-17.5222
陟	-17.5222
厍	-17.5222
嚥	-17.5222
嬅	-17.5222
芗	-17.5222
	-17.5222
晔	-17.5222
栌	-17.5222
熺	-17.5222
吥	-17.5222
牺	-17.5222
紛	-17.5222
	-17.5222
ゎ	-17.5222
ゲ	-17.5222
尕	-17.5222
擠	-17.5222
暈	-17.5222
汜	-17.5222
聍	-17.5222
肈	-17.5222
詭	-17.5222
	-17.5222
υ	-17.5222
◊	-17.5222
タ	-17.5222
䱀	-17.5222
勛	-17.5222
崑	-17.5222
暉	-17.5222
栒	-17.5222
楨	-17.5222
蝟	-17.5222
鄒	-17.5222
釘	-17.5222
鳾	-17.5222
鷚	-17.5222
	-17.5222
	-17.5222
	-17.5222
ミ	-17.5222
垸	-17.5222
墊	-17.5222
瀕	-17.5222
甕	-17.5222
臓	-17.5222
蟥	-17.5222
踅	-17.5222
	-17.5222
ǜ	-17.5222
峤	-17.5222
樋	-17.5222
湫	-17.5222
穝	-17.5222
	-17.5222
啫	-17.5222
妯	-17.5222
抺	-17.5222
枧	-17.5222
	-17.5222
	-17.5222
	-17.5222
Л	-17.5222
猗	-17.5222
	-17.5222
啞	-17.5222
蝻	-17.5222
	-17.5222
Щ	-17.5222
攷	-17.5222
痳	-17.5222
鼐	-17.5222
椁	-17.5222
蠵	-17.5222
詈	-17.5222
	-17.5222
Э	-17.5222
葙	-17.5222
藨	-17.5222
嗾	-17.5223
	-17.5223
廸	-17.5223
	-17.5223
斫	-17.5223
眬	-17.5223
炅	-17.6055
	-17.6055
箧	-17.6055
	-17.6055
蓍	-17.6055
溞	-17.6056
羨	-17.6056
	-17.6056
蔘	-17.6056
ゼ	-17.6056
囡	-17.6056
汆	-17.6056
芟	-17.6056
謇	-17.6056
踫	-17.6056
妗	-17.6056
襯	-17.6056
劢	-17.6056
蝈	-17.6056
鈷	-17.6056
鲾	-17.6056
ة	-17.6056
喺	-17.6056
妤	-17.6056
峩	-17.6056
憷	-17.6056
樗	-17.6056
滟	-17.6056
痙	-17.6056
蠼	-17.6056
鋅	-17.6056
撺	-17.6056
玆	-17.6056
繫	-17.6056
脅	-17.6056
膑	-17.6056
苘	-17.6056
豕	-17.6056
鈥	-17.6056
鎳	-17.6056
镲	-17.6056
頗	-17.6056
鱵	-17.6056
≠	-17.6056
ㄠ	-17.6056
懲	-17.6056
搦	-17.6056
桴	-17.6056
殛	-17.6056
渾	-17.6056
澱	-17.6056
琰	-17.6056
癎	-17.6056
絞	-17.6056
繐	-17.6056
纓	-17.6056
舄	-17.6056
葭	-17.6056
蛳	-17.6056
賜	-17.6056
轅	-17.6056
邰	-17.6056
鈕	-17.6056
鍶	-17.6056
頟	-17.6056
駭	-17.6056
鬧	-17.6056
鮻	-17.6056
鯒	-17.6056
鲌	-17.6056
鸰	-17.6056
	-17.6056
	-17.6056
怛	-17.6056
皴	-17.6056
県	-17.6056
辏	-17.6056
柽	-17.6056
洵	-17.6056
狍	-17.6056
鎗	-17.6056
	-17.6056
嫫	-17.6056
汴	-17.6056
狥	-17.6056
翦	-17.6056
鳙	-17.6056
嵇	-17.6056
涞	-17.6056
璎	-17.6056
х	-17.6056
し	-17.6056
琬	-17.6056
虜	-17.6056
	-17.6056
	-17.6056
坻	-17.6056
牯	-17.6056
	-17.6056
ㄚ	-17.6056
噸	-17.6056
瘌	-17.6056
逋	-17.6056
刂	-17.6056
岣	-17.6056
缶	-17.6056
謢	-17.6056
锟	-17.6056
鼙	-17.6056
磔	-17.6056
龖	-17.6056
酙	-17.6056
裰	-17.6056
胗	-17.6056
	-17.6964
	-17.6964
俅	-17.6964
绾	-17.6964
ǖ	-17.6964
雎	-17.6964
菔	-17.6964
镴	-17.6964
ㄕ	-17.6964
芠	-17.6965
蘩	-17.6965
绲	-17.6965
跫	-17.6965
∈	-17.6965
	-17.6965
峄	-17.6965
蒯	-17.6965
诎	-17.6965
箐	-17.6965
渖	-17.6965
蠲	-17.6965
暾	-17.6965
盱	-17.6965
に	-17.6965
伲	-17.6965
佶	-17.6965
捭	-17.6965
曛	-17.6965
桕	-17.6965
濫	-17.6965
糾	-17.6965
	-17.6965
	-17.6965
ό	-17.6965
ر	-17.6965
ي	-17.6965
嚒	-17.6965
埴	-17.6965
彿	-17.6965
猢	-17.6965
篩	-17.6965
菡	-17.6965
諮	-17.6965
ю	-17.6965
∘	-17.6965
㹴	-17.6965
両	-17.6965
勻	-17.6965
囷	-17.6965
堋	-17.6965
孃	-17.6965
恥	-17.6965
撥	-17.6965
昉	-17.6965
滲	-17.6965
漬	-17.6965
濬	-17.6965
睥	-17.6965
窪	-17.6965
筍	-17.6965
綬	-17.6965
荦	-17.6965
蕤	-17.6965
藪	-17.6965
謹	-17.6965
贈	-17.6965
郧	-17.6965
釧	-17.6965
銫	-17.6965
鎂	-17.6965
驟	-17.6965
鰶	-17.6965
鰹	-17.6965
鴕	-17.6965
鴝	-17.6965
ꎪ	-17.6965
	-17.6965
	-17.6965
ż	-17.6965
搵	-17.6965
栝	-17.6965
梣	-17.6965
狲	-17.6965
稰	-17.6965
簕	-17.6965
翴	-17.6965
贏	-17.6965
	-17.6965
愍	-17.6965
憍	-17.6965
枋	-17.6965
潰	-17.6965
翮	-17.6965
胊	-17.6965
Д	-17.6965
‐	-17.6965
昄	-17.6965
炝	-17.6965
焐	-17.6965
莢	-17.6965
蛲	-17.6965
蝼	-17.6965
螬	-17.6965
鳜	-17.6965
	-17.6965
ن	-17.6965
で	-17.6965
岙	-17.6965
砘	-17.6965
郫	-17.6965
チ	-17.6965
犍	-17.6965
耧	-17.6965
艿	-17.6965
陉	-17.6965
绐	-17.6965
绡	-17.6965
逹	-17.6965
芏	-17.6965
彊	-17.6965
霁	-17.6965
	-17.6965
鸹	-17.6965
淠	-17.6965
毖	-17.6965
甯	-17.6965
鹗	-17.6965
	-17.6965
岜	-17.6965
	-17.7963
	-17.7964
	-17.7964
鄣	-17.7964
疋	-17.7964
	-17.7964
	-17.7964
儋	-17.7965
卮	-17.7965
噫	-17.7965
け	-17.7965
Χ	-17.7965
衾	-17.7965
乩	-17.7965
噍	-17.7965
浵	-17.7965
鐨	-17.7965
艹	-17.7965
ű	-17.7965
ش	-17.7965
狓	-17.7965
硄	-17.7965
窺	-17.7965
	-17.7965
	-17.7965
ح	-17.7965
┤	-17.7965
堃	-17.7965
崁	-17.7965
榀	-17.7965
隳	-17.7965
雖	-17.7965
頦	-17.7965
ゑ	-17.7965
伛	-17.7965
俦	-17.7965
剘	-17.7965
囍	-17.7965
晞	-17.7965
琍	-17.7965
稦	-17.7965
緹	-17.7965
荩	-17.7965
觜	-17.7965
谝	-17.7965
٬	-17.7965
♯	-17.7965
ㄟ	-17.7965
䗩	-17.7965
䱵	-17.7965
䱻	-17.7965
乂	-17.7965
垌	-17.7965
嶽	-17.7965
巉	-17.7965
惱	-17.7965
棧	-17.7965
欸	-17.7965
灑	-17.7965
炷	-17.7965
珪	-17.7965
瘧	-17.7965
癮	-17.7965
盞	-17.7965
臁	-17.7965
莧	-17.7965
蕩	-17.7965
薈	-17.7965
贅	-17.7965
趨	-17.7965
鄺	-17.7965
闍	-17.7965
陬	-17.7965
颢	-17.7965
鬘	-17.7965
鱟	-17.7965
鳶	-17.7965
	-17.7965
	-17.7965
	-17.7965
	-17.7965
∩	-17.7965
仡	-17.7965
悃	-17.7965
杧	-17.7965
檩	-17.7965
甦	-17.7965
疠	-17.7965
茍	-17.7965
葦	-17.7965
蒎	-17.7965
鉗	-17.7965
鋪	-17.7965
鑾	-17.7965
阕	-17.7965
驒	-17.7965
ビ	-17.7965
炻	-17.7965
碭	-17.7965
綮	-17.7965
罌	-17.7965
苺	-17.7965
諭	-17.7965
邺	-17.7965
陞	-17.7965
擋	-17.7965
穫	-17.7965
绨	-17.7965
缷	-17.7965
镟	-17.7965
骝	-17.7965
	-17.7965
Ψ	-17.7965
ㄧ	-17.7965
剋	-17.7965
晁	-17.7965
晡	-17.7965
淩	-17.7965
蟛	-17.7965
豿	-17.7965
趺	-17.7965
铥	-17.7965
	-17.7965
夂	-17.7965
毎	-17.7965
蔟	-17.7965
瞶	-17.7965
邛	-17.7965
	-17.7965
仝	-17.7965
悱	-17.7965
灞	-17.7965
Я	-17.7965
浼	-17.7965
	-17.7965
葖	-17.7965
蓇	-17.7965
酡	-17.7965
鎴	-17.7965
	-17.7965
阆	-17.7965
暻	-17.7966
锛	-17.7966
	-17.9075
ǘ	-17.9075
	-17.9075
	-17.9075
桲	-17.9075
パ	-17.9075
幵	-17.9076
ㄎ	-17.9076
曽	-17.9076
邳	-17.9076
亻	-17.9076
牖	-17.9076
と	-17.9076
	-17.9076
ɑ	-17.9076
酽	-17.9076
郏	-17.9076
锴	-17.9076
苈	-17.9076
葳	-17.9076
	-17.9076
	-17.9076
	-17.9076
	-17.9076
戆	-17.9076
罙	-17.9076
埰	-17.9076
柁	-17.9076
棓	-17.9076
畚	-17.9076
雒	-17.9076
圴	-17.9076
椥	-17.9076
泺	-17.9076
貔	-17.9076
蹚	-17.9076
	-17.9076
Ю	-17.9076
デ	-17.9076
卝	-17.9076
戻	-17.9076
梟	-17.9076
癿	-17.9076
箅	-17.9076
糌	-17.9076
苌	-17.9076
誡	-17.9076
	-17.9076
	-17.9076
	-17.9076
ع	-17.9076
嗰	-17.9076
忝	-17.9076
煺	-17.9076
螋	-17.9076
鍛	-17.9076
闼	-17.9076
鶘	-17.9076
ˇ	-17.9076
Е	-17.9076
冪	-17.9076
凈	-17.9076
嘆	-17.9076
嫻	-17.9076
懽	-17.9076
杼	-17.9076
楮	-17.9076
榎	-17.9076
獼	-17.9076
璩	-17.9076
瘡	-17.9076
癲	-17.9076
瞤	-17.9076
矯	-17.9076
綢	-17.9076
蠑	-17.9076
諷	-17.9076
豎	-17.9076
鈔	-17.9076
頤	-17.9076
飽	-17.9076
鮍	-17.9076
鰟	-17.9076
鰤	-17.9076
鱯	-17.9076
鳽	-17.9076
鶺	-17.9076
鷯	-17.9076
鸝	-17.9076
齧	-17.9076
	-17.9076
	-17.9076
	-17.9076
✕	-17.9076
ヴ	-17.9076
峠	-17.9076
徬	-17.9076
憐	-17.9076
攣	-17.9076
槠	-17.9076
箏	-17.9076
耒	-17.9076
聾	-17.9076
賃	-17.9076
鉻	-17.9076
锾	-17.9076
饑	-17.9076
麈	-17.9076
ъ	-17.9076
儘	-17.9076
溲	-17.9076
瑄	-17.9076
菫	-17.9076
锱	-17.9076
髀	-17.9076
鹡	-17.9076
黟	-17.9076
È	-17.9076
ね	-17.9076
卐	-17.9076
笥	-17.9076
絋	-17.9076
蝘	-17.9076
镘	-17.9076
	-17.9076
	-17.9076
	-17.9076
	-17.9076
砦	-17.9076
郢	-17.9076
齑	-17.9076
	-17.9076
岢	-17.9076
纉	-17.9076
衄	-17.9076
霈	-17.9076
	-17.9076
畛	-17.9076
筦	-17.9076
ぎ	-17.9076
袼	-17.9076
	-17.9076
扃	-17.9076
洫	-17.9076
饣	-17.9076
	-17.9076
肷	-17.9076
顚	-17.9076
砗	-17.9076
鏊	-17.9076
┎	-17.9076
岈	-17.9076
斿	-17.9076
聃	-17.9076
ユ	-17.9076
ㄗ	-17.9076
缍	-17.9077
	-17.9077
徼	-18.0325
	-18.0325
榅	-18.0325
	-18.0325
覧	-18.0325
硇	-18.0325
	-18.0326
	-18.0326
	-18.0326
厣	-18.0326
	-18.0326
赜	-18.0326
ㄖ	-18.0326
骎	-18.0326
ㄉ	-18.0326
揠	-18.0326
	-18.0326
┯	-18.0326
彘	-18.0326
筮	-18.0326
氾	-18.0326
硗	-18.0326
紘	-18.0326
锘	-18.0326
滹	-18.0326
祼	-18.0326
蓠	-18.0326
黙	-18.0326
	-18.0326
	-18.0326
	-18.0326
	-18.0326
	-18.0326
ج	-18.0326
猊	-18.0326
鑒	-18.0326
	-18.0326
伢	-18.0326
嘗	-18.0326
塡	-18.0326
媸	-18.0326
戥	-18.0326
旣	-18.0326
浈	-18.0326
潋	-18.0326
蔴	-18.0326
鹵	-18.0326
	-18.0326
	-18.0326
ち	-18.0326
ス	-18.0326
ヰ	-18.0326
坶	-18.0326
嬛	-18.0326
対	-18.0326
帯	-18.0326
廂	-18.0326
廔	-18.0326
栁	-18.0326
櫥	-18.0326
牻	-18.0326
璘	-18.0326
癢	-18.0326
虼	-18.0326
螞	-18.0326
逑	-18.0326
鑞	-18.0326
镡	-18.0326
閻	-18.0326
靚	-18.0326
ů	-18.0326
┏	-18.0326
埤	-18.0326
揇	-18.0326
摯	-18.0326
旼	-18.0326
歴	-18.0326
氎	-18.0326
泫	-18.0326
牴	-18.0326
膿	-18.0326
苊	-18.0326
蒾	-18.0326
蘊	-18.0326
誇	-18.0326
諺	-18.0326
輿	-18.0326
轎	-18.0326
錨	-18.0326
鏟	-18.0326
閏	-18.0326
闶	-18.0326
頷	-18.0326
顱	-18.0326
魉	-18.0326
鴛	-18.0326
鴦	-18.0326
鶉	-18.0326
鸊	-18.0326
鸌	-18.0326
鿕	-18.0326
ș	-18.0326
ו	-18.0326
י	-18.0326
♥	-18.0326
䓬	-18.0326
仳	-18.0326
倻	-18.0326
妺	-18.0326
扊	-18.0326
晩	-18.0326
洇	-18.0326
涠	-18.0326
渕	-18.0326
滉	-18.0326
漣	-18.0326
潲	-18.0326
瀝	-18.0326
炘	-18.0326
甪	-18.0326
縻	-18.0326
薙	-18.0326
詮	-18.0326
諦	-18.0326
豨	-18.0326
鍺	-18.0326
鏽	-18.0326
钺	-18.0326
閑	-18.0326
颡	-18.0326
髙	-18.0326
	-18.0326
س	-18.0326
剤	-18.0326
圪	-18.0326
彧	-18.0326
捨	-18.0326
枥	-18.0326
砞	-18.0326
莶	-18.0326
説	-18.0326
贛	-18.0326
鉑	-18.0326
钔	-18.0326
铖	-18.0326
	-18.0326
	-18.0326
暌	-18.0326
榖	-18.0326
	-18.0326
マ	-18.0326
堞	-18.0326
値	-18.0326
廻	-18.0326
苕	-18.0326
蒹	-18.0326
鬯	-18.0326
埜	-18.0326
杌	-18.0326
皊	-18.0326
燿	-18.0326
羈	-18.0326
铗	-18.0326
	-18.0326
	-18.0326
	-18.0326
埝	-18.0326
滗	-18.0326
あ	-18.0326
ん	-18.0326
壼	-18.0326
絔	-18.0326
訏	-18.0326
阚	-18.0326
坲	-18.0326
庀	-18.0326
籔	-18.0326
糴	-18.0326
く	-18.0326
焱	-18.0326
衽	-18.0326
谖	-18.0326
	-18.0326
	-18.0326
発	-18.0326
眇	-18.0326
鲥	-18.0326
ジ	-18.0326
洌	-18.0326
を	-18.0326
唸	-18.0326
裼	-18.0326
	-18.0326
	-18.0326
┅	-18.0326
ぁ	-18.0326
	-18.0326
嬖	-18.0326
鳇	-18.0326
勫	-18.0326
摰	-18.0326
垜	-18.0326
	-18.0326
酫	-18.0327
笄	-18.0327
┄	-18.1754
玂	-18.1754
	-18.1754
袷	-18.1754
	-18.1754
僦	-18.1754
榘	-18.1754
	-18.1754
┪	-18.1754
り	-18.1754
蛘	-18.1754
郦	-18.1754
韫	-18.1754
	-18.1754
Ц	-18.1754
埽	-18.1754
岵	-18.1754
満	-18.1754
	-18.1754
	-18.1754
噯	-18.1754
	-18.1754
ふ	-18.1754
屣	-18.1754
旒	-18.1754
珣	-18.1754
礅	-18.1754
	-18.1754
	-18.1754
	-18.1754
	-18.1754
	-18.1754
	-18.1754
姪	-18.1754
寛	-18.1754
浬	-18.1754
裉	-18.1754
魍	-18.1754
	-18.1754
嚯	-18.1754
磙	-18.1754
葸	-18.1754
蚚	-18.1754
钫	-18.1754
	-18.1754
	-18.1754
	-18.1754
	-18.1754
亓	-18.1754
廛	-18.1754
敍	-18.1754
粝	-18.1754
颟	-18.1754
	-18.1754
嫚	-18.1754
崮	-18.1754
扌	-18.1754
揾	-18.1754
蔹	-18.1754
蕲	-18.1754
蚨	-18.1754
逺	-18.1754
	-18.1754
ب	-18.1754
ك	-18.1754
ゴ	-18.1754
哓	-18.1754
啝	-18.1754
攔	-18.1754
棼	-18.1754
氹	-18.1754
滸	-18.1754
珺	-18.1754
癘	-18.1754
硏	-18.1754
礫	-18.1754
簀	-18.1754
脣	-18.1754
舾	-18.1754
銓	-18.1754
锔	-18.1754
麇	-18.1754
	-18.1754
倆	-18.1754
叡	-18.1754
斂	-18.1754
滬	-18.1754
熾	-18.1754
燉	-18.1754
琇	-18.1754
羥	-18.1754
聼	-18.1754
詰	-18.1754
蹺	-18.1754
邇	-18.1754
饋	-18.1754
鮎	-18.1754
鱺	-18.1754
¬	-18.1754
ِ	-18.1754
⊕	-18.1754
◦	-18.1754
か	-18.1754
䳭	-18.1754
佷	-18.1754
兌	-18.1754
冨	-18.1754
哏	-18.1754
囉	-18.1754
囬	-18.1754
宍	-18.1754
幪	-18.1754
弒	-18.1754
曬	-18.1754
梿	-18.1754
渉	-18.1754
滄	-18.1754
瀞	-18.1754
瀾	-18.1754
烴	-18.1754
琩	-18.1754
瑗	-18.1754
疒	-18.1754
癳	-18.1754
眢	-18.1754
瞞	-18.1754
禰	-18.1754
穰	-18.1754
笳	-18.1754
絆	-18.1754
膻	-18.1754
臍	-18.1754
舖	-18.1754
菓	-18.1754
葑	-18.1754
蕻	-18.1754
蘼	-18.1754
訾	-18.1754
誸	-18.1754
貽	-18.1754
輦	-18.1754
鎔	-18.1754
鎘	-18.1754
鎢	-18.1754
鎵	-18.1754
陝	-18.1754
鰃	-18.1754
鵲	-18.1754
鷉	-18.1754
麿	-18.1754
	-18.1754
	-18.1754
	-18.1754
	-18.1754
	-18.1754
	-18.1754
𩷶	-18.1754
Î	-18.1754
ע	-18.1754
垡	-18.1754
熳	-18.1754
狷	-18.1754
痺	-18.1754
睲	-18.1754
禆	-18.1754
窰	-18.1754
腚	-18.1754
韁	-18.1754
	-18.1754
寤	-18.1754
弌	-18.1754
怍	-18.1754
梠	-18.1754
畀	-18.1754
祘	-18.1754
螽	-18.1754
郄	-18.1754
郿	-18.1754
龢	-18.1754
	-18.1754
	-18.1754
倥	-18.1755
堠	-18.1755
溱	-18.1755
琚	-18.1755
笩	-18.1755
苧	-18.1755
袪	-18.1755
觋	-18.1755
鉨	-18.1755
関	-18.1755
	-18.1755
Ш	-18.1755
⇒	-18.1755
コ	-18.1755
ッ	-18.1755
枘	-18.1755
済	-18.1755
玢	-18.1755
砹	-18.1755
籲	-18.1755
郃	-18.1755
	-18.1755
	-18.1755
Ï	-18.1755
睒	-18.1755
苾	-18.1755
	-18.1755
儉	-18.1755
跬	-18.1755
隠	-18.1755
	-18.1755
ф	-18.1755
臷	-18.1755
貍	-18.1755
邗	-18.1755
	-18.1755
	-18.1755
娊	-18.1755
趿	-18.1755
杔	-18.1755
枙	-18.1755
驣	-18.1755
磲	-18.1755
壸	-18.1755
朮	-18.1755
瀉	-18.1755
癚	-18.1755
	-18.1755
	-18.1755
崞	-18.1755
觯	-18.1755
褰	-18.1755
鞒	-18.1755
佸	-18.1755
	-18.1755
ά	-18.1755
	-18.1755
厶	-18.1755
蛑	-18.1755
	-18.342
	-18.342
	-18.342
畹	-18.342
	-18.3421
	-18.3421
	-18.3421
	-18.3421
梃	-18.3421
谠	-18.3421
	-18.3421
ㄑ	-18.3421
	-18.3421
燐	-18.3421
	-18.3421
枨	-18.3421
浞	-18.3421
淉	-18.3421
	-18.3421
ퟘ	-18.3421
Ъ	-18.3421
笢	-18.3421
鍙	-18.3421
	-18.3421
	-18.3421
Υ	-18.3421
塱	-18.3421
缡	-18.3421
覓	-18.3421
辶	-18.3421
雠	-18.3421
饫	-18.3421
ト	-18.3421
窳	-18.3421
纒	-18.3421
銹	-18.3421
リ	-18.3421
墁	-18.3421
妏	-18.3421
玘	-18.3421
蒗	-18.3421
蹓	-18.3421
鉄	-18.3421
鉆	-18.3421
镪	-18.3421
頣	-18.3421
	-18.3421
	-18.3421
ÿ	-18.3421
ق	-18.3421
ㄢ	-18.3421
佥	-18.3421
吿	-18.3421
尙	-18.3421
庳	-18.3421
恵	-18.3421
炆	-18.3421
硎	-18.3421
筿	-18.3421
絶	-18.3421
繸	-18.3421
葰	-18.3421
賠	-18.3421
鰩	-18.3421
	-18.3421
	-18.3421
	-18.3421
	-18.3421
Â	-18.3421
へ	-18.3421
や	-18.3421
丅	-18.3421
仫	-18.3421
喸	-18.3421
汔	-18.3421
Ë	-18.3421
Ε	-18.3421
╯	-18.3421
刿	-18.3421
嵗	-18.3421
庹	-18.3421
撣	-18.3421
旛	-18.3421
昃	-18.3421
暠	-18.3421
瀰	-18.3421
灠	-18.3421
狟	-18.3421
眙	-18.3421
纥	-18.3421
蒟	-18.3421
蓐	-18.3421
蝲	-18.3421
郓	-18.3421
鎝	-18.3421
顔	-18.3421
	-18.3421
	-18.3421
	-18.3421
Õ	-18.3421
ĉ	-18.3421
Π	-18.3421
ه	-18.3421
ァ	-18.3421
䱗	-18.3421
䱛	-18.3421
丼	-18.3421
俁	-18.3421
僞	-18.3421
噝	-18.3421
嚙	-18.3421
墀	-18.3421
寢	-18.3421
恽	-18.3421
戇	-18.3421
撻	-18.3421
敂	-18.3421
昺	-18.3421
晝	-18.3421
柊	-18.3421
樁	-18.3421
滷	-18.3421
濞	-18.3421
灝	-18.3421
煒	-18.3421
犛	-18.3421
癩	-18.3421
硤	-18.3421
窯	-18.3421
簋	-18.3421
繇	-18.3421
缽	-18.3421
脩	-18.3421
荛	-18.3421
蒻	-18.3421
蟶	-18.3421
蠣	-18.3421
諫	-18.3421
謂	-18.3421
谮	-18.3421
賄	-18.3421
込	-18.3421
釔	-18.3421
釩	-18.3421
鉅	-18.3421
鉢	-18.3421
銣	-18.3421
錳	-18.3421
鍒	-18.3421
鏞	-18.3421
钭	-18.3421
驛	-18.3421
鰐	-18.3421
鰳	-18.3421
鱝	-18.3421
鷈	-18.3421
鷴	-18.3421
鷿	-18.3421
鸕	-18.3421
	-18.3421
	-18.3421
	-18.3421
	-18.3421
	-18.3421
	-18.3421
Ż	-18.3421
嗙	-18.3421
姦	-18.3421
廬	-18.3421
愷	-18.3421
撈	-18.3421
攤	-18.3421
旄	-18.3421
柵	-18.3421
歩	-18.3421
熒	-18.3421
玭	-18.3421
瑣	-18.3421
矇	-18.3421
紺	-18.3421
経	-18.3421
縛	-18.3421
蒥	-18.3421
蔯	-18.3421
観	-18.3421
蹀	-18.3421
鈇	-18.3421
黥	-18.3421
틘	-18.3421
	-18.3421
	-18.3421
	-18.3421
ר	-18.3421
墾	-18.3421
惪	-18.3421
栱	-18.3421
兂	-18.3421
圉	-18.3421
堿	-18.3421
崃	-18.3421
橦	-18.3421
殍	-18.3421
琁	-18.3421
瑈	-18.3421
硑	-18.3421
箪	-18.3421
蔸	-18.3421
証	-18.3421
镥	-18.3421
顼	-18.3421
骯	-18.3421
魾	-18.3421
楫	-18.3421
眏	-18.3421
礶	-18.3421
稓	-18.3421
踺	-18.3421
鴴	-18.3421
	-18.3421
	-18.3421
	-18.3421
繷	-18.3421
芈	-18.3421
锎	-18.3421
劦	-18.3421
塍	-18.3421
搠	-18.3421
骒	-18.3421
	-18.3421
،	-18.3421
濸	-18.3421
篁	-18.3421
跣	-18.3421
稂	-18.3421
愦	-18.3421
扞	-18.3421
暱	-18.3421
脢	-18.3421
谯	-18.3421
	-18.3421
嘩	-18.3421
玱	-18.3421
迨	-18.3421
酎	-18.3421
锞	-18.3421
駡	-18.3421
侔	-18.3421
棹	-18.3421
蕖	-18.3421
Ô	-18.3421
╰	-18.3421
菽	-18.3421
贗	-18.3421
阊	-18.3421
	-18.3421
缧	-18.3421
	-18.3421
艟	-18.3421
艨	-18.3421
淸	-18.3421
ǔ	-18.3421
濉	-18.3422
踬	-18.3422
	-18.3422
	-18.3422
萂	-18.3422
ㄌ	-18.3422
蹁	-18.3422
	-18.3422
	-18.3422
珇	-18.542
	-18.542
	-18.542
旆	-18.542
	-18.542
昝	-18.542
	-18.5421
∽	-18.5421
饔	-18.5421
鼗	-18.5421
廋	-18.5421
└	-18.5421
茘	-18.5421
黾	-18.5421
훘	-18.5421
	-18.5421
箂	-18.5421
夤	-18.5421
柝	-18.5421
碸	-18.5421
	-18.5421
ͨ	-18.5421
楙	-18.5421
櫸	-18.5421
趼	-18.5421
┣	-18.5421
攵	-18.5421
粦	-18.5421
舻	-18.5421
鉭	-18.5421
撚	-18.5421
眅	-18.5421
糁	-18.5421
	-18.5421
	-18.5421
Ł	-18.5421
┷	-18.5421
伹	-18.5421
岽	-18.5421
恧	-18.5421
惝	-18.5421
锸	-18.5421
휨	-18.5421
	-18.5421
∆	-18.5421
丆	-18.5421
唼	-18.5421
旿	-18.5421
缯	-18.5421
鞥	-18.5421
	-18.5421
	-18.5421
嚐	-18.5421
嫱	-18.5421
猵	-18.5421
	-18.5421
Λ	-18.5421
サ	-18.5421
ㄥ	-18.5421
嘏	-18.5421
噓	-18.5421
恂	-18.5421
搟	-18.5421
欒	-18.5421
罵	-18.5421
茆	-18.5421
荥	-18.5421
菹	-18.5421
镄	-18.5421
	-18.5421
	-18.5421
	-18.5421
	-18.5421
ť	-18.5421
═	-18.5421
墬	-18.5421
撐	-18.5421
炤	-18.5421
骹	-18.5421
	-18.5421
Ê	-18.5421
悛	-18.5421
汎	-18.5421
璿	-18.5421
眍	-18.5421
睺	-18.5421
秨	-18.5421
籟	-18.5421
糷	-18.5421
谂	-18.5421
赟	-18.5421
趑	-18.5421
郜	-18.5421
魘	-18.5421
	-18.5421
	-18.5421
	-18.5421
倬	-18.5421
喈	-18.5421
搆	-18.5421
熘	-18.5421
爻	-18.5421
瑿	-18.5421
瘃	-18.5421
縷	-18.5421
薦	-18.5421
袞	-18.5421
釹	-18.5421
銻	-18.5421
鎓	-18.5421
鐳	-18.5421
閤	-18.5421
飪	-18.5421
鮪	-18.5421
Ã	-18.5421
І	-18.5421
щ	-18.5421
أ	-18.5421
ی	-18.5421
⃝	-18.5421
┒	-18.5421
◯	-18.5421
ㄩ	-18.5421
䗉	-18.5421
䴉	-18.5421
䶄	-18.5421
亊	-18.5421
俶	-18.5421
凃	-18.5421
凜	-18.5421
単	-18.5421
嗶	-18.5421
圞	-18.5421
堙	-18.5421
壟	-18.5421
壢	-18.5421
姒	-18.5421
巒	-18.5421
忭	-18.5421
抏	-18.5421
掊	-18.5421
揟	-18.5421
搗	-18.5421
搛	-18.5421
撃	-18.5421
撓	-18.5421
楢	-18.5421
榇	-18.5421
榊	-18.5421
橈	-18.5421
橿	-18.5421
欻	-18.5421
殄	-18.5421
殲	-18.5421
沔	-18.5421
溆	-18.5421
燁	-18.5421
燙	-18.5421
燼	-18.5421
犢	-18.5421
狝	-18.5421
猯	-18.5421
玹	-18.5421
畝	-18.5421
疔	-18.5421
癇	-18.5421
癯	-18.5421
禕	-18.5421
籬	-18.5421
綷	-18.5421
綽	-18.5421
緞	-18.5421
縳	-18.5421
臸	-18.5421
苚	-18.5421
荳	-18.5421
莛	-18.5421
菥	-18.5421
蕪	-18.5421
蕹	-18.5421
蜞	-18.5421
蟊	-18.5421
觚	-18.5421
訣	-18.5421
詔	-18.5421
誥	-18.5421
賁	-18.5421
賂	-18.5421
軫	-18.5421
釗	-18.5421
鈦	-18.5421
鈹	-18.5421
鈺	-18.5421
鋇	-18.5421
錠	-18.5421
鑣	-18.5421
韜	-18.5421
頃	-18.5421
驢	-18.5421
驪	-18.5421
魃	-18.5421
魢	-18.5421
鯢	-18.5421
鰏	-18.5421
鰱	-18.5421
鳈	-18.5421
鵐	-18.5421
鶓	-18.5421
鶿	-18.5421
鷦	-18.5421
ꏡ	-18.5421
	-18.5421
	-18.5421
	-18.5421
	-18.5421
	-18.5421
	-18.5421
	-18.5421
כ	-18.5421
俜	-18.5421
冏	-18.5421
巻	-18.5421
彳	-18.5421
栊	-18.5421
洸	-18.5421
玠	-18.5421
璺	-18.5421
瞽	-18.5421
矪	-18.5421
緘	-18.5421
肏	-18.5421
舧	-18.5421
舯	-18.5421
螵	-18.5421
袛	-18.5421
躞	-18.5421
顗	-18.5421
鬅	-18.5421
鲧	-18.5421
	-18.5421
	-18.5421
僟	-18.5421
嬤	-18.5421
遄	-18.5421
Ý	-18.5421
נ	-18.5421
▼	-18.5421
坰	-18.5421
塄	-18.5421
幛	-18.5421
庋	-18.5421
扥	-18.5421
扺	-18.5421
琿	-18.5421
畍	-18.5421
痠	-18.5421
筚	-18.5421
篌	-18.5421
絬	-18.5421
綝	-18.5421
缂	-18.5421
袗	-18.5421
釴	-18.5421
骧	-18.5421
鶹	-18.5421
	-18.5421
	-18.5421
	-18.5421
	-18.5421
塲	-18.5421
彆	-18.5421
蓥	-18.5421
蕺	-18.5421
	-18.5421
俵	-18.5421
冖	-18.5421
嗵	-18.5421
盢	-18.5421
秖	-18.5421
耪	-18.5421
骱	-18.5421
	-18.5421
	-18.5421
쁨	-18.5421
崤	-18.5421
搿	-18.5421
歛	-18.5421
洓	-18.5421
癀	-18.5421
诜	-18.5421
鏂	-18.5421
餬	-18.5421
	-18.5421
	-18.5421
	-18.5421
┐	-18.5421
俰	-18.5421
屽	-18.5421
ї	-18.5421
瞀	-18.5421
	-18.5421
	-18.5421
	-18.5421
斨	-18.5421
稲	-18.5421
轸	-18.5421
┦	-18.5421
曵	-18.5421
矹	-18.5421
砉	-18.5421
诼	-18.5421
郾	-18.5421
ュ	-18.5421
倮	-18.5421
涫	-18.5421
笉	-18.5421
跏	-18.5421
鍚	-18.5421
幇	-18.5421
搣	-18.5421
	-18.5421
敉	-18.5422
顰	-18.5422
	-18.5422
肵	-18.5422
芄	-18.5422
堎	-18.5422
䅸	-18.5422
銆	-18.5422
鸺	-18.5422
	-18.5422
	-18.5422
	-18.5422
	-18.5422
爍	-18.5422
畟	-18.5422
	-18.5422
槔	-18.5422
鐗	-18.5422
	-18.5422
蠱	-18.7918
毵	-18.792
ぶ	-18.792
	-18.792
	-18.792
ば	-18.792
鹣	-18.792
	-18.792
	-18.792
뀨	-18.792
Ő	-18.7921
	-18.7921
绱	-18.7921
	-18.7921
虷	-18.7921
龕	-18.7921
崦	-18.7921
┍	-18.7921
ぞ	-18.7921
愰	-18.7921
榱	-18.7921
鵥	-18.7921
ꋈ	-18.7921
혈	-18.7921
	-18.7921
	-18.7921
	-18.7921
≌	-18.7921
侞	-18.7921
笮	-18.7921
闈	-18.7921
酘	-18.7921
鳡	-18.7921
샘	-18.7921
	-18.7921
Ι	-18.7921
ዸ	-18.7921
浐	-18.7921
繃	-18.7921
藴	-18.7921
轕	-18.7921
함	-18.7921
	-18.7921
	-18.7921
	-18.7921
	-18.7921
甮	-18.7921
喥	-18.7921
檵	-18.7921
獶	-18.7921
碡	-18.7921
禫	-18.7921
舭	-18.7921
艶	-18.7921
觳	-18.7921
誈	-18.7921
郈	-18.7921
鍪	-18.7921
	-18.7921
ᒈ	-18.7921
譴	-18.7921
௨	-18.7921
ỷ	-18.7921
㧨	-18.7921
俉	-18.7921
刭	-18.7921
寳	-18.7921
槊	-18.7921
睃	-18.7921
矬	-18.7921
秾	-18.7921
竜	-18.7921
篈	-18.7921
篨	-18.7921
繽	-18.7921
聱	-18.7921
腍	-18.7921
萏	-18.7921
蘅	-18.7921
螭	-18.7921
谡	-18.7921
趱	-18.7921
迓	-18.7921
迖	-18.7921
邶	-18.7921
馓	-18.7921
ꩨ	-18.7921
볨	-18.7921
	-18.7921
	-18.7921
ט	-18.7921
স	-18.7921
乊	-18.7921
礸	-18.7921
筨	-18.7921
臫	-18.7921
薤	-18.7921
謦	-18.7921
鈈	-18.7921
쑈	-18.7921
ј	-18.7921
妅	-18.7921
妣	-18.7921
揎	-18.7921
毌	-18.7921
氽	-18.7921
瀹	-18.7921
瑷	-18.7921
穂	-18.7921
繧	-18.7921
羘	-18.7921
膂	-18.7921
郗	-18.7921
锪	-18.7921
闡	-18.7921
闱	-18.7921
雫	-18.7921
頫	-18.7921
鲗	-18.7921
ퟸ	-18.7921
	-18.7921
ǿ	-18.7921
乭	-18.7921
兎	-18.7921
吢	-18.7921
哕	-18.7921
瑯	-18.7921
瓏	-18.7921
甌	-18.7921
畉	-18.7921
畷	-18.7921
瘍	-18.7921
祎	-18.7921
縉	-18.7921
羛	-18.7921
蛝	-18.7921
醢	-18.7921
銚	-18.7921
鍍	-18.7921
镔	-18.7921
頹	-18.7921
鬻	-18.7921
	-18.7921
þ	-18.7921
坌	-18.7921
惣	-18.7921
槙	-18.7921
瀆	-18.7921
綻	-18.7921
繭	-18.7921
舺	-18.7921
鎦	-18.7921
镤	-18.7921
饅	-18.7921
𪘅	-18.7921
ď	-18.7921
ț	-18.7921
Κ	-18.7921
Ж	-18.7921
א	-18.7921
ב	-18.7921
ל	-18.7921
ث	-18.7921
߸	-18.7921
⋯	-18.7921
┕	-18.7921
▇	-18.7921
▷	-18.7921
❖	-18.7921
⿰	-18.7921
え	-18.7921
ぜ	-18.7921
つ	-18.7921
ほ	-18.7921
ロ	-18.7921
ㄔ	-18.7921
ㄣ	-18.7921
亅	-18.7921
仂	-18.7921
俋	-18.7921
冑	-18.7921
冴	-18.7921
卋	-18.7921
哘	-18.7921
唄	-18.7921
喫	-18.7921
喰	-18.7921
嗍	-18.7921
嚰	-18.7921
囦	-18.7921
垆	-18.7921
垈	-18.7921
夲	-18.7921
宄	-18.7921
巔	-18.7921
廄	-18.7921
廇	-18.7921
彫	-18.7921
懺	-18.7921
捸	-18.7921
斱	-18.7921
晈	-18.7921
暎	-18.7921
枵	-18.7921
榍	-18.7921
槤	-18.7921
殤	-18.7921
氺	-18.7921
渑	-18.7921
渫	-18.7921
漥	-18.7921
畯	-18.7921
癵	-18.7921
癶	-18.7921
瞇	-18.7921
砏	-18.7921
砬	-18.7921
稈	-18.7921
窭	-18.7921
簍	-18.7921
籣	-18.7921
粈	-18.7921
粢	-18.7921
絃	-18.7921
絛	-18.7921
綼	-18.7921
繹	-18.7921
肒	-18.7921
脛	-18.7921
艋	-18.7921
茼	-18.7921
莕	-18.7921
蒔	-18.7921
蓘	-18.7921
蓰	-18.7921
蕁	-18.7921
薁	-18.7921
藷	-18.7921
蘂	-18.7921
蚰	-18.7921
蟌	-18.7921
蟳	-18.7921
蠎	-18.7921
袴	-18.7921
觌	-18.7921
訛	-18.7921
誅	-18.7921
謒	-18.7921
讟	-18.7921
軋	-18.7921
酈	-18.7921
醃	-18.7921
鉸	-18.7921
銖	-18.7921
銦	-18.7921
鋯	-18.7921
鏘	-18.7921
鑿	-18.7921
钑	-18.7921
闢	-18.7921
雋	-18.7921
鞏	-18.7921
韮	-18.7921
颯	-18.7921
飼	-18.7921
餃	-18.7921
馱	-18.7921
騫	-18.7921
骀	-18.7921
鬲	-18.7921
鮁	-18.7921
鮣	-18.7921
鲴	-18.7921
鴇	-18.7921
鴗	-18.7921
鴟	-18.7921
鴣	-18.7921
鴯	-18.7921
鵠	-18.7921
鵯	-18.7921
鷓	-18.7921
鸞	-18.7921
鹇	-18.7921
봸	-18.7921
삘	-18.7921
	-18.7921
	-18.7921
	-18.7921
	-18.7921
	-18.7921
	-18.7921
	-18.7921
	-18.7921
	-18.7921
	-18.7921
	-18.7921
	-18.7921
	-18.7921
𠀧	-18.7921
𣴓	-18.7921
ת	-18.7921
ޘ	-18.7921
ᑘ	-18.7921
凪	-18.7921
嗆	-18.7921
庅	-18.7921
沩	-18.7921
狶	-18.7921
獀	-18.7921
碦	-18.7921
粅	-18.7921
糵	-18.7921
耨	-18.7921
胈	-18.7921
虉	-18.7921
誏	-18.7921
鄚	-18.7921
鄲	-18.7921
餸	-18.7921
駄	-18.7921
鵂	-18.7921
Ŝ	-18.7921
إ	-18.7921
د	-18.7921
᧸	-18.7921
㑨	-18.7921
丄	-18.7921
偲	-18.7921
卽	-18.7921
厖	-18.7921
嚦	-18.7921
垻	-18.7921
墻	-18.7921
嬑	-18.7921
廨	-18.7921
浯	-18.7921
罣	-18.7921
荑	-18.7921
蓂	-18.7921
螚	-18.7921
裑	-18.7921
趕	-18.7921
轇	-18.7921
逄	-18.7921
鈀	-18.7921
钷	-18.7921
鞨	-18.7921
꩸	-18.7921
돘	-18.7921
	-18.7921
	-18.7921
	-18.7921
澗	-18.7921
訢	-18.7921
詳	-18.7921
Ȼ	-18.7921
ኘ	-18.7921
ざ	-18.7921
嘢	-18.7921
嚟	-18.7921
埈	-18.7921
懇	-18.7921
枓	-18.7921
棻	-18.7921
涑	-18.7921
滏	-18.7921
璈	-18.7921
璠	-18.7921
砃	-18.7921
笊	-18.7921
繨	-18.7921
繻	-18.7921
荾	-18.7921
薸	-18.7921
輭	-18.7921
靺	-18.7921
颃	-18.7921
뻘	-18.7921
	-18.7921
	-18.7921
	-18.7921
痦	-18.7921
秂	-18.7921
竡	-18.7921
鏻	-18.7921
줸	-18.7921
伋	-18.7921
弢	-18.7921
柺	-18.7921
渼	-18.7921
睏	-18.7921
茺	-18.7921
饍	-18.7921
笸	-18.7921
ઘ	-18.7921
‖	-18.7921
う	-18.7921
佉	-18.7921
埌	-18.7921
埙	-18.7921
屺	-18.7921
怃	-18.7921
挐	-18.7921
擕	-18.7921
皞	-18.7921
瞢	-18.7921
碿	-18.7921
繕	-18.7921
螩	-18.7921
鞫	-18.7921
	-18.7921
	-18.7921
	-18.7921
	-18.7921
	-18.7921
	-18.7921
Ā	-18.7921
胩	-18.7921
ひ	-18.7921
倢	-18.7921
剡	-18.7921
笪	-18.7921
箎	-18.7921
耞	-18.7921
	-18.7921
凵	-18.7921
嵫	-18.7921
镆	-18.7921
	-18.7921
	-18.7921
镒	-18.7921
敫	-18.7921
闀	-18.7921
寔	-18.7921
㶨	-18.7921
囓	-18.7921
廴	-18.7921
悶	-18.7921
晸	-18.7921
灐	-18.7921
熸	-18.7921
璓	-18.7921
艱	-18.7921
鎯	-18.7921
鎶	-18.7921
	-18.7921
	-18.7921
仵	-18.7922
Ă	-18.7922
ņ	-18.7922
が	-18.7922
罸	-18.7922
	-18.7922
ヨ	-18.7922
	-18.7922
繖	-18.7922
鑨	-18.7922
	-18.7922
	-18.7922
	-18.7922
紝	-18.7922
	-18.7922
	-18.7922
醵	-18.7922
	-18.7922
	-18.7922
埻	-18.7922
綘	-18.7922
湪	-18.7922
	-18.7922
	-18.7923
	-18.7923
	-18.7923
佺	-18.7923
囥	-18.7924
囨	-19.1252
	-19.1253
	-19.1253
甧	-19.1253
瞷	-19.1253
⊥	-19.1253
	-19.1253
卲	-19.1253
⌒	-19.1253
薗	-19.1253
ŕ	-19.1254
嘨	-19.1254
廾	-19.1254
棑	-19.1254
埘	-19.1254
┚	-19.1254
湓	-19.1254
芔	-19.1254
	-19.1254
	-19.1254
	-19.1254
	-19.1254
駸	-19.1254
수	-19.1254
┓	-19.1254
囩	-19.1254
尥	-19.1254
愽	-19.1254
滌	-19.1254
澆	-19.1254
煈	-19.1254
獛	-19.1254
	-19.1254
	-19.1254
	-19.1254
	-19.1254
	-19.1254
	-19.1254
	-19.1254
	-19.1254
ズ	-19.1254
陴	-19.1254
ゆ	-19.1254
渧	-19.1254
	-19.1254
	-19.1254
	-19.1254
던	-19.1254
ㄝ	-19.1254
	-19.1254
랸	-19.1254
무	-19.1254
ⴘ	-19.1254
ㄐ	-19.1254
偁	-19.1254
坼	-19.1254
懾	-19.1254
拊	-19.1254
湲	-19.1254
煐	-19.1254
瘔	-19.1254
腨	-19.1254
虿	-19.1254
谿	-19.1254
陔	-19.1254
饩	-19.1254
꾸	-19.1254
	-19.1254
	-19.1254
	-19.1254
	-19.1254
	-19.1254
	-19.1254
	-19.1254
	-19.1254
	-19.1254
	-19.1254
╣	-19.1254
䆨	-19.1254
摏	-19.1254
洐	-19.1254
渁	-19.1254
籐	-19.1254
纐	-19.1254
缣	-19.1254
罱	-19.1254
钲	-19.1254
隒	-19.1254
洳	-19.1254
ĺ	-19.1254
┥	-19.1254
╁	-19.1254
╇	-19.1254
〒	-19.1254
㒘	-19.1254
㰸	-19.1254
呙	-19.1254
奻	-19.1254
屇	-19.1254
拫	-19.1254
摀	-19.1254
旰	-19.1254
杩	-19.1254
瀬	-19.1254
猀	-19.1254
珨	-19.1254
瓨	-19.1254
皘	-19.1254
硉	-19.1254
礻	-19.1254
禤	-19.1254
簑	-19.1254
翚	-19.1254
芃	-19.1254
裣	-19.1254
詴	-19.1254
郤	-19.1254
꼸	-19.1254
쪸	-19.1254
	-19.1254
	-19.1254
	-19.1254
	-19.1254
	-19.1254
	-19.1254
穢	-19.1254
鍔	-19.1254
Ĭ	-19.1254
࿈	-19.1254
␈	-19.1254
䧈	-19.1254
嘦	-19.1254
慝	-19.1254
擆	-19.1254
檯	-19.1254
茈	-19.1254
蠛	-19.1254
Ƙ	-19.1254
Ј	-19.1254
⦈	-19.1254
お	-19.1254
ダ	-19.1254
䒘	-19.1254
亁	-19.1254
倰	-19.1254
偱	-19.1254
卣	-19.1254
叆	-19.1254
嗌	-19.1254
媨	-19.1254
尅	-19.1254
搇	-19.1254
摻	-19.1254
攍	-19.1254
杛	-19.1254
桝	-19.1254
椇	-19.1254
毳	-19.1254
氁	-19.1254
浄	-19.1254
焜	-19.1254
玾	-19.1254
痾	-19.1254
癡	-19.1254
竘	-19.1254
簟	-19.1254
絜	-19.1254
纘	-19.1254
耑	-19.1254
蛩	-19.1254
豊	-19.1254
貅	-19.1254
迕	-19.1254
遈	-19.1254
鐪	-19.1254
飧	-19.1254
骃	-19.1254
	-19.1254
	-19.1254
	-19.1254
	-19.1254
	-19.1254
徖	-19.1254
ئ	-19.1254
ف	-19.1254
ブ	-19.1254
䛈	-19.1254
勅	-19.1254
厗	-19.1254
嗇	-19.1254
垤	-19.1254
壠	-19.1254
妸	-19.1254
憫	-19.1254
摑	-19.1254
撿	-19.1254
棰	-19.1254
濊	-19.1254
濘	-19.1254
瀘	-19.1254
瞼	-19.1254
礽	-19.1254
縞	-19.1254
缐	-19.1254
芻	-19.1254
葇	-19.1254
螘	-19.1254
誃	-19.1254
赱	-19.1254
逕	-19.1254
酃	-19.1254
鈸	-19.1254
鑀	-19.1254
锫	-19.1254
鰲	-19.1254
鲩	-19.1254
컘	-19.1254
	-19.1254
	-19.1254
À	-19.1254
Ì	-19.1254
Û	-19.1254
Ĉ	-19.1254
Ǩ	-19.1254
Ρ	-19.1254
Ә	-19.1254
Ө	-19.1254
׃	-19.1254
ڈ	-19.1254
౸	-19.1254
ᕘ	-19.1254
ᚨ	-19.1254
ᤘ	-19.1254
∴	-19.1254
┼	-19.1254
╧	-19.1254
♪	-19.1254
♭	-19.1254
✓	-19.1254
じ	-19.1254
イ	-19.1254
ド	-19.1254
ヾ	-19.1254
ㄋ	-19.1254
㇈	-19.1254
䄨	-19.1254
亽	-19.1254
倣	-19.1254
偑	-19.1254
偓	-19.1254
僨	-19.1254
儁	-19.1254
儼	-19.1254
劻	-19.1254
匚	-19.1254
喎	-19.1254
喲	-19.1254
嘜	-19.1254
圀	-19.1254
垚	-19.1254
埵	-19.1254
堉	-19.1254
塙	-19.1254
墿	-19.1254
奐	-19.1254
姍	-19.1254
嫄	-19.1254
嫨	-19.1254
嬋	-19.1254
屜	-19.1254
幀	-19.1254
幗	-19.1254
弔	-19.1254
忉	-19.1254
戜	-19.1254
戯	-19.1254
捥	-19.1254
掙	-19.1254
擱	-19.1254
斪	-19.1254
斲	-19.1254
晢	-19.1254
暐	-19.1254
朧	-19.1254
杻	-19.1254
柙	-19.1254
椪	-19.1254
檻	-19.1254
欏	-19.1254
殑	-19.1254
殽	-19.1254
毞	-19.1254
汙	-19.1254
泶	-19.1254
洣	-19.1254
浡	-19.1254
涇	-19.1254
淪	-19.1254
渃	-19.1254
澌	-19.1254
瀅	-19.1254
烱	-19.1254
煇	-19.1254
熤	-19.1254
燴	-19.1254
爟	-19.1254
爨	-19.1254
犏	-19.1254
犦	-19.1254
狛	-19.1254
玍	-19.1254
珰	-19.1254
琤	-19.1254
瑀	-19.1254
璚	-19.1254
瓌	-19.1254
瓘	-19.1254
瓚	-19.1254
畃	-19.1254
疐	-19.1254
疪	-19.1254
痁	-19.1254
瘳	-19.1254
皤	-19.1254
皰	-19.1254
盓	-19.1254
瞓	-19.1254
瞣	-19.1254
砯	-19.1254
硈	-19.1254
稙	-19.1254
穇	-19.1254
穞	-19.1254
竄	-19.1254
竈	-19.1254
笲	-19.1254
筌	-19.1254
篖	-19.1254
篥	-19.1254
簫	-19.1254
籇	-19.1254
綉	-19.1254
緾	-19.1254
縈	-19.1254
繝	-19.1254
缳	-19.1254
翑	-19.1254
胲	-19.1254
膄	-19.1254
舦	-19.1254
苝	-19.1254
茇	-19.1254
茑	-19.1254
莂	-19.1254
蒄	-19.1254
蓴	-19.1254
蕎	-19.1254
薓	-19.1254
藹	-19.1254
蚖	-19.1254
螠	-19.1254
蟄	-19.1254
衖	-19.1254
褻	-19.1254
襦	-19.1254
觇	-19.1254
訝	-19.1254
謗	-19.1254
貳	-19.1254
貶	-19.1254
賬	-19.1254
跸	-19.1254
蹠	-19.1254
軀	-19.1254
輩	-19.1254
遘	-19.1254
酏	-19.1254
醡	-19.1254
釤	-19.1254
鈿	-19.1254
鉕	-19.1254
銑	-19.1254
銨	-19.1254
鋨	-19.1254
錕	-19.1254
錡	-19.1254
鏉	-19.1254
鏗	-19.1254
鏷	-19.1254
鑊	-19.1254
锿	-19.1254
閹	-19.1254
陎	-19.1254
霑	-19.1254
靑	-19.1254
靿	-19.1254
鞦	-19.1254
韆	-19.1254
頼	-19.1254
顳	-19.1254
颛	-19.1254
餡	-19.1254
騏	-19.1254
驃	-19.1254
驍	-19.1254
骢	-19.1254
鮊	-19.1254
鯆	-19.1254
鯥	-19.1254
鰋	-19.1254
鱎	-19.1254
鳓	-19.1254
鴒	-19.1254
鵄	-19.1254
鹆	-19.1254
麹	-19.1254
ꗈ	-19.1254
Ꙉ	-19.1254
녨	-19.1254
련	-19.1254
뮸	-19.1254
엨	-19.1254
편	-19.1254
퓘	-19.1254
하	-19.1254
휘	-19.1254
	-19.1254
	-19.1254
	-19.1254
	-19.1254
	-19.1254
	-19.1254
	-19.1254
	-19.1254
	-19.1254
	-19.1254
	-19.1254
	-19.1254
	-19.1254
	-19.1254
	-19.1254
𫫇	-19.1254
פ	-19.1254
ᣨ	-19.1254
垓	-19.1254
壙	-19.1254
姶	-19.1254
怫	-19.1254
檞	-19.1254
觿	-19.1254
訕	-19.1254
鄔	-19.1254
鈰	-19.1254
鉬	-19.1254
銥	-19.1254
鐽	-19.1254
隴	-19.1254
鬢	-19.1254
鷂	-19.1254
욘	-19.1254
쨘	-19.1254
𨨏	-19.1254
ה	-19.1254
ᚸ	-19.1254
Ẽ	-19.1254
亀	-19.1254
嗞	-19.1254
嫵	-19.1254
拏	-19.1254
搌	-19.1254
攞	-19.1254
柸	-19.1254
桄	-19.1254
椏	-19.1254
檉	-19.1254
氬	-19.1254
瀋	-19.1254
砱	-19.1254
絪	-19.1254
絳	-19.1254
羼	-19.1254
蔵	-19.1254
誹	-19.1254
釙	-19.1254
銶	-19.1254
鍏	-19.1254
阝	-19.1254
頡	-19.1254
루	-19.1254
מ	-19.1255
┋	-19.1255
㠨	-19.1255
㺸	-19.1255
丿	-19.1255
侘	-19.1255
儷	-19.1255
嚕	-19.1255
巸	-19.1255
彡	-19.1255
抔	-19.1255
搥	-19.1255
歨	-19.1255
玓	-19.1255
珅	-19.1255
瘖	-19.1255
癱	-19.1255
碹	-19.1255
礐	-19.1255
禘	-19.1255
糢	-19.1255
舸	-19.1255
萛	-19.1255
葎	-19.1255
蘗	-19.1255
蟓	-19.1255
褀	-19.1255
郛	-19.1255
醑	-19.1255
釪	-19.1255
镢	-19.1255
鞴	-19.1255
龑	-19.1255
주	-19.1255
	-19.1255
	-19.1255
	-19.1255
	-19.1255
	-19.1255
	-19.1255
Ě	-19.1255
ォ	-19.1255
竧	-19.1255
蔌	-19.1255
跐	-19.1255
ਨ	-19.1255
ຸ	-19.1255
᧨	-19.1255
々	-19.1255
ェ	-19.1255
ガ	-19.1255
ツ	-19.1255
伕	-19.1255
唣	-19.1255
垳	-19.1255
崀	-19.1255
徭	-19.1255
摭	-19.1255
昐	-19.1255
榼	-19.1255
檊	-19.1255
溚	-19.1255
犤	-19.1255
珵	-19.1255
琜	-19.1255
畒	-19.1255
癟	-19.1255
眀	-19.1255
睱	-19.1255
禲	-19.1255
秫	-19.1255
窀	-19.1255
筅	-19.1255
箜	-19.1255
芖	-19.1255
賺	-19.1255
赆	-19.1255
辷	-19.1255
邠	-19.1255
锬	-19.1255
驵	-19.1255
鳰	-19.1255
鼽	-19.1255
	-19.1255
	-19.1255
	-19.1255
	-19.1255
	-19.1255
	-19.1255
	-19.1255
	-19.1255
堍	-19.1255
羭	-19.1255
襍	-19.1255
倶	-19.1255
吘	-19.1255
妘	-19.1255
寘	-19.1255
洧	-19.1255
琂	-19.1255
竚	-19.1255
篼	-19.1255
覶	-19.1255
醂	-19.1255
钖	-19.1255
鹾	-19.1255
녈	-19.1255
	-19.1255
	-19.1255
鈡	-19.1255
	-19.1255
ハ	-19.1255
ピ	-19.1255
仈	-19.1255
偬	-19.1255
囝	-19.1255
堟	-19.1255
彲	-19.1255
戝	-19.1255
桷	-19.1255
瑭	-19.1255
甓	-19.1255
禨	-19.1255
窆	-19.1255
綇	-19.1255
綈	-19.1255
繦	-19.1255
诖	-19.1255
	-19.1255
	-19.1255
	-19.1255
	-19.1255
	-19.1255
	-19.1255
	-19.1255
	-19.1255
嶄	-19.1255
Ǹ	-19.1255
肭	-19.1255
觏	-19.1255
冮	-19.1255
呖	-19.1255
庨	-19.1255
笾	-19.1255
鋳	-19.1255
鹁	-19.1255
카	-19.1255
	-19.1255
	-19.1255
珿	-19.1255
↖	-19.1255
㹨	-19.1255
鏀	-19.1255
	-19.1255
犧	-19.1255
┗	-19.1255
ザ	-19.1255
淝	-19.1255
潆	-19.1255
烝	-19.1255
砈	-19.1255
蟷	-19.1255
蹯	-19.1255
鍜	-19.1255
锖	-19.1255
鲏	-19.1255
麪	-19.1255
	-19.1255
	-19.1255
	-19.1255
	-19.1255
腞	-19.1255
讠	-19.1255
祫	-19.1255
螲	-19.1255
酆	-19.1255
屾	-19.1255
嬬	-19.1255
	-19.1255
	-19.1255
뫘	-19.1255
诔	-19.1255
	-19.1255
	-19.1255
妀	-19.1255
	-19.1255
畋	-19.1256
	-19.1256
劧	-19.1256
牐	-19.1256
╃	-19.1256
椼	-19.1256
缃	-19.1256
籵	-19.1256
収	-19.1256
湅	-19.1256
欎	-19.1256
埯	-19.1256
	-19.625
縒	-19.6251
珹	-19.6251
碔	-19.6252
	-19.6252
	-19.6252
	-19.6253
锊	-19.6253
	-19.6253
⟈	-19.6253
䤨	-19.6253
澥	-19.6253
缌	-19.6253
	-19.6253
	-19.6253
䜈	-19.6253
龆	-19.6253
	-19.6254
┲	-19.6254
Ⳉ	-19.6254
凓	-19.6254
屢	-19.6254
蕸	-19.6254
ꦈ	-19.6254
믈	-19.6254
	-19.6254
	-19.6254
	-19.6254
赽	-19.6254
溽	-19.6254
ᗘ	-19.6254
⇸	-19.6254
㟨	-19.6254
㬈	-19.6254
羀	-19.6254
裎	-19.6254
鵎	-19.6254
뚈	-19.6254
컈	-19.6254
	-19.6254
	-19.6254
	-19.6254
楽	-19.6254
罺	-19.6254
ʹ	-19.6254
┠	-19.6254
┨	-19.6254
┶	-19.6254
╆	-19.6254
⣘	-19.6254
ゝ	-19.6254
シ	-19.6254
ョ	-19.6254
㖸	-19.6254
䴨	-19.6254
偊	-19.6254
哿	-19.6254
坢	-19.6254
堘	-19.6254
婃	-19.6254
幓	-19.6254
彐	-19.6254
槑	-19.6254
滝	-19.6254
澨	-19.6254
舘	-19.6254
襝	-19.6254
鍓	-19.6254
鵘	-19.6254
鵼	-19.6254
ꓘ	-19.6254
Ꝩ	-19.6254
꽸	-19.6254
녘	-19.6254
사	-19.6254
탘	-19.6254
회	-19.6254
훨	-19.6254
	-19.6254
	-19.6254
	-19.6254
	-19.6254
	-19.6254
	-19.6254
	-19.6254
	-19.6254
	-19.6254
殂	-19.6254
禊	-19.6254
蹘	-19.6254
躝	-19.6254
隰	-19.6254
ꖨ	-19.6254
뱨	-19.6254
싘	-19.6254
	-19.6254
ɸ	-19.6254
ሸ	-19.6254
┙	-19.6254
┫	-19.6254
╂	-19.6254
ⵈ	-19.6254
バ	-19.6254
㯈	-19.6254
勖	-19.6254
坘	-19.6254
娒	-19.6254
捄	-19.6254
撜	-19.6254
暋	-19.6254
暼	-19.6254
歃	-19.6254
猳	-19.6254
獹	-19.6254
瑅	-19.6254
甡	-19.6254
瞯	-19.6254
砋	-19.6254
芤	-19.6254
菿	-19.6254
萳	-19.6254
襌	-19.6254
鄕	-19.6254
鉓	-19.6254
鐜	-19.6254
鐶	-19.6254
閿	-19.6254
陃	-19.6254
顨	-19.6254
鱆	-19.6254
鳸	-19.6254
鷨	-19.6254
ꊈ	-19.6254
ꐘ	-19.6254
걈	-19.6254
먨	-19.6254
숈	-19.6254
	-19.6254
	-19.6254
	-19.6254
	-19.6254
	-19.6254
	-19.6254
	-19.6254
	-19.6254
	-19.6254
蹐	-19.6254
	-19.6254
ģ	-19.6254
Ħ	-19.6254
ס	-19.6254
प	-19.6254
ᘘ	-19.6254
↘	-19.6254
⡨	-19.6254
⭈	-19.6254
Ⰸ	-19.6254
Ⲹ	-19.6254
エ	-19.6254
㻈	-19.6254
䯈	-19.6254
偸	-19.6254
処	-19.6254
哅	-19.6254
埏	-19.6254
埳	-19.6254
姩	-19.6254
媄	-19.6254
寈	-19.6254
尌	-19.6254
崨	-19.6254
帀	-19.6254
廍	-19.6254
徫	-19.6254
愬	-19.6254
揑	-19.6254
擡	-19.6254
攠	-19.6254
楖	-19.6254
濶	-19.6254
琯	-19.6254
甀	-19.6254
癍	-19.6254
磈	-19.6254
禔	-19.6254
穘	-19.6254
穣	-19.6254
糬	-19.6254
繙	-19.6254
缲	-19.6254
翋	-19.6254
翺	-19.6254
脬	-19.6254
蠂	-19.6254
襬	-19.6254
訽	-19.6254
谇	-19.6254
赒	-19.6254
踦	-19.6254
轹	-19.6254
钘	-19.6254
镈	-19.6254
雩	-19.6254
餗	-19.6254
鷟	-19.6254
겨	-19.6254
귘	-19.6254
둘	-19.6254
제	-19.6254
졨	-19.6254
춘	-19.6254
탨	-19.6254
풸	-19.6254
	-19.6254
	-19.6254
	-19.6254
	-19.6254
	-19.6254
	-19.6254
֨	-19.6254
ĭ	-19.6254
ŏ	-19.6254
Ţ	-19.6254
Ζ	-19.6254
ଘ	-19.6254
ஸ	-19.6254
▽	-19.6254
゚	-19.6254
䣨	-19.6254
䭘	-19.6254
儅	-19.6254
噠	-19.6254
嬿	-19.6254
尒	-19.6254
愢	-19.6254
掱	-19.6254
揃	-19.6254
擄	-19.6254
斈	-19.6254
杁	-19.6254
椨	-19.6254
楈	-19.6254
楳	-19.6254
槇	-19.6254
殞	-19.6254
洑	-19.6254
犨	-19.6254
珽	-19.6254
疬	-19.6254
窎	-19.6254
紓	-19.6254
縨	-19.6254
縯	-19.6254
苶	-19.6254
蒨	-19.6254
薱	-19.6254
衈	-19.6254
誱	-19.6254
谫	-19.6254
軘	-19.6254
辵	-19.6254
铹	-19.6254
魎	-19.6254
鳁	-19.6254
끈	-19.6254
뫨	-19.6254
봈	-19.6254
	-19.6254
ಘ	-19.6254
䪘	-19.6254
䯨	-19.6254
哸	-19.6254
唈	-19.6254
塹	-19.6254
奓	-19.6254
忈	-19.6254
樅	-19.6254
湔	-19.6254
縢	-19.6254
膩	-19.6254
苳	-19.6254
蛯	-19.6254
襸	-19.6254
輾	-19.6254
鉾	-19.6254
鐠	-19.6254
鞮	-19.6254
饗	-19.6254
骻	-19.6254
뀈	-19.6254
쌈	-19.6254
앸	-19.6254
죈	-19.6254
Æ	-19.6254
Ò	-19.6254
Ù	-19.6254
Þ	-19.6254
Ƅ	-19.6254
ǒ	-19.6254
Ȉ	-19.6254
̅	-19.6254
̆	-19.6254
Η	-19.6254
ς	-19.6254
Є	-19.6254
҈	-19.6254
Ү	-19.6254
ض	-19.6254
ظ	-19.6254
߈	-19.6254
घ	-19.6254
न	-19.6254
ਸ	-19.6254
స	-19.6254
ช	-19.6254
ั	-19.6254
ᄈ	-19.6254
ᄋ	-19.6254
ᆅ	-19.6254
ᇸ	-19.6254
ፘ	-19.6254
Ꭸ	-19.6254
ᓘ	-19.6254
ᣈ	-19.6254
ᦘ	-19.6254
ᴘ	-19.6254
Ṹ	-19.6254
⇨	-19.6254
⏨	-19.6254
┉	-19.6254
┡	-19.6254
╈	-19.6254
♡	-19.6254
➤	-19.6254
⧘	-19.6254
⩘	-19.6254
ⰸ	-19.6254
Ⲙ	-19.6254
げ	-19.6254
ご	-19.6254
ぼ	-19.6254
ょ	-19.6254
グ	-19.6254
プ	-19.6254
ホ	-19.6254
ポ	-19.6254
ム	-19.6254
メ	-19.6254
ㄦ	-19.6254
ㄨ	-19.6254
㕨	-19.6254
㘸	-19.6254
㛘	-19.6254
㛨	-19.6254
㟘	-19.6254
㠸	-19.6254
㧈	-19.6254
㰈	-19.6254
㲈	-19.6254
㸈	-19.6254
㹈	-19.6254
㽨	-19.6254
䏲	-19.6254
䙘	-19.6254
䟘	-19.6254
䡸	-19.6254
䦸	-19.6254
䩨	-19.6254
䰾	-19.6254
䳍	-19.6254
乄	-19.6254
伈	-19.6254
伷	-19.6254
佮	-19.6254
侅	-19.6254
俓	-19.6254
偅	-19.6254
傉	-19.6254
儕	-19.6254
儗	-19.6254
凅	-19.6254
劄	-19.6254
劊	-19.6254
勗	-19.6254
勪	-19.6254
厓	-19.6254
叾	-19.6254
吽	-19.6254
嗈	-19.6254
嚆	-19.6254
嚮	-19.6254
圵	-19.6254
坮	-19.6254
坵	-19.6254
垟	-19.6254
埇	-19.6254
埒	-19.6254
堔	-19.6254
奼	-19.6254
妟	-19.6254
姞	-19.6254
姮	-19.6254
娫	-19.6254
婂	-19.6254
婨	-19.6254
嫪	-19.6254
孅	-19.6254
寃	-19.6254
尨	-19.6254
崐	-19.6254
崒	-19.6254
嵒	-19.6254
嶢	-19.6254
嶷	-19.6254
巇	-19.6254
巰	-19.6254
帡	-19.6254
廱	-19.6254
弇	-19.6254
彣	-19.6254
徂	-19.6254
徠	-19.6254
徧	-19.6254
応	-19.6254
怢	-19.6254
怹	-19.6254
恅	-19.6254
恴	-19.6254
悝	-19.6254
惸	-19.6254
慆	-19.6254
慉	-19.6254
慜	-19.6254
慟	-19.6254
憕	-19.6254
懌	-19.6254
懮	-19.6254
戨	-19.6254
扙	-19.6254
挾	-19.6254
摵	-19.6254
擈	-19.6254
擧	-19.6254
攺	-19.6254
晙	-19.6254
晛	-19.6254
暘	-19.6254
曈	-19.6254
曚	-19.6254
朶	-19.6254
杪	-19.6254
柌	-19.6254
栞	-19.6254
栳	-19.6254
栻	-19.6254
梔	-19.6254
椀	-19.6254
椌	-19.6254
椙	-19.6254
楗	-19.6254
楜	-19.6254
樻	-19.6254
欐	-19.6254
氷	-19.6254
汭	-19.6254
沇	-19.6254
沲	-19.6254
沺	-19.6254
洎	-19.6254
洏	-19.6254
洖	-19.6254
浫	-19.6254
渙	-19.6254
渟	-19.6254
湰	-19.6254
湴	-19.6254
溷	-19.6254
滆	-19.6254
漈	-19.6254
漶	-19.6254
潽	-19.6254
澯	-19.6254
澶	-19.6254
濹	-19.6254
瀟	-19.6254
灬	-19.6254
烕	-19.6254
焄	-19.6254
焢	-19.6254
煗	-19.6254
熀	-19.6254
燏	-19.6254
燹	-19.6254
爂	-19.6254
獬	-19.6254
玕	-19.6254
玙	-19.6254
玦	-19.6254
玧	-19.6254
玸	-19.6254
珓	-19.6254
琎	-19.6254
瑑	-19.6254
璂	-19.6254
璄	-19.6254
璉	-19.6254
璣	-19.6254
璦	-19.6254
甴	-19.6254
畄	-19.6254
畈	-19.6254
畬	-19.6254
痩	-19.6254
瘊	-19.6254
瘐	-19.6254
瘜	-19.6254
皐	-19.6254
眘	-19.6254
眜	-19.6254
眭	-19.6254
睘	-19.6254
瞏	-19.6254
瞴	-19.6254
矧	-19.6254
砓	-19.6254
硸	-19.6254
碝	-19.6254
碨	-19.6254
碶	-19.6254
磳	-19.6254
礢	-19.6254
禜	-19.6254
秙	-19.6254
穏	-19.6254
窓	-19.6254
窽	-19.6254
竑	-19.6254
竓	-19.6254
笅	-19.6254
笒	-19.6254
笿	-19.6254
筊	-19.6254
篜	-19.6254
簈	-19.6254
籀	-19.6254
籄	-19.6254
籥	-19.6254
籮	-19.6254
糘	-19.6254
紇	-19.6254
紉	-19.6254
続	-19.6254
緃	-19.6254
緄	-19.6254
緲	-19.6254
縡	-19.6254
纈	-19.6254
罈	-19.6254
羱	-19.6254
翀	-19.6254
翬	-19.6254
耖	-19.6254
耚	-19.6254
耜	-19.6254
聳	-19.6254
脎	-19.6254
腇	-19.6254
舡	-19.6254
芿	-19.6254
苅	-19.6254
苨	-19.6254
茀	-19.6254
茳	-19.6254
莙	-19.6254
莿	-19.6254
菉	-19.6254
菾	-19.6254
萈	-19.6254
萹	-19.6254
蕣	-19.6254
薘	-19.6254
薨	-19.6254
藠	-19.6254
蘄	-19.6254
虓	-19.6254
螻	-19.6254
蟈	-19.6254
蠨	-19.6254
袘	-19.6254
袸	-19.6254
裖	-19.6254
襖	-19.6254
覊	-19.6254
覚	-19.6254
覡	-19.6254
覦	-19.6254
覲	-19.6254
詘	-19.6254
誨	-19.6254
諲	-19.6254
諴	-19.6254
諶	-19.6254
謄	-19.6254
譞	-19.6254
讖	-19.6254
讵	-19.6254
貎	-19.6254
貭	-19.6254
賚	-19.6254
跽	-19.6254
踔	-19.6254
蹵	-19.6254
軻	-19.6254
迵	-19.6254
邾	-19.6254
鄘	-19.6254
鄹	-19.6254
釵	-19.6254
鈊	-19.6254
銬	-19.6254
錚	-19.6254
錮	-19.6254
鍗	-19.6254
鎰	-19.6254
鏑	-19.6254
鏤	-19.6254
鐙	-19.6254
鐝	-19.6254
鐢	-19.6254
鐲	-19.6254
鑕	-19.6254
閎	-19.6254
閙	-19.6254
閼	-19.6254
閾	-19.6254
闌	-19.6254
陧	-19.6254
霨	-19.6254
靄	-19.6254
靨	-19.6254
鞆	-19.6254
鞌	-19.6254
韈	-19.6254
韡	-19.6254
顥	-19.6254
颙	-19.6254
飴	-19.6254
餉	-19.6254
饌	-19.6254
饹	-19.6254
駢	-19.6254
騾	-19.6254
驥	-19.6254
髄	-19.6254
髈	-19.6254
髎	-19.6254
髷	-19.6254
鯕	-19.6254
鯤	-19.6254
鰁	-19.6254
鱤	-19.6254
鱭	-19.6254
鲊	-19.6254
鲿	-19.6254
鳂	-19.6254
鳠	-19.6254
鳧	-19.6254
鳯	-19.6254
鴘	-19.6254
鴫	-19.6254
鶥	-19.6254
鶪	-19.6254
鶵	-19.6254
鸘	-19.6254
鹐	-19.6254
黽	-19.6254
黿	-19.6254
齶	-19.6254
龀	-19.6254
龠	-19.6254
ꁨ	-19.6254
ꈸ	-19.6254
ꏢ	-19.6254
ꏣ	-19.6254
ꕈ	-19.6254
ꢸ	-19.6254
ꥈ	-19.6254
계	-19.6254
끨	-19.6254
뉘	-19.6254
도	-19.6254
뛈	-19.6254
뛸	-19.6254
륨	-19.6254
리	-19.6254
맸	-19.6254
몸	-19.6254
벸	-19.6254
샸	-19.6254
슸	-19.6254
안	-19.6254
원	-19.6254
윈	-19.6254
잘	-19.6254
쟘	-19.6254
쩸	-19.6254
촸	-19.6254
퉸	-19.6254
틨	-19.6254
퐸	-19.6254
홸	-19.6254
	-19.6254
	-19.6254
	-19.6254
	-19.6254
	-19.6254
	-19.6254
	-19.6254
	-19.6254
	-19.6254
	-19.6254
	-19.6254
	-19.6254
	-19.6254
	-19.6254
	-19.6254
	-19.6254
	-19.6254
	-19.6254
	-19.6254
	-19.6254
	-19.6254
	-19.6254
	-19.6254
	-19.6254
	-19.6254
	-19.6254
	-19.6254
	-19.6254
	-19.6254
	-19.6254
	-19.6254
	-19.6254
	-19.6254
𦓿	-19.6254
၈	-19.6254
ᢘ	-19.6254
㖼	-19.6254
㸸	-19.6254
倈	-19.6254
嘔	-19.6254
囘	-19.6254
墘	-19.6254
嬈	-19.6254
攬	-19.6254
琺	-19.6254
硯	-19.6254
蟪	-19.6254
贍	-19.6254
躑	-19.6254
鈧	-19.6254
鋦	-19.6254
錀	-19.6254
鐒	-19.6254
鑪	-19.6254
锜	-19.6254
閨	-19.6254
鿫	-19.6254
ꚸ	-19.6254
슨	-19.6254
쎨	-19.6254
었	-19.6254
𨭆	-19.6254
𨭎	-19.6254
ĸ	-19.6255
˸	-19.6255
ࠈ	-19.6255
ਈ	-19.6255
ೈ	-19.6255
䁈	-19.6255
䰨	-19.6255
侸	-19.6255
偨	-19.6255
兲	-19.6255
匸	-19.6255
咜	-19.6255
峘	-19.6255
挘	-19.6255
朲	-19.6255
桋	-19.6255
楘	-19.6255
毨	-19.6255
淂	-19.6255
瓸	-19.6255
絤	-19.6255
萵	-19.6255
覬	-19.6255
轆	-19.6255
鈽	-19.6255
鐖	-19.6255
镸	-19.6255
饘	-19.6255
駅	-19.6255
鮘	-19.6255
꧈	-19.6255
꺈	-19.6255
뚜	-19.6255
쏸	-19.6255
쬸	-19.6255
	-19.6255
𥌓	-19.6255
ص	-19.6255
聴	-19.6255
ଈ	-19.6255
ఈ	-19.6255
๘	-19.6255
ᯘ	-19.6255
Ṩ	-19.6255
⌨	-19.6255
╟	-19.6255
▘	-19.6255
⬘	-19.6255
ベ	-19.6255
㳨	-19.6255
䑘	-19.6255
䠘	-19.6255
丗	-19.6255
侉	-19.6255
侐	-19.6255
侓	-19.6255
俿	-19.6255
効	-19.6255
唘	-19.6255
営	-19.6255
噐	-19.6255
塨	-19.6255
娸	-19.6255
岍	-19.6255
徦	-19.6255
怱	-19.6255
扖	-19.6255
扠	-19.6255
掽	-19.6255
掾	-19.6255
揸	-19.6255
撧	-19.6255
斄	-19.6255
晳	-19.6255
曄	-19.6255
枴	-19.6255
棈	-19.6255
様	-19.6255
槚	-19.6255
橶	-19.6255
溡	-19.6255
牗	-19.6255
獚	-19.6255
琾	-19.6255
眄	-19.6255
睈	-19.6255
睜	-19.6255
矚	-19.6255
窾	-19.6255
筳	-19.6255
簅	-19.6255
総	-19.6255
縂	-19.6255
脝	-19.6255
腽	-19.6255
荭	-19.6255
萆	-19.6255
薆	-19.6255
薢	-19.6255
藋	-19.6255
褦	-19.6255
豋	-19.6255
趈	-19.6255
跩	-19.6255
邔	-19.6255
邙	-19.6255
酲	-19.6255
鯘	-19.6255
鳆	-19.6255
ꐈ	-19.6255
궸	-19.6255
께	-19.6255
꼈	-19.6255
덈	-19.6255
띘	-19.6255
멨	-19.6255
웸	-19.6255
쬈	-19.6255
킸	-19.6255
털	-19.6255
텘	-19.6255
	-19.6255
	-19.6255
	-19.6255
	-19.6255
	-19.6255
啱	-19.6255
撘	-19.6255
엸	-19.6255
Ν	-19.6255
Ξ	-19.6255
׳	-19.6255
ঈ	-19.6255
࿘	-19.6255
ᰈ	-19.6255
∮	-19.6255
ⱈ	-19.6255
〨	-19.6255
㔨	-19.6255
㠈	-19.6255
䣘	-19.6255
䴘	-19.6255
佧	-19.6255
侢	-19.6255
傺	-19.6255
儸	-19.6255
劼	-19.6255
囙	-19.6255
圏	-19.6255
夼	-19.6255
妎	-19.6255
尷	-19.6255
崄	-19.6255
嵝	-19.6255
忨	-19.6255
悗	-19.6255
昫	-19.6255
朓	-19.6255
橔	-19.6255
欹	-19.6255
牋	-19.6255
獘	-19.6255
瑫	-19.6255
甁	-19.6255
畎	-19.6255
痃	-19.6255
眤	-19.6255
竕	-19.6255
篏	-19.6255
篴	-19.6255
籈	-19.6255
綞	-19.6255
緍	-19.6255
緑	-19.6255
肀	-19.6255
臵	-19.6255
苖	-19.6255
谳	-19.6255
豳	-19.6255
躪	-19.6255
辂	-19.6255
閳	-19.6255
闿	-19.6255
餚	-19.6255
髟	-19.6255
齈	-19.6255
ꁘ	-19.6255
ꡨ	-19.6255
꩘	-19.6255
국	-19.6255
먈	-19.6255
셸	-19.6255
팈	-19.6255
	-19.6255
	-19.6255
	-19.6255
	-19.6255
	-19.6255
	-19.6255
	-19.6255
	-19.6255
	-19.6255
	-19.6255
	-19.6255
刳	-19.6255
ħ	-19.6255
ṧ	-19.6255
幤	-19.6255
憃	-19.6255
菴	-19.6255
銧	-19.6255
뽈	-19.6255
취	-19.6255
	-19.6255
穖	-19.6255
┳	-19.6255
㸘	-19.6255
㼸	-19.6255
䔘	-19.6255
乪	-19.6255
凾	-19.6255
坜	-19.6255
奷	-19.6255
嫳	-19.6255
榟	-19.6255
沢	-19.6255
洺	-19.6255
淒	-19.6255
煆	-19.6255
瞵	-19.6255
祧	-19.6255
篊	-19.6255
粋	-19.6255
虍	-19.6255
衊	-19.6255
袝	-19.6255
跘	-19.6255
鍘	-19.6255
鐩	-19.6255
鐾	-19.6255
鲋	-19.6255
鲘	-19.6255
鼍	-19.6255
ꤨ	-19.6255
껨	-19.6255
딨	-19.6255
뚸	-19.6255
뿈	-19.6255
퇨	-19.6255
튘	-19.6255
	-19.6255
	-19.6255
	-19.6255
	-19.6255
	-19.6255
	-19.6255
	-19.6255
	-19.6255
	-19.6255
ヒ	-19.6255
ᅘ	-19.6255
䳈	-19.6255
寪	-19.6255
砫	-19.6255
莩	-19.6255
阌	-19.6255
馃	-19.6255
鱀	-19.6255
뒨	-19.6255
쮘	-19.6255
	-19.6255
	-19.6255
	-19.6255
	-19.6255
槸	-19.6255
	-19.6255
ई	-19.6255
௸	-19.6255
㧘	-19.6255
䕘	-19.6255
喾	-19.6255
椂	-19.6255
涘	-19.6255
牀	-19.6255
犳	-19.6255
簻	-19.6255
蕰	-19.6255
迮	-19.6255
逯	-19.6255
鋆	-19.6255
錸	-19.6255
鎺	-19.6255
鏅	-19.6255
鞲	-19.6255
ꇨ	-19.6255
꠨	-19.6255
붨	-19.6255
힘	-19.6255
	-19.6255
	-19.6255
	-19.6255
	-19.6255
	-19.6255
	-19.6255
䃨	-19.6255
嶕	-19.6255
梈	-19.6255
ꓨ	-19.6255
꿘	-19.6255
땸	-19.6255
	-19.6255
뼈	-19.6256
ぴ	-19.6256
舳	-19.6256
본	-19.6256
ⶨ	-19.6256
匏	-19.6256
曞	-19.6256
殻	-19.6256
渶	-19.6256
	-19.6256
	-19.6256
枃	-19.6256
	-19.6256
傛	-19.6257
皯	-19.6257
夋	-19.6257
庈	-19.6257
拰	-19.6257
潵	-19.6257
粔	-19.6257
鐣	-19.6257
铏	-19.6257
	-19.6257
	-19.6257
癹	-19.6257
	-19.6257
밸	-19.6257
竴	-19.6258
鐐	-19.6258
闁	-19.6258
岃	-19.6258
秶	-19.6259
揙	-20.6249
┞	-20.625
琭	-20.625
硔	-20.625
揥	-20.6251
	-20.6251
ɡ	-20.6252
掟	-20.6252
洝	-20.6252
疢	-20.6252
虳	-20.6252
魼	-20.6252
	-20.6252
	-20.6252
	-20.6252
	-20.6252
	-20.6252
	-20.6252
	-20.6252
	-20.6252
ź	-20.6253
羮	-20.6253
翶	-20.6253
쵈	-20.6253
ǚ	-20.6253
┧	-20.6253
╄	-20.6253
め	-20.6253
ィ	-20.6253
䁘	-20.6253
䍈	-20.6253
偤	-20.6253
埬	-20.6253
嶈	-20.6253
悎	-20.6253
抮	-20.6253
揘	-20.6253
撶	-20.6253
爝	-20.6253
牼	-20.6253
甿	-20.6253
眕	-20.6253
秏	-20.6253
穙	-20.6253
箘	-20.6253
粛	-20.6253
蒝	-20.6253
蚗	-20.6253
袨	-20.6253
褟	-20.6253
趖	-20.6253
辧	-20.6253
鑻	-20.6253
閭	-20.6253
驆	-20.6253
ꄨ	-20.6253
성	-20.6253
역	-20.6253
	-20.6253
	-20.6253
	-20.6253
	-20.6253
	-20.6253
	-20.6253
	-20.6253
	-20.6253
	-20.6253
	-20.6253
	-20.6253
	-20.6253
	-20.6253
	-20.6253
	-20.6253
	-20.6253
	-20.6253
	-20.6253
	-20.6253
弪	-20.6254
Į	-20.6254
ᒸ	-20.6254
ᡨ	-20.6254
ᦨ	-20.6254
ᬈ	-20.6254
┌	-20.6254
┩	-20.6254
㥨	-20.6254
儎	-20.6254
勭	-20.6254
咘	-20.6254
垹	-20.6254
姇	-20.6254
婄	-20.6254
帞	-20.6254
悤	-20.6254
懃	-20.6254
戣	-20.6254
昋	-20.6254
檆	-20.6254
檑	-20.6254
氆	-20.6254
氇	-20.6254
湼	-20.6254
牎	-20.6254
砪	-20.6254
稄	-20.6254
穚	-20.6254
篒	-20.6254
篛	-20.6254
籭	-20.6254
紬	-20.6254
肁	-20.6254
臖	-20.6254
芁	-20.6254
芐	-20.6254
荍	-20.6254
葝	-20.6254
藘	-20.6254
蠳	-20.6254
褵	-20.6254
覑	-20.6254
誺	-20.6254
貙	-20.6254
轵	-20.6254
鄸	-20.6254
釒	-20.6254
錓	-20.6254
鍖	-20.6254
鏄	-20.6254
鐞	-20.6254
雰	-20.6254
霩	-20.6254
駉	-20.6254
魿	-20.6254
齄	-20.6254
혜	-20.6254
	-20.6254
	-20.6254
	-20.6254
	-20.6254
	-20.6254
	-20.6254
	-20.6254
	-20.6254
	-20.6254
	-20.6254
	-20.6254
	-20.6254
	-20.6254
ˮ	-20.6254
ڤ	-20.6254
ڳ	-20.6254
त	-20.6254
ፈ	-20.6254
┹	-20.6254
✸	-20.6254
⿳	-20.6254
⿴	-20.6254
づ	-20.6254
ㇸ	-20.6254
㬸	-20.6254
䅨	-20.6254
佪	-20.6254
冱	-20.6254
劤	-20.6254
勠	-20.6254
叇	-20.6254
咶	-20.6254
哢	-20.6254
嗮	-20.6254
圱	-20.6254
奾	-20.6254
嬩	-20.6254
専	-20.6254
巣	-20.6254
帬	-20.6254
帱	-20.6254
幠	-20.6254
徴	-20.6254
怸	-20.6254
悊	-20.6254
惗	-20.6254
懯	-20.6254
抭	-20.6254
掅	-20.6254
昻	-20.6254
櫊	-20.6254
氕	-20.6254
氶	-20.6254
泦	-20.6254
淈	-20.6254
溇	-20.6254
潻	-20.6254
炁	-20.6254
焠	-20.6254
煋	-20.6254
煑	-20.6254
犾	-20.6254
獍	-20.6254
獯	-20.6254
獽	-20.6254
甍	-20.6254
盨	-20.6254
磝	-20.6254
祍	-20.6254
禳	-20.6254
笻	-20.6254
簦	-20.6254
糽	-20.6254
綀	-20.6254
縐	-20.6254
纎	-20.6254
聨	-20.6254
肸	-20.6254
胓	-20.6254
胔	-20.6254
萚	-20.6254
蔕	-20.6254
薳	-20.6254
蚔	-20.6254
蚼	-20.6254
覸	-20.6254
踨	-20.6254
酦	-20.6254
醶	-20.6254
鍩	-20.6254
閚	-20.6254
阏	-20.6254
雸	-20.6254
韨	-20.6254
飏	-20.6254
鲚	-20.6254
黪	-20.6254
齮	-20.6254
齰	-20.6254
ꇈ	-20.6254
ꎸ	-20.6254
과	-20.6254
뛔	-20.6254
식	-20.6254
싨	-20.6254
쏈	-20.6254
에	-20.6254
연	-20.6254
자	-20.6254
최	-20.6254
톈	-20.6254
푈	-20.6254
학	-20.6254
	-20.6254
	-20.6254
	-20.6254
	-20.6254
	-20.6254
	-20.6254
	-20.6254
	-20.6254
	-20.6254
	-20.6254
	-20.6254
ŭ	-20.6254
ٴ	-20.6254
ை	-20.6254
ဈ	-20.6254
ᅨ	-20.6254
ᒘ	-20.6254
∀	-20.6254
≯	-20.6254
⢨	-20.6254
䪨	-20.6254
仺	-20.6254
侷	-20.6254
儛	-20.6254
冭	-20.6254
剸	-20.6254
劂	-20.6254
哷	-20.6254
嘫	-20.6254
嚜	-20.6254
婠	-20.6254
媖	-20.6254
宼	-20.6254
屸	-20.6254
岥	-20.6254
徸	-20.6254
恉	-20.6254
拵	-20.6254
昮	-20.6254
樘	-20.6254
欉	-20.6254
浟	-20.6254
煻	-20.6254
爇	-20.6254
猠	-20.6254
琣	-20.6254
琻	-20.6254
璊	-20.6254
瓞	-20.6254
甝	-20.6254
瘂	-20.6254
眎	-20.6254
瞘	-20.6254
粺	-20.6254
罨	-20.6254
耠	-20.6254
耤	-20.6254
耥	-20.6254
袆	-20.6254
袧	-20.6254
裩	-20.6254
覴	-20.6254
訖	-20.6254
諳	-20.6254
赕	-20.6254
跈	-20.6254
躘	-20.6254
銝	-20.6254
錵	-20.6254
靯	-20.6254
韾	-20.6254
駈	-20.6254
깸	-20.6254
낸	-20.6254
럘	-20.6254
뷸	-20.6254
승	-20.6254
쓸	-20.6254
예	-20.6254
짘	-20.6254
츘	-20.6254
홍	-20.6254
	-20.6254
	-20.6254
	-20.6254
	-20.6254
	-20.6254
	-20.6254
Ō	-20.6254
ہ	-20.6254
࠸	-20.6254
ឨ	-20.6254
ⱸ	-20.6254
㕭	-20.6254
㫈	-20.6254
㮾	-20.6254
䞘	-20.6254
佨	-20.6254
劏	-20.6254
奩	-20.6254
嬸	-20.6254
検	-20.6254
溁	-20.6254
癈	-20.6254
鋏	-20.6254
鎇	-20.6254
鐈	-20.6254
鑯	-20.6254
鬰	-20.6254
鵈	-20.6254
ꛘ	-20.6254
꽘	-20.6254
텈	-20.6254
Ą	-20.6254
Ċ	-20.6254
Ď	-20.6254
Ĝ	-20.6254
ġ	-20.6254
Ĥ	-20.6254
Ĵ	-20.6254
Ķ	-20.6254
ķ	-20.6254
Ľ	-20.6254
Ŕ	-20.6254
Ř	-20.6254
Ť	-20.6254
Ŧ	-20.6254
Ź	-20.6254
Ɓ	-20.6254
Ƃ	-20.6254
Ɔ	-20.6254
Ƈ	-20.6254
Ɗ	-20.6254
Ƌ	-20.6254
Ǝ	-20.6254
Ə	-20.6254
Ƒ	-20.6254
Ɣ	-20.6254
Ɩ	-20.6254
ƛ	-20.6254
Ɯ	-20.6254
Ɲ	-20.6254
Ɵ	-20.6254
Ơ	-20.6254
Ƣ	-20.6254
Ƥ	-20.6254
Ƨ	-20.6254
ƨ	-20.6254
Ʃ	-20.6254
Ƭ	-20.6254
Ʈ	-20.6254
Ư	-20.6254
Ʊ	-20.6254
Ʋ	-20.6254
Ƴ	-20.6254
Ƹ	-20.6254
Ƽ	-20.6254
Ǥ	-20.6254
Ǧ	-20.6254
Ǫ	-20.6254
Ǯ	-20.6254
Ǵ	-20.6254
Ƕ	-20.6254
Ƿ	-20.6254
Ț	-20.6254
Ȝ	-20.6254
Ƞ	-20.6254
Ȧ	-20.6254
Ʉ	-20.6254
Ɉ	-20.6254
ʘ	-20.6254
ʼ	-20.6254
̂	-20.6254
̌	-20.6254
̑	-20.6254
̒	-20.6254
̨	-20.6254
̸	-20.6254
͈	-20.6254
͘	-20.6254
Ͱ	-20.6254
Ͳ	-20.6254
ϊ	-20.6254
Ϛ	-20.6254
Ϝ	-20.6254
Ϸ	-20.6254
Ϻ	-20.6254
Ѐ	-20.6254
Ё	-20.6254
Ђ	-20.6254
Ѓ	-20.6254
Ї	-20.6254
Љ	-20.6254
Њ	-20.6254
Ћ	-20.6254
Ќ	-20.6254
Ѝ	-20.6254
Ў	-20.6254
Џ	-20.6254
і	-20.6254
Ѡ	-20.6254
Ѥ	-20.6254
Ѱ	-20.6254
Ѳ	-20.6254
Ѹ	-20.6254
Ѻ	-20.6254
Ѿ	-20.6254
Ҁ	-20.6254
Ҋ	-20.6254
Ҏ	-20.6254
Ґ	-20.6254
Ҕ	-20.6254
Қ	-20.6254
Ҝ	-20.6254
Ҟ	-20.6254
Ҡ	-20.6254
Ң	-20.6254
Ҥ	-20.6254
Ҧ	-20.6254
Ҩ	-20.6254
Ҭ	-20.6254
Ұ	-20.6254
Ҳ	-20.6254
Ҷ	-20.6254
Ҹ	-20.6254
Һ	-20.6254
Ҽ	-20.6254
Ӏ	-20.6254
Ӂ	-20.6254
Ӆ	-20.6254
Ӈ	-20.6254
Ӊ	-20.6254
Ӌ	-20.6254
Ӑ	-20.6254
Ӓ	-20.6254
Ӕ	-20.6254
Ӗ	-20.6254
Ӛ	-20.6254
Ӝ	-20.6254
Ӟ	-20.6254
Ӡ	-20.6254
Ӣ	-20.6254
Ӥ	-20.6254
Ӧ	-20.6254
ӧ	-20.6254
Ӭ	-20.6254
Ӯ	-20.6254
Ӱ	-20.6254
Ӳ	-20.6254
Ӵ	-20.6254
Ӹ	-20.6254
Ӻ	-20.6254
Ԁ	-20.6254
Ԃ	-20.6254
Ԅ	-20.6254
Ԉ	-20.6254
Ԋ	-20.6254
Ԏ	-20.6254
Ԑ	-20.6254
Ԓ	-20.6254
Ԕ	-20.6254
Ԗ	-20.6254
Ԝ	-20.6254
Ԟ	-20.6254
Ԡ	-20.6254
Ԥ	-20.6254
Ԩ	-20.6254
Ԭ	-20.6254
ּ	-20.6254
ג	-20.6254
ם	-20.6254
ן	-20.6254
؛	-20.6254
خ	-20.6254
ى	-20.6254
ک	-20.6254
ࠨ	-20.6254
अ	-20.6254
ट	-20.6254
र	-20.6254
ल	-20.6254
ा	-20.6254
ि	-20.6254
ु	-20.6254
्	-20.6254
୰	-20.6254
ನ	-20.6254
ธ	-20.6254
ย	-20.6254
ว	-20.6254
໘	-20.6254
ᄂ	-20.6254
ᄃ	-20.6254
ᄅ	-20.6254
ᄇ	-20.6254
ᄉ	-20.6254
ᄌ	-20.6254
ᄎ	-20.6254
ᄏ	-20.6254
ᄐ	-20.6254
ᄒ	-20.6254
ᄨ	-20.6254
ᅡ	-20.6254
ᅢ	-20.6254
ᅥ	-20.6254
ᅧ	-20.6254
ᅭ	-20.6254
ᅮ	-20.6254
ᅲ	-20.6254
ᅴ	-20.6254
ᅵ	-20.6254
ᘸ	-20.6254
ᤈ	-20.6254
ᦈ	-20.6254
ᯈ	-20.6254
ᴨ	-20.6254
Ḍ	-20.6254
Ḑ	-20.6254
Ḫ	-20.6254
Ḷ	-20.6254
Ḿ	-20.6254
Ṡ	-20.6254
Ṣ	-20.6254
Ẋ	-20.6254
Ẑ	-20.6254
ẞ	-20.6254
Ỉ	-20.6254
Ọ	-20.6254
ứ	-20.6254
Ἀ	-20.6254
‬	-20.6254
‮	-20.6254
₤	-20.6254
₩	-20.6254
₺	-20.6254
∏	-20.6254
∗	-20.6254
∵	-20.6254
∷	-20.6254
≅	-20.6254
┖	-20.6254
┛	-20.6254
├	-20.6254
┬	-20.6254
┾	-20.6254
╀	-20.6254
╋	-20.6254
║	-20.6254
╒	-20.6254
╗	-20.6254
╘	-20.6254
╝	-20.6254
╬	-20.6254
╲	-20.6254
█	-20.6254
▊	-20.6254
▶	-20.6254
◄	-20.6254
◢	-20.6254
♀	-20.6254
♂	-20.6254
➔	-20.6254
⢘	-20.6254
⤨	-20.6254
⨨	-20.6254
⩈	-20.6254
Ɑ	-20.6254
⿹	-20.6254
〓	-20.6254
ぺ	-20.6254
む	-20.6254
ゃ	-20.6254
ろ	-20.6254
わ	-20.6254
ゐ	-20.6254
ペ	-20.6254
ボ	-20.6254
モ	-20.6254
ヤ	-20.6254
ラ	-20.6254
レ	-20.6254
ヶ	-20.6254
ㄜ	-20.6254
ㄡ	-20.6254
㒨	-20.6254
㒸	-20.6254
㓸	-20.6254
㖈	-20.6254
㗊	-20.6254
㗰	-20.6254
㘵	-20.6254
㞸	-20.6254
㢸	-20.6254
㥠	-20.6254
㫻	-20.6254
㭽	-20.6254
㳈	-20.6254
㴸	-20.6254
㵲	-20.6254
㶞	-20.6254
㶲	-20.6254
㷧	-20.6254
㷸	-20.6254
㹢	-20.6254
㺢	-20.6254
㼈	-20.6254
䀈	-20.6254
䀸	-20.6254
䁐	-20.6254
䃟	-20.6254
䄉	-20.6254
䄙	-20.6254
䊸	-20.6254
䌘	-20.6254
䎨	-20.6254
䏡	-20.6254
䐨	-20.6254
䐶	-20.6254
䑸	-20.6254
䓛	-20.6254
䓪	-20.6254
䕈	-20.6254
䖡	-20.6254
䖨	-20.6254
䗴	-20.6254
䘨	-20.6254
䚸	-20.6254
䡘	-20.6254
䣸	-20.6254
䤘	-20.6254
䧛	-20.6254
䩘	-20.6254
䫈	-20.6254
䫻	-20.6254
䬸	-20.6254
䮨	-20.6254
䳘	-20.6254
䴈	-20.6254
䵣	-20.6254
丯	-20.6254
丵	-20.6254
乨	-20.6254
乸	-20.6254
亙	-20.6254
亜	-20.6254
亠	-20.6254
亶	-20.6254
亼	-20.6254
仩	-20.6254
仸	-20.6254
伃	-20.6254
佲	-20.6254
侂	-20.6254
侊	-20.6254
侴	-20.6254
俈	-20.6254
俛	-20.6254
俢	-20.6254
俧	-20.6254
俫	-20.6254
倓	-20.6254
倞	-20.6254
倧	-20.6254
倸	-20.6254
偘	-20.6254
偛	-20.6254
偣	-20.6254
傆	-20.6254
傕	-20.6254
僇	-20.6254
働	-20.6254
僐	-20.6254
僔	-20.6254
僙	-20.6254
僰	-20.6254
儙	-20.6254
儝	-20.6254
冂	-20.6254
円	-20.6254
冚	-20.6254
冧	-20.6254
冫	-20.6254
冿	-20.6254
凎	-20.6254
凞	-20.6254
凨	-20.6254
凴	-20.6254
刓	-20.6254
刖	-20.6254
剰	-20.6254
劓	-20.6254
劰	-20.6254
勍	-20.6254
勑	-20.6254
勣	-20.6254
勥	-20.6254
勦	-20.6254
勨	-20.6254
勩	-20.6254
勬	-20.6254
匂	-20.6254
匉	-20.6254
匊	-20.6254
匋	-20.6254
匜	-20.6254
匱	-20.6254
匵	-20.6254
匼	-20.6254
匽	-20.6254
卨	-20.6254
卩	-20.6254
卬	-20.6254
卼	-20.6254
厠	-20.6254
叄	-20.6254
叏	-20.6254
叚	-20.6254
吙	-20.6254
呫	-20.6254
呭	-20.6254
咃	-20.6254
咑	-20.6254
咢	-20.6254
咮	-20.6254
咰	-20.6254
哱	-20.6254
唊	-20.6254
唎	-20.6254
唫	-20.6254
唭	-20.6254
唲	-20.6254
唵	-20.6254
啋	-20.6254
啍	-20.6254
喌	-20.6254
喭	-20.6254
喯	-20.6254
喴	-20.6254
嗏	-20.6254
嘍	-20.6254
嘠	-20.6254
嘡	-20.6254
嘸	-20.6254
噚	-20.6254
噾	-20.6254
嚈	-20.6254
囃	-20.6254
囄	-20.6254
囑	-20.6254
団	-20.6254
圥	-20.6254
坈	-20.6254
坋	-20.6254
坾	-20.6254
垍	-20.6254
垘	-20.6254
垝	-20.6254
垨	-20.6254
垯	-20.6254
垱	-20.6254
埄	-20.6254
埨	-20.6254
埶	-20.6254
堈	-20.6254
堢	-20.6254
堦	-20.6254
塀	-20.6254
塈	-20.6254
塏	-20.6254
塜	-20.6254
塩	-20.6254
塭	-20.6254
墍	-20.6254
墺	-20.6254
壂	-20.6254
壍	-20.6254
壒	-20.6254
夊	-20.6254
夌	-20.6254
夛	-20.6254
奍	-20.6254
奨	-20.6254
奯	-20.6254
奵	-20.6254
妌	-20.6254
妑	-20.6254
妧	-20.6254
姈	-20.6254
姵	-20.6254
娀	-20.6254
娔	-20.6254
娗	-20.6254
娭	-20.6254
娳	-20.6254
婌	-20.6254
婞	-20.6254
婹	-20.6254
婻	-20.6254
媟	-20.6254
媧	-20.6254
媯	-20.6254
媺	-20.6254
嫀	-20.6254
嫈	-20.6254
嫍	-20.6254
嫞	-20.6254
嫧	-20.6254
嫯	-20.6254
嫽	-20.6254
嬭	-20.6254
孋	-20.6254
孌	-20.6254
孭	-20.6254
孼	-20.6254
孿	-20.6254
宀	-20.6254
宊	-20.6254
実	-20.6254
宧	-20.6254
宬	-20.6254
宭	-20.6254
寀	-20.6254
寁	-20.6254
寊	-20.6254
尯	-20.6254
屦	-20.6254
屮	-20.6254
屲	-20.6254
岕	-20.6254
岧	-20.6254
岾	-20.6254
峕	-20.6254
峟	-20.6254
峳	-20.6254
峺	-20.6254
崢	-20.6254
崳	-20.6254
嵁	-20.6254
嵖	-20.6254
嵜	-20.6254
嶇	-20.6254
嶌	-20.6254
嶝	-20.6254
嶠	-20.6254
嶮	-20.6254
嶸	-20.6254
巓	-20.6254
巛	-20.6254
巪	-20.6254
帄	-20.6254
帲	-20.6254
幃	-20.6254
幐	-20.6254
庝	-20.6254
庡	-20.6254
庻	-20.6254
廆	-20.6254
廐	-20.6254
廒	-20.6254
廕	-20.6254
廯	-20.6254
廰	-20.6254
廼	-20.6254
弖	-20.6254
弝	-20.6254
弤	-20.6254
弴	-20.6254
弶	-20.6254
彅	-20.6254
彛	-20.6254
彠	-20.6254
彶	-20.6254
徍	-20.6254
徥	-20.6254
忚	-20.6254
忛	-20.6254
忞	-20.6254
忯	-20.6254
怉	-20.6254
怑	-20.6254
怓	-20.6254
怾	-20.6254
恗	-20.6254
悧	-20.6254
悪	-20.6254
悰	-20.6254
惁	-20.6254
惉	-20.6254
惛	-20.6254
惢	-20.6254
惲	-20.6254
愒	-20.6254
愔	-20.6254
愨	-20.6254
愴	-20.6254
愼	-20.6254
慇	-20.6254
慒	-20.6254
慓	-20.6254
慚	-20.6254
慤	-20.6254
憖	-20.6254
憘	-20.6254
憙	-20.6254
憚	-20.6254
憟	-20.6254
憭	-20.6254
懔	-20.6254
懟	-20.6254
戠	-20.6254
戢	-20.6254
戬	-20.6254
扆	-20.6254
扐	-20.6254
抇	-20.6254
抪	-20.6254
拃	-20.6254
拑	-20.6254
拶	-20.6254
挷	-20.6254
挿	-20.6254
掎	-20.6254
揂	-20.6254
揗	-20.6254
揺	-20.6254
揻	-20.6254
搒	-20.6254
搷	-20.6254
摲	-20.6254
摶	-20.6254
摽	-20.6254
撀	-20.6254
撟	-20.6254
撢	-20.6254
撴	-20.6254
撹	-20.6254
擥	-20.6254
擩	-20.6254
攉	-20.6254
攏	-20.6254
攨	-20.6254
攴	-20.6254
敤	-20.6254
敹	-20.6254
敻	-20.6254
敾	-20.6254
斝	-20.6254
旂	-20.6254
旉	-20.6254
旴	-20.6254
昡	-20.6254
昪	-20.6254
晊	-20.6254
晧	-20.6254
暁	-20.6254
暅	-20.6254
暕	-20.6254
暲	-20.6254
曀	-20.6254
曖	-20.6254
曟	-20.6254
曠	-20.6254
曱	-20.6254
曺	-20.6254
朏	-20.6254
朙	-20.6254
杄	-20.6254
杣	-20.6254
枑	-20.6254
枡	-20.6254
枹	-20.6254
柷	-20.6254
柾	-20.6254
栂	-20.6254
栍	-20.6254
栘	-20.6254
栥	-20.6254
栧	-20.6254
桊	-20.6254
桏	-20.6254
桖	-20.6254
桜	-20.6254
桯	-20.6254
桵	-20.6254
梂	-20.6254
梉	-20.6254
梘	-20.6254
棡	-20.6254
棪	-20.6254
椘	-20.6254
椚	-20.6254
椧	-20.6254
楀	-20.6254
榙	-20.6254
榦	-20.6254
榲	-20.6254
榿	-20.6254
槪	-20.6254
樉	-20.6254
橞	-20.6254
橭	-20.6254
橾	-20.6254
檨	-20.6254
檮	-20.6254
櫱	-20.6254
欑	-20.6254
欘	-20.6254
欥	-20.6254
歀	-20.6254
歒	-20.6254
歳	-20.6254
殯	-20.6254
殳	-20.6254
毃	-20.6254
毐	-20.6254
毪	-20.6254
氄	-20.6254
気	-20.6254
氳	-20.6254
汣	-20.6254
沘	-20.6254
泂	-20.6254
泃	-20.6254
泚	-20.6254
洘	-20.6254
洨	-20.6254
洶	-20.6254
浍	-20.6254
浗	-20.6254
浘	-20.6254
浥	-20.6254
浰	-20.6254
浿	-20.6254
涗	-20.6254
涙	-20.6254
淍	-20.6254
淏	-20.6254
淓	-20.6254
淽	-20.6254
渳	-20.6254
湣	-20.6254
溈	-20.6254
溎	-20.6254
溦	-20.6254
溻	-20.6254
滃	-20.6254
滳	-20.6254
漋	-20.6254
漖	-20.6254
漲	-20.6254
潀	-20.6254
潁	-20.6254
潏	-20.6254
潫	-20.6254
潾	-20.6254
澂	-20.6254
澋	-20.6254
澮	-20.6254
濇	-20.6254
濓	-20.6254
瀍	-20.6254
瀷	-20.6254
灒	-20.6254
灤	-20.6254
炡	-20.6254
炰	-20.6254
炴	-20.6254
烋	-20.6254
烔	-20.6254
烺	-20.6254
焌	-20.6254
焟	-20.6254
煚	-20.6254
煠	-20.6254
熡	-20.6254
熲	-20.6254
燻	-20.6254
爀	-20.6254
牁	-20.6254
牂	-20.6254
犇	-20.6254
犖	-20.6254
犻	-20.6254
犼	-20.6254
犽	-20.6254
狁	-20.6254
狆	-20.6254
狿	-20.6254
猄	-20.6254
猋	-20.6254
猟	-20.6254
猹	-20.6254
獁	-20.6254
獃	-20.6254
獈	-20.6254
獏	-20.6254
獫	-20.6254
獰	-20.6254
獿	-20.6254
玀	-20.6254
玒	-20.6254
玗	-20.6254
玨	-20.6254
珎	-20.6254
珒	-20.6254
珔	-20.6254
珝	-20.6254
珦	-20.6254
珧	-20.6254
珼	-20.6254
琈	-20.6254
琡	-20.6254
琫	-20.6254
琲	-20.6254
琹	-20.6254
琽	-20.6254
瑂	-20.6254
瑎	-20.6254
瑢	-20.6254
瑧	-20.6254
瑮	-20.6254
瑱	-20.6254
瑳	-20.6254
璆	-20.6254
璝	-20.6254
璡	-20.6254
璫	-20.6254
璵	-20.6254
瓔	-20.6254
瓙	-20.6254
瓝	-20.6254
瓟	-20.6254
瓰	-20.6254
甃	-20.6254
甅	-20.6254
甤	-20.6254
畂	-20.6254
畊	-20.6254
畓	-20.6254
疈	-20.6254
疍	-20.6254
疎	-20.6254
疨	-20.6254
痀	-20.6254
痥	-20.6254
痬	-20.6254
瘈	-20.6254
瘉	-20.6254
瘕	-20.6254
瘻	-20.6254
癁	-20.6254
癐	-20.6254
癠	-20.6254
癤	-20.6254
癭	-20.6254
癰	-20.6254
皝	-20.6254
皧	-20.6254
盋	-20.6254
盝	-20.6254
眵	-20.6254
睟	-20.6254
瞚	-20.6254
矞	-20.6254
砄	-20.6254
砛	-20.6254
硁	-20.6254
硃	-20.6254
硊	-20.6254
硘	-20.6254
碈	-20.6254
碊	-20.6254
碕	-20.6254
碙	-20.6254
磎	-20.6254
磾	-20.6254
礇	-20.6254
礞	-20.6254
礡	-20.6254
礬	-20.6254
礱	-20.6254
礹	-20.6254
祊	-20.6254
祌	-20.6254
祏	-20.6254
祑	-20.6254
祓	-20.6254
祙	-20.6254
祤	-20.6254
祩	-20.6254
祶	-20.6254
禑	-20.6254
禛	-20.6254
禟	-20.6254
禣	-20.6254
禥	-20.6254
禩	-20.6254
禵	-20.6254
禸	-20.6254
秺	-20.6254
稟	-20.6254
稪	-20.6254
穋	-20.6254
穟	-20.6254
穡	-20.6254
窋	-20.6254
窻	-20.6254
竅	-20.6254
竛	-20.6254
竩	-20.6254
竸	-20.6254
笌	-20.6254
笴	-20.6254
笶	-20.6254
筂	-20.6254
筇	-20.6254
筈	-20.6254
筢	-20.6254
筥	-20.6254
筧	-20.6254
筩	-20.6254
筬	-20.6254
筰	-20.6254
箋	-20.6254
箞	-20.6254
箣	-20.6254
篕	-20.6254
篘	-20.6254
篲	-20.6254
簆	-20.6254
簎	-20.6254
簒	-20.6254
簖	-20.6254
簗	-20.6254
簞	-20.6254
簨	-20.6254
簷	-20.6254
簹	-20.6254
籓	-20.6254
籹	-20.6254
籾	-20.6254
粂	-20.6254
粌	-20.6254
粜	-20.6254
粨	-20.6254
粬	-20.6254
粰	-20.6254
糀	-20.6254
糇	-20.6254
糶	-20.6254
紂	-20.6254
紑	-20.6254
紱	-20.6254
絏	-20.6254
絖	-20.6254
絚	-20.6254
絫	-20.6254
絯	-20.6254
絵	-20.6254
綅	-20.6254
綣	-20.6254
綤	-20.6254
綨	-20.6254
綵	-20.6254
緈	-20.6254
緖	-20.6254
緡	-20.6254
緱	-20.6254
縟	-20.6254
縴	-20.6254
繊	-20.6254
繋	-20.6254
繚	-20.6254
繳	-20.6254
繾	-20.6254
纀	-20.6254
纇	-20.6254
纟	-20.6254
纻	-20.6254
绁	-20.6254
绋	-20.6254
绹	-20.6254
缑	-20.6254
罍	-20.6254
罳	-20.6254
羝	-20.6254
羪	-20.6254
羬	-20.6254
翏	-20.6254
翥	-20.6254
耈	-20.6254
耔	-20.6254
聡	-20.6254
聤	-20.6254
脕	-20.6254
脞	-20.6254
脤	-20.6254
脿	-20.6254
腠	-20.6254
膕	-20.6254
膙	-20.6254
膾	-20.6254
臚	-20.6254
臩	-20.6254
臯	-20.6254
舁	-20.6254
舣	-20.6254
舩	-20.6254
舴	-20.6254
舿	-20.6254
艸	-20.6254
芆	-20.6254
芣	-20.6254
苉	-20.6254
苪	-20.6254
茌	-20.6254
茿	-20.6254
荖	-20.6254
荘	-20.6254
荵	-20.6254
菃	-20.6254
菍	-20.6254
菢	-20.6254
菵	-20.6254
萣	-20.6254
葷	-20.6254
蒈	-20.6254
蒉	-20.6254
蒞	-20.6254
蒢	-20.6254
蒭	-20.6254
蓀	-20.6254
蓆	-20.6254
蓪	-20.6254
蓯	-20.6254
蔋	-20.6254
蔾	-20.6254
蕒	-20.6254
蕘	-20.6254
蕷	-20.6254
薵	-20.6254
薾	-20.6254
藟	-20.6254
藦	-20.6254
藬	-20.6254
藶	-20.6254
藺	-20.6254
蘘	-20.6254
蘡	-20.6254
蘧	-20.6254
蘵	-20.6254
虒	-20.6254
虧	-20.6254
虨	-20.6254
虵	-20.6254
蚍	-20.6254
蚡	-20.6254
蚭	-20.6254
蚷	-20.6254
蛻	-20.6254
蜾	-20.6254
蝤	-20.6254
蝪	-20.6254
螄	-20.6254
螔	-20.6254
蟡	-20.6254
蟢	-20.6254
蟯	-20.6254
蟼	-20.6254
衂	-20.6254
衃	-20.6254
衎	-20.6254
衤	-20.6254
裇	-20.6254
裋	-20.6254
裒	-20.6254
裚	-20.6254
裵	-20.6254
褙	-20.6254
褞	-20.6254
襀	-20.6254
襒	-20.6254
襠	-20.6254
襾	-20.6254
覇	-20.6254
覈	-20.6254
覨	-20.6254
觪	-20.6254
觫	-20.6254
訒	-20.6254
訙	-20.6254
訳	-20.6254
訸	-20.6254
詫	-20.6254
誂	-20.6254
誐	-20.6254
誒	-20.6254
誦	-20.6254
誴	-20.6254
誾	-20.6254
諂	-20.6254
諗	-20.6254
諥	-20.6254
諪	-20.6254
諱	-20.6254
謁	-20.6254
謔	-20.6254
譏	-20.6254
譓	-20.6254
譙	-20.6254
譫	-20.6254
讃	-20.6254
讒	-20.6254
讞	-20.6254
貊	-20.6254
貐	-20.6254
貒	-20.6254
賕	-20.6254
賘	-20.6254
賾	-20.6254
贄	-20.6254
贌	-20.6254
贙	-20.6254
赩	-20.6254
赯	-20.6254
跭	-20.6254
踰	-20.6254
踴	-20.6254
蹏	-20.6254
蹻	-20.6254
躉	-20.6254
躋	-20.6254
躜	-20.6254
躥	-20.6254
躱	-20.6254
軚	-20.6254
軠	-20.6254
軼	-20.6254
軽	-20.6254
軾	-20.6254
輓	-20.6254
輶	-20.6254
輷	-20.6254
轍	-20.6254
轤	-20.6254
辮	-20.6254
迼	-20.6254
遌	-20.6254
遝	-20.6254
遹	-20.6254
邅	-20.6254
邉	-20.6254
邲	-20.6254
邴	-20.6254
邽	-20.6254
郐	-20.6254
鄀	-20.6254
鄆	-20.6254
鄖	-20.6254
鄜	-20.6254
鄩	-20.6254
鄾	-20.6254
酤	-20.6254
醭	-20.6254
醸	-20.6254
釡	-20.6254
釬	-20.6254
鈐	-20.6254
鈛	-20.6254
鉈	-20.6254
鉍	-20.6254
鉚	-20.6254
鉝	-20.6254
鉞	-20.6254
鉥	-20.6254
鉧	-20.6254
鉵	-20.6254
銛	-20.6254
銠	-20.6254
鋌	-20.6254
鋕	-20.6254
鋘	-20.6254
鋮	-20.6254
鋹	-20.6254
鋺	-20.6254
錬	-20.6254
錱	-20.6254
録	-20.6254
鍀	-20.6254
鍇	-20.6254
鍑	-20.6254
鍝	-20.6254
鍥	-20.6254
鍧	-20.6254
鍼	-20.6254
鎡	-20.6254
鎨	-20.6254
鎭	-20.6254
鎻	-20.6254
鏁	-20.6254
鏝	-20.6254
鏵	-20.6254
鐃	-20.6254
鐄	-20.6254
鐇	-20.6254
鐛	-20.6254
鐡	-20.6254
鐥	-20.6254
鐭	-20.6254
鐺	-20.6254
鑅	-20.6254
鑌	-20.6254
鑱	-20.6254
鑴	-20.6254
钂	-20.6254
铇	-20.6254
铓	-20.6254
铔	-20.6254
铫	-20.6254
铴	-20.6254
锩	-20.6254
锽	-20.6254
镮	-20.6254
閦	-20.6254
閮	-20.6254
闐	-20.6254
闓	-20.6254
闗	-20.6254
闘	-20.6254
阃	-20.6254
阷	-20.6254
阸	-20.6254
陓	-20.6254
陘	-20.6254
隀	-20.6254
隂	-20.6254
隣	-20.6254
霊	-20.6254
霙	-20.6254
靬	-20.6254
靭	-20.6254
鞀	-20.6254
鞿	-20.6254
韞	-20.6254
韷	-20.6254
頔	-20.6254
頲	-20.6254
頴	-20.6254
頵	-20.6254
顂	-20.6254
顒	-20.6254
顙	-20.6254
顴	-20.6254
颥	-20.6254
颮	-20.6254
颴	-20.6254
颺	-20.6254
飥	-20.6254
飫	-20.6254
飬	-20.6254
餁	-20.6254
餜	-20.6254
餧	-20.6254
餵	-20.6254
餺	-20.6254
饎	-20.6254
饸	-20.6254
馼	-20.6254
駑	-20.6254
駔	-20.6254
駟	-20.6254
騁	-20.6254
騄	-20.6254
騅	-20.6254
騒	-20.6254
騣	-20.6254
騤	-20.6254
騭	-20.6254
騮	-20.6254
騶	-20.6254
驄	-20.6254
驈	-20.6254
驊	-20.6254
驤	-20.6254
驩	-20.6254
骘	-20.6254
髢	-20.6254
髸	-20.6254
髾	-20.6254
鬛	-20.6254
鬦	-20.6254
鬨	-20.6254
鬪	-20.6254
魕	-20.6254
魩	-20.6254
魳	-20.6254
魽	-20.6254
鮶	-20.6254
鯓	-20.6254
鯝	-20.6254
鯱	-20.6254
鯺	-20.6254
鰆	-20.6254
鰉	-20.6254
鰗	-20.6254
鰜	-20.6254
鰣	-20.6254
鰮	-20.6254
鱖	-20.6254
鱠	-20.6254
鱫	-20.6254
鱮	-20.6254
鲞	-20.6254
鳑	-20.6254
鳒	-20.6254
鴰	-20.6254
鵒	-20.6254
鵖	-20.6254
鵞	-20.6254
鵪	-20.6254
鵺	-20.6254
鶅	-20.6254
鶆	-20.6254
鶚	-20.6254
鶫	-20.6254
鶻	-20.6254
鷀	-20.6254
鷄	-20.6254
鷰	-20.6254
鹓	-20.6254
鹖	-20.6254
鹢	-20.6254
鹲	-20.6254
麀	-20.6254
麁	-20.6254
麊	-20.6254
麐	-20.6254
麑	-20.6254
麖	-20.6254
黇	-20.6254
黮	-20.6254
黵	-20.6254
黹	-20.6254
黺	-20.6254
黻	-20.6254
鼈	-20.6254
鼑	-20.6254
齉	-20.6254
齢	-20.6254
龨	-20.6254
鿈	-20.6254
鿬	-20.6254
ꅨ	-20.6254
ꇸ	-20.6254
ꈘ	-20.6254
ꉘ	-20.6254
ꍈ	-20.6254
ꎶ	-20.6254
ꏤ	-20.6254
Ꙁ	-20.6254
Ꙇ	-20.6254
Ꙏ	-20.6254
Ꙗ	-20.6254
Ꙟ	-20.6254
Ꙥ	-20.6254
Ꙧ	-20.6254
Ꙩ	-20.6254
Ꙫ	-20.6254
Ꙭ	-20.6254
ꙮ	-20.6254
Ꚁ	-20.6254
Ꚃ	-20.6254
Ꚅ	-20.6254
Ꚉ	-20.6254
Ꚋ	-20.6254
Ꚍ	-20.6254
ꠈ	-20.6254
ꪨ	-20.6254
거	-20.6254
군	-20.6254
규	-20.6254
기	-20.6254
눨	-20.6254
늹	-20.6254
됈	-20.6254
둸	-20.6254
뒈	-20.6254
뗈	-20.6254
똸	-20.6254
로	-20.6254
뢘	-20.6254
뢸	-20.6254
멜	-20.6254
문	-20.6254
박	-20.6254
빘	-20.6254
뿸	-20.6254
삨	-20.6254
샷	-20.6254
선	-20.6254
설	-20.6254
세	-20.6254
솈	-20.6254
숙	-20.6254
숨	-20.6254
엔	-20.6254
으	-20.6254
응	-20.6254
졈	-20.6254
조	-20.6254
종	-20.6254
좸	-20.6254
지	-20.6254
쭸	-20.6254
쯸	-20.6254
창	-20.6254
총	-20.6254
쿠	-20.6254
퀸	-20.6254
큨	-20.6254
톘	-20.6254
퐈	-20.6254
핸	-20.6254
행	-20.6254
홨	-20.6254
황	-20.6254
	-20.6254
	-20.6254
	-20.6254
	-20.6254
	-20.6254
	-20.6254
	-20.6254
	-20.6254
	-20.6254
	-20.6254
	-20.6254
	-20.6254
	-20.6254
	-20.6254
	-20.6254
	-20.6254
	-20.6254
	-20.6254
	-20.6254
	-20.6254
	-20.6254
	-20.6254
	-20.6254
	-20.6254
	-20.6254
	-20.6254
	-20.6254
	-20.6254
	-20.6254
	-20.6254
	-20.6254
	-20.6254
	-20.6254
	-20.6254
	-20.6254
	-20.6254
	-20.6254
	-20.6254
	-20.6254
	-20.6254
	-20.6254
	-20.6254
	-20.6254
	-20.6254
	-20.6254
	-20.6254
	-20.6254
	-20.6254
	-20.6254
	-20.6254
	-20.6254
	-20.6254
	-20.6254
	-20.6254
	-20.6254
	-20.6254
	-20.6254
	-20.6254
	-20.6254
	-20.6254
	-20.6254
	-20.6254
	-20.6254
	-20.6254
	-20.6254
	-20.6254
	-20.6254
	-20.6254
	-20.6254
	-20.6254
	-20.6254
	-20.6254
	-20.6254
	-20.6254
	-20.6254
	-20.6254
	-20.6254
	-20.6254
😂	-20.6254
𠄼	-20.6254
𠐤	-20.6254
𠝹	-20.6254
𠤩	-20.6254
𡒉	-20.6254
𢃇	-20.6254
𢄂	-20.6254
𣐿	-20.6254
ƈ	-20.6255
ʝ	-20.6255
˨	-20.6255
ৈ	-20.6255
⡸	-20.6255
㗨	-20.6255
㦨	-20.6255
䛸	-20.6255
䳸	-20.6255
咥	-20.6255
垰	-20.6255
姉	-20.6255
婓	-20.6255
宨	-20.6255
攪	-20.6255
斻	-20.6255
梫	-20.6255
槯	-20.6255
濵	-20.6255
琀	-20.6255
癥	-20.6255
皚	-20.6255
眥	-20.6255
礒	-20.6255
粞	-20.6255
繮	-20.6255
覂	-20.6255
贶	-20.6255
逜	-20.6255
釕	-20.6255
鈮	-20.6255
鉘	-20.6255
鉿	-20.6255
銩	-20.6255
鋱	-20.6255
錒	-20.6255
錼	-20.6255
鏌	-20.6255
鐿	-20.6255
飗	-20.6255
餒	-20.6255
馭	-20.6255
驫	-20.6255
鬩	-20.6255
鳘	-20.6255
꣸	-20.6255
금	-20.6255
쀨	-20.6255
셈	-20.6255
쭘	-20.6255
Ē	-20.6255
ᙘ	-20.6255
ᨘ	-20.6255
㜈	-20.6255
丳	-20.6255
傪	-20.6255
僾	-20.6255
冩	-20.6255
冹	-20.6255
卺	-20.6255
呪	-20.6255
嗚	-20.6255
墸	-20.6255
嬲	-20.6255
嵚	-20.6255
怴	-20.6255
懭	-20.6255
梼	-20.6255
湩	-20.6255
潕	-20.6255
猧	-20.6255
獢	-20.6255
簬	-20.6255
紆	-20.6255
缵	-20.6255
罝	-20.6255
肜	-20.6255
賌	-20.6255
迊	-20.6255
靸	-20.6255
髫	-20.6255
ꉨ	-20.6255
곘	-20.6255
꾨	-20.6255
띸	-20.6255
마	-20.6255
멈	-20.6255
쐨	-20.6255
턈	-20.6255
∟	-20.6255
┝	-20.6255
╩	-20.6255
◣	-20.6255
ケ	-20.6255
乁	-20.6255
倛	-20.6255
倠	-20.6255
偝	-20.6255
偾	-20.6255
劁	-20.6255
勲	-20.6255
勼	-20.6255
卙	-20.6255
厼	-20.6255
圸	-20.6255
婬	-20.6255
媤	-20.6255
嫺	-20.6255
尪	-20.6255
尫	-20.6255
峜	-20.6255
徔	-20.6255
忓	-20.6255
恖	-20.6255
恠	-20.6255
挓	-20.6255
掤	-20.6255
摖	-20.6255
敇	-20.6255
旸	-20.6255
昜	-20.6255
曌	-20.6255
櫵	-20.6255
歺	-20.6255
渓	-20.6255
渻	-20.6255
湑	-20.6255
烀	-20.6255
犑	-20.6255
畖	-20.6255
痄	-20.6255
瘭	-20.6255
癃	-20.6255
睼	-20.6255
瞔	-20.6255
硚	-20.6255
稨	-20.6255
笰	-20.6255
篹	-20.6255
簏	-20.6255
縁	-20.6255
繄	-20.6255
缊	-20.6255
羙	-20.6255
聅	-20.6255
聗	-20.6255
胕	-20.6255
苆	-20.6255
苼	-20.6255
苿	-20.6255
莈	-20.6255
萿	-20.6255
詑	-20.6255
謆	-20.6255
跾	-20.6255
踎	-20.6255
踭	-20.6255
轪	-20.6255
辿	-20.6255
迚	-20.6255
迣	-20.6255
遶	-20.6255
鍳	-20.6255
鑚	-20.6255
镚	-20.6255
閲	-20.6255
闎	-20.6255
陦	-20.6255
鞁	-20.6255
髪	-20.6255
魒	-20.6255
鼟	-20.6255
ꨘ	-20.6255
가	-20.6255
개	-20.6255
발	-20.6255
우	-20.6255
쟈	-20.6255
첈	-20.6255
	-20.6255
	-20.6255
	-20.6255
	-20.6255
	-20.6255
奲	-20.6255
Ņ	-20.6255
ᾈ	-20.6255
ⷘ	-20.6255
ソ	-20.6255
ㄍ	-20.6255
䗨	-20.6255
䭸	-20.6255
偍	-20.6255
偺	-20.6255
傋	-20.6255
儍	-20.6255
兿	-20.6255
冞	-20.6255
冾	-20.6255
凙	-20.6255
剅	-20.6255
劯	-20.6255
啠	-20.6255
垵	-20.6255
婖	-20.6255
岺	-20.6255
峧	-20.6255
広	-20.6255
怗	-20.6255
戱	-20.6255
抩	-20.6255
掭	-20.6255
揷	-20.6255
敚	-20.6255
朿	-20.6255
杮	-20.6255
栺	-20.6255
棸	-20.6255
櫈	-20.6255
櫽	-20.6255
涶	-20.6255
渋	-20.6255
猤	-20.6255
璪	-20.6255
瘼	-20.6255
礤	-20.6255
穈	-20.6255
竤	-20.6255
竨	-20.6255
簠	-20.6255
粧	-20.6255
綎	-20.6255
綛	-20.6255
緇	-20.6255
繤	-20.6255
纗	-20.6255
膒	-20.6255
袓	-20.6255
訹	-20.6255
趡	-20.6255
辥	-20.6255
酼	-20.6255
顝	-20.6255
髣	-20.6255
鼪	-20.6255
통	-20.6255
휈	-20.6255
	-20.6255
	-20.6255
	-20.6255
	-20.6255
	-20.6255
	-20.6255
	-20.6255
	-20.6255
	-20.6255
	-20.6255
	-20.6255
	-20.6255
	-20.6255
	-20.6255
	-20.6255
	-20.6255
	-20.6255
烜	-20.6255
Ά	-20.6255
ྸ	-20.6255
ო	-20.6255
┭	-20.6255
┻	-20.6255
佽	-20.6255
児	-20.6255
噳	-20.6255
垧	-20.6255
垴	-20.6255
墼	-20.6255
媐	-20.6255
嫠	-20.6255
怘	-20.6255
捃	-20.6255
掓	-20.6255
搾	-20.6255
枛	-20.6255
栦	-20.6255
楛	-20.6255
檿	-20.6255
欶	-20.6255
湁	-20.6255
燬	-20.6255
玃	-20.6255
瑆	-20.6255
畾	-20.6255
硭	-20.6255
竂	-20.6255
糤	-20.6255
綍	-20.6255
舎	-20.6255
譲	-20.6255
鍐	-20.6255
雃	-20.6255
鮙	-20.6255
鰎	-20.6255
鰛	-20.6255
鷶	-20.6255
	-20.6255
	-20.6255
	-20.6255
	-20.6255
	-20.6255
	-20.6255
	-20.6255
	-20.6255
	-20.6255
	-20.6255
	-20.6255
	-20.6255
	-20.6255
栛	-20.6256
窱	-20.6256
ぬ	-20.6256
ヮ	-20.6256
佹	-20.6256
叐	-20.6256
呴	-20.6256
嚧	-20.6256
屼	-20.6256
崝	-20.6256
嶆	-20.6256
庯	-20.6256
愪	-20.6256
桽	-20.6256
梾	-20.6256
熷	-20.6256
琘	-20.6256
眻	-20.6256
窼	-20.6256
笟	-20.6256
鎿	-20.6256
閞	-20.6256
	-20.6256
	-20.6256
	-20.6256
	-20.6256
	-20.6256
	-20.6256
	-20.6256
	-20.6256
ㄅ	-20.6257
褆	-20.6257
鱏	-20.6257
屻	-20.6258
岄	-20.6258
嶅	-20.6258
皪	-20.6258
祡	-20.6258
螃	-20.6259
ㄞ	-20.626
儚	-20.626
兘	-20.626
堥	-20.626
嶱	-20.626
忳	-20.626
湒	-20.626
潃	-20.626
犱	-20.626
甏	-20.626
畵	-20.626
篃	-20.626
絾	-20.626
蚯	-20.626
謞	-20.626
閷	-20.626
	-20.626
̇	-20.6261
嵆	-20.6262
燔	-20.6262
珯	-20.6262
簳	-20.6262
鍦	-20.6262
	-20.6262
