<pad>	0
<s>	0
</s>	0
<unk>	0
,	-3.00154
。	-3.16845
的	-3.40295
▁	-3.461
▁—	-4.47972
和	-4.49848
在	-4.96036
、	-5.0161
是	-5.3318
了	-5.40513
(	-5.42159
对	-5.663
)	-5.70664
将	-5.72547
“	-5.72914
年	-5.77365
而	-5.8632
中	-5.95395
美国	-5.98989
也	-6.0187
为	-6.0225
与	-6.11621
▁但	-6.12522
”	-6.17765
不	-6.26075
中国	-6.28738
但	-6.30313
其	-6.30478
·	-6.30675
政府	-6.30784
▁”	-6.33699
有	-6.35792
并	-6.38741
以	-6.40541
经济	-6.42808
人	-6.45435
地	-6.45803
:	-6.45842
国家	-6.46055
▁在	-6.48293
都	-6.49611
从	-6.50074
被	-6.50699
他们	-6.53765
以及	-6.54609
上	-6.54935
▁)	-6.55037
来	-6.55563
我们	-6.55899
已经	-6.56124
问题	-6.59523
会	-6.61525
或	-6.63003
欧洲	-6.63127
一个	-6.63523
需要	-6.64712
时	-6.65551
可以	-6.66073
;	-6.67454
到	-6.68252
就	-6.71041
让	-6.74151
因为	-6.7436
政策	-6.74782
这一	-6.75214
这些	-6.76595
可能	-6.76912
他	-6.77045
所	-6.77794
?	-6.77996
▁%	-6.7847
政治	-6.82784
全球	-6.83315
后	-6.84891
新	-6.86972
支持	-6.8913
要	-6.89295
性	-6.89517
大	-6.91291
这	-6.91539
更	-6.92282
它	-6.92675
必须	-6.93508
者	-6.96548
向	-6.96736
欧盟	-6.9738
一	-6.98747
世界	-6.99617
通过	-7.00086
没有	-7.00178
增长	-7.0177
市场	-7.06325
—	-7.06598
比	-7.06786
能够	-7.08308
投资	-7.08328
还	-7.11084
能	-7.11691
正在	-7.11822
它们	-7.11999
计划	-7.12749
应该	-7.12866
月	-7.12917
用	-7.13105
实现	-7.14068
▁而	-7.1487
最	-7.14991
等	-7.15194
▁但是	-7.15299
进行	-7.16025
包括	-7.16747
德国	-7.16925
▁如果	-7.17961
下	-7.19764
提供	-7.20479
社会	-7.21589
于	-7.22104
前	-7.22247
认为	-7.22812
说	-7.2581
▁事实上	-7.26199
银行	-7.27313
由	-7.27502
无法	-7.28377
我	-7.28855
要求	-7.31993
却	-7.32385
影响	-7.33615
地区	-7.33835
发展	-7.34449
印度	-7.35281
给	-7.35381
高	-7.3551
成为	-7.35522
改革	-7.35987
着	-7.36267
危机	-7.36634
▁“	-7.36859
开始	-7.37595
20	-7.37789
增加	-7.38352
公司	-7.38486
企业	-7.39057
把	-7.39436
人们	-7.39533
-	-7.40082
日本	-7.40262
导致	-7.41258
英国	-7.41357
其他	-7.41463
多	-7.41638
则	-7.42015
之	-7.42629
▁这	-7.42821
一些	-7.43004
GDP	-7.43144
那些	-7.43649
国际	-7.44762
▁因此	-7.44909
现在	-7.45371
解决	-7.45372
▁此外	-7.45504
因此	-7.45547
方面	-7.46695
过	-7.47173
所有	-7.48061
许多	-7.48386
风险	-7.48388
如果	-7.49818
更加	-7.49864
1	-7.5086
目标	-7.53914
工作	-7.53935
无	-7.54439
又	-7.55624
长期	-7.56645
希望	-7.56718
出	-7.56911
作为	-7.58269
获得	-7.58619
俄罗斯	-7.58847
这样的	-7.58884
任何	-7.58933
如何	-7.59787
保护	-7.60724
甚至	-7.60924
国	-7.61085
尽管	-7.61493
那么	-7.61517
民主	-7.61734
机构	-7.62675
拥有	-7.62713
的国家	-7.62893
合作	-7.6311
这种	-7.63611
得	-7.63645
这个	-7.63778
总统	-7.64058
可	-7.64317
去	-7.64402
好	-7.64477
技术	-7.64579
实施	-7.64708
里	-7.64923
斯	-7.65028
来说	-7.6514
债务	-7.65827
如此	-7.66101
组织	-7.6667
货币	-7.66743
伊朗	-7.66758
自	-7.67681
继续	-7.68107
安全	-7.68189
还是	-7.68605
就是	-7.68697
决定	-7.6885
领导人	-7.68874
并且	-7.69071
采取	-7.69923
选择	-7.70341
挑战	-7.70403
及	-7.70982
使用	-7.71005
主要	-7.71419
行动	-7.71999
一样	-7.72219
▁尽管	-7.72457
该	-7.72462
收入	-7.72624
日	-7.72671
s	-7.73186
以色列	-7.73621
改变	-7.74157
国内	-7.74432
欧元区	-7.74456
移民	-7.74512
而不是	-7.74537
金融	-7.74826
教育	-7.74918
世纪	-7.74974
的人	-7.75245
化	-7.75268
提高	-7.76015
来自	-7.76026
希腊	-7.76116
自己	-7.76407
行为	-7.76556
法国	-7.76938
似乎	-7.76953
仍然	-7.77104
成本	-7.77872
关系	-7.78112
存在	-7.78498
未来	-7.79061
像	-7.79739
改善	-7.79937
控制	-7.80119
《	-7.80398
管理	-7.806
战略	-7.80733
美元	-7.80902
▁我们	-7.8146
措施	-7.81517
不是	-7.8162
建立	-7.82081
接受	-7.82172
不会	-7.82418
最终	-7.82705
降低	-7.82884
并不	-7.83016
制度	-7.83225
2	-7.83241
当	-7.84236
一直	-7.84249
减少	-7.8452
非	-7.84551
内	-7.84685
新的	-7.84929
如	-7.85764
一种	-7.85888
协议	-7.86247
确保	-7.86254
尔	-7.86256
研究	-7.86323
非洲	-7.8675
自由	-7.86796
承诺	-7.86929
也是	-7.87069
目前	-7.87294
家	-7.87348
西方	-7.87461
对于	-7.87545
亚洲	-7.8759
不同	-7.87625
而且	-7.87737
5	-7.88116
产生	-7.88352
战争	-7.88438
贸易	-7.88473
成功	-7.88704
人口	-7.89204
▁比如	-7.89515
资源	-7.89534
从而	-7.89671
完全	-7.89748
出现	-7.89959
特朗普	-7.90245
3	-7.90338
只有	-7.90352
环境	-7.90496
资本	-7.90512
严重	-7.91024
▁这些	-7.92983
冲突	-7.93287
更多	-7.93774
系统	-7.93804
反对	-7.93907
拉	-7.94455
保持	-7.94512
最近	-7.94598
重要	-7.94753
威胁	-7.94773
他们的	-7.94929
同时	-7.95032
项目	-7.951
低	-7.9527
或者	-7.95676
能源	-7.95741
水	-7.95762
使	-7.95769
人民	-7.95901
已	-7.96284
非常	-7.96375
受到	-7.96377
帮助	-7.9641
带来	-7.96435
发生	-7.96501
们	-7.96681
得到	-7.97273
▁他们	-7.97469
近	-7.97531
6	-7.97818
资金	-7.9816
表明	-7.98363
不能	-7.99221
是否	-7.99855
需求	-7.99865
7	-8.00183
具有	-8.00372
谈判	-8.00395
利用	-8.00464
因素	-8.00591
正	-8.00595
历史	-8.00605
水平	-8.00747
和其他	-8.00894
你	-8.00895
▁(	-8.00917
个	-8.01275
进一步	-8.01355
下降	-8.01705
人类	-8.0187
以来	-8.02242
各国	-8.02254
共同	-8.02386
出口	-8.02396
选举	-8.028
和平	-8.02988
之间	-8.03001
服务	-8.03149
德	-8.03653
重新	-8.03969
价格	-8.03975
家庭	-8.0434
推动	-8.04553
法	-8.04717
▁当然	-8.04746
限制	-8.04756
▁美国	-8.05672
结果	-8.05784
关注	-8.05807
都是	-8.05896
关于	-8.06073
自己的	-8.06413
变化	-8.06494
9	-8.06603
小	-8.06606
名	-8.07051
生产	-8.07238
能力	-8.07583
只是	-8.07639
事件	-8.07728
4	-8.07755
特	-8.07896
》	-8.08233
点	-8.08336
仍	-8.08366
超过	-8.09049
大量	-8.09066
造成	-8.09088
受	-8.09267
大部分	-8.09456
是一个	-8.09505
城市	-8.10311
援助	-8.10401
领域	-8.10752
亿美元	-8.10764
只	-8.11095
反	-8.11147
维持	-8.11283
的话	-8.11345
运动	-8.11361
机会	-8.11434
主义	-8.1193
某些	-8.1194
联盟	-8.11979
制定	-8.12097
的情况下	-8.12366
几乎	-8.12367
的经济	-8.1254
气候变化	-8.12768
数据	-8.13557
参与	-8.13976
机制	-8.14047
权	-8.14234
欧元	-8.14424
稳定	-8.14476
竞争	-8.14481
想	-8.14493
财政	-8.1452
体系	-8.14584
破坏	-8.14634
央行	-8.15024
面临	-8.15255
克	-8.15596
朝鲜	-8.15732
民众	-8.15784
▁中国	-8.15933
公民	-8.16211
令	-8.16233
情况	-8.16366
及其	-8.16503
力	-8.17009
创新	-8.17492
考虑	-8.17568
的政治	-8.17583
万	-8.17837
即	-8.17851
再	-8.17917
支出	-8.18092
10	-8.18264
委员会	-8.1845
全世界	-8.18493
▁当	-8.18522
年的	-8.18581
▁如今	-8.18612
中的	-8.18699
经济增长	-8.18797
▁这一	-8.18818
规则	-8.18885
事	-8.19214
持续	-8.19281
部门	-8.19338
令人	-8.19356
可能会	-8.19418
不断	-8.19483
做	-8.1955
监管	-8.19595
之后	-8.19818
石油	-8.20164
作用	-8.20269
指出	-8.20353
全球化	-8.20396
▁从	-8.20455
这样	-8.20534
担心	-8.20815
联合国	-8.21077
投资者	-8.21248
他的	-8.21481
利	-8.21658
分	-8.21807
才能	-8.22072
模式	-8.22148
意大利	-8.22264
就会	-8.22431
核	-8.22817
之间的	-8.22862
e	-8.22927
重	-8.22949
的是	-8.23237
试图	-8.23297
资产	-8.2351
美联储	-8.23581
▁他	-8.2361
特别是	-8.23665
利率	-8.23751
看	-8.23818
价值	-8.23857
利益	-8.2392
发现	-8.23996
的问题	-8.24023
时间	-8.24056
量	-8.24144
成	-8.24229
之前	-8.24392
而是	-8.24456
她	-8.24524
将会	-8.24607
8	-8.24623
意味着	-8.24973
做出	-8.25007
占	-8.25257
每年	-8.25348
力量	-8.25585
过去	-8.25977
的政策	-8.26544
其中	-8.26592
▁我	-8.2684
融资	-8.26878
活动	-8.27133
C	-8.27508
有效	-8.27511
巨大的	-8.28025
法律	-8.28112
行业	-8.28152
针对	-8.28178
扩大	-8.28295
消费	-8.28304
的影响	-8.28357
经济学家	-8.28632
权力	-8.28681
心	-8.28689
年代	-8.287
但是	-8.28719
长	-8.28923
一项	-8.29091
报告	-8.29231
乌克兰	-8.29276
生	-8.29359
个人	-8.29513
子	-8.2955
那样	-8.29947
现实	-8.30076
由于	-8.30143
▁与此同时	-8.30203
信息	-8.30324
上述	-8.30332
如今	-8.30339
应对	-8.30389
因	-8.30723
什么	-8.30746
一场	-8.30884
方案	-8.31041
头	-8.31162
开	-8.31402
交易	-8.31417
还有	-8.31442
的时候	-8.31601
繁荣	-8.31693
规模	-8.3172
也许	-8.31949
结束	-8.3213
直接	-8.32159
进入	-8.32273
▁相反	-8.32315
努力	-8.32411
上升	-8.32418
日益	-8.32554
同样	-8.3265
起	-8.3329
条件	-8.33375
同	-8.33657
只能	-8.33733
达到	-8.33925
土耳其	-8.33939
基础设施	-8.34084
科学	-8.34218
预算	-8.34237
总	-8.34243
暴力	-8.34329
自身	-8.34335
派	-8.34483
相对	-8.34502
缺乏	-8.34581
之一	-8.34595
P	-8.34658
促进	-8.34683
重大	-8.34807
比如	-8.34962
工人	-8.3497
天	-8.35022
面	-8.3521
更多的	-8.35232
三	-8.35729
本	-8.35885
标准	-8.35914
承认	-8.36331
通胀	-8.3641
贷款	-8.36415
健康	-8.3648
并没有	-8.36596
两	-8.36915
叙利亚	-8.36972
选民	-8.37038
巴基斯坦	-8.37091
传统	-8.37114
巴西	-8.37117
十分	-8.37253
避免	-8.3735
方式	-8.37357
公共	-8.37378
理解	-8.37413
网络	-8.37504
外	-8.3751
革命	-8.37523
才	-8.37593
迅速	-8.37634
奥巴马	-8.37696
实际	-8.37707
独立	-8.37882
当前	-8.3817
预测	-8.38239
手	-8.38289
儿童	-8.38409
创造	-8.38423
原因	-8.38477
刺激	-8.38545
欧洲央行	-8.38864
2008	-8.38989
G	-8.39231
发展中国家	-8.39394
各	-8.39679
美	-8.39707
知道	-8.39909
方法	-8.39986
进步	-8.39988
发	-8.40059
▁虽然	-8.40084
开放	-8.40089
公众	-8.40413
率	-8.40424
成员国	-8.40433
行	-8.40814
且	-8.40932
税收	-8.40935
地位	-8.41171
应当	-8.41493
基本	-8.41604
大规模	-8.41905
30	-8.42098
相关	-8.42273
a	-8.42482
关键	-8.42674
中东	-8.42674
阻止	-8.4284
美国的	-8.42863
不仅	-8.42888
调整	-8.42915
S	-8.43071
宣布	-8.43182
提出	-8.43259
相信	-8.43324
而言	-8.43339
中国的	-8.43394
期	-8.43521
决策者	-8.43559
经济体	-8.43597
▁首先	-8.43652
伊拉克	-8.43672
领导	-8.43735
全球经济	-8.43897
数	-8.43939
军事	-8.43941
的新	-8.43956
韩国	-8.44152
女性	-8.44269
基于	-8.44656
难以	-8.44686
难民	-8.44727
曾	-8.44791
埃及	-8.44835
医疗	-8.44904
会议	-8.44937
面对	-8.45286
内部	-8.45395
气候	-8.45938
那	-8.45938
应	-8.46083
IMF	-8.46183
媒体	-8.46373
▁随着	-8.46421
变得	-8.46681
墨西哥	-8.46941
吗	-8.46951
外交	-8.46972
总理	-8.47094
损失	-8.47164
▁它	-8.47248
状况	-8.47494
宗教	-8.47508
农业	-8.4792
官员	-8.47964
保证	-8.48126
发达国家	-8.48281
A	-8.4868
马	-8.48759
依然	-8.488
不再	-8.49218
建设	-8.49238
y	-8.4928
至少	-8.49314
度	-8.49386
更为	-8.49493
讨论	-8.4953
产品	-8.49705
相当	-8.49969
财富	-8.50964
我们的	-8.51286
鼓励	-8.51411
加强	-8.51475
钱	-8.51497
政权	-8.51581
显然	-8.51615
o	-8.52052
代表	-8.52106
拒绝	-8.52308
部分	-8.52434
尼	-8.52525
地方	-8.52629
腐败	-8.52633
约	-8.52884
压力	-8.52945
后果	-8.53075
文化	-8.53265
随着	-8.5345
责任	-8.53533
贫困	-8.53679
干预	-8.53815
爆发	-8.54012
手段	-8.54051
领袖	-8.54187
感到	-8.54505
越来越	-8.54695
加	-8.54718
往往	-8.54789
疾病	-8.5482
打	-8.54861
用于	-8.54925
削减	-8.55087
时期	-8.55196
汇率	-8.55243
解释	-8.55265
多数	-8.5542
12	-8.55601
很多	-8.55674
遏制	-8.55678
商业	-8.55865
整个	-8.55998
很	-8.56285
过度	-8.56494
最大的	-8.56509
▁然而	-8.56659
两个	-8.56663
评估	-8.56693
债券	-8.56716
巴	-8.56878
数量	-8.56967
M	-8.57024
货币政策	-8.57118
失败	-8.57242
流	-8.57375
身	-8.57438
政党	-8.57495
有可能	-8.57511
执行	-8.57644
真正	-8.5775
程度	-8.57785
现代	-8.57808
成员	-8.57837
完成	-8.57954
确实	-8.57986
至	-8.58084
回	-8.58527
伊斯兰	-8.5853
I	-8.58702
业	-8.58834
税	-8.58847
一位	-8.59054
就业	-8.59248
一切	-8.59275
穆斯林	-8.59405
观点	-8.59627
美国人	-8.59638
形成	-8.59649
其他国家	-8.59689
虽然	-8.59872
金	-8.5997
这一点	-8.60322
公开	-8.60455
50	-8.60545
巴勒斯坦	-8.60596
治理	-8.60656
议会	-8.60716
大约	-8.60922
明确	-8.61003
崩溃	-8.61023
开发	-8.6116
方	-8.61295
阿	-8.6131
短期	-8.61312
打击	-8.61388
生活	-8.61391
允许	-8.61447
相	-8.61575
19	-8.61706
在于	-8.61743
真正的	-8.61789
宪法	-8.62086
寻求	-8.62218
赤字	-8.62293
有所	-8.62418
11	-8.62452
平衡	-8.62488
收益	-8.62708
并非	-8.62873
海	-8.63002
线	-8.63057
积极	-8.63093
作	-8.63133
走	-8.63241
决策	-8.63304
再次	-8.63399
即使	-8.6345
区	-8.63781
B	-8.63891
定	-8.64354
投票	-8.64377
位	-8.64435
当局	-8.64532
劳动力	-8.64623
战	-8.64762
为了	-8.64791
恢复	-8.64867
▁现在	-8.64964
2015	-8.6504
该国	-8.65231
强调	-8.65232
调查	-8.65331
al	-8.65354
▁对	-8.65576
党	-8.65595
格	-8.65622
的主要	-8.65861
权利	-8.65867
间	-8.65905
储蓄	-8.65985
同意	-8.66211
承担	-8.66238
衰退	-8.66302
文	-8.66403
本身	-8.66592
妇女	-8.66638
治疗	-8.66772
灾难	-8.66788
依赖	-8.66826
所谓的	-8.66952
卡	-8.67081
西	-8.67227
外部	-8.67366
数字	-8.67535
认识到	-8.67536
强化	-8.67718
的能力	-8.67763
制	-8.67792
曾经	-8.67832
或许	-8.67837
满足	-8.68038
远	-8.68073
根据	-8.68073
▁:	-8.68199
外国	-8.68233
一次	-8.68406
处理	-8.6845
工资	-8.6848
赢得	-8.68551
不可	-8.68727
准备	-8.6924
▁》	-8.69419
框架	-8.69431
工具	-8.695
学	-8.69576
基础	-8.69628
正是	-8.69671
消费者	-8.69705
原则	-8.69719
时代	-8.69781
陷入	-8.69949
经济学	-8.70277
表现	-8.70299
私人	-8.70322
安	-8.70354
基金	-8.70553
此	-8.70566
呢	-8.70608
找到	-8.70753
表示	-8.70853
制造	-8.71049
问题上	-8.71082
证明	-8.71295
巨大	-8.71589
纳	-8.71605
极端	-8.71669
想要	-8.71742
逐渐	-8.71923
的风险	-8.72046
州	-8.72198
上的	-8.72387
▁由于	-8.72468
气	-8.72925
▁毕竟	-8.73078
这是	-8.73133
取得	-8.73323
每	-8.73373
支付	-8.73395
视为	-8.73412
困难	-8.73491
感	-8.73495
an	-8.7352
不可能	-8.73559
i	-8.73603
补贴	-8.73658
D	-8.73806
的目标	-8.73828
入	-8.74036
达	-8.74393
愿意	-8.74479
E	-8.74549
也会	-8.74654
▁欧洲	-8.74768
坚持	-8.74834
▁目前	-8.74838
加入	-8.7486
袭击	-8.75018
失业	-8.75028
追求	-8.75078
购买	-8.75128
波兰	-8.75148
设计	-8.75152
左右	-8.75231
.	-8.75292
两国	-8.75298
自然	-8.75454
大多数	-8.75591
er	-8.75699
有助于	-8.75828
学生	-8.75892
利润	-8.75977
危险	-8.76212
▁而且	-8.76301
15	-8.76309
通常	-8.76378
科	-8.76622
确定	-8.76637
效率	-8.76671
军队	-8.7668
有关	-8.76853
共和党	-8.76928
式	-8.76981
民粹主义	-8.77059
冲击	-8.77067
的关键	-8.77109
▁发自	-8.77225
进口	-8.77313
趋势	-8.77417
人权	-8.77469
商	-8.77509
t	-8.77547
专家	-8.77759
势力	-8.77919
分裂	-8.77927
提升	-8.77956
d	-8.78032
商品	-8.7805
阿根廷	-8.78064
期间	-8.78178
▁为了	-8.78203
动	-8.78225
群体	-8.78286
条约	-8.78388
道德	-8.78822
联系	-8.79087
▁最后	-8.79237
工业	-8.79415
西班牙	-8.7947
大学	-8.79544
并不是	-8.79638
的情况	-8.79643
次	-8.79754
罗	-8.79896
中心	-8.79941
结构	-8.79954
更大的	-8.79994
而非	-8.80037
道	-8.80118
国际社会	-8.80158
未	-8.80249
制裁	-8.80509
全	-8.80531
今年	-8.80552
状态	-8.80624
今天	-8.80669
竞争力	-8.80704
充分	-8.80762
并未	-8.80848
普京	-8.81055
建议	-8.81118
各种	-8.81155
这类	-8.81282
了解	-8.81384
集团	-8.81528
政客	-8.81761
扩张	-8.81802
复杂	-8.81826
▁它们	-8.81837
布	-8.81898
达成	-8.81993
n	-8.82003
其实	-8.82005
常常	-8.82019
难	-8.8223
规定	-8.82421
障碍	-8.82525
事实	-8.82552
不足	-8.82571
的方式	-8.82599
军	-8.82938
核武器	-8.82943
处于	-8.82949
生产率	-8.83017
转	-8.83354
四	-8.83391
一系列	-8.83425
F	-8.83484
称	-8.83616
夫	-8.83704
不但	-8.83732
一致	-8.83753
过程	-8.83754
年以来	-8.8378
复苏	-8.83825
路	-8.84088
社区	-8.84163
提供了	-8.84362
阿富汗	-8.84381
快速	-8.84422
/	-8.84456
预期	-8.84546
2010	-8.84558
普遍	-8.84607
体	-8.84712
风	-8.84792
很难	-8.84793
T	-8.84869
联邦	-8.84916
进程	-8.84933
思想	-8.85039
90	-8.85042
金融市场	-8.85076
情绪	-8.85173
本国	-8.8532
看到	-8.855
论	-8.85578
值	-8.85664
分析	-8.8576
的结果	-8.85854
R	-8.85915
放弃	-8.85976
平均	-8.86124
p	-8.86219
负责	-8.86298
防止	-8.86402
亿	-8.86515
根本	-8.86623
特别	-8.86707
c	-8.86744
互联网	-8.87191
国际货币基金组织	-8.87348
显著	-8.87504
反应	-8.87639
老	-8.87734
g	-8.87742
值得	-8.87858
方面的	-8.87872
流动性	-8.87931
人员	-8.87959
民族主义	-8.87997
的机会	-8.88092
它们的	-8.88136
机	-8.882
投入	-8.88479
统治	-8.88574
全面	-8.88621
强	-8.88688
技能	-8.887
奥	-8.88723
迫使	-8.88961
年前	-8.88964
类似的	-8.89257
范围	-8.89259
书	-8.89354
%	-8.8948
主	-8.89488
空间	-8.89528
国会	-8.89635
都会	-8.89656
好处	-8.89954
失去	-8.90101
国家的	-8.90356
▁对于	-8.90379
型	-8.90847
60	-8.90856
既	-8.91215
较	-8.91276
的观点	-8.91321
in	-8.91511
武器	-8.91579
优势	-8.91607
则是	-8.91838
强大的	-8.91863
到了	-8.91925
类似	-8.91942
明	-8.91965
也将	-8.92055
N	-8.92083
紧缩	-8.92099
影响力	-8.92153
光	-8.92166
停止	-8.92256
更好的	-8.92309
最后	-8.9244
依靠	-8.92584
金融危机	-8.92617
门	-8.92642
策略	-8.92647
也在	-8.92662
引起	-8.92896
之外	-8.92964
现有	-8.92976
批评	-8.93128
邻国	-8.93321
怀疑	-8.93371
死	-8.93372
病	-8.93638
伊	-8.93721
更大	-8.93766
区域	-8.93929
2016	-8.93933
物	-8.94015
落	-8.94046
经验	-8.94104
▁这种	-8.94197
推进	-8.94206
先	-8.94283
年轻人	-8.94368
北约	-8.94395
民主党	-8.94413
见	-8.94462
起来	-8.94767
盟友	-8.94885
去年	-8.9502
意	-8.95104
极	-8.95189
旨在	-8.95245
至关重要	-8.95314
成立	-8.95327
呼吁	-8.95385
部	-8.9556
民族	-8.95633
不平等	-8.9566
从未	-8.95732
动荡	-8.95891
情	-8.95919
许多人	-8.95951
2013	-8.95975
70	-8.96022
学习	-8.96069
吸引	-8.9613
方针	-8.96221
错误	-8.96294
局	-8.96408
也没有	-8.96452
2014	-8.96496
事务	-8.96529
阿拉伯	-8.96577
彻底	-8.96733
致力于	-8.96733
伤害	-8.96753
福利	-8.9677
采用	-8.96837
理论	-8.96902
知识	-8.96928
下跌	-8.96965
维	-8.97009
谁	-8.97024
u	-8.97293
18	-8.97329
快	-8.97384
任	-8.97385
信用	-8.97406
官方	-8.97417
破产	-8.97418
的增长	-8.97481
人民币	-8.97572
立场	-8.97575
有着	-8.97667
解决方案	-8.97689
使得	-8.97747
效果	-8.97846
h	-8.97885
恶化	-8.97894
相比	-8.97926
正式	-8.98192
越	-8.98201
汽车	-8.98272
40	-8.98283
贬值	-8.9833
的支持	-8.98365
转向	-8.98381
引发	-8.98534
▁这是	-8.98575
以上	-8.98752
▁但在	-8.98831
的原因	-8.9885
任务	-8.9886
指标	-8.98966
b	-8.98985
口	-8.99008
当时	-8.99071
恐怖主义	-8.99184
的利益	-8.99335
仅仅	-8.99352
r	-8.99556
死亡	-8.99601
之中	-8.99606
十年	-8.99778
交	-8.99786
苏联	-8.99895
变革	-8.99897
十	-8.99943
相当于	-8.99956
崛起	-8.9997
阶段	-8.99994
这样做	-9.00041
80	-9.00182
这场	-9.00291
体制	-9.00393
效应	-9.00462
▁正如	-9.00889
转型	-9.01002
将在	-9.01275
削弱	-9.01326
▁那么	-9.01407
寻找	-9.01463
协定	-9.01509
某种	-9.01601
平等	-9.01652
总是	-9.01813
了一个	-9.01857
实力	-9.01907
有利于	-9.02095
遭到	-9.02143
适应	-9.02182
增长率	-9.02252
界	-9.02293
学校	-9.02406
回报	-9.02455
激励	-9.02483
禁止	-9.02496
万亿美元	-9.02515
取决于	-9.02553
看来	-9.02589
产业	-9.02634
高达	-9.02649
被迫	-9.02689
条	-9.03041
通	-9.03054
消除	-9.03057
出现了	-9.03058
负担	-9.03076
信心	-9.03131
目的	-9.0314
俄国	-9.03225
ar	-9.03332
▁同样	-9.0338
的行为	-9.03486
事实上	-9.03596
▁但这	-9.0385
联合	-9.03864
自我	-9.03941
▁包括	-9.04104
卫生	-9.04291
欧洲的	-9.04525
当地	-9.04584
新闻	-9.0464
公	-9.04642
团结	-9.04668
雷	-9.04669
质疑	-9.04676
也有	-9.04761
峰会	-9.04763
候选人	-9.04819
得多	-9.04859
秩序	-9.04908
负	-9.05128
▁该	-9.05295
热	-9.05301
▁特别是	-9.05321
五	-9.05408
这意味着	-9.05689
制造业	-9.05759
提振	-9.05782
re	-9.05916
立法	-9.06101
在美国	-9.06183
食品	-9.06273
所带来的	-9.063
欧洲人	-9.06342
f	-9.06423
的核心	-9.06481
2012	-9.06497
迪	-9.06511
退出	-9.06781
▁结果	-9.06797
面临着	-9.06892
假设	-9.06905
主权	-9.06917
核心	-9.0701
将是	-9.07011
新兴市场	-9.07034
只要	-9.07056
的未来	-9.07103
的全球	-9.07205
地球	-9.0728
倍	-9.07356
分歧	-9.07468
所需要的	-9.07499
强大	-9.07504
潜在	-9.07508
另一个	-9.07594
广泛	-9.07748
报	-9.07767
就能	-9.07785
带来了	-9.07787
人士	-9.07901
就像	-9.07959
对此	-9.0797
为何	-9.08012
太	-9.08161
几	-9.08188
未能	-9.08366
变	-9.08407
劳动力市场	-9.08418
争论	-9.08436
级	-9.08503
失业率	-9.0867
问	-9.08742
资本主义	-9.08845
的一部分	-9.08917
没	-9.09043
一份	-9.09099
最高	-9.0913
协调	-9.09132
空	-9.09387
2007	-9.09391
哈	-9.09546
25	-9.09631
m	-9.09758
持有	-9.09869
▁根据	-9.09888
缺少	-9.09954
指责	-9.09955
造成了	-9.09972
放	-9.10026
药物	-9.10026
电	-9.10073
O	-9.10103
分配	-9.10185
科技	-9.10278
火	-9.10297
进展	-9.10464
还要	-9.10499
供给	-9.10581
为什么	-9.10639
后者	-9.10662
生命	-9.10775
波动	-9.10811
统一	-9.1091
永远	-9.10918
亲	-9.10931
要么	-9.10939
塔	-9.10972
即将	-9.11075
这些国家	-9.11075
多少	-9.11078
符合	-9.11132
得到了	-9.11136
边境	-9.11149
也可以	-9.112
土地	-9.11232
合	-9.11286
波	-9.11291
▁因为	-9.11336
进	-9.11455
正如	-9.11521
一直在	-9.11638
但却	-9.11654
的社会	-9.11684
程序	-9.11712
大幅	-9.11794
这次	-9.11819
处	-9.11842
所面临的	-9.11907
化石燃料	-9.11908
新兴经济体	-9.1192
费	-9.11953
经常	-9.12041
利比亚	-9.12105
排放	-9.12131
执政	-9.12178
二	-9.12182
米	-9.12254
亚	-9.12313
种	-9.12333
相反	-9.12382
车	-9.12471
的一个	-9.12495
委内瑞拉	-9.12502
伦敦	-9.12539
第一	-9.12572
足够	-9.12573
取代	-9.12596
花	-9.12747
2009	-9.12752
尤其	-9.12968
加剧	-9.13022
接近	-9.13025
重要的	-9.13153
工	-9.13267
监督	-9.133
研发	-9.1331
尽	-9.13317
债权人	-9.13324
可以通过	-9.13365
▁例如	-9.13487
精神	-9.13529
对话	-9.13564
的作用	-9.13632
少	-9.13663
疫苗	-9.13697
世界银行	-9.13769
最大	-9.13774
工程	-9.13835
产出	-9.13991
一年	-9.14018
都在	-9.14121
比例	-9.14129
的可能性	-9.14196
差异	-9.14284
信贷	-9.14322
"	-9.14397
en	-9.14471
便	-9.145
增加了	-9.14648
坏	-9.14849
100	-9.15108
担任	-9.1512
农民	-9.15131
获得了	-9.15135
瓦	-9.1552
合理	-9.15527
思维	-9.15531
克服	-9.15539
然	-9.15596
基	-9.15648
外交政策	-9.15707
安排	-9.15743
容易	-9.15913
▁类似地	-9.15943
真实	-9.1601
态度	-9.16024
混乱	-9.16144
粮食	-9.16199
实际上	-9.16199
取	-9.16202
随后	-9.16225
导致了	-9.1634
南	-9.1637
此前	-9.16408
大大	-9.16556
2011	-9.16631
当选	-9.16714
代	-9.16825
对抗	-9.16827
▁即使	-9.16858
▁S	-9.17056
缓慢	-9.17178
约束	-9.1718
该地区	-9.17201
可持续	-9.17276
大国	-9.17398
对美国	-9.17406
不应该	-9.17572
实行	-9.17649
加速	-9.17741
对其	-9.17752
最重要的	-9.17772
穷人	-9.18021
意识到	-9.18146
遭受	-9.18153
差	-9.18176
精英	-9.18183
语	-9.18201
乐观	-9.18228
额	-9.1833
深	-9.18421
批准	-9.18465
倒	-9.18531
构建	-9.18561
相互	-9.18654
k	-9.18695
平	-9.18785
▁许多	-9.1887
否则	-9.18894
带	-9.18914
它的	-9.18922
公平	-9.18993
岁	-9.19088
摆脱	-9.19235
端	-9.1925
得以	-9.19269
发达经济体	-9.19353
大选	-9.1937
衡量	-9.19373
取消	-9.19394
2000	-9.19402
这项	-9.19406
严重的	-9.19505
是在	-9.1965
曼	-9.19705
访问	-9.19711
众多	-9.19737
角色	-9.19764
零	-9.19794
场	-9.19847
争议	-9.19981
不愿	-9.2001
速度	-9.20055
旧	-9.20125
正确	-9.2019
or	-9.20271
基因	-9.20276
兰	-9.20331
黎巴嫩	-9.20349
转移	-9.20366
▁不幸的是	-9.20384
就必须	-9.20388
显示	-9.20469
普	-9.20497
▁据	-9.20498
成就	-9.20516
几个	-9.20626
估计	-9.20633
ri	-9.20667
平台	-9.2079
那就是	-9.20794
类	-9.20798
让我们	-9.20898
抵制	-9.20998
生活在	-9.21014
尤其是	-9.21046
选	-9.21146
L	-9.21332
价	-9.21355
的同时	-9.21533
布什	-9.21601
因为它	-9.21667
的努力	-9.21737
▁一个	-9.21883
多边	-9.21884
▁其次	-9.21891
▁但如果	-9.21918
列	-9.21939
有些	-9.22052
攻击	-9.22072
增强	-9.22106
跟	-9.22123
身份	-9.22172
性的	-9.22222
理	-9.22317
实	-9.22352
质量	-9.224
有效的	-9.22401
不到	-9.22691
形式	-9.22708
意义	-9.22767
预计	-9.22792
回到	-9.228
的长期	-9.22928
展开	-9.22966
特征	-9.22973
经济发展	-9.22979
不管	-9.23007
仅	-9.23053
领土	-9.23188
警告	-9.23334
尝试	-9.23403
今天的	-9.23418
才是	-9.23501
大型	-9.2365
日程	-9.23734
比较	-9.23755
半	-9.23758
不同的	-9.23896
东	-9.2399
转变	-9.24059
提	-9.24083
市	-9.24194
是一种	-9.24259
年间	-9.24333
代价	-9.24369
金融机构	-9.24551
讲	-9.24555
and	-9.24575
私人部门	-9.2458
表现出	-9.24745
集体	-9.24927
爱尔兰	-9.2496
姆	-9.24965
集中	-9.2506
首	-9.25127
意识形态	-9.25191
一起	-9.252
住	-9.25246
明显	-9.25249
特别是在	-9.25433
总体	-9.25503
的那样	-9.25616
克林顿	-9.25642
胜利	-9.25701
信	-9.25725
记者	-9.2574
具体	-9.25756
犹太人	-9.25762
推	-9.25906
患者	-9.25931
声	-9.25975
举行	-9.25988
▁-	-9.26016
捍卫	-9.26069
很可能	-9.26075
答案	-9.26098
年来	-9.26129
价值观	-9.26214
的承诺	-9.26218
写	-9.26279
能否	-9.26303
▁尽管如此	-9.26324
供应	-9.26481
发行	-9.26482
言	-9.2652
升级	-9.2656
领	-9.26671
问题的	-9.26717
伊斯兰国	-9.26724
是因为	-9.26774
哈马斯	-9.26782
传播	-9.26784
简单	-9.26897
双方	-9.26919
超	-9.26919
明白	-9.26919
所谓	-9.26976
污染	-9.27008
宣称	-9.27011
竞选	-9.27024
反映了	-9.27076
必要	-9.27208
中产阶级	-9.27241
500	-9.27463
首先	-9.27466
怎样	-9.27531
可以在	-9.27563
党派	-9.27593
中央银行	-9.27741
均	-9.27757
真的	-9.27767
▁纽约	-9.2777
失	-9.27856
碳	-9.27892
报道	-9.27919
妥协	-9.27934
与美国	-9.27939
指数	-9.28028
劳动	-9.28121
产	-9.28135
毫无	-9.28262
▁of	-9.28399
我们必须	-9.284
听	-9.2849
储备	-9.28582
危险的	-9.28591
山	-9.28614
l	-9.28661
经	-9.28686
重建	-9.2869
持	-9.28813
贡献	-9.28825
奇	-9.28848
团体	-9.28885
的重要	-9.28913
掉	-9.28949
年后	-9.28981
▁德国	-9.29054
充满	-9.29071
局势	-9.29099
促使	-9.29124
最近的	-9.29225
马克龙	-9.29331
▁欧盟	-9.29465
高度	-9.29515
给予	-9.29578
早	-9.29656
走向	-9.29753
信任	-9.29756
默克尔	-9.29805
21	-9.29821
的发展	-9.29912
教训	-9.29912
部长	-9.30041
方向	-9.30093
记录	-9.30198
尊重	-9.30289
前景	-9.30435
一条	-9.30471
的做法	-9.30493
股市	-9.30494
员工	-9.30496
动力	-9.3054
提出了	-9.30566
知	-9.30672
所造成的	-9.3068
H	-9.30754
属于	-9.30857
步	-9.31059
低于	-9.31076
经历	-9.31102
眼	-9.31111
上涨	-9.31172
药	-9.31184
断	-9.31196
阻碍	-9.31207
困境	-9.31217
若	-9.31224
梅	-9.31232
天然气	-9.31236
作出	-9.31279
伊斯兰教	-9.31386
层面	-9.31479
斗争	-9.31527
对手	-9.31667
交通	-9.31729
问题是	-9.31845
世界经济	-9.31873
理由	-9.32027
项	-9.32087
调	-9.32221
队	-9.32251
不平等性	-9.32327
林	-9.32403
开支	-9.32404
的政府	-9.32488
孩子	-9.32548
▁自	-9.32594
地区的	-9.32608
连	-9.32627
员	-9.32636
不得不	-9.32642
教	-9.32655
并在	-9.3266
缅甸	-9.3268
通缩	-9.32683
同时也	-9.32734
反对派	-9.32873
掌握	-9.32923
现金	-9.33039
全国	-9.33097
▁通过	-9.33151
习近平	-9.33158
欧盟委员会	-9.33324
不确定性	-9.3335
具备	-9.33351
▁作为	-9.33352
世界上	-9.33411
一点	-9.33422
是为了	-9.33457
局面	-9.33613
这个问题	-9.33634
诸多	-9.3368
情况下	-9.33684
模型	-9.33902
宣传	-9.33902
巩固	-9.33902
现状	-9.33904
起到	-9.33907
主席	-9.33918
2005	-9.3393
办法	-9.34029
可能是	-9.34142
股票	-9.343
计算	-9.34324
犯罪	-9.34335
最为	-9.34349
就可以	-9.34387
▁除了	-9.34448
政府的	-9.34523
在内的	-9.3456
岛	-9.3462
莫	-9.34623
都有	-9.34688
香港	-9.34714
种族	-9.34761
保险	-9.34834
在过去	-9.34978
▁伦敦	-9.35093
预防	-9.35157
也不	-9.35221
国外	-9.35343
第	-9.35394
回归	-9.35405
事情	-9.35551
的关系	-9.35609
通货膨胀	-9.35616
形势	-9.35642
美国经济	-9.35694
靠	-9.35703
被视为	-9.35715
▁这意味着	-9.35721
w	-9.35821
整体	-9.35894
▁最近	-9.35922
有人	-9.36031
的需求	-9.36078
有一个	-9.36212
算	-9.36219
现象	-9.36233
泡沫	-9.3635
思考	-9.36361
激进	-9.36368
辩论	-9.36397
发挥	-9.36398
沙特	-9.36403
纽约	-9.36411
在其	-9.36429
历史上	-9.36498
更高的	-9.36533
的国际	-9.36576
拯救	-9.36634
仍在	-9.36695
全部	-9.36735
的战略	-9.36823
缺陷	-9.36876
的投资	-9.3693
ing	-9.36982
培训	-9.37146
还需要	-9.37227
产量	-9.37296
当然	-9.37394
关税	-9.37447
全球变暖	-9.3745
采取行动	-9.37464
主义者	-9.37501
2%	-9.37523
往	-9.37597
支持者	-9.37616
来源	-9.3765
替代	-9.37817
她们	-9.37873
同样的	-9.37888
遭遇	-9.37937
道路	-9.37942
差距	-9.38152
医生	-9.38156
一般	-9.38163
违约	-9.38177
的威胁	-9.38298
ch	-9.3832
恩	-9.3834
on	-9.3834
民主国家	-9.38394
神	-9.38415
拉丁美洲	-9.38431
内容	-9.38514
职	-9.38538
绿色	-9.38573
观	-9.38633
除	-9.38647
公投	-9.38693
维护	-9.38694
弱	-9.38821
活力	-9.38964
承受	-9.38968
▁印度	-9.39083
案	-9.3912
重组	-9.39137
出于	-9.39155
南非	-9.39214
过于	-9.39251
政治家	-9.39252
收	-9.39361
应用	-9.39378
条款	-9.39474
沙特阿拉伯	-9.39479
民	-9.39503
增	-9.39506
第二	-9.39554
合法	-9.3957
正常	-9.3963
重点	-9.3965
结构性	-9.39771
变得更加	-9.39799
也是如此	-9.39932
主张	-9.39986
共产主义	-9.39988
进行了	-9.40192
即便	-9.40213
错	-9.40217
签署	-9.40222
还没有	-9.40299
也无法	-9.4034
不仅仅是	-9.4038
中国经济	-9.4044
真	-9.40539
一体化	-9.40714
东西	-9.40761
推行	-9.40801
白	-9.40804
z	-9.40922
担忧	-9.40977
在未来	-9.40984
之下	-9.40996
的基础	-9.41002
洛	-9.41039
愤怒	-9.41039
采取了	-9.41052
分子	-9.41063
的方法	-9.4112
无论	-9.41137
将其	-9.41203
▁G	-9.41378
指	-9.41404
爱	-9.41534
自身的	-9.41602
直到	-9.41607
绝对	-9.41666
当今	-9.41683
吸引力	-9.41775
一家	-9.42058
协助	-9.42102
当前的	-9.42141
共	-9.42157
很快	-9.422
2017	-9.42211
居民	-9.42316
澳大利亚	-9.42369
荷兰	-9.42369
首次	-9.42387
投	-9.42397
最新	-9.4241
放缓	-9.42432
萨	-9.42465
华	-9.42509
失衡	-9.42637
一旦	-9.42721
月份	-9.42784
北京	-9.42906
忽视	-9.43013
除了	-9.43016
产生了	-9.4306
边界	-9.43079
地缘政治	-9.43107
几十年	-9.43145
成了	-9.43151
▁其中	-9.43166
艾滋病	-9.43167
动物	-9.43174
净	-9.43186
流动	-9.43258
法院	-9.43321
身上	-9.43366
居	-9.43432
三个	-9.43521
巴勒斯坦人	-9.43602
▁这个	-9.43656
规划	-9.43675
占领	-9.43689
刚刚	-9.43929
过程中	-9.43956
惩罚	-9.43988
手中	-9.43994
早已	-9.44061
美国总统	-9.44122
2001	-9.44131
古	-9.44213
生物	-9.44262
脆弱	-9.44373
发生了	-9.44442
品	-9.44451
的重要性	-9.44468
然后	-9.44529
各国政府	-9.44701
陷入了	-9.44736
潜力	-9.44755
的欧洲	-9.44809
话	-9.4489
票	-9.44929
糟糕	-9.44937
仅仅是	-9.44988
生存	-9.4505
尚未	-9.45086
接	-9.45105
边	-9.45218
更高	-9.45247
武装	-9.45298
一半	-9.45342
投资于	-9.45349
加拿大	-9.45358
议程	-9.45361
个国家	-9.45457
特殊	-9.45637
▁人们	-9.45637
比率	-9.45649
的东西	-9.4568
引入	-9.45696
无疑	-9.45781
▁也许	-9.4579
构成	-9.45821
之所以	-9.45965
国民	-9.46045
所有人	-9.46191
智利	-9.462
▁即	-9.46216
另一	-9.46232
第一次	-9.46242
海外	-9.4627
抑制	-9.46293
el	-9.46331
肯定	-9.46362
塞	-9.46463
共识	-9.46494
清	-9.46509
本地	-9.46619
实现了	-9.4671
普通	-9.46774
位于	-9.46822
逊尼派	-9.47027
我的	-9.47147
回应	-9.47212
的工作	-9.47279
油	-9.47348
库	-9.47433
不要	-9.47475
证	-9.4748
两大	-9.47514
▁以及	-9.47527
减	-9.4753
按	-9.47581
矛盾	-9.47589
支撑	-9.4759
托	-9.47659
科学家	-9.47683
中国政府	-9.47749
镇压	-9.47873
早期	-9.47942
六	-9.48034
ur	-9.48082
犯	-9.48085
覆盖	-9.48156
消灭	-9.48156
哪些	-9.48157
的生活	-9.48322
主导	-9.48446
的措施	-9.48508
理性	-9.48523
英	-9.48565
证据	-9.48584
其它	-9.48719
互相	-9.48738
电力	-9.48766
极为	-9.48849
▁以	-9.48871
量化宽松	-9.48892
正确的	-9.48968
哥伦比亚	-9.49011
参加	-9.49025
干	-9.49149
与其	-9.49222
停滞	-9.49272
女	-9.49289
短缺	-9.49298
突然	-9.49301
以前	-9.49309
说服	-9.49365
不受	-9.49405
归	-9.49414
的变化	-9.49441
前所未有的	-9.49462
一名	-9.49465
le	-9.49784
诺	-9.49851
经营	-9.49879
K	-9.49912
个体	-9.50043
年轻	-9.50051
盈余	-9.50094
的成本	-9.50133
尼日利亚	-9.50161
看起来	-9.50201
将继续	-9.50219
是个	-9.50235
的权利	-9.50244
某	-9.5032
消失	-9.50456
伙伴	-9.50486
常规	-9.50514
源	-9.50598
亿欧元	-9.50809
▁而在	-9.5083
的研究	-9.5084
我们需要	-9.50848
击	-9.5089
定义	-9.50891
联	-9.50898
成功的	-9.50929
保障	-9.50931
朝	-9.50957
的计划	-9.50997
森	-9.51023
▁诚然	-9.51034
人数	-9.51114
欧盟的	-9.51278
富	-9.51295
绝	-9.51304
对待	-9.51305
怀	-9.5132
逻辑	-9.51326
拉美	-9.51366
致	-9.51458
巴黎	-9.51509
左翼	-9.51528
毒	-9.51552
换	-9.51572
世	-9.51581
照	-9.51585
▁上述	-9.51614
离	-9.51801
单	-9.51828
东盟	-9.51875
未来的	-9.51897
渴望	-9.51913
职业	-9.52005
除非	-9.5202
索	-9.5207
这一问题	-9.52153
▁去年	-9.52279
司法	-9.52351
原	-9.52352
首相	-9.52394
操纵	-9.52457
什叶派	-9.52504
疟疾	-9.52519
▁同时	-9.5252
离开	-9.52524
声称	-9.52556
的地方	-9.52579
启动	-9.52612
足以	-9.52621
许多国家	-9.52819
也不会	-9.52826
男性	-9.52835
唯一	-9.52858
▁英国	-9.5293
入侵	-9.52969
▁如	-9.53024
造成的	-9.53033
强烈	-9.53197
现代化	-9.53263
的大	-9.53286
的压力	-9.53316
已经开始	-9.53351
视	-9.53496
足够的	-9.53572
一定	-9.53662
遵守	-9.53697
客户	-9.53699
帝国	-9.53721
排	-9.53836
宏观经济	-9.53883
的态度	-9.53884
目前的	-9.53886
在欧洲	-9.53931
双边	-9.53939
财政政策	-9.54022
人才	-9.54163
立	-9.54357
特定	-9.54374
中国领导人	-9.54397
是如此	-9.54424
要比	-9.54444
垄断	-9.54538
紧张	-9.54544
图	-9.54555
谨慎	-9.546
都将	-9.5472
带来的	-9.54742
发动	-9.54743
法案	-9.54768
▁日本	-9.5486
埃尔多安	-9.54903
留	-9.54921
造	-9.54926
万人	-9.54971
测试	-9.54985
称为	-9.5504
活	-9.5508
必要的	-9.55122
存	-9.55153
▁...	-9.55154
贝	-9.55168
还会	-9.55275
一套	-9.55316
假	-9.55324
概念	-9.55328
关	-9.55342
此次	-9.5538
亿美元的	-9.55447
肯尼亚	-9.55513
莫迪	-9.55535
出来	-9.55545
统计	-9.55667
有限	-9.55725
一国	-9.55742
勒	-9.55809
廉价	-9.55818
非法	-9.55858
所需的	-9.55906
理念	-9.55926
之路	-9.5594
可能导致	-9.55981
也就是	-9.5603
届	-9.5604
部队	-9.5606
创造了	-9.56088
1990	-9.56161
at	-9.56239
为此	-9.56286
人均	-9.56364
疲软	-9.56433
▁与	-9.56473
常	-9.56552
达到了	-9.56572
▁并且	-9.56631
理想	-9.56666
指导	-9.56727
时刻	-9.56746
反映	-9.56795
语言	-9.56838
表	-9.5689
对中国	-9.56917
词	-9.56928
▁只有	-9.5695
绝大多数	-9.56961
17	-9.57062
2006	-9.57078
和社会	-9.57151
东亚	-9.57174
义务	-9.57203
喜欢	-9.57322
所在	-9.57323
扭曲	-9.57361
意见	-9.57371
保护主义	-9.57393
巨额	-9.57421
这个国家	-9.57452
右翼	-9.57613
组成	-9.57634
层	-9.57634
实验	-9.5767
皮	-9.57672
新加坡	-9.57672
取得了	-9.57867
恐慌	-9.57985
轮	-9.58017
近期	-9.58277
士	-9.58302
的成功	-9.58403
合法性	-9.58418
损害	-9.58476
年度	-9.58591
J	-9.58615
认定	-9.58617
股东	-9.5862
抗议	-9.58631
周期	-9.58639
考虑到	-9.58667
it	-9.58732
让他们	-9.58734
动机	-9.58764
▁实际上	-9.58867
下来	-9.58909
人群	-9.58991
建	-9.59034
出了	-9.59126
有了	-9.59175
有能力	-9.59187
2030	-9.59198
吉	-9.59203
莱	-9.59208
资助	-9.59247
孤立	-9.59357
经过	-9.59447
举行的	-9.59468
▁其	-9.59501
举措	-9.59526
紧	-9.59554
发生在	-9.59623
付出	-9.59632
而这	-9.59638
▁《	-9.59648
16	-9.59669
因为他们	-9.59805
的责任	-9.59867
海洋	-9.59885
他在	-9.59927
▁在美国	-9.6
纳税人	-9.60011
降	-9.60031
现	-9.60033
传	-9.60075
农村	-9.60088
住房	-9.60092
欢迎	-9.60097
ra	-9.60107
强硬	-9.60129
管制	-9.60176
逐步	-9.60204
的改革	-9.60257
当中	-9.60304
千	-9.60306
解	-9.60407
负债	-9.6051
省	-9.60511
保留	-9.60541
色	-9.60592
表达	-9.60621
各方	-9.60693
发表	-9.60737
五年	-9.60799
更不用说	-9.60842
阵营	-9.60844
可再生能源	-9.60863
满	-9.60869
大萧条	-9.60934
费用	-9.6094
服务业	-9.61103
器	-9.61132
愿景	-9.61166
很多人	-9.61226
求	-9.61246
异	-9.61254
潮	-9.61288
建筑	-9.61302
的挑战	-9.61311
任命	-9.61378
其他人	-9.61387
会导致	-9.61409
邦	-9.61413
二氧化碳	-9.61475
只会	-9.61544
的理由	-9.61558
的地区	-9.61588
几个月	-9.6161
的时间	-9.61715
仍然是	-9.6173
和美国	-9.61738
瑞典	-9.61814
回答	-9.6182
高于	-9.61852
停	-9.61907
罪	-9.61976
成功地	-9.62049
财务	-9.6214
共享	-9.62141
过渡	-9.62232
几年	-9.62242
释放	-9.62251
打破	-9.6226
的角色	-9.62298
感觉	-9.62374
买	-9.62387
驱动	-9.62457
太多	-9.62535
监管者	-9.62537
的说法	-9.62546
都没有	-9.62577
200	-9.62594
冷战	-9.6265
最好	-9.62746
设备	-9.62795
重塑	-9.62796
运作	-9.62832
优先	-9.62935
14	-9.62961
之上	-9.62965
越南	-9.6298
欧盟成员国	-9.63054
更好	-9.6309
抵消	-9.63123
季度	-9.63131
森林	-9.63132
操作	-9.63137
印尼	-9.63183
底	-9.63193
第三	-9.63211
▁A	-9.63271
W	-9.63277
前任	-9.63295
密	-9.63333
的地位	-9.63334
很少	-9.63417
渠道	-9.63452
吃	-9.63452
示威	-9.63514
很大	-9.63526
终于	-9.63559
切	-9.636
节	-9.63614
究竟	-9.6364
紧迫	-9.63661
油价	-9.63692
il	-9.63705
沙	-9.63714
升高	-9.63715
▁今天	-9.6372
谴责	-9.63784
5%	-9.63787
远远	-9.63865
扮演	-9.63881
没能	-9.6393
▁一些	-9.63936
发起	-9.63988
减轻	-9.64122
法庭	-9.64199
积累	-9.64218
▁F	-9.6427
福	-9.64343
唯一的	-9.64399
的历史	-9.64449
人工智能	-9.6445
但在	-9.64485
黑	-9.64548
退休	-9.64579
机器	-9.64647
引发了	-9.64679
无力	-9.64681
经历了	-9.64685
我们可以	-9.64688
▁特朗普	-9.64697
癌症	-9.64785
拿出	-9.64881
的权力	-9.64883
退	-9.64925
原因是	-9.64999
杰	-9.65067
的数据	-9.65193
的例子	-9.65247
脱欧	-9.65337
超越	-9.65358
百	-9.65388
业务	-9.65402
变成	-9.65503
八	-9.65508
要素	-9.65527
周	-9.65629
强制	-9.65664
一直是	-9.6569
命	-9.65763
也应该	-9.65776
拜	-9.65778
▁T	-9.65783
管	-9.65824
之处	-9.65873
降低了	-9.6593
▁显然	-9.65935
的反应	-9.65935
严格	-9.65964
是由	-9.65977
举	-9.66072
鲁	-9.66085
as	-9.66115
排除	-9.66118
称之为	-9.66133
组合	-9.66141
单一	-9.66219
都要	-9.6625
恶	-9.6628
合理的	-9.66294
的唯一	-9.66305
人们对	-9.66349
救	-9.66445
放在	-9.66463
式的	-9.66468
布鲁塞尔	-9.66473
浪费	-9.66476
抓住	-9.66497
她的	-9.66517
▁B	-9.66599
台	-9.66602
很容易	-9.66605
不必	-9.6661
建立一个	-9.66689
成果	-9.66689
匈牙利	-9.66814
~	-9.66814
纷纷	-9.66814
缓解	-9.66816
放松	-9.66819
越来越多的	-9.6682
清楚	-9.6707
可靠	-9.67099
血	-9.67132
区别	-9.67174
不稳定	-9.67219
的后果	-9.67485
经济政策	-9.67494
声明	-9.67508
根	-9.67518
减税	-9.67523
人的	-9.67543
学者	-9.67608
更有	-9.67636
一开始	-9.67732
在线	-9.67742
让人	-9.67762
▁K	-9.67791
的价格	-9.67825
的力量	-9.67831
心理	-9.6784
的行动	-9.67859
2004	-9.67875
这两个	-9.67876
的世界	-9.67884
的立场	-9.67887
▁P	-9.67921
网	-9.67954
已经成为	-9.68003
欧洲国家	-9.68022
▁今年	-9.6805
资产负债表	-9.68157
is	-9.68175
规范	-9.68202
出售	-9.68207
任期	-9.68241
纳入	-9.68263
某个	-9.68296
导弹	-9.6854
指控	-9.68544
▁中国的	-9.68553
的确	-9.68613
飞	-9.68646
领导的	-9.68649
所有人都	-9.68672
二战	-9.68757
li	-9.68773
精	-9.68777
按照	-9.68886
而不	-9.68886
安倍	-9.68901
主流	-9.68909
下去	-9.68938
不满	-9.68938
房地产	-9.69009
计	-9.69011
者的	-9.69035
1%	-9.69118
也必须	-9.69126
独裁	-9.69176
纳粹	-9.69236
恐怖分子	-9.69244
中间	-9.69258
痛苦	-9.69273
还能	-9.69278
生产力	-9.69321
不利	-9.69325
可持续发展	-9.69355
每个	-9.69368
恐怖	-9.69394
之时	-9.69433
la	-9.69464
▁M	-9.69481
两年	-9.69522
物质	-9.69567
电视	-9.69569
例如	-9.69648
犹太	-9.69694
争取	-9.69703
给了	-9.69709
官僚	-9.69751
别	-9.69774
坐	-9.6982
13	-9.69901
升值	-9.69907
石	-9.69916
青年	-9.70119
受到了	-9.70145
富人	-9.70156
号	-9.7026
获取	-9.703
战斗	-9.70301
动作	-9.7031
▁幸运的是	-9.70347
以便	-9.70411
市场的	-9.70527
推翻	-9.70617
帕	-9.70647
ic	-9.70676
引导	-9.70695
实体	-9.70719
已经在	-9.70772
一步	-9.70904
▁只要	-9.70936
选项	-9.70938
煤炭	-9.71003
饱受	-9.7101
的担忧	-9.71049
部署	-9.71173
贫穷	-9.71244
印	-9.71327
财政部长	-9.71363
最低	-9.71393
那种	-9.71398
功能	-9.7142
年中	-9.71475
▁20	-9.71482
观念	-9.71519
恐惧	-9.71532
突破	-9.71584
涉及	-9.71605
食	-9.71613
苦	-9.71699
博	-9.71705
兹	-9.71718
菲律宾	-9.71719
更好地	-9.71739
不少	-9.71783
反而	-9.71799
的最新	-9.7182
以后	-9.71852
能让	-9.7187
人物	-9.7201
新兴	-9.7202
一下	-9.72053
紧密	-9.72116
那里	-9.7213
10%	-9.72143
▁C	-9.72184
很有可能	-9.72249
信号	-9.72347
集中在	-9.72376
2020	-9.72413
院	-9.72486
合同	-9.72493
政府和	-9.72535
政	-9.72645
河	-9.72673
第一个	-9.7274
余	-9.72792
逆转	-9.72808
的水平	-9.72857
的速度	-9.72923
紧急	-9.72965
数百万	-9.72976
的好处	-9.73127
改	-9.73235
后的	-9.73267
但它们	-9.73366
观察	-9.73438
st	-9.73443
▁换句话说	-9.73479
据	-9.73497
立刻	-9.73536
公正	-9.73573
新技术	-9.73588
但它	-9.73658
月的	-9.7368
包含	-9.73713
组成的	-9.73753
版	-9.73791
的危险	-9.73855
杠杆	-9.73874
获胜	-9.73877
约翰	-9.73894
评论	-9.73902
感染	-9.73903
响应	-9.73918
▁不过	-9.73967
短	-9.73993
▁奥巴马	-9.74074
息	-9.74131
升	-9.74133
各个	-9.7416
▁这样的	-9.74218
说明	-9.74251
班	-9.74259
煽动	-9.74264
目的是	-9.7427
没有什么	-9.74399
主要是	-9.74401
美国政府	-9.74404
领域的	-9.74406
兑现	-9.74412
这位	-9.74486
房	-9.7449
略	-9.74749
没有任何	-9.74835
3%	-9.75093
可能性	-9.75113
▁鉴于	-9.75116
欧	-9.7522
从事	-9.75234
岗位	-9.75248
因为它们	-9.75365
2003	-9.75385
否认	-9.75393
公共部门	-9.75425
都能	-9.75437
▁第三	-9.75519
到来	-9.75543
的人口	-9.75567
加以	-9.75569
这些问题	-9.75623
用户	-9.75649
大多	-9.7569
麻烦	-9.75732
深入	-9.75749
动员	-9.75797
发生的	-9.75844
经济复苏	-9.75868
的效果	-9.7587
全球性	-9.75915
不足以	-9.75926
增长的	-9.75941
的领导人	-9.75954
件	-9.7596
保	-9.75961
言论	-9.76021
不应	-9.76082
运行	-9.76092
警察	-9.76124
诊断	-9.76125
判断	-9.76126
改进	-9.7614
下降到	-9.76145
多年	-9.76165
告	-9.7623
史	-9.76328
U	-9.76365
es	-9.76405
注入	-9.76505
黄金	-9.76505
抗	-9.76592
所以	-9.76609
包容	-9.76683
设施	-9.76785
游	-9.76831
▁法国	-9.76838
的崛起	-9.7684
反过来	-9.76877
透明	-9.76905
制约	-9.76935
普及	-9.76955
破坏性	-9.76981
平民	-9.76984
的任务	-9.77116
的债务	-9.77118
法治	-9.77394
使其	-9.77398
良好	-9.7741
赛	-9.77545
原本	-9.77572
信仰	-9.77616
认识	-9.77628
约旦	-9.77638
内战	-9.77688
和政治	-9.77707
有时	-9.77834
百万	-9.77855
送	-9.77898
参与者	-9.77947
减速	-9.77968
领导层	-9.78044
何	-9.78066
▁她	-9.78081
不太可能	-9.78088
战后	-9.78116
准确	-9.78136
ed	-9.78148
终结	-9.78179
不需要	-9.78226
南部	-9.78262
流行	-9.78306
伯	-9.78349
存款	-9.78389
显得	-9.78391
建立了	-9.78398
!	-9.784
群众	-9.78418
▁要	-9.78428
影响到	-9.7843
▁或者	-9.78436
元	-9.78517
也可能	-9.7852
中国人	-9.78532
更快	-9.78562
败	-9.78571
大陆	-9.78577
营	-9.78584
担保	-9.78598
0	-9.78673
偿还	-9.78675
北	-9.78705
晚	-9.78785
内塔尼亚胡	-9.78785
歧视	-9.78788
面前	-9.78826
禁	-9.78833
明确的	-9.78861
站	-9.78898
教育和	-9.78961
例外	-9.79023
质	-9.79034
会议上	-9.79043
脱离	-9.79054
的反	-9.79081
以及其他	-9.791
在很大程度上	-9.79104
日渐	-9.79186
授权	-9.79254
供	-9.7926
款	-9.79288
跨国	-9.79326
要想	-9.79362
加大	-9.79448
例	-9.79475
摧毁	-9.79494
循环	-9.79556
▁简言之	-9.79559
考验	-9.79559
审查	-9.79562
还必须	-9.79594
公约	-9.79626
▁当时	-9.79645
事业	-9.79696
巨	-9.79744
燃料	-9.7994
专利	-9.7997
正义	-9.79974
分享	-9.80011
素	-9.802
的方案	-9.80253
破	-9.80293
伦	-9.80312
真相	-9.80312
论坛	-9.8033
的事情	-9.80418
权威	-9.8043
医学	-9.80449
胜	-9.80535
的事实	-9.80588
一个国家	-9.80665
赫	-9.80693
少数	-9.80712
专注于	-9.80743
融合	-9.80747
加沙	-9.80752
古巴	-9.80758
更是	-9.80866
预算赤字	-9.80984
埃	-9.8104
和经济	-9.81051
稳定的	-9.81069
借贷	-9.81085
吸收	-9.81132
ro	-9.81139
th	-9.81224
开展	-9.81268
的经验	-9.81325
高级	-9.81339
用来	-9.8136
失去了	-9.81399
的财政	-9.81412
个月	-9.81418
深度	-9.81463
星	-9.81476
估算	-9.81519
距离	-9.8152
销售	-9.8152
赋予	-9.81522
问责	-9.81524
会在	-9.81533
急剧	-9.81544
前进	-9.81642
职位	-9.81665
自由贸易	-9.81685
结构性改革	-9.81801
专业	-9.81824
治	-9.81827
将成为	-9.81846
自由化	-9.8187
主宰	-9.81917
团队	-9.81923
告诉	-9.8194
相关的	-9.81961
解放	-9.81975
果	-9.82142
化的	-9.82345
▁不管	-9.82353
这些人	-9.82404
苏	-9.82699
塔利班	-9.82715
女孩	-9.82715
融入	-9.82719
法官	-9.82895
为例	-9.82982
的安全	-9.82985
小时	-9.82987
自动	-9.82992
双	-9.83013
货币联盟	-9.83059
直	-9.83105
该计划	-9.83106
清晰	-9.83116
却是	-9.83125
例子	-9.83138
顾问	-9.83172
以下	-9.83183
与中国	-9.832
户	-9.83201
这样一个	-9.83251
境	-9.83271
试	-9.83309
金融体系	-9.8331
特朗普的	-9.83346
标	-9.83363
对欧洲	-9.8344
的资金	-9.83463
兵	-9.83504
秘密	-9.83521
觉得	-9.83539
的巨大	-9.83553
冷	-9.83568
易	-9.83573
威	-9.83603
选举中	-9.8365
球	-9.83714
预	-9.83789
地方政府	-9.8379
药品	-9.8398
都必须	-9.83996
支	-9.84001
有利	-9.84048
股	-9.84075
▁那些	-9.84139
压	-9.84171
运用	-9.84272
时候	-9.84308
施	-9.84314
扭转	-9.84331
瑞士	-9.84334
设立	-9.84336
文章	-9.84338
成熟	-9.84339
流入	-9.84341
还在	-9.8439
的决定	-9.84395
年底	-9.84399
轻	-9.84406
下滑	-9.84437
一些国家	-9.84464
▁没有	-9.84601
只有在	-9.84608
谋	-9.84727
温和	-9.84737
复兴	-9.84741
极端主义	-9.84762
更多地	-9.84839
东欧	-9.84844
社	-9.84916
已有	-9.84988
硬	-9.84999
在全球	-9.85018
途径	-9.85142
享受	-9.85268
劳	-9.85283
运	-9.85305
性别	-9.85338
在今年	-9.85402
提出的	-9.85405
的民主	-9.85524
牛	-9.85554
冒险	-9.85563
敏感	-9.85563
谈	-9.85721
毫无疑问	-9.85721
甚	-9.85749
没有人	-9.85753
▁for	-9.85824
加上	-9.85849
绝非	-9.85878
非洲国家	-9.85909
希	-9.85928
中有	-9.85971
de	-9.85994
复杂的	-9.86017
滥用	-9.86032
▁还有	-9.86074
强势	-9.86078
在这方面	-9.86078
沦为	-9.8608
想象	-9.86085
蒙	-9.86089
流向	-9.86121
不存在	-9.86245
私	-9.86319
文明	-9.86346
个百分点	-9.86388
补充	-9.86389
关闭	-9.86391
小组	-9.8642
的增加	-9.86457
的胜利	-9.86489
显	-9.86512
兼	-9.86566
后来	-9.86581
深刻	-9.86621
的价值	-9.86672
城	-9.86718
转移到	-9.86755
凯恩斯	-9.86767
两种	-9.86802
适用于	-9.86861
的法律	-9.86879
读	-9.86941
众	-9.86963
在中国	-9.86969
高效	-9.86975
▁另一个	-9.8707
所有的	-9.87087
组	-9.87127
片	-9.87139
铁	-9.87162
射	-9.87198
症	-9.87217
抗生素	-9.87222
干涉	-9.87227
缺口	-9.87228
毒品	-9.8723
分别	-9.87256
总额	-9.87275
最初	-9.87328
35	-9.87353
害	-9.87382
独	-9.87388
悲剧	-9.87451
行政	-9.87463
最好的	-9.87483
阿拉伯世界	-9.87601
am	-9.8766
透明度	-9.87667
善	-9.87712
但其	-9.87759
农	-9.87793
保守	-9.8784
V	-9.87869
的信息	-9.87944
▁在这方面	-9.87948
倾向	-9.8801
所有这些	-9.8801
朋友	-9.88017
散	-9.88019
’	-9.88065
害怕	-9.88066
不愿意	-9.88088
教授	-9.88091
可持续性	-9.8813
受益	-9.88185
成长	-9.88197
亿人	-9.88212
威胁到	-9.88219
由此	-9.88334
暂时	-9.88419
过去的	-9.88425
议员	-9.88443
的代价	-9.88459
防御	-9.88489
资格	-9.88494
延长	-9.88562
更具	-9.88565
环境中	-9.88651
困扰	-9.88857
接触	-9.88864
阿萨德	-9.88898
▁the	-9.88928
不论	-9.88981
国有企业	-9.88997
看似	-9.88998
便是	-9.89152
应该是	-9.89177
的基础上	-9.8922
幅度	-9.89256
受害者	-9.89266
经济危机	-9.89312
工会	-9.89338
墙	-9.89342
劳动者	-9.89344
倾向于	-9.89416
领导者	-9.89433
300	-9.89523
整合	-9.89525
传染病	-9.89555
金融稳定	-9.89561
也能	-9.89591
废	-9.89675
期望	-9.89714
的最佳	-9.89747
填补	-9.89772
补偿	-9.89772
营养	-9.89774
修改	-9.89777
与其他	-9.89778
但也	-9.89854
副	-9.89871
体现	-9.899
基础设施投资	-9.89946
那个	-9.89957
做出了	-9.89987
中国在	-9.90188
卡梅伦	-9.90202
逃	-9.90203
乔治	-9.90204
纠正	-9.90213
发明	-9.90215
对外	-9.90252
复	-9.90289
增长模式	-9.9032
形	-9.90338
创	-9.90437
都不	-9.90454
一些人	-9.90634
提到	-9.90646
外汇储备	-9.90648
领导力	-9.90722
可靠的	-9.90906
广	-9.9092
养	-9.91055
综合	-9.9107
人道主义	-9.91123
▁华盛顿	-9.91158
有望	-9.91177
三年	-9.91222
工业化	-9.91282
布什政府	-9.91318
年代的	-9.91359
七	-9.91462
债	-9.91475
经济衰退	-9.91488
各自	-9.9149
室	-9.91491
守	-9.91498
▁伊朗	-9.915
签订	-9.91507
谷歌	-9.91508
步骤	-9.91516
四个	-9.91693
来看	-9.91818
中期	-9.9182
乱	-9.91852
物种	-9.91853
没人	-9.91858
脱	-9.91913
赢得了	-9.91932
苏格兰	-9.91945
的基本	-9.91954
▁考虑到	-9.91959
施加	-9.91964
税率	-9.91969
显而易见	-9.91982
每天	-9.92004
中央	-9.92068
us	-9.92096
提高了	-9.92128
实现这一目标	-9.92167
顿	-9.92208
意识	-9.92276
的选择	-9.92339
也许是	-9.92366
结	-9.92366
转化为	-9.92386
占据	-9.9239
的要求	-9.92393
▁甚至	-9.92428
这一观点	-9.92583
7%	-9.92754
的真正	-9.92756
落后	-9.92785
脚	-9.92805
以至于	-9.92828
低利率	-9.92829
偏好	-9.92861
机遇	-9.92864
注意	-9.92865
拿	-9.92869
的最大	-9.92993
得不到	-9.92998
并将	-9.93104
提议	-9.9312
能在	-9.93141
伤	-9.93166
唐纳德	-9.93264
披露	-9.93273
引起了	-9.93295
投机	-9.93296
加快	-9.93323
意外	-9.93335
俄	-9.93392
民粹主义者	-9.93436
才会	-9.93489
经合组织	-9.93503
望	-9.93532
被认为是	-9.93546
字	-9.93576
国防	-9.93618
查	-9.93677
以确保	-9.93691
借	-9.93713
残酷	-9.9372
张	-9.93728
落实	-9.93742
发布	-9.93764
经济表现	-9.93789
世界各国	-9.93805
描述	-9.9381
证据表明	-9.93843
立即	-9.9389
获	-9.93971
病毒	-9.94001
▁但我们	-9.94027
牌	-9.94072
的错误	-9.94085
益	-9.94102
尚	-9.94148
奇怪	-9.94168
周边	-9.94178
互动	-9.94183
留在	-9.94187
重视	-9.94209
破坏了	-9.9421
极其	-9.9421
何种	-9.94224
受欢迎	-9.94294
待	-9.9431
二十世纪	-9.94313
是什么	-9.94399
深化	-9.94419
会带来	-9.94472
师	-9.94489
互	-9.94544
的技术	-9.94549
但他们	-9.94606
兴趣	-9.94607
结核病	-9.94618
基金会	-9.94634
单位	-9.94645
出现在	-9.9474
以此	-9.94798
随	-9.94897
学家	-9.94978
乐	-9.95026
训练	-9.95071
台湾	-9.95072
是美国	-9.95075
移动	-9.95083
退休金	-9.95096
生态系统	-9.95098
转移支付	-9.95105
温	-9.95142
几乎没有	-9.9517
批评者	-9.953
▁在过去	-9.95347
银行家	-9.95367
限	-9.95395
悲观	-9.95528
推迟	-9.95529
资本市场	-9.95595
财政赤字	-9.95611
的收入	-9.95615
大众	-9.95649
不仅是	-9.95658
完美	-9.95709
电影	-9.95711
圣	-9.95752
明年	-9.95765
套	-9.95815
▁除非	-9.95851
在去年	-9.95868
者们	-9.95895
证券	-9.95919
•	-9.95981
监控	-9.95983
推广	-9.95992
结构改革	-9.96022
外界	-9.96044
需	-9.96058
相对于	-9.96062
的军事	-9.9611
僵局	-9.96161
建立在	-9.96181
▁但这些	-9.96192
结论	-9.96225
程	-9.96272
危机的	-9.96298
24	-9.9631
九	-9.96368
富有	-9.96436
菲	-9.96439
积极的	-9.96449
国家安全	-9.96496
工厂	-9.96502
近年来	-9.96514
花费	-9.96541
目	-9.9656
400	-9.96607
出生	-9.96624
优	-9.96636
构成了	-9.96661
总需求	-9.96664
明智的	-9.96705
工党	-9.96707
在一起	-9.96816
包	-9.96826
齐	-9.96892
看上去	-9.96904
医院	-9.96905
利息	-9.96919
现任	-9.96919
他们在	-9.96925
的解决方案	-9.96925
使命	-9.96951
额外	-9.96956
学院	-9.97
金融部门	-9.97003
自然资源	-9.97027
包容性	-9.97032
决心	-9.97064
专	-9.9708
的概念	-9.971
艰难	-9.9713
焦点	-9.97136
战胜	-9.97217
防	-9.97229
先进	-9.97265
修	-9.97272
装	-9.97284
共和国	-9.97344
lo	-9.97347
偿付	-9.97366
乃至	-9.9737
服	-9.97396
4%	-9.97477
▁Re	-9.97551
和解	-9.97556
背景下	-9.97563
即使是	-9.97605
让人们	-9.97608
发达	-9.97697
是否会	-9.97733
故事	-9.97739
庞大的	-9.97767
移	-9.97781
欧洲议会	-9.97815
扎	-9.97824
万美元	-9.97831
2002	-9.97886
大屠杀	-9.97922
资产价格	-9.97924
▁无论	-9.97934
富裕国家	-9.98057
势	-9.98081
坚定	-9.98145
患	-9.98156
广泛的	-9.98161
儿	-9.98169
试验	-9.98268
几乎所有	-9.98291
雇主	-9.98298
形成了	-9.98304
必然	-9.98326
中东地区	-9.98346
这种情况	-9.98383
极大	-9.98384
也需要	-9.98391
不久前	-9.98416
历	-9.98424
机器人	-9.98523
这将	-9.98532
一部分	-9.98585
但这	-9.98682
付	-9.9871
效	-9.98715
的状况	-9.98738
痛	-9.98757
报纸	-9.98773
伊朗的	-9.98775
跨	-9.98802
助	-9.98807
出台	-9.98838
解决问题	-9.98887
不太	-9.98934
不知道	-9.98939
▁过去	-9.98955
本人	-9.98993
▁毫无疑问	-9.99056
实施了	-9.99057
变成了	-9.99136
下降了	-9.99137
也不能	-9.99144
航	-9.99197
毁	-9.99222
南欧	-9.99227
多样化	-9.99239
连续	-9.99241
予以	-9.99271
公共卫生	-9.99278
专制	-9.99302
196	-9.99326
站在	-9.99359
便利	-9.99546
雅	-9.99575
王	-9.99631
出资	-9.99666
阶级	-9.9969
的道路	-9.99703
也不是	-9.99706
席位	-9.99718
违反	-9.99756
反弹	-9.99757
微	-9.99785
等待	-9.99794
北部	-9.99799
▁W	-9.99964
美国在	-9.99979
背景	-9.99986
良好的	-10.0003
起作用	-10.0007
195	-10.0011
美国和欧洲	-10.0011
▁比方说	-10.0013
实践	-10.0015
仇恨	-10.0019
申请	-10.0019
倒闭	-10.0019
防务	-10.0019
认可	-10.0021
丧失	-10.0021
的谈判	-10.0022
驻	-10.0033
时代的	-10.0035
封	-10.0035
的战争	-10.0041
发电	-10.0041
▁俄罗斯	-10.0049
强劲	-10.0053
1.5	-10.0054
的看法	-10.0057
奥巴马政府	-10.0057
伙伴关系	-10.0057
背后的	-10.0061
德国人	-10.0063
临时	-10.0065
宣言	-10.0067
官	-10.0067
适合	-10.0067
蔓延	-10.0069
▁就像	-10.0079
发出	-10.0096
ad	-10.0097
减排	-10.0098
团	-10.01
的企业	-10.0103
的进步	-10.0107
▁问题在于	-10.0114
突尼斯	-10.0115
薪酬	-10.0115
履行	-10.0117
社会主义	-10.0126
述	-10.0131
全新	-10.0132
中获益	-10.0132
富裕	-10.0136
信誉	-10.0138
ne	-10.014
阶层	-10.0158
露	-10.0162
加剧了	-10.0163
养老金	-10.0163
奥地利	-10.0163
引	-10.0164
救助	-10.0164
他人	-10.0164
早就	-10.0166
期待	-10.0167
仍有	-10.0172
削弱了	-10.0189
的公司	-10.0205
起诉	-10.0213
在这个	-10.0217
中共	-10.0221
不平衡	-10.0231
在政治上	-10.0235
20%	-10.0235
让步	-10.0236
长达	-10.024
尽可能	-10.024
掌权	-10.024
为其	-10.0242
默	-10.025
经济和	-10.0254
显而易见的	-10.0256
弗	-10.0258
容忍	-10.0261
衰落	-10.0261
罗马	-10.0267
▁于是	-10.0276
不够	-10.028
与伊朗	-10.0282
销	-10.0284
身体	-10.0286
主权债务	-10.0288
游行	-10.0294
废除	-10.0304
盘	-10.0307
▁如果我们	-10.0308
末	-10.0308
1997	-10.0309
佩	-10.0309
难题	-10.031
高昂	-10.032
持久	-10.0322
整	-10.0322
义	-10.0324
所产生的	-10.0327
惊	-10.0339
账户	-10.0346
的所有	-10.0354
两次	-10.0355
企业家	-10.0356
笑	-10.0359
延续	-10.0359
拖累	-10.0359
暴跌	-10.0359
借助	-10.0359
缩小	-10.0364
四年	-10.037
可行的	-10.0378
▁巴黎	-10.0388
被称为	-10.0398
时任	-10.0398
船	-10.0405
敦促	-10.0408
商品和服务	-10.0409
▁这是一个	-10.0409
超级	-10.041
西欧	-10.041
低迷	-10.0411
急	-10.0412
激烈	-10.0413
公司的	-10.0413
弱点	-10.0414
准	-10.0416
数十年	-10.0424
取得成功	-10.0428
记	-10.0428
世俗	-10.0429
罪行	-10.0434
▁所以	-10.0439
其他地方	-10.0442
et	-10.0442
三分之一	-10.0446
相同	-10.0449
母亲	-10.0451
的过程中	-10.0452
长期以来	-10.0453
有必要	-10.0454
险	-10.0454
招	-10.0457
美国总统奥巴马	-10.0457
饥饿	-10.0458
阻挠	-10.0458
的比例	-10.0458
欧盟国家	-10.0459
交换	-10.046
另一种	-10.0461
热情	-10.0461
1980	-10.0463
年龄	-10.0469
功	-10.0475
而在	-10.0475
23	-10.0478
到目前为止	-10.0481
温室气体排放	-10.0482
民主的	-10.0482
情形	-10.0482
通胀率	-10.0483
对立	-10.0491
仍是	-10.0494
不了	-10.0495
划	-10.0502
仅有	-10.0504
已成为	-10.0506
跨境	-10.0508
生活水平	-10.051
伴随着	-10.0513
太阳能	-10.0514
电子	-10.0514
至少在	-10.0519
▁E	-10.0519
▁即便	-10.0524
▁美联储	-10.0531
庞大	-10.0535
近几年来	-10.0548
每一个	-10.0549
性质	-10.0549
理应	-10.0554
华盛顿	-10.0556
三大	-10.0557
固定	-10.0557
玛	-10.0558
科索沃	-10.0558
抵抗	-10.0558
不管是	-10.0559
巨头	-10.0561
减少了	-10.0561
高管	-10.0568
不过	-10.0568
▁你	-10.0572
家族	-10.0577
或是	-10.0579
座	-10.0582
反映出	-10.0586
这一趋势	-10.0587
最佳	-10.0589
的影响力	-10.0591
一再	-10.0595
梦	-10.0606
材料	-10.0608
克里姆林宫	-10.0609
我在	-10.0609
还将	-10.0609
计算机	-10.0611
公布	-10.0614
顶	-10.0616
遭到了	-10.0617
的时代	-10.062
穷国	-10.0621
的关注	-10.0624
角度	-10.0628
资	-10.0635
2050	-10.0648
奖	-10.0657
肉	-10.0658
烟	-10.0659
陷阱	-10.0659
葡萄牙	-10.0659
挪威	-10.066
系统性	-10.066
石油价格	-10.0664
交流	-10.0665
样	-10.0669
输	-10.0673
选票	-10.0681
背后	-10.0683
穷	-10.0689
阿拉伯国家	-10.0691
改变了	-10.0699
独裁者	-10.0703
导向	-10.0706
怎么	-10.0707
萧条	-10.0708
马来西亚	-10.071
爆炸	-10.071
▁平心而论	-10.071
▁非洲	-10.0712
孟加拉国	-10.0713
两位	-10.0713
也同样	-10.0716
抛弃	-10.0716
铁路	-10.0717
足	-10.0718
幕	-10.0722
英国脱欧	-10.0729
族	-10.0732
就需要	-10.0733
基本上	-10.0735
▁要想	-10.0735
对象	-10.0739
著名	-10.0741
的意愿	-10.0744
情景	-10.0747
两者	-10.075
在这里	-10.0759
藏	-10.076
迄今为止	-10.0762
动摇	-10.0762
知识产权	-10.0762
食物	-10.0764
梦想	-10.0765
遗产	-10.0765
彼此	-10.0766
研究所	-10.0779
的实际	-10.0781
ir	-10.0785
▁希腊	-10.0787
在国际	-10.0788
的形式	-10.0791
你们	-10.0792
▁以色列	-10.0796
此类	-10.0801
务	-10.0802
合作伙伴	-10.0802
年初	-10.0803
非正式	-10.0809
自由民主	-10.0812
免疫	-10.0813
暗示	-10.0813
恐怖袭击	-10.0816
美国国会	-10.0816
根本性	-10.0819
▁D	-10.0821
所提出的	-10.0826
契约	-10.0835
演讲	-10.0836
▁但这一	-10.0843
壁垒	-10.0854
圈	-10.0863
有害	-10.0863
流离失所	-10.0865
颠覆	-10.0865
审判	-10.0865
律师	-10.0865
免费	-10.0866
霸权	-10.0866
绝望	-10.0866
并不能	-10.0869
自动化	-10.0873
的现实	-10.0874
8%	-10.088
名义	-10.0881
▁全球	-10.0887
另外	-10.0887
北方	-10.0897
配	-10.0899
范围内	-10.0906
柏林	-10.0915
毛	-10.0917
即将到来的	-10.0917
课程	-10.0918
提案	-10.0919
在一个	-10.092
之际	-10.092
因为这	-10.0922
发放	-10.0923
存在着	-10.0933
还可以	-10.0939
保守党	-10.0942
2018	-10.0943
泰国	-10.0956
人均收入	-10.0956
清洁	-10.0965
必须在	-10.0966
伟大	-10.097
危害	-10.097
进而	-10.097
独立的	-10.0971
在国内	-10.0973
的合作	-10.0976
可谓	-10.0977
时机	-10.0979
新政府	-10.098
几十年来	-10.0981
薪	-10.0983
控	-10.0985
的经济增长	-10.0998
保守派	-10.1001
集	-10.1004
的命运	-10.1006
一天	-10.1007
超过了	-10.1007
成为了	-10.1022
参议院	-10.1022
模糊	-10.1022
裁决	-10.1022
和俄罗斯	-10.1022
运转	-10.1023
高企	-10.1024
狂热	-10.1027
军事行动	-10.1028
反对者	-10.1029
再一次	-10.1034
的共同	-10.1038
同事	-10.1038
的下降	-10.104
中所	-10.1042
快速增长	-10.1044
弹	-10.1051
▁不仅	-10.1052
甚至是	-10.1054
他们所	-10.1054
上台	-10.106
就在	-10.1062
情报	-10.1068
将导致	-10.1069
这也是	-10.1069
相似	-10.107
就将	-10.1071
软	-10.1072
22	-10.1074
的表现	-10.1074
记忆	-10.1075
阿巴斯	-10.1075
社交媒体	-10.1075
消耗	-10.1075
动态	-10.1076
的金融	-10.1083
卖	-10.1087
哪	-10.1093
在许多	-10.1096
变得更	-10.1097
▁欧洲央行	-10.1098
28	-10.1103
脑	-10.1109
ti	-10.1118
不确定	-10.1123
枪	-10.1124
j	-10.1125
也因此	-10.1125
缓和	-10.1127
艾	-10.1128
塞尔维亚	-10.1128
介入	-10.1129
风暴	-10.1129
所赐	-10.113
货	-10.113
▁这也是	-10.1145
公共债务	-10.116
与此同时	-10.1161
▁新	-10.1164
新兴国家	-10.1165
类似于	-10.1165
英国的	-10.1165
民主制度	-10.1168
毫不	-10.1173
外国人	-10.1174
是如何	-10.1175
沉	-10.1179
翻	-10.118
录	-10.1181
狭隘	-10.1182
世贸组织	-10.1182
基督教	-10.1182
授予	-10.1182
二十一世纪	-10.1182
广告	-10.1182
左派	-10.1183
压制	-10.1184
绝不是	-10.1185
友好	-10.1186
公民社会	-10.1186
数千	-10.119
召开	-10.119
速	-10.1198
的前景	-10.1203
做到	-10.1207
跌	-10.1215
密切	-10.1223
盛	-10.1227
切实	-10.1233
▁2008	-10.1234
金正恩	-10.1235
领先	-10.1236
政府在	-10.1239
x	-10.1239
工作岗位	-10.1249
ta	-10.125
27	-10.1253
是错误的	-10.1257
有机会	-10.1262
大会	-10.1267
ul	-10.1271
生活的	-10.1272
存在的	-10.1274
杀	-10.1285
学术	-10.1288
妨碍	-10.129
探讨	-10.129
烟草	-10.129
内阁	-10.129
设定	-10.1291
进化	-10.1293
转变为	-10.1293
排名	-10.1296
的信心	-10.1306
军方	-10.131
很高	-10.1312
关心	-10.1314
属	-10.1317
思	-10.132
决定性	-10.1322
慢	-10.1331
剧	-10.1337
统治者	-10.1337
访	-10.1337
▁这就是	-10.1339
经济和社会	-10.134
分散	-10.1341
丑闻	-10.1342
杜	-10.1343
飓风	-10.1344
胎	-10.1344
慷慨	-10.1344
穆巴拉克	-10.1344
果断	-10.1345
全面的	-10.1346
再加上	-10.1348
重要性	-10.1348
金融系统	-10.1358
有关的	-10.1364
其中包括	-10.1376
的银行	-10.138
解决办法	-10.1385
房价	-10.1385
的贸易	-10.139
欧洲领导人	-10.1395
认真	-10.1397
3⁄4	-10.1398
太平洋	-10.1399
糖	-10.1399
频繁	-10.1399
完善	-10.1399
负面	-10.1399
运输	-10.1399
软件	-10.1399
征收	-10.1403
客	-10.1405
突出	-10.1406
再分配	-10.1407
可以从	-10.1408
游说	-10.142
危机中	-10.1425
设	-10.1426
和金融	-10.143
依赖于	-10.1431
这些措施	-10.1431
这么	-10.1432
国际法	-10.1433
圣战	-10.1435
习惯	-10.1445
始于	-10.1445
te	-10.1451
的最	-10.1452
欠	-10.1453
依据	-10.1454
丹麦	-10.1456
都需要	-10.1456
基地组织	-10.1457
▁这样	-10.146
一边	-10.146
群	-10.146
都无法	-10.1461
很有	-10.1461
那时	-10.1469
发展中国家的	-10.1471
v	-10.1472
修正	-10.1475
80%	-10.1476
英国人	-10.1481
不安	-10.1482
全球贸易	-10.1483
十年前	-10.1486
走上	-10.1487
灵活	-10.1489
者和	-10.1489
最严重的	-10.1494
经济和政治	-10.1496
马上	-10.1498
更少	-10.1499
扩散	-10.1506
课	-10.1506
社会保障	-10.1508
仔细	-10.1509
膨胀	-10.1509
焦虑	-10.1509
剧烈	-10.1509
培养	-10.1509
较低	-10.1509
收缩	-10.1509
电脑	-10.151
建造	-10.1511
传统的	-10.1513
自愿	-10.1513
土	-10.1513
致命	-10.1514
共产党	-10.1516
迈向	-10.1517
出版	-10.152
政府债券	-10.1526
的潜在	-10.153
徒	-10.1531
第三个	-10.1543
危机前	-10.1548
严	-10.1558
极大的	-10.1559
创业	-10.156
之一是	-10.156
均衡	-10.1564
三分之二	-10.1564
福祉	-10.1564
消极	-10.1566
事故	-10.1566
财产	-10.1579
眼下	-10.1582
极大地	-10.1583
危机爆发	-10.159
传染	-10.1593
央行行长	-10.1601
绝大部分	-10.1601
▁一旦	-10.1604
永久	-10.1604
di	-10.1605
自由市场	-10.1608
解体	-10.161
Al	-10.1612
我们应该	-10.1613
前总统	-10.1613
斯坦	-10.1615
盟国	-10.1616
鱼	-10.1619
的支持者	-10.162
弥补	-10.162
都可以	-10.1621
再平衡	-10.1634
病人	-10.1643
参	-10.1645
可以让	-10.1645
刻	-10.1652
是一项	-10.1661
的建议	-10.1663
环境下	-10.1665
征	-10.1666
母	-10.167
▁尤其是	-10.1671
参议员	-10.1677
其他地区	-10.1678
定居点	-10.1678
即便是	-10.1678
伦理	-10.1684
强国	-10.1685
的环境	-10.1687
灵活性	-10.1689
人为	-10.1691
言论自由	-10.1692
所能	-10.1693
讲话	-10.1694
其在	-10.1695
很重要	-10.1702
的传统	-10.1711
误	-10.1732
休	-10.1732
帮	-10.1732
决议	-10.1732
姿态	-10.1733
弄	-10.1733
检查	-10.1733
收集	-10.1734
组成部分	-10.1736
亚洲国家	-10.1738
反复	-10.174
▁这将	-10.1741
而已	-10.1742
特朗普政府	-10.1744
双重	-10.1745
提供资金	-10.175
发布的	-10.1759
▁所有这些	-10.1764
看看	-10.1785
搞	-10.179
裔	-10.179
四分之一	-10.179
胡	-10.179
几周	-10.1792
可持续的	-10.1793
弱势	-10.1794
的条件	-10.1797
之势	-10.1797
迎来	-10.1799
路径	-10.1804
投资和	-10.1805
消	-10.1812
英镑	-10.1815
和日本	-10.1815
特点	-10.1815
最大化	-10.182
行长	-10.1822
根本不	-10.1823
环	-10.1823
走出	-10.1825
是正确的	-10.183
退欧	-10.1833
可怕的	-10.1837
大概	-10.1838
成为一个	-10.1839
链	-10.1842
ig	-10.1842
政策制定者	-10.1845
混	-10.1845
疑	-10.1846
萎靡	-10.1847
奥朗德	-10.1847
玩	-10.1847
未必	-10.1848
偏见	-10.1848
一代	-10.1848
连任	-10.185
做好	-10.185
董事会	-10.1854
的规模	-10.1854
借款人	-10.1861
的办法	-10.1863
更容易	-10.1867
▁而这	-10.1868
为基础的	-10.1871
平均水平	-10.1875
看待	-10.1878
话题	-10.1878
的讨论	-10.1883
与欧盟	-10.1884
会有	-10.189
经济活动	-10.1893
英国退出	-10.1899
草	-10.19
鲁哈尼	-10.1904
崩盘	-10.1904
抱怨	-10.1904
诉讼	-10.1904
非政府组织	-10.1904
就业岗位	-10.1908
简单的	-10.1909
年金融危机	-10.1909
作物	-10.191
欧洲一体化	-10.1912
足球	-10.1915
正常化	-10.1918
多种	-10.1918
总量	-10.192
man	-10.1925
具	-10.1928
显然是	-10.1928
会产生	-10.1929
市场经济	-10.1944
依	-10.1958
戴	-10.1961
一段时间	-10.1961
大规模的	-10.1961
摩	-10.1962
勒庞	-10.1962
多元化	-10.1966
ss	-10.1973
▁O	-10.1975
极右翼	-10.1977
om	-10.1977
对欧盟	-10.1989
形象	-10.199
的目的	-10.2011
红	-10.2013
宽松	-10.2013
生态	-10.2018
务实	-10.2021
软实力	-10.2022
案件	-10.2022
昂贵	-10.2022
私有化	-10.2023
盈利	-10.2024
势头	-10.2024
达成一致	-10.2026
地震	-10.203
和技术	-10.203
统一的	-10.2033
的趋势	-10.2039
配置	-10.205
做法	-10.2051
景	-10.2062
其实是	-10.2064
已经被	-10.2065
卢	-10.2067
满意	-10.2071
ma	-10.2074
和环境	-10.2074
挽救	-10.2079
▁最终	-10.208
建国	-10.2081
脆弱的	-10.2088
40%	-10.2091
ac	-10.2091
前往	-10.2096
来讲	-10.2103
聚	-10.2106
▁我们需要	-10.2107
国有	-10.2113
欧洲大陆	-10.2113
目标是	-10.2114
板	-10.2118
忽略	-10.212
也包括	-10.2121
一道	-10.2125
政治和经济	-10.2127
边缘	-10.2127
细胞	-10.2137
死刑	-10.2139
不如	-10.2139
借口	-10.2139
同情	-10.2141
想法	-10.2144
宏观	-10.2145
零售	-10.2157
企业和	-10.2161
这是一个	-10.2167
不可持续的	-10.2169
动用	-10.2171
不信任	-10.2172
看法	-10.2173
出色	-10.2175
来自于	-10.2175
政治制度	-10.2181
生产率增长	-10.2184
的一半	-10.2192
游戏	-10.2194
礼	-10.2195
埃博拉	-10.2196
活跃	-10.2196
至今	-10.2196
夜	-10.2197
SDG	-10.2197
庇护	-10.2197
1999	-10.2197
继承	-10.2197
年内	-10.2198
私营部门	-10.2199
身为	-10.22
财政刺激	-10.2201
▁其他	-10.2208
无视	-10.2209
西方国家	-10.2209
单一市场	-10.2213
明智	-10.2213
的想法	-10.2215
的平均	-10.2217
部门的	-10.2219
让美国	-10.2226
也门	-10.2226
理事会	-10.2229
免受	-10.2241
的选举	-10.2242
等国家	-10.2242
将让	-10.2249
ation	-10.225
当务之急	-10.2256
格鲁吉亚	-10.2256
肯尼迪	-10.2256
地中海	-10.2257
认知	-10.2257
运营	-10.2257
结合	-10.2257
▁不管是	-10.2258
修复	-10.2259
体育	-10.226
首都	-10.2262
奥运会	-10.2263
首脑	-10.2266
英国退欧	-10.2271
的资产	-10.228
过多	-10.2281
此后	-10.2301
保罗	-10.2303
不那么	-10.2312
沃	-10.2312
疗法	-10.2313
折	-10.2313
味	-10.2315
审慎	-10.2316
撤军	-10.2316
的教训	-10.2319
90%	-10.2322
上了	-10.2324
如果没有	-10.2329
似乎是	-10.2331
年到	-10.2334
能获得	-10.2343
校	-10.2344
ce	-10.2351
的程度	-10.2356
鼓吹	-10.2362
城市化	-10.2368
出来的	-10.2369
迷	-10.2371
章	-10.2374
萨达姆	-10.2376
飙升	-10.2376
在某种程度上	-10.2376
沟通	-10.2376
坚决	-10.2376
不公平	-10.2376
议题	-10.2377
采购	-10.2377
叙事	-10.2377
所有权	-10.2377
依旧	-10.2377
多个	-10.2379
网站	-10.2381
▁欧洲的	-10.2382
多么	-10.2388
连接	-10.239
之比	-10.2394
是通过	-10.2404
剂	-10.2404
听到	-10.2405
有限的	-10.2406
自由派	-10.2408
银行系统	-10.2408
无数	-10.2408
引擎	-10.2411
的根源	-10.2427
意愿	-10.2427
备	-10.2429
屠杀	-10.2431
和安全	-10.2434
账	-10.2435
田	-10.2436
埃塞俄比亚	-10.2437
争夺	-10.2437
干扰	-10.2437
最高法院	-10.2439
测量	-10.244
它将	-10.2442
反思	-10.2442
父母	-10.2446
新一轮	-10.2447
对伊朗	-10.2453
剥夺	-10.2458
核计划	-10.2477
矿	-10.2483
蒂	-10.249
技术和	-10.2493
适用	-10.2494
衣	-10.2496
定价	-10.2496
认同	-10.2496
争端	-10.2498
真主党	-10.2498
华尔街	-10.2498
抵御	-10.2498
缩减	-10.2498
树立	-10.2499
指引	-10.2499
主题	-10.2499
经济改革	-10.25
好像	-10.251
年代末	-10.2514
的信号	-10.2515
是一场	-10.2519
自杀	-10.252
都被	-10.2524
只不过是	-10.2525
的局面	-10.2532
50%	-10.2533
▁但如今	-10.2533
有什么	-10.2535
数百	-10.2543
上海	-10.2544
告诉我们	-10.2544
ter	-10.2546
打造	-10.2547
厂	-10.2549
▁另一方面	-10.2551
它是	-10.2551
测	-10.2553
武力	-10.2557
良	-10.2557
刚	-10.2559
乌	-10.2559
编	-10.2559
阿拉伯之春	-10.2559
围绕	-10.2559
细节	-10.256
医疗保健	-10.256
赞成	-10.2561
这一事实	-10.2561
写道	-10.2563
道理	-10.2563
日元	-10.2566
自由主义	-10.2569
小型	-10.2574
分离	-10.2577
登	-10.258
法规	-10.2582
监管机构	-10.2583
并非如此	-10.2583
双方都	-10.2584
的能源	-10.2594
各大	-10.2597
暴	-10.2598
政治上	-10.2598
该地区的	-10.26
最新的	-10.2613
贷	-10.2614
示	-10.2616
刑	-10.2617
什	-10.2619
野心	-10.262
跳	-10.2621
同性恋	-10.2621
识别	-10.2621
600	-10.2623
欧元区国家	-10.2623
重重	-10.2624
温度	-10.2624
强力	-10.2624
其对	-10.2626
竞争对手	-10.2629
▁美国的	-10.2639
种植	-10.2644
而这些	-10.2646
终	-10.2646
意图	-10.2649
以及对	-10.2653
地理	-10.2658
▁世界	-10.2672
这一目标	-10.2676
更低	-10.2676
霍	-10.2679
高质量	-10.2679
物价	-10.2679
▁在这个	-10.2681
喜	-10.2683
查韦斯	-10.2683
金砖国家	-10.2683
东京	-10.2683
强迫	-10.2684
繁荣的	-10.2684
先例	-10.2685
150	-10.2687
万亿	-10.269
更广泛的	-10.2691
开发银行	-10.2692
和平进程	-10.2697
这么做	-10.27
初	-10.2701
接受了	-10.2717
中获得	-10.2732
灾	-10.2739
置于	-10.274
▁或许	-10.2742
国际合作	-10.2744
木	-10.2745
莫斯科	-10.2746
实体经济	-10.2746
创建	-10.2747
报复	-10.2747
兴起	-10.2747
越来越大	-10.2749
敌人	-10.2749
失败的	-10.275
容	-10.275
60%	-10.2751
第二次	-10.2753
的创新	-10.2761
忧虑	-10.277
和文化	-10.2781
极有可能	-10.2782
经济中	-10.2783
一代人	-10.2799
穿	-10.2803
可行	-10.2805
竭尽全力	-10.2808
父亲	-10.2809
政府必须	-10.281
标志着	-10.2813
英格兰银行	-10.2814
权力的	-10.2816
控制的	-10.2816
的大规模	-10.2819
ill	-10.2825
日本人	-10.2828
的损失	-10.2829
注意力	-10.283
决	-10.283
上个月	-10.2835
序	-10.2837
即使在	-10.2843
art	-10.2857
就不会	-10.2861
有权	-10.2866
购	-10.2867
慈善	-10.2867
画	-10.2869
凡	-10.2872
邓小平	-10.2872
尊严	-10.2872
堪称	-10.2874
既然	-10.2876
但他	-10.2878
争	-10.2879
▁的确	-10.288
反抗	-10.2881
旗	-10.2886
会对	-10.2891
对策	-10.2899
的失败	-10.2899
问题在于	-10.2902
年增长率	-10.2902
否定	-10.2908
的策略	-10.291
远离	-10.2915
有效地	-10.2916
前者	-10.2917
的监管	-10.2919
迈	-10.2919
的比重	-10.2925
伴	-10.2933
置	-10.2934
不仅仅	-10.2934
追随者	-10.2934
歌	-10.2935
理论上	-10.2936
教师	-10.2937
▁至于	-10.2937
间的	-10.2941
地下	-10.2946
份额	-10.2947
的过程	-10.2951
行动方	-10.2952
起到了	-10.2954
特权	-10.2962
脆弱性	-10.2963
块	-10.297
叫	-10.2973
▁巴西	-10.2979
这笔	-10.2979
协会	-10.2979
多大	-10.2981
得出	-10.2991
做得	-10.2991
▁否则	-10.2991
园	-10.2994
剑桥	-10.2996
办公室	-10.3
考察	-10.3
能量	-10.3001
联合国安理会	-10.3003
▁至少	-10.3004
幸福	-10.3005
激发	-10.3011
注重	-10.3013
象	-10.302
总统选举	-10.3022
的自由	-10.3022
的总	-10.3023
不再是	-10.3025
▁如此	-10.3033
民族国家	-10.3034
▁"	-10.3035
等于	-10.3036
纯	-10.3039
飞机	-10.304
来到	-10.305
▁欧元区	-10.3053
低碳	-10.3057
▁无论如何	-10.3061
探	-10.3063
酒	-10.3063
舞台	-10.3064
态势	-10.3064
重振	-10.3065
探索	-10.3065
人力资本	-10.3067
有理由	-10.3071
金钱	-10.3075
co	-10.3076
单方面	-10.3079
前提	-10.308
痛苦的	-10.3084
的决策	-10.3085
另一方面	-10.3087
公共投资	-10.3089
数百万人	-10.309
死于	-10.3093
财	-10.3095
-20	-10.3097
和其他国家	-10.31
暴露	-10.31
明显的	-10.3104
一方	-10.3107
的出口	-10.3108
诸如	-10.3111
im	-10.3118
失望	-10.3126
完	-10.3128
众议院	-10.3129
1998	-10.3129
忘记	-10.3129
罗伯特	-10.313
士兵	-10.313
好消息	-10.3132
起义	-10.3132
▁接着	-10.3133
中国和印度	-10.314
能带来	-10.3141
带着	-10.3143
小国	-10.3144
的利率	-10.3145
尤	-10.3146
只占	-10.3148
严格的	-10.3151
我们在	-10.3156
二战后	-10.3158
收到	-10.3159
我们对	-10.3166
更有可能	-10.3169
30%	-10.3172
本月	-10.3175
到底	-10.3175
恰恰	-10.3183
办	-10.3188
持续的	-10.3189
友	-10.3189
北欧	-10.319
贾	-10.3194
摩洛哥	-10.3194
穆尔西	-10.3194
吧	-10.3194
棘手	-10.3194
修订	-10.3195
白宫	-10.3195
同一	-10.3202
的信任	-10.3203
当年	-10.3204
▁这就	-10.3206
份	-10.321
犯下	-10.3212
强有力的	-10.3214
也要	-10.3214
何时	-10.3214
在亚洲	-10.3217
这一过程	-10.3218
形式的	-10.3219
严峻	-10.322
他们对	-10.3221
久	-10.3222
建设性	-10.3222
法国总统	-10.3224
可信	-10.3225
劳工	-10.3229
可以用	-10.323
世界各地	-10.323
奥巴马总统	-10.3232
都应该	-10.3233
助长了	-10.3238
白人	-10.3243
审	-10.3243
含	-10.3251
组建	-10.3253
巴沙尔	-10.3258
和欧洲	-10.3259
在内	-10.3259
纠纷	-10.3259
能够在	-10.3259
收紧	-10.326
1989	-10.326
1979	-10.326
塞浦路斯	-10.326
邀请	-10.326
厌恶	-10.326
企图	-10.326
▁更糟糕的是	-10.3261
和企业	-10.3261
放任	-10.3264
国家利益	-10.3265
涨	-10.3268
效益	-10.3268
充满了	-10.3269
可持续发展目标	-10.3269
选战	-10.3272
雇员	-10.3278
库尔德人	-10.3284
的结论	-10.3285
制定了	-10.3292
一倍	-10.3293
眼中	-10.3298
6%	-10.3301
过去十年	-10.3306
偏	-10.3307
的健康	-10.3314
确认	-10.3317
影	-10.3322
抨击	-10.3326
倡议	-10.3326
阿尔及利亚	-10.3326
排斥	-10.3327
传递	-10.3327
涌入	-10.3327
错误的	-10.3328
的预期	-10.3328
这些政策	-10.3328
观察家	-10.3333
生产商	-10.3334
以色列人	-10.3347
的数量	-10.3351
议	-10.3352
急需	-10.3354
研究表明	-10.3362
全球金融危机	-10.3368
流失	-10.3368
韩	-10.3376
消息	-10.3378
▁意大利	-10.3379
不断增加	-10.3379
就业机会	-10.3382
股权	-10.3383
se	-10.3388
拖	-10.339
音	-10.3391
弃	-10.3391
逐	-10.3392
贵	-10.3392
煤	-10.3393
码	-10.3393
遵循	-10.3393
毛泽东	-10.3393
停滞不前	-10.3393
印象	-10.3394
旅行	-10.3394
一篇	-10.3398
水资源	-10.3398
的规则	-10.3403
据说	-10.3403
就越	-10.3404
智	-10.3408
tion	-10.3412
所导致的	-10.3413
逃离	-10.3415
委员	-10.3416
我认为	-10.3417
了大量	-10.342
些	-10.3421
仍将	-10.3422
房屋	-10.3423
的标准	-10.3426
▁2015	-10.3428
这表明	-10.3431
德里	-10.3433
智能	-10.3436
的争论	-10.3448
护	-10.3453
有趣	-10.3454
的经济体	-10.3459
耳	-10.346
压迫	-10.3461
一片	-10.3461
遥远	-10.3461
通胀目标	-10.3461
接种	-10.3462
宏大	-10.3467
等等	-10.3469
年代初	-10.3475
享有	-10.3479
ard	-10.3484
独立性	-10.3484
可能在	-10.3486
多年来	-10.3486
积	-10.3488
美好	-10.3494
股价	-10.3496
的最后	-10.3498
和伊朗	-10.35
美国总统特朗普	-10.3508
预计将	-10.3513
婚	-10.3513
这让	-10.3518
斯特	-10.3519
敌	-10.3525
冰	-10.3526
穆	-10.3526
卡扎菲	-10.3528
希特勒	-10.3528
隆	-10.3528
监狱	-10.3528
漏洞	-10.3528
干旱	-10.3528
效仿	-10.3528
激增	-10.3529
敌意	-10.3529
差别	-10.353
征税	-10.353
文件	-10.3531
加州	-10.3536
死亡率	-10.3537
在伊拉克	-10.3538
变得越来越	-10.3546
做了	-10.3547
各地	-10.3549
南方	-10.355
高层	-10.3551
而被	-10.3551
这条	-10.3552
这份	-10.3555
的机构	-10.3557
的时间里	-10.3558
推出	-10.3562
并因此	-10.3563
就有	-10.3564
南海	-10.3567
下一个	-10.3568
▁有人	-10.3569
所做的	-10.3571
今	-10.3573
▁所有这些都	-10.3577
其中的	-10.3579
途	-10.358
▁大部分	-10.358
会让	-10.3588
生效	-10.3589
政变	-10.3593
周期性	-10.3594
°	-10.3596
箱	-10.3596
云	-10.3596
归咎于	-10.3596
扼杀	-10.3596
顽固	-10.3596
亦然	-10.3597
国王	-10.3599
间接	-10.3599
前沿	-10.3601
演变为	-10.3605
大力	-10.3607
▁结果是	-10.3608
愿	-10.361
处在	-10.3612
忽略了	-10.3616
关联	-10.3619
二十年	-10.362
中央政府	-10.3621
增加到	-10.3623
证明了	-10.3626
隔	-10.3626
却在	-10.3628
分布	-10.3629
供应链	-10.3644
相同的	-10.365
为基础	-10.365
进入了	-10.3651
▁2010	-10.3659
老龄化	-10.366
Facebook	-10.3664
俱乐部	-10.3664
模仿	-10.3664
详细	-10.3664
邪恶	-10.3664
婴儿	-10.3664
辩护	-10.3665
伊拉克的	-10.3666
电话	-10.3667
这里	-10.3667
依然是	-10.3667
这一比例	-10.3672
行列	-10.3672
引用	-10.3679
不利于	-10.368
区分	-10.3686
最贫困	-10.3701
我们已经	-10.3705
下台	-10.3706
太过	-10.3709
毁灭	-10.3715
权衡	-10.3718
看作	-10.3723
有益	-10.3726
展示	-10.3728
到达	-10.3731
静	-10.3732
全民	-10.3732
请	-10.3732
树	-10.3732
哥本哈根	-10.3732
耶	-10.3733
专门	-10.3735
相结合	-10.3735
力度	-10.3736
肯定会	-10.3739
自治	-10.3742
这一方针	-10.3751
▁到目前为止	-10.3754
找	-10.3756
低成本	-10.3762
深远	-10.3762
很快就	-10.3764
今后	-10.3764
富国	-10.3765
隔离	-10.377
新增	-10.377
潜在的	-10.3771
留下	-10.378
神经	-10.3785
的思想	-10.3786
有意义的	-10.3792
注定	-10.3794
主导的	-10.3797
联邦政府	-10.3801
侵犯	-10.3801
超出	-10.3801
1991	-10.3803
通讯	-10.3803
促成	-10.3806
严厉	-10.3807
长时间	-10.3808
有力	-10.3808
共同体	-10.3812
在此期间	-10.3814
ck	-10.3816
An	-10.3819
达成协议	-10.3821
的故事	-10.3822
的城市	-10.3826
信念	-10.3827
无法获得	-10.3828
的潜力	-10.3835
否决	-10.3838
的恐惧	-10.3839
加深	-10.3847
伊拉克战争	-10.3852
有很多	-10.3852
新型	-10.3861
当今世界	-10.3863
之外的	-10.3864
充足的	-10.3867
▁就连	-10.3869
▁最重要的是	-10.3871
多样性	-10.3872
熟悉	-10.3873
诞生	-10.3873
无人机	-10.3874
街头	-10.3874
紧张局势	-10.3875
伟大的	-10.3877
的声音	-10.3879
但我们	-10.3887
的土地	-10.3889
在中东	-10.3893
推高	-10.3893
将被	-10.3895
在印度	-10.3898
被认为	-10.3899
在最近的	-10.3907
世界其他国家	-10.3912
深刻的	-10.3914
尤其是在	-10.3916
银行和	-10.3917
佛	-10.3919
▁我们必须	-10.392
一个新的	-10.392
因而	-10.3923
总统候选人	-10.3924
大银行	-10.3925
反对党	-10.3926
银行业	-10.3926
的第一	-10.3929
延	-10.3929
对那些	-10.3934
坦	-10.3939
凭	-10.3943
塑料	-10.3943
逮捕	-10.3943
东南亚	-10.3944
就无法	-10.3944
民调	-10.3946
抵押贷款	-10.3946
将军	-10.3949
会被	-10.3949
论文	-10.3951
残	-10.3955
银行联盟	-10.3957
的民众	-10.3957
提高到	-10.3959
系	-10.3962
行事	-10.3963
最多	-10.3965
二十	-10.398
并为	-10.3982
东部	-10.3984
大有	-10.3989
贸易伙伴	-10.3994
化学	-10.3995
范	-10.4007
但如果	-10.4007
在没有	-10.4009
▁但他们	-10.4014
餐	-10.4014
布莱尔	-10.4014
愚蠢	-10.4014
碎	-10.4014
辛格	-10.4014
设置	-10.4014
最高的	-10.4014
▁The	-10.4015
恰恰相反	-10.4015
证实	-10.4016
预言	-10.4016
接下来	-10.4016
本土	-10.4017
总体而言	-10.4021
种子	-10.4023
里根	-10.4024
手机	-10.4024
一个关键	-10.4026
的个人	-10.4027
所得税	-10.4029
资本流入	-10.4043
作为一个	-10.4045
自信	-10.4048
和发展	-10.4048
不顾	-10.4054
▁在这一	-10.4054
敌对	-10.4059
在非洲	-10.406
基地	-10.406
内部的	-10.4066
的证据	-10.4068
就要	-10.4068
聪明	-10.408
签署了	-10.408
宁	-10.4085
二氧化碳排放	-10.4085
茨	-10.4085
AI	-10.4086
浪潮	-10.4086
意志	-10.4086
是否能	-10.4087
谈论	-10.4088
充当	-10.4088
渐进	-10.4088
流程	-10.4088
解读	-10.4089
星期	-10.4089
赶	-10.4096
的协议	-10.4101
演化	-10.4102
控制权	-10.4105
阿拉伯人	-10.4111
该国的	-10.4114
和英国	-10.4114
会谈	-10.4118
▁联合国	-10.4118
来解决	-10.412
青	-10.4121
金融服务	-10.4123
9%	-10.4126
的道德	-10.4127
的因素	-10.4129
的公共	-10.4129
丹	-10.4135
年开始	-10.4136
角	-10.414
▁对此	-10.4143
作者	-10.4146
随之	-10.4147
充分就业	-10.415
借款	-10.415
狂	-10.415
远比	-10.4154
奖励	-10.4157
卡塔尔	-10.4157
魅力	-10.4157
成绩	-10.4158
勇气	-10.4158
附近	-10.4159
雇用	-10.4159
减弱	-10.4159
全体	-10.4159
农场	-10.4161
很大的	-10.4161
▁第二	-10.4163
根本没有	-10.4165
以往	-10.4166
边缘化	-10.4167
趋同	-10.4169
充分的	-10.4172
绝不	-10.4174
急需的	-10.4174
大多数人	-10.4176
法国人	-10.4177
采	-10.4177
海军	-10.4182
un	-10.419
是时候	-10.4194
的激励	-10.4201
学会	-10.4207
必将	-10.4211
建立起	-10.4212
遭	-10.4214
公众对	-10.4219
峰会上	-10.4221
往往会	-10.4222
最有	-10.4226
兄弟	-10.423
辞职	-10.4231
储量	-10.4231
合适的	-10.4233
容克	-10.4233
共和党人	-10.4238
可以为	-10.4239
的合法性	-10.4241
灾难性的	-10.4241
迫切需要	-10.4242
▁on	-10.4242
命运	-10.4254
数学	-10.4254
再度	-10.4258
以外	-10.4258
45	-10.426
技术进步	-10.4265
根源	-10.4271
灾难性	-10.4282
鉴于	-10.4284
导	-10.4284
对付	-10.4288
父	-10.429
过时	-10.429
不出	-10.4294
有点	-10.4294
社会福利	-10.4296
戈	-10.4299
袭	-10.4301
康	-10.4302
宣扬	-10.4303
攀升	-10.4303
含义	-10.4303
缺失	-10.4303
电网	-10.4305
ba	-10.4306
正统	-10.4306
管道	-10.4306
通往	-10.4306
止	-10.431
1970	-10.4311
份子	-10.4313
私人投资	-10.4315
决不能	-10.4317
跨国公司	-10.4318
恢复力	-10.432
的进展	-10.4324
在阿富汗	-10.4326
Y	-10.4327
给出	-10.4334
的方式来	-10.4336
选择了	-10.4336
▁他的	-10.4337
将面临	-10.4354
让它们	-10.4354
国际贸易	-10.4357
的产品	-10.4358
的工具	-10.4362
一方面	-10.4366
美军	-10.4368
围	-10.4372
艺术	-10.4372
他对	-10.4375
马克	-10.4375
斯大林	-10.4376
冻结	-10.4376
加入欧盟	-10.4377
转换	-10.438
替代方案	-10.4383
三倍	-10.4385
定期	-10.4385
激	-10.4386
将使	-10.4387
也有可能	-10.4392
优秀	-10.4394
程度上	-10.4399
的年轻人	-10.4402
自主	-10.4406
不过是	-10.4406
政府债务	-10.4407
有利的	-10.4417
债务危机	-10.4419
很低	-10.4422
所有国家	-10.4425
金融业	-10.4426
大家	-10.4428
核能	-10.4432
中美	-10.4436
26	-10.4437
压倒	-10.4439
管理者	-10.4442
上限	-10.4443
▁即使是	-10.4443
石油公司	-10.4443
转而	-10.4445
▁即使在	-10.4446
威慑	-10.4448
其自身	-10.4448
娜	-10.4449
桑	-10.445
Z	-10.445
卢旺达	-10.445
奈	-10.445
抢	-10.445
着眼于	-10.445
洪水	-10.4452
长期利率	-10.4453
的儿童	-10.4458
无关	-10.4463
泰	-10.4468
故	-10.447
意义上	-10.4473
产能	-10.4473
70%	-10.4474
和土耳其	-10.4475
大宗商品	-10.4483
商业银行	-10.4494
▁但尽管	-10.4506
催生	-10.4509
的依赖	-10.4514
财政和	-10.4518
安理会	-10.4521
凯	-10.4522
逆	-10.4522
播	-10.4523
逊	-10.4524
纪念	-10.4525
涵盖	-10.4525
国内生产总值	-10.4525
穆沙拉夫	-10.4525
稀缺	-10.4525
政坛	-10.4525
营养不良	-10.4525
高等教育	-10.4526
触发	-10.4526
击败	-10.4526
地说	-10.4527
开采	-10.4528
阻碍了	-10.4533
的持续	-10.4533
杀害	-10.4536
存在于	-10.4538
严肃	-10.4544
债务负担	-10.4545
提前	-10.455
从而让	-10.4552
对经济	-10.4553
开启	-10.4557
军事力量	-10.4565
的另一个	-10.4565
简	-10.4566
研究者	-10.4572
之间的关系	-10.4572
著名的	-10.4577
第四	-10.458
税收收入	-10.4581
紧缩政策	-10.4586
的目标是	-10.4587
ia	-10.4594
就业和	-10.4594
资本流	-10.4595
劣	-10.4599
杂	-10.4599
讽刺	-10.46
萎缩	-10.46
架构	-10.46
住宅	-10.46
稳步	-10.4601
财政部	-10.4609
人道	-10.4613
上升到	-10.4616
每个人都	-10.4623
阿尔	-10.4625
国债	-10.4626
贸易协定	-10.4631
两党	-10.4632
医	-10.4635
政府应该	-10.4635
此举	-10.4639
市长	-10.464
低收入	-10.4641
▁像	-10.4648
执政的	-10.4653
高出	-10.4655
采取措施	-10.4657
要让	-10.4661
注意到	-10.4666
冒	-10.4668
只需要	-10.4671
架	-10.4675
旋	-10.4676
TPP	-10.4676
▁相比之下	-10.4676
谋杀	-10.4677
QE	-10.4677
教皇	-10.4677
生物多样性	-10.4677
重申	-10.4677
赢家	-10.468
ent	-10.4681
来源于	-10.4683
接收	-10.4684
高风险	-10.4685
五个	-10.4686
会使	-10.4687
La	-10.4691
医疗服务	-10.47
就已经	-10.47
准备好	-10.4705
题	-10.4705
助长	-10.4706
殖民	-10.4706
有一些	-10.4708
id	-10.4714
署	-10.4716
▁西方	-10.4718
本来	-10.4722
一座	-10.4722
新兴市场国家	-10.4732
期限	-10.4732
侵略	-10.4733
增长放缓	-10.4738
与俄罗斯	-10.4739
这些国家的	-10.474
智慧	-10.4748
遇到	-10.475
令人信服	-10.4752
警惕	-10.4752
1992	-10.4752
穆斯林兄弟会	-10.4752
轰炸	-10.4752
石油和天然气	-10.4752
相应	-10.4753
英雄	-10.4753
的重大	-10.4753
便宜	-10.4754
混合	-10.4754
做好准备	-10.4755
局限于	-10.4758
案例	-10.476
这场危机	-10.4761
实质性	-10.4767
比赛	-10.477
体现了	-10.4773
贸易赤字	-10.4784
政治领导人	-10.4791
英国首相	-10.4793
统	-10.48
累积	-10.4806
汇	-10.4807
追	-10.4808
光是	-10.4813
将来	-10.4813
的生命	-10.4814
赢	-10.482
必然会	-10.4826
灵	-10.4826
的选民	-10.4827
委	-10.4828
雨	-10.4829
子孙后代	-10.4829
耶路撒冷	-10.4829
苹果	-10.4829
一带一路	-10.4829
制衡	-10.4829
注册	-10.4829
支柱	-10.4829
既得利益	-10.4829
震惊	-10.4829
中国人民银行	-10.483
空气污染	-10.483
碳排放	-10.4833
重复	-10.4834
当时的	-10.4834
现行	-10.4835
本应	-10.4837
名单	-10.4838
在整个	-10.4841
以使	-10.4843
债务重组	-10.4845
货币贬值	-10.485
治下	-10.4851
初级	-10.4851
一支	-10.4852
大幅度	-10.4855
政府支出	-10.4856
ell	-10.4856
这也	-10.4861
在那里	-10.4865
很可能会	-10.4869
会出现	-10.4872
却没有	-10.4874
吨	-10.4876
等国	-10.4877
改造	-10.488
海岸	-10.4882
曾在	-10.4884
商人	-10.4886
行使	-10.4891
不想	-10.4891
无可	-10.4892
▁但它	-10.4893
遗	-10.4894
迫切	-10.4894
极度	-10.4903
能为	-10.4905
接着	-10.4905
苏丹	-10.4906
充斥着	-10.4907
伯南克	-10.4907
杀戮	-10.4907
杂志	-10.4907
待遇	-10.4907
轻松	-10.4907
创立	-10.4908
朝鲜半岛	-10.4908
西藏	-10.4909
和以色列	-10.4913
前途	-10.4915
及时	-10.4915
感受到	-10.4916
也存在	-10.4917
储蓄率	-10.4921
从前	-10.4927
比重	-10.4928
温和的	-10.493
为自己	-10.4931
比以往	-10.4932
名为	-10.4933
该组织	-10.4938
就算	-10.4944
有意	-10.4951
与此	-10.4951
700	-10.4954
任何一个	-10.4962
第五	-10.4963
的稳定	-10.4964
困	-10.4964
的优势	-10.4967
丰富	-10.4969
北美	-10.497
隐	-10.4971
本质	-10.4974
非常规	-10.4975
的复苏	-10.4978
野	-10.4981
季	-10.4982
怒	-10.4983
2.5	-10.4984
撒	-10.4985
虫	-10.4985
灯	-10.4985
别无选择	-10.4985
穆罕默德	-10.4985
楼	-10.4985
▁坎布里奇	-10.4985
钢铁	-10.4985
救援	-10.4985
索马里	-10.4985
职责	-10.4986
指望	-10.4986
莫过于	-10.4988
位置	-10.4989
批	-10.4991
摆	-10.4994
的批评	-10.4996
源于	-10.5005
有所下降	-10.5008
的认识	-10.5009
高科技	-10.5011
历史性	-10.5016
提醒	-10.5016
的贷款	-10.5018
市场上	-10.5023
大胆	-10.5023
温室气体	-10.5026
的斗争	-10.5029
变为	-10.5031
三十年	-10.5042
可能成为	-10.505
还包括	-10.505
响	-10.5052
的内容	-10.5055
我们知道	-10.5056
的预测	-10.506
丁	-10.5062
粗	-10.5063
达沃斯	-10.5064
汲取	-10.5064
虐待	-10.5064
折磨	-10.5064
城镇	-10.5064
秘鲁	-10.5064
异常	-10.5065
1945	-10.5066
艾滋病毒	-10.5066
能够获得	-10.5066
远低于	-10.5068
有足够的	-10.5071
叛乱	-10.5072
花了	-10.5073
卫	-10.5073
其中一个	-10.5074
在某些	-10.5076
方法是	-10.5076
▁第二个	-10.5078
进一步恶化	-10.5079
一批	-10.508
高效的	-10.5084
很快就会	-10.5093
世界各地的	-10.5107
象征	-10.5113
条件下	-10.5113
St	-10.5115
具体的	-10.5117
榜样	-10.512
并最终	-10.5121
大学的	-10.5126
果真	-10.5126
让他	-10.5133
金融和	-10.5134
皇	-10.5136
降至	-10.5141
纸	-10.5142
呼	-10.5142
亦	-10.5142
凶	-10.5143
挂钩	-10.5143
National	-10.5143
忠诚	-10.5143
全民公决	-10.5143
大肆	-10.5144
无辜	-10.5144
1,000	-10.5147
家园	-10.5148
祖国	-10.5153
的贡献	-10.5153
双边关系	-10.5154
▁当前	-10.5154
财政紧缩	-10.5155
上周	-10.5155
主持	-10.5158
路线	-10.5163
的方向	-10.5169
危机后	-10.5171
全球市场	-10.5172
安全和	-10.5179
os	-10.5179
所需	-10.518
被用于	-10.5185
北朝鲜	-10.5189
十九世纪	-10.519
体验	-10.5191
就连	-10.5191
▁2014	-10.5194
库尔德	-10.5194
例子中	-10.5195
更新	-10.5201
岁的	-10.5203
稳	-10.5208
▁Le	-10.5209
民族主义者	-10.5219
▁更重要的是	-10.5221
▁但中国	-10.5221
密集	-10.5223
贴	-10.5223
汉	-10.5223
柬埔寨	-10.5223
奶	-10.5223
日内瓦	-10.5223
太大	-10.5223
罗斯福	-10.5223
掌控	-10.5223
幻想	-10.5225
或许是	-10.5226
空气	-10.5227
他们将	-10.523
对这些	-10.5231
这使得	-10.5237
人死亡	-10.5237
会给	-10.5241
弹性	-10.5245
永久性	-10.5246
最低工资	-10.5247
不可避免地	-10.5248
结束后	-10.5251
▁有些	-10.5252
环保	-10.5253
来实现	-10.5255
迹象	-10.5257
不得	-10.5259
别人	-10.5264
冲	-10.5264
激进的	-10.5275
会造成	-10.5279
比尔	-10.528
辞	-10.5295
所取得的	-10.5296
的原则	-10.5299
▁关于	-10.5299
首席	-10.5302
谢	-10.5302
侧	-10.5302
希拉里	-10.5304
侵蚀	-10.5304
博弈	-10.5304
拖延	-10.5304
症状	-10.5304
修建	-10.5305
▁好消息是	-10.5306
原油	-10.5306
的必要性	-10.5306
很小	-10.5306
历史学家	-10.5311
大幅下降	-10.5312
该协议	-10.5312
用途	-10.5313
应该在	-10.5316
美联储主席	-10.5316
▁埃及	-10.5317
ct	-10.5319
继	-10.532
背	-10.5321
横	-10.5321
各成员国	-10.5323
中小企业	-10.5324
的文化	-10.5324
不良	-10.5326
警告说	-10.533
的敌人	-10.533
或其他	-10.5332
一段	-10.5336
中亚	-10.5339
结束了	-10.5341
受益者	-10.5341
事实是	-10.5342
什么样的	-10.5343
研究人员	-10.5343
观察者	-10.5345
谈判中	-10.5349
也已经	-10.5351
贸易战	-10.5352
解除	-10.5356
印度人	-10.5357
列为	-10.5363
▁土耳其	-10.5364
的孩子	-10.5365
和创新	-10.5365
大选中	-10.5366
提名	-10.5376
收入分配	-10.5376
生产者	-10.5378
发表了	-10.5382
辩	-10.5382
一部	-10.5383
大西洋	-10.5384
抽	-10.5385
法塔赫	-10.5385
豁免	-10.5385
宪章	-10.5385
无论是	-10.5387
目光	-10.5387
自豪	-10.5389
ay	-10.5389
之内	-10.5391
son	-10.5392
撤出	-10.5392
致死	-10.5393
选出	-10.5394
一百	-10.5395
随时	-10.5397
口号	-10.54
它还	-10.541
其经济	-10.5415
虚假	-10.5425
工作者	-10.5429
般	-10.5433
说法	-10.544
我们所	-10.5441
在哪里	-10.5447
日常	-10.5447
ha	-10.5449
习	-10.546
强化了	-10.5461
宽	-10.5461
稍	-10.5466
踏	-10.5467
贝卢斯科尼	-10.5467
缓冲	-10.5467
奇迹	-10.5467
收购	-10.5468
显现	-10.5468
普京的	-10.5472
经济繁荣	-10.548
▁伯克利	-10.548
约为	-10.5483
非洲大陆	-10.5484
根除	-10.5486
创造出	-10.5488
商品价格	-10.5488
的现象	-10.549
面积	-10.5496
他将	-10.5496
军事干预	-10.5499
对全球	-10.5502
▁V	-10.5505
公共服务	-10.551
的直接	-10.5513
ner	-10.5518
大批	-10.5518
发展援助	-10.5519
的理念	-10.5521
较小	-10.5522
其中一些	-10.5523
所提供的	-10.553
▁H	-10.5531
外交官	-10.5532
不止	-10.5532
滑	-10.5533
代表了	-10.5533
极端贫困	-10.5537
免	-10.5538
这一结果	-10.5541
的转型	-10.5542
脏	-10.5547
龙	-10.5549
扫	-10.5549
2,000	-10.5549
重启	-10.5551
▁按照	-10.5552
哈佛大学	-10.5553
主动	-10.5558
身处	-10.5558
就应该	-10.5568
较少	-10.5578
贸易和	-10.5588
基因组	-10.5591
的重点	-10.5603
多年的	-10.5607
事关	-10.5609
于是	-10.5613
最重要	-10.5614
漫长	-10.562
和教育	-10.5621
驱逐	-10.5624
▁2012	-10.5625
声音	-10.5626
伴随	-10.5627
低效	-10.5629
累	-10.5629
ity	-10.5631
港	-10.5631
亮	-10.5633
咨询	-10.5633
Global	-10.5633
格林斯潘	-10.5633
恶劣	-10.5634
周围	-10.5634
举办	-10.5634
Paul	-10.5634
的手段	-10.5634
超级大国	-10.5635
换取	-10.5635
着手	-10.5636
红利	-10.5637
的一大	-10.5638
与欧洲	-10.5638
跨越	-10.564
黑暗	-10.5642
不起	-10.5645
国内政治	-10.5645
公共支出	-10.5646
都不会	-10.5649
角度看	-10.5652
哪怕	-10.5653
同盟	-10.5657
较低的	-10.5658
不久	-10.5659
收回	-10.5667
我们现在	-10.5674
面向	-10.5677
他们会	-10.5679
收益率	-10.5684
io	-10.5687
65	-10.5689
分化	-10.5696
海地	-10.5699
是一位	-10.5702
▁新德里	-10.5709
现有的	-10.5709
警	-10.5711
哲学	-10.5714
夏	-10.5714
牙	-10.5715
盖	-10.5716
俗	-10.5716
疲	-10.5716
辈	-10.5717
拔	-10.5717
半个世纪	-10.5717
泽	-10.5717
海啸	-10.5717
评价	-10.5718
倒台	-10.5719
阻力	-10.5719
近乎	-10.572
精确	-10.5722
的理论	-10.5723
在叙利亚	-10.5724
准则	-10.5726
ak	-10.5726
800	-10.5733
降到	-10.5737
自由流动	-10.5739
句	-10.5739
丰富的	-10.5741
加入了	-10.5743
事物	-10.5745
任何人	-10.5746
强劲的	-10.5752
短暂	-10.5755
当下	-10.576
甚至可能	-10.5761
现在已经	-10.5761
全球增长	-10.5768
难民危机	-10.5769
因为他	-10.5769
起着	-10.5776
自由和	-10.5777
稳定性	-10.5779
甘	-10.5786
颇	-10.5793
撒哈拉以南非洲	-10.5795
松	-10.5799
通信	-10.5801
选举结果	-10.5801
众所周知	-10.5802
1994	-10.5802
肥胖	-10.5802
CEO	-10.5802
罗马尼亚	-10.5802
经理	-10.5805
的数字	-10.5807
加纳	-10.5814
推动了	-10.5816
在英国	-10.5817
IC	-10.5819
很好的	-10.5819
不像	-10.582
的时刻	-10.582
数十亿美元	-10.5821
根本无法	-10.5822
已不再	-10.5825
的部分	-10.5826
颇为	-10.5826
毕竟	-10.5829
如同	-10.583
ist	-10.583
放大	-10.5834
一个人	-10.5835
国际秩序	-10.5842
较为	-10.5843
下一次	-10.5845
政府官员	-10.5852
当代	-10.5853
产权	-10.5854
乎	-10.586
to	-10.5871
资本流动	-10.5872
祖	-10.5873
最具	-10.5878
社会民主党	-10.5879
激烈的	-10.5879
忙	-10.588
有待	-10.588
od	-10.5881
替	-10.5883
幸运	-10.5884
放弃了	-10.5884
哪个	-10.5884
志	-10.5885
强烈的	-10.5885
克里米亚	-10.5887
5,000	-10.5887
Europe	-10.5887
尖锐	-10.5887
庆祝	-10.5887
结盟	-10.5887
吸取	-10.5888
一面	-10.589
南亚	-10.5891
副作用	-10.5893
公路	-10.5894
ow	-10.5897
体现在	-10.5901
层次	-10.5904
打开	-10.5906
暴行	-10.5906
概率	-10.591
对比	-10.5915
不断扩大	-10.5915
过高	-10.5916
办法是	-10.5917
将给	-10.5918
▁经济学家	-10.5922
掩盖	-10.5926
he	-10.593
已是	-10.5931
欧元区成员国	-10.5931
所采取的	-10.5936
的外交政策	-10.5939
重要的是	-10.5941
提交	-10.5944
竞争性	-10.5945
币	-10.5947
看到了	-10.5947
民选	-10.5959
按揭	-10.5968
演	-10.5969
沮丧	-10.5971
料	-10.5971
▁.	-10.5971
衰	-10.5971
坎	-10.5973
欺骗	-10.5973
燃烧	-10.5974
判决	-10.5974
芬兰	-10.5974
代替	-10.5974
社会和经济	-10.5976
买入	-10.5978
儿子	-10.5978
节约	-10.5979
▁如果你	-10.598
天然	-10.5982
论点	-10.5984
拒绝了	-10.5986
制药	-10.5987
恰恰是	-10.5987
工程师	-10.5988
▁但他	-10.5989
耗	-10.599
并不一定	-10.5993
所有者	-10.5994
可能造成	-10.5995
公共政策	-10.6003
这一数字	-10.6004
农村地区	-10.6004
▁为什么	-10.6013
顺	-10.6017
推向	-10.6018
教徒	-10.6018
策	-10.602
捕	-10.6022
的转变	-10.603
外汇	-10.6035
与之	-10.6037
免于	-10.6045
扬	-10.6046
对未来	-10.6054
大部分人	-10.6054
更低的	-10.6054
国际机构	-10.6059
艰巨	-10.6059
成分	-10.6059
国务卿	-10.606
氏	-10.606
方济各	-10.606
炸弹	-10.606
衍生品	-10.6061
寡头	-10.6061
性别平等	-10.6063
更长	-10.6066
一词	-10.6066
两倍	-10.6068
充足	-10.6068
储存	-10.6082
的感觉	-10.6086
世纪初	-10.6088
欧洲经济	-10.6092
多久	-10.6094
政治联盟	-10.6096
达成了	-10.6099
排放量	-10.6099
ut	-10.6102
高速	-10.6106
da	-10.6111
暗	-10.6118
常见	-10.612
如果我们	-10.6122
泛	-10.6126
结果是	-10.6127
提供了一个	-10.6132
启动了	-10.6134
也就	-10.614
扣	-10.6141
曲	-10.6146
瘫痪	-10.6146
筹	-10.6146
誓	-10.6147
赌	-10.6147
押	-10.6147
桥	-10.6148
过剩	-10.6148
1995	-10.6148
德国总理默克尔	-10.6148
秋	-10.6148
International	-10.6148
声誉	-10.6148
诚实	-10.6149
施压	-10.6149
实验室	-10.6149
出席	-10.6152
发射	-10.6153
世界其他地区	-10.6155
显示出	-10.616
这两种	-10.616
也开始	-10.6161
选区	-10.6163
外交部长	-10.6164
深层次	-10.6169
的地缘政治	-10.6172
发挥作用	-10.6173
作家	-10.6176
ni	-10.6177
的问题上	-10.6178
还应该	-10.618
必	-10.6181
高涨	-10.6182
极化	-10.6183
高收入	-10.6188
成立了	-10.6191
想起	-10.6193
国界	-10.6194
文化和	-10.6199
有多	-10.6202
完全是	-10.6203
陆	-10.6206
48	-10.6209
中止	-10.6209
标志	-10.6214
▁IMF	-10.6217
贫	-10.6219
中间派	-10.6219
▁直到	-10.6221
经济利益	-10.6221
原因在于	-10.6222
召开的	-10.6224
永远不会	-10.6225
交给	-10.6228
责	-10.6231
朗	-10.6232
菌	-10.6235
这方面的	-10.6236
罕见	-10.6237
凭借	-10.6237
隐私	-10.6237
协作	-10.6237
凝聚力	-10.6238
港口	-10.6238
失误	-10.6238
采纳	-10.6238
临近	-10.6239
令人失望	-10.624
塑造	-10.6244
拨款	-10.6244
和监管	-10.6245
此时	-10.6245
这就是	-10.6246
以上的	-10.6247
执政联盟	-10.625
全力	-10.6254
联合政府	-10.6255
朝着	-10.6256
大脑	-10.626
可以说	-10.6261
是非常	-10.6262
创造力	-10.6263
的受害者	-10.6264
发表的	-10.6267
ment	-10.6268
源自	-10.6269
多次	-10.6271
中最	-10.6281
类型的	-10.6282
该党	-10.6284
对方	-10.6286
年时	-10.629
忽视了	-10.6299
的领导下	-10.6302
遗传	-10.6302
日本银行	-10.631
那里的	-10.6313
的时期	-10.6319
凯恩斯主义	-10.6321
肯	-10.6321
▁自从	-10.6323
丽	-10.6323
透	-10.6324
谷	-10.6324
恨	-10.6325
讨价还价	-10.6326
偷	-10.6326
挑衅	-10.6326
掠夺	-10.6326
目睹	-10.6326
赞助	-10.6326
卷入	-10.6327
忍受	-10.6327
生育率	-10.6328
广场	-10.6328
僵化	-10.6329
占据了	-10.6329
国际金融	-10.633
在短期内	-10.633
后续	-10.6332
呈现	-10.6333
半数	-10.6335
公共品	-10.6336
的人来说	-10.6341
诸	-10.6341
行动起来	-10.635
几天	-10.6352
花在	-10.6355
欧洲和美国	-10.6358
世界领导人	-10.6359
创新和	-10.6359
西部	-10.6359
较大	-10.6362
ov	-10.6365
英国政府	-10.6368
▁另外	-10.6378
▁in	-10.638
也被	-10.638
▁除	-10.638
佳	-10.6381
通常是	-10.6383
也许会	-10.6385
生活方式	-10.6387
无从	-10.6388
▁2013	-10.6392
同等	-10.6394
也让	-10.6396
增长了	-10.64
评	-10.64
的身份	-10.6405
天气	-10.6409
武	-10.6409
ex	-10.641
的总体	-10.6412
社会党	-10.6412
裂	-10.6412
欲	-10.6414
辛	-10.6414
瑞	-10.6415
归因于	-10.6416
曝光	-10.6416
解释了	-10.6416
始终	-10.6416
号召	-10.6416
无能	-10.6416
纪录	-10.6416
阻止了	-10.6417
就是明证	-10.6417
基准	-10.6418
和谐	-10.6418
但仍	-10.642
禁令	-10.6421
缴纳	-10.6421
▁Pro	-10.6421
▁In	-10.6422
精力	-10.6422
风格	-10.6426
很大一部分	-10.6428
胜出	-10.6431
可怕	-10.6432
可用	-10.6433
也更	-10.6434
更强的	-10.6436
篇	-10.6437
扩大了	-10.6441
种族主义	-10.6445
ik	-10.6448
ah	-10.645
36	-10.6452
检	-10.6452
过分	-10.6452
又一次	-10.6453
vi	-10.6453
示威者	-10.6457
艰难的	-10.6462
提及	-10.6469
他们自己	-10.6475
第二大	-10.6476
的问题是	-10.6478
周年	-10.6479
就像是	-10.6481
我们不能	-10.6482
许可	-10.6484
该公司	-10.6486
2025	-10.6486
斗	-10.6487
实质	-10.6487
ie	-10.6493
被广泛	-10.65
是不可能的	-10.65
了这一点	-10.6501
阻	-10.6503
载	-10.6505
馆	-10.6507
John	-10.6507
贪婪	-10.6507
绑架	-10.6507
巴尔干	-10.6507
经常项目盈余	-10.6507
耗费	-10.6508
总结	-10.651
财政状况	-10.6511
携带	-10.6515
的资产负债表	-10.6516
收入不平等	-10.6517
新鲜	-10.6518
多边主义	-10.6519
si	-10.652
英里	-10.6522
意思	-10.6525
▁随后	-10.6533
而不仅仅是	-10.6544
政治领袖	-10.6545
堂	-10.6546
一定的	-10.6547
创造性	-10.6549
倒退	-10.6551
欧盟领导人	-10.6552
▁然后	-10.6556
世界上最	-10.6556
国民收入	-10.6557
暂停	-10.6557
马里	-10.6561
一战	-10.6562
筹集	-10.6568
带来巨大的	-10.6572
1000	-10.6576
▁在欧洲	-10.6576
吸	-10.6593
努	-10.6594
方便	-10.6597
堡	-10.6598
烧	-10.6598
引人注目	-10.6599
戒	-10.6599
千年发展目标	-10.6599
狗	-10.6599
比利时	-10.6599
剩余	-10.6599
封闭	-10.6599
耗尽	-10.66
元素	-10.66
极限	-10.6601
主管	-10.6602
帝国主义	-10.6603
在全世界	-10.6604
清洁能源	-10.6607
增税	-10.6608
和就业	-10.6608
因素是	-10.6609
没什么	-10.661
而且还	-10.6612
是否能够	-10.6613
ap	-10.6616
关键性	-10.6618
其自身的	-10.6619
部落	-10.6623
不具备	-10.6624
国家政府	-10.6625
稳定和	-10.6628
或许会	-10.6628
ab	-10.6631
公平的	-10.6632
在法国	-10.664
有序	-10.664
负责任的	-10.6647
的形象	-10.6647
如果你	-10.6648
从根本上	-10.6662
的注意力	-10.6666
出口国	-10.6668
▁Mo	-10.6671
▁这项	-10.6671
而又	-10.6671
马拉	-10.6674
提高利率	-10.6674
经济问题	-10.6678
这一切	-10.668
顾	-10.6681
的所作所为	-10.6681
都认为	-10.6682
的生存	-10.6684
▁世界银行	-10.6686
抱有	-10.669
这是因为	-10.669
雪	-10.6691
桑德斯	-10.6691
隐藏	-10.6692
协商	-10.6692
赶超	-10.6692
公债	-10.6693
最近在	-10.6693
体面	-10.6693
哲学家	-10.6695
在最近	-10.6696
场合	-10.6696
指定	-10.6697
相应的	-10.6707
压倒性	-10.6708
完成了	-10.6709
ve	-10.671
卡尔	-10.672
迫害	-10.672
它也	-10.672
起点	-10.6723
大于	-10.6727
当作	-10.6733
的迹象	-10.6734
的不确定性	-10.6736
的不满	-10.6737
固	-10.6737
年轻的	-10.6738
强硬派	-10.6742
不错	-10.6746
注	-10.675
政治意愿	-10.6752
获益	-10.6752
植物	-10.6752
承	-10.6753
配额	-10.6753
呈	-10.6756
这是个	-10.6758
遇	-10.6765
然而	-10.6765
缩	-10.6767
轻易	-10.677
令人瞩目的	-10.6772
的具体	-10.6774
讨	-10.6777
起了	-10.6777
损	-10.6779
典型	-10.6781
赚	-10.6781
境内	-10.6782
租	-10.6783
巴拉克	-10.6783
的分析	-10.6784
乳	-10.6785
鸡	-10.6785
兆	-10.6785
国民阵线	-10.6785
步伐	-10.6786
修正案	-10.6786
切断	-10.6787
海上	-10.6788
刑事	-10.6789
不可避免	-10.679
直面	-10.679
旅游	-10.6804
无知	-10.6804
ate	-10.6804
基本面	-10.6805
日益增加	-10.6808
世界秩序	-10.6808
深深	-10.6812
把自己	-10.6815
往往是	-10.6816
占全球	-10.6817
我们就	-10.6817
ph	-10.6818
是不够的	-10.6823
的真实	-10.6829
欧洲理事会	-10.6829
对以色列	-10.6831
抛	-10.6832
克斯	-10.6841
年全球金融危机	-10.685
本质上	-10.6852
me	-10.6854
限制了	-10.6856
清楚地	-10.6857
制造商	-10.6861
将于	-10.6864
低下	-10.6865
段	-10.6869
在今天	-10.687
极低	-10.6872
非常重要	-10.6873
耐	-10.6875
合适	-10.6877
误解	-10.6877
彩	-10.6877
戏	-10.6878
内贾德	-10.6879
埋	-10.6879
旁	-10.6879
骨	-10.6879
尼克松	-10.6879
世界经济论坛	-10.6881
耐心	-10.6881
放眼	-10.6883
设法	-10.6884
说到底	-10.6889
能源和	-10.6892
人民党	-10.6895
▁就在	-10.6895
增进	-10.6895
算法	-10.6896
贷款人	-10.6897
维尔	-10.69
最有可能	-10.6904
占了	-10.6907
很显然	-10.6907
没有一个	-10.6909
关键作用	-10.6909
之道	-10.691
受影响	-10.6914
清算	-10.6922
极权	-10.6925
同时又	-10.6926
欧洲银行	-10.6926
正面	-10.6932
执法	-10.6934
的痛苦	-10.6936
它可以	-10.6937
的份额	-10.6945
店	-10.695
让中国	-10.6956
传统上	-10.6958
著	-10.6959
个成员国	-10.6965
觉	-10.6965
纪	-10.6972
昂贵的	-10.6972
无效	-10.6972
可见	-10.6972
脸	-10.6973
似乎已经	-10.6973
雇佣	-10.6974
捐赠	-10.6974
▁Development	-10.6974
克鲁格曼	-10.6974
Robert	-10.6974
微观	-10.6976
年里	-10.6977
▁Ma	-10.6978
减缓	-10.6979
打算	-10.6982
取得进展	-10.6982
德拉	-10.6983
的回报	-10.6985
已开始	-10.6985
领导人必须	-10.6987
就有可能	-10.6989
可信的	-10.699
▁今天的	-10.6991
的意义	-10.6994
供应商	-10.6994
ya	-10.6995
▁这场	-10.6997
执	-10.7006
战争中	-10.7007
涉及到	-10.7008
还不到	-10.7011
▁也就是	-10.7012
会成为	-10.7013
有过	-10.7022
借此	-10.7026
病例	-10.7028
演讲中	-10.7028
经济状况	-10.7033
生产性	-10.7034
随之而来的	-10.7036
著作	-10.7038
的决心	-10.704
数字技术	-10.7041
com	-10.7046
展现	-10.7051
自身利益	-10.7056
在经历了	-10.7056
预见	-10.7059
▁但即使	-10.7063
考	-10.7066
怪	-10.7066
街	-10.7066
将有助于	-10.7067
镜	-10.7068
染	-10.7068
匹配	-10.7069
世界卫生组织	-10.707
罗姆尼	-10.707
一小部分	-10.707
席卷	-10.707
谎言	-10.7071
信奉	-10.7071
尽快	-10.7071
经常项目赤字	-10.7072
草案	-10.7072
软弱	-10.7072
分担	-10.7072
联系在一起	-10.7074
无法实现	-10.7074
苦难	-10.7074
种种	-10.7076
成效	-10.7076
▁美国剑桥	-10.7076
作品	-10.7077
比其他	-10.7081
的举措	-10.7081
不当	-10.7099
为期	-10.7106
大门	-10.7109
承诺要	-10.7116
希腊政府	-10.7117
充分利用	-10.7125
大宗商品价格	-10.7125
未知	-10.713
的名义	-10.7131
有机	-10.7134
欧元危机	-10.7135
有许多	-10.7141
对俄罗斯	-10.7144
单一货币	-10.7145
一群	-10.7146
影响了	-10.7148
布拉	-10.715
频	-10.7157
抵押	-10.7162
评级	-10.7163
癌	-10.7166
魔	-10.7167
庄	-10.7167
乡	-10.7167
MDG	-10.7167
卷土重来	-10.7167
特别提款权	-10.7167
外国直接投资	-10.7167
疯狂	-10.7168
经典	-10.7168
进攻	-10.7168
的首要	-10.7169
奉行	-10.7169
低收入国家	-10.7169
时间内	-10.7171
▁柏林	-10.7171
技术创新	-10.7174
持续下去	-10.7175
命令	-10.7176
经济和金融	-10.7176
难道	-10.7177
外来	-10.7178
推特	-10.7181
▁这样做	-10.7183
不堪	-10.7184
更重要的	-10.7184
全球金融	-10.7186
29	-10.7187
的失业率	-10.7189
刺激了	-10.7194
如何应对	-10.7194
不符合	-10.7196
保持着	-10.7196
基础设施项目	-10.7206
31	-10.7207
广义	-10.721
▁他说	-10.7213
学科	-10.7214
复制	-10.7217
的信誉	-10.7218
本周	-10.7223
家人	-10.7224
检测	-10.7225
教育程度	-10.7241
等领域	-10.7245
数字化	-10.7245
▁2009	-10.7249
do	-10.7249
变暖	-10.725
恰当的	-10.7253
和他的	-10.7254
总人口	-10.7258
贡献了	-10.7259
渡	-10.7259
寿命	-10.726
违反了	-10.7261
纪律	-10.7261
多重	-10.7262
一如	-10.7262
推动力	-10.7263
的支持率	-10.7264
妙	-10.7265
天主教	-10.7265
漏	-10.7265
宇宙	-10.7265
随着时间的推移	-10.7265
亚努科维奇	-10.7265
亚投行	-10.7265
é	-10.7265
适得其反	-10.7265
坚挺	-10.7266
猜测	-10.7266
边际	-10.7266
迎接	-10.7266
搜集	-10.7266
阴谋	-10.7266
揭露	-10.7266
年代以来	-10.7266
房子	-10.7272
想到	-10.7275
表现得	-10.7275
北非	-10.7276
驱动的	-10.7277
运动员	-10.7279
从而使	-10.7282
技术官僚	-10.7295
的主权	-10.7297
决定了	-10.7305
债务人	-10.7314
不可持续	-10.7314
在经济上	-10.7315
难度	-10.7315
可以被	-10.7319
居住	-10.7319
没有哪个	-10.7321
更能	-10.7322
39	-10.7322
必需	-10.7323
共同利益	-10.733
▁Co	-10.7335
似	-10.7338
▁这也	-10.7345
不乏	-10.7347
对我们	-10.7348
都知道	-10.7352
不幸的是	-10.7353
国际组织	-10.7355
并不意味着	-10.7359
不幸	-10.7361
乌干达	-10.7364
1993	-10.7364
境况	-10.7365
宽容	-10.7365
破灭	-10.7365
战术	-10.7366
Mar	-10.7366
升息	-10.7366
失控	-10.7366
雄心	-10.7367
小说	-10.7367
基石	-10.7367
国防部长	-10.7368
定位	-10.7369
潮流	-10.737
年均	-10.7371
联合国大会	-10.7371
借贷成本	-10.7375
的角度	-10.7377
ud	-10.7377
总统大选	-10.7379
正当	-10.7384
各自的	-10.7388
你可以	-10.739
▁2011	-10.7394
替代品	-10.7395
西非	-10.7396
有所不同	-10.7398
ot	-10.74
大致	-10.74
新自由主义	-10.7405
国家层面	-10.7406
活动家	-10.7409
这种做法	-10.741
世界中	-10.7412
ru	-10.742
高峰	-10.7423
凸显出	-10.7424
▁毫不奇怪	-10.7426
就没有	-10.7427
民主化	-10.7431
据估计	-10.7432
教学	-10.7435
▁香港	-10.7436
住了	-10.7436
至今仍	-10.7439
拉动	-10.7442
误导	-10.7448
与以色列	-10.7454
惠及	-10.7457
宪	-10.746
洗	-10.7462
和个人	-10.7462
缘	-10.7462
斯基	-10.7463
让我	-10.7463
嫌	-10.7464
津巴布韦	-10.7464
低估了	-10.7464
萨默斯	-10.7464
迁徙	-10.7464
尼泊尔	-10.7464
荒谬	-10.7464
丘吉尔	-10.7464
维也纳	-10.7464
俄罗斯总统普京	-10.7465
悖论	-10.7465
产能过剩	-10.7465
君主	-10.7465
微妙	-10.7465
跨大西洋	-10.7465
迈进	-10.7466
职务	-10.7466
确立	-10.7469
卢拉	-10.7471
简化	-10.7471
输家	-10.7472
制药公司	-10.7473
子女	-10.7473
之争	-10.7474
很好地	-10.7476
不可避免的	-10.7478
恐怖组织	-10.7478
第二个	-10.7481
空中	-10.7482
殖民地	-10.7485
都是如此	-10.7487
克制	-10.7487
政治动荡	-10.7487
领导作用	-10.7492
设想	-10.7493
有两个	-10.7493
哪里	-10.7498
电厂	-10.7504
保险公司	-10.7509
正在进行	-10.7512
布什总统	-10.7512
人力	-10.7512
虚	-10.7514
的理想	-10.7519
的支持下	-10.7522
代表着	-10.7524
说明了	-10.7526
六年	-10.7526
有力的	-10.7533
规	-10.7534
当今的	-10.754
一体化的	-10.7553
mo	-10.7553
拨	-10.7557
当选总统	-10.7557
有用	-10.7558
抓	-10.7558
雄	-10.7562
状	-10.7564
腾	-10.7565
加泰罗尼亚	-10.7565
弗里德曼	-10.7565
顶尖	-10.7566
报酬	-10.7566
撰写	-10.7566
可能带来	-10.7566
聚集	-10.7566
密集型	-10.7566
营造	-10.7567
总数	-10.7568
范式	-10.7569
解雇	-10.7569
借钱	-10.757
人心	-10.7574
所引发的	-10.7575
作战	-10.758
逃避	-10.7582
各州	-10.7583
25%	-10.7583
保持在	-10.7587
使他们	-10.7592
占到	-10.7593
杀死	-10.7594
大幅增加	-10.7596
增长速度	-10.7596
能够让	-10.7597
社会中	-10.7601
会计	-10.7601
成年人	-10.7605
一块	-10.7613
惊人	-10.7619
在该地区	-10.7619
基础设施和	-10.7624
▁此后	-10.7627
▁可以肯定	-10.7628
光明	-10.7629
男	-10.7632
麦	-10.7641
预料	-10.7644
所获得的	-10.7644
欧洲各国	-10.7645
的共识	-10.7647
叶	-10.7647
类型	-10.7649
都已经	-10.7654
中国共产党	-10.7654
英格兰	-10.7658
一张	-10.766
航空	-10.7663
等方面	-10.7665
攻	-10.7665
小心	-10.7667
吹	-10.7667
帐	-10.7667
成千上万	-10.7667
李	-10.7667
哥	-10.7668
管辖	-10.7668
法律和	-10.7668
简直	-10.7668
坏消息	-10.7669
警方	-10.767
若干	-10.7671
动乱	-10.7671
感兴趣	-10.7671
他们必须	-10.7672
版本	-10.7674
机场	-10.7674
说服力	-10.7678
负面影响	-10.768
试图通过	-10.768
笔	-10.7685
hi	-10.7686
从来没有	-10.7691
的成果	-10.7696
眼前	-10.7699
清除	-10.7703
举动	-10.7705
Car	-10.7706
是对的	-10.7707
定义为	-10.7707
左	-10.7708
境地	-10.7708
美国国债	-10.7712
全世界最	-10.7714
德尔	-10.7717
较高的	-10.7719
态	-10.7719
▁但当	-10.7723
居住在	-10.7725
ho	-10.7729
受损	-10.773
这两	-10.7731
从而导致	-10.7734
▁马德里	-10.7741
不安全	-10.7742
医疗保险	-10.7757
需要时间	-10.7766
迟	-10.7767
内在	-10.7767
十多年	-10.7768
炮	-10.7769
创新性	-10.777
玻利维亚	-10.7771
宿	-10.7771
去杠杆化	-10.7771
骚乱	-10.7771
追踪	-10.7771
音乐	-10.7771
阅读	-10.7772
不断地	-10.7772
宗派	-10.7773
道歉	-10.7774
最小化	-10.7775
安倍经济学	-10.7776
无限	-10.7779
价格稳定	-10.778
联系起来	-10.778
都不是	-10.778
沉重	-10.7782
及其他	-10.7785
平息	-10.7789
应付	-10.7795
刺激计划	-10.7802
做什么	-10.7803
之地	-10.7806
将带来	-10.7806
扩展	-10.7807
整个欧洲	-10.7814
国集团	-10.7815
社会和政治	-10.7816
略有	-10.7817
限制在	-10.782
不力	-10.7824
宏观经济政策	-10.7832
一个更	-10.7833
大使	-10.7834
愿望	-10.7835
这些因素	-10.7836
更深	-10.7837
的全部	-10.7847
雄心勃勃的	-10.785
英语	-10.785
美国和英国	-10.7851
na	-10.7857
▁第四	-10.786
域	-10.7861
是唯一	-10.7863
被忽视	-10.7863
地点	-10.7867
人选	-10.7867
中学	-10.7868
燃	-10.787
骗	-10.7873
弊	-10.7874
箭	-10.7874
生育	-10.7874
盗	-10.7875
羞辱	-10.7875
束缚	-10.7875
酿	-10.7875
编辑	-10.7875
SDR	-10.7875
勇敢	-10.7875
稳固	-10.7875
他们可以	-10.7875
搜索	-10.7875
德拉吉	-10.7876
更愿意	-10.7876
妻子	-10.7876
总裁	-10.7877
限度	-10.7877
▁但随着	-10.788
这并不是	-10.788
一个世纪	-10.7882
的言论	-10.7884
花钱	-10.7885
他所	-10.7886
情感	-10.7887
巴黎协定	-10.7895
还有一个	-10.7895
回报率	-10.7896
这正是	-10.7901
手里	-10.7907
外围国	-10.7915
事实证明	-10.7917
ag	-10.7928
更进一步	-10.7929
有一种	-10.7937
就开始	-10.7948
发达经济体的	-10.7949
危	-10.7958
吸引了	-10.7958
前总理	-10.7961
不知	-10.7962
债券市场	-10.7962
宗	-10.7963
临	-10.7964
沉默	-10.7972
比美国	-10.7973
最终将	-10.7974
亡	-10.7974
严厉的	-10.7974
的攻击	-10.7975
阵	-10.7977
事态	-10.7979
▁上个月	-10.798
碰	-10.798
+	-10.798
铺	-10.798
厄瓜多尔	-10.798
詹姆斯	-10.798
视而不见	-10.798
妄	-10.798
鲁莽	-10.798
回忆	-10.798
细菌	-10.798
阴影	-10.798
诉求	-10.7981
邻居	-10.7981
整整	-10.7981
沿海	-10.7982
竭力	-10.7982
界限	-10.7983
环境保护	-10.7983
商界	-10.7987
生计	-10.7988
der	-10.7988
发展中世界	-10.7989
无需	-10.7989
自由贸易协定	-10.7991
各类	-10.7991
代理人	-10.7996
挑战是	-10.7998
无意	-10.8005
安全问题	-10.8011
几年前	-10.8012
和叙利亚	-10.8012
会面	-10.8012
▁Ro	-10.8014
房产	-10.8014
经受	-10.8019
浮	-10.8023
首要	-10.8027
较高	-10.8028
首位	-10.8029
应对措施	-10.8029
把它	-10.803
前苏联	-10.8031
工作人员	-10.8031
▁我们可以	-10.8038
极少	-10.8041
大部分国家	-10.8042
非洲人	-10.8043
副总统	-10.8044
让它	-10.8047
并且在	-10.8048
出手	-10.8055
价格上涨	-10.8059
另外一个	-10.806
更重要的是	-10.8061
内需	-10.8063
不及	-10.8067
壮	-10.8076
长远	-10.8076
舒	-10.8076
他认为	-10.8082
教派	-10.8082
宾	-10.8083
植	-10.8083
不变	-10.8083
公共财政	-10.8085
灾害	-10.8086
繁	-10.8086
舍	-10.8086
朱	-10.8086
东道国	-10.8086
▁Party	-10.8086
恐怕	-10.8086
雅典	-10.8087
展望	-10.8087
队伍	-10.8087
回避	-10.8088
增速	-10.8088
故意	-10.8088
不良贷款	-10.8089
毫无意义	-10.8091
分析师	-10.8091
知识分子	-10.8092
夸大	-10.8092
极端分子	-10.8093
主导地位	-10.8095
地带	-10.8095
同时还	-10.8101
准备金	-10.8102
生涯	-10.8105
月初	-10.8105
在当前	-10.811
▁是的	-10.8111
小布什	-10.8117
场所	-10.8119
真空	-10.812
▁无论是	-10.8132
高水平	-10.8134
新一代	-10.8135
家长	-10.8137
能得到	-10.8139
地图	-10.8142
ge	-10.8144
有效性	-10.8145
无所	-10.8145
有时候	-10.8148
和平协议	-10.8149
ec	-10.815
的日子	-10.8151
物理	-10.8152
实在	-10.8153
一百万	-10.8153
的举动	-10.8159
受困	-10.816
存量	-10.8162
授	-10.8164
想象的	-10.8166
最终会	-10.8167
▁第一个	-10.8168
这种方法	-10.817
不可或缺的	-10.8172
就此	-10.818
表面	-10.8185
的选票	-10.8188
肥	-10.819
爆	-10.819
黄	-10.8192
致命的	-10.8193
尾	-10.8193
跑	-10.8194
柯	-10.8194
无关紧要	-10.8194
绝非易事	-10.8194
X	-10.8194
主权财富基金	-10.8194
慕尼黑	-10.8194
抗药性	-10.8194
▁在这样的背景下	-10.8194
顶峰	-10.8194
机械	-10.8194
初衷	-10.8194
恶性循环	-10.8194
寻常	-10.8195
种族灭绝	-10.8195
支配	-10.8195
偏离	-10.8195
赞同	-10.8196
回顾	-10.8196
分割	-10.8196
明星	-10.8198
成为现实	-10.8198
定居	-10.8198
假定	-10.82
分支	-10.8201
某些国家	-10.8201
派系	-10.8202
某一	-10.8204
世界杯	-10.8206
以外的	-10.8206
资本管制	-10.8206
此外	-10.8207
总量的	-10.8207
em	-10.821
应该成为	-10.8214
迫	-10.8217
尤其如此	-10.822
可以成为	-10.8222
医保	-10.8222
钟	-10.8225
深陷	-10.8228
私有	-10.8229
债务水平	-10.8235
的愿望	-10.8236
同样重要	-10.8236
大数据	-10.8238
无人	-10.8239
Me	-10.824
洲	-10.8242
几十	-10.8244
相对较	-10.8245
贫困人口	-10.8245
有毒	-10.8253
我们能够	-10.8255
经济增长率	-10.8256
最重要的是	-10.826
描绘	-10.8269
▁首先是	-10.8277
想想	-10.8285
充	-10.8294
操	-10.8298
桶	-10.8301
没有得到	-10.8302
盖茨	-10.8302
桥梁	-10.8303
利比里亚	-10.8303
血腥	-10.8303
土壤	-10.8303
哈萨克斯坦	-10.8303
源泉	-10.8303
上演	-10.8303
鲜	-10.8303
清醒	-10.8303
的必要条件	-10.8303
视角	-10.8304
投资银行	-10.8304
夺走	-10.8304
制止	-10.8305
扩张性	-10.8306
划定	-10.8306
的两倍	-10.8307
外包	-10.8308
论证	-10.8309
比方说	-10.8316
头条	-10.8318
反移民	-10.8318
效力	-10.8319
首尔	-10.8321
是一次	-10.8322
还有其他	-10.8332
立法者	-10.8333
▁普林斯顿	-10.8335
不用	-10.8336
掌	-10.8346
被人	-10.8346
ll	-10.8351
将自己	-10.8351
反常	-10.8356
这只是	-10.8357
大衰退	-10.8363
▁有时	-10.8363
会继续	-10.8364
长期增长	-10.8365
已故	-10.8369
之间存在	-10.8373
不去	-10.8377
极权主义	-10.8378
直到最近	-10.8383
的继任者	-10.8385
提高生产率	-10.8396
缺	-10.8401
国家间	-10.8402
Ja	-10.8403
根深蒂固的	-10.8403
沉重的	-10.8405
己	-10.8406
毕业	-10.8411
棋	-10.8412
临床	-10.8412
的话说	-10.8412
指挥	-10.8412
巴塞尔	-10.8412
畅	-10.8412
亚马逊	-10.8412
雷曼兄弟	-10.8412
耕	-10.8413
检验	-10.8413
稳健	-10.8413
截止	-10.8413
颁布	-10.8413
找不到	-10.8414
政府机构	-10.8414
难免	-10.8415
哪种	-10.8415
发展中经济体	-10.8415
企业家精神	-10.8415
Ar	-10.8417
流血	-10.8419
温和派	-10.8419
反恐战争	-10.8419
au	-10.842
难民营	-10.842
为首的	-10.8421
盟	-10.8421
有些人	-10.8422
之久	-10.8423
外债	-10.8425
发展趋势	-10.8427
的第二个	-10.8429
向前	-10.8432
峰值	-10.8435
付出了	-10.8435
催生了	-10.8438
避免了	-10.8438
可以获得	-10.8441
国家主权	-10.8445
四十年	-10.8447
给我们	-10.8448
在当今	-10.845
甚至连	-10.8453
外国投资者	-10.8456
不惜	-10.846
唯	-10.846
ers	-10.8463
▁而如果	-10.8465
国内外	-10.8466
强制性	-10.8467
教训是	-10.8467
的一个重要	-10.8468
那么它	-10.8472
高技能	-10.8473
黑人	-10.8474
整个地区	-10.8477
与西方	-10.8488
在乌克兰	-10.8489
有一点	-10.8499
美洲	-10.8499
▁在经历了	-10.8501
穆斯林世界	-10.8509
正在经历	-10.851
洋	-10.851
负责任	-10.8514
有多少	-10.8517
豪	-10.8517
释	-10.8521
ci	-10.8521
签	-10.8521
宝	-10.8523
吓	-10.8523
金本位	-10.8524
搭	-10.8524
您	-10.8524
犹豫	-10.8524
肆虐	-10.8524
预示着	-10.8524
氛围	-10.8524
一小撮	-10.8524
印度尼西亚	-10.8524
悔	-10.8524
糖尿病	-10.8524
一揽子	-10.8524
1996	-10.8524
拓展	-10.8524
轨迹	-10.8524
野蛮	-10.8524
奏效	-10.8524
不难理解	-10.8524
赌注	-10.8524
伤亡	-10.8524
颇具	-10.8524
标签	-10.8524
派遣	-10.8524
照顾	-10.8524
固然	-10.8525
启发	-10.8525
头上	-10.8525
公司税	-10.8525
单独	-10.8526
福利国家	-10.8527
移民问题	-10.8527
巨型	-10.8528
北极	-10.8528
今年早些时候	-10.8528
起草	-10.8528
完整的	-10.8531
特色	-10.8534
中国国家主席习近平	-10.8535
大笔	-10.8536
印度人民党	-10.8537
IT	-10.8538
在未来几年	-10.8538
负利率	-10.854
制作	-10.8541
工业革命	-10.8542
漫长的	-10.8542
品牌	-10.8543
得到解决	-10.8543
的期望	-10.8546
经验表明	-10.8546
卡特	-10.8547
长期停滞	-10.8562
更广	-10.8564
贸易和投资	-10.8565
的第一步	-10.8566
出发	-10.8572
进来	-10.8583
留给	-10.8595
▁这不是	-10.8602
赖	-10.8603
受过	-10.8606
▁在中国	-10.8608
夏天	-10.8608
更广泛	-10.8609
鲜有	-10.8619
局限	-10.8621
这一政策	-10.8621
这场战争	-10.8622
最后一个	-10.8623
神话	-10.8623
夺	-10.8624
来应对	-10.8624
学到	-10.8625
现实主义	-10.8625
一笔	-10.8625
握	-10.8627
这套	-10.863
牵	-10.8632
补	-10.8633
伏	-10.8634
审视	-10.8634
液	-10.8635
乔	-10.8635
抱	-10.8635
到期	-10.8636
敬	-10.8636
麻	-10.8636
奴	-10.8636
丝绸之路	-10.8636
比特币	-10.8636
蓬勃发展	-10.8636
籍	-10.8636
安抚	-10.8636
直觉	-10.8637
轨道	-10.8637
约翰逊	-10.8637
掀起	-10.8637
饮食	-10.8638
真理	-10.864
债权国	-10.8641
传达	-10.8642
接纳	-10.8643
平稳	-10.8646
对英国	-10.8647
记得	-10.8647
落入	-10.8647
终极	-10.8647
关键问题	-10.8647
腐败和	-10.8648
摆脱了	-10.865
偏向	-10.8652
很大程度上	-10.8653
高兴	-10.8653
治国	-10.8654
1950	-10.8655
落后于	-10.8655
汇款	-10.8664
开创	-10.8666
其他许多	-10.8666
内政	-10.8668
最糟糕的	-10.8671
格尔	-10.8671
受益于	-10.8678
邻	-10.8679
不是一个	-10.8683
前所未有	-10.8684
金额	-10.8693
月底	-10.8696
等问题	-10.8696
增长和就业	-10.8698
选民们	-10.87
一届	-10.8703
它们可以	-10.8706
不容	-10.871
最主要的	-10.8712
实现这一点	-10.8712
正在发生	-10.8714
巴勒斯坦国	-10.8732
越多	-10.8733
代理	-10.8737
欧盟内部	-10.8738
渐	-10.8741
钢	-10.8749
脊髓灰质炎	-10.8749
江	-10.875
葛	-10.875
▁简而言之	-10.875
仁	-10.875
国务院	-10.875
肩	-10.875
撤销	-10.875
竞赛	-10.875
罚款	-10.875
从一开始就	-10.875
劣势	-10.875
抵达	-10.8751
右派	-10.8751
戴维	-10.8752
接管	-10.8752
升温	-10.8753
世界贸易组织	-10.8753
法国和德国	-10.8753
印度洋	-10.8761
无法解决	-10.8762
指令	-10.8762
三国	-10.8769
健康和	-10.8771
这些挑战	-10.8777
近来	-10.8779
毁灭性	-10.8781
3.5	-10.8783
确	-10.8784
几百	-10.879
指向	-10.8791
核协议	-10.8791
一个由	-10.8791
马尔	-10.8792
强调了	-10.8793
▁但现在	-10.8794
在短期	-10.8795
包含了	-10.8797
才能实现	-10.8806
就在于	-10.8809
的主要原因	-10.881
仍然存在	-10.8812
将不得不	-10.8814
原有	-10.8816
债务国	-10.8821
兴	-10.8825
并无	-10.8828
um	-10.8829
震	-10.884
堪	-10.8842
竞选活动	-10.8845
民间	-10.8849
37	-10.885
早在	-10.885
顶层	-10.8854
应对气候变化	-10.8856
一股	-10.8859
俄罗斯人	-10.886
灭	-10.8862
援	-10.8862
少数族裔	-10.8865
菜	-10.8865
辉	-10.8865
汽油	-10.8865
吸烟	-10.8865
签证	-10.8865
洞见	-10.8866
伦齐	-10.8866
引领	-10.8867
压低	-10.8867
正处于	-10.8867
专业人士	-10.8868
老牌	-10.8868
停火	-10.8869
互联	-10.8869
接入	-10.8871
能源价格	-10.8871
多个国家	-10.8872
富裕的	-10.8872
主体	-10.8873
会发生	-10.8873
服务于	-10.8876
大卫	-10.8877
这部	-10.8885
ang	-10.8886
可能需要	-10.8888
少数民族	-10.8891
已然	-10.8892
基础上	-10.8897
权益	-10.8898
的榜样	-10.8899
成为可能	-10.8899
这个世界	-10.8901
股本	-10.8903
的生活水平	-10.8906
河流	-10.8906
▁一方面	-10.8906
250	-10.8916
通用	-10.8916
利用其	-10.8922
仅为	-10.8924
同一个	-10.8924
存活	-10.8934
知名	-10.8935
发布了	-10.8937
这三个	-10.8941
改革计划	-10.8948
中国已经	-10.8956
最多的	-10.8958
派别	-10.896
完整	-10.896
单纯	-10.8965
经济制裁	-10.8966
董事	-10.8966
38	-10.8967
上任	-10.897
的净	-10.8972
为代价	-10.8973
伪	-10.898
3,000	-10.8981
渗透	-10.8981
首席执行官	-10.8981
敲	-10.8981
摩尔多瓦	-10.8981
饥荒	-10.8981
招募	-10.8981
挣扎	-10.8981
德国政府	-10.8981
策划	-10.8981
戈登	-10.8981
包围	-10.8982
路线图	-10.8982
0.5	-10.8982
页岩气	-10.8982
失灵	-10.8982
节省	-10.8983
▁Ha	-10.8984
既不	-10.8984
胜任	-10.8985
清理	-10.8985
米兰	-10.8987
节目	-10.8988
已经从	-10.8991
国企	-10.8991
展	-10.8992
无比	-10.8994
迹象表明	-10.8994
多元	-10.8995
上一次	-10.8996
越来越多	-10.8996
政策利率	-10.8999
控制着	-10.9005
底层	-10.9007
能源效率	-10.9015
房地产市场	-10.9022
就不可能	-10.9028
大战	-10.903
的性质	-10.9031
成为世界	-10.9036
发生过	-10.9037
之间的联系	-10.9041
少数群体	-10.9041
截然不同的	-10.9041
安全性	-10.905
独特的	-10.905
占比	-10.9051
的世界中	-10.9053
或者说	-10.9055
就业率	-10.9057
判	-10.9058
财政联盟	-10.9062
最初的	-10.9063
迈出	-10.9063
机构投资者	-10.9063
▁to	-10.9064
旅	-10.9064
32	-10.9068
所有国家都	-10.9072
可以帮助	-10.9073
在巴基斯坦	-10.9074
好事	-10.9078
的巨额	-10.9079
拆	-10.9079
可能出现	-10.908
闭	-10.9096
猛	-10.9098
例子是	-10.9098
粉	-10.9098
拟	-10.9098
斯里兰卡	-10.9098
‘	-10.9098
京都议定书	-10.9098
蛋	-10.9098
通货紧缩	-10.9098
艰苦	-10.9098
骄傲	-10.9098
打交道	-10.9099
恋	-10.9099
捕捞	-10.9099
常态	-10.9099
节奏	-10.9099
夸张	-10.9099
崇拜	-10.9099
关押	-10.9099
确信	-10.9099
核不扩散条约	-10.91
避难	-10.91
减记	-10.91
收获	-10.9101
每个人	-10.9102
站出来	-10.9102
记住	-10.9102
意大利人	-10.9104
眼光	-10.9105
听起来	-10.9105
利亚	-10.9105
在此过程中	-10.9107
优惠	-10.911
界定	-10.911
目前正在	-10.9111
财政整合	-10.9112
上帝	-10.9114
灵活的	-10.9116
乏	-10.9119
pe	-10.912
有价值的	-10.912
高收入国家	-10.9126
政客们	-10.9127
留下的	-10.9131
微小	-10.9138
金融中心	-10.9139
拒绝接受	-10.9142
的消息	-10.9146
而后者	-10.9146
股票市场	-10.9146
税收制度	-10.9147
际	-10.9151
大部	-10.9162
法则	-10.9172
新药	-10.9175
购买力	-10.9178
▁多年来	-10.9181
不敢	-10.9182
强烈反对	-10.9184
▁我们希望	-10.9185
中扮演	-10.9185
75	-10.9186
这种状况	-10.9186
消费税	-10.9186
增长潜力	-10.9187
这样一种	-10.9191
退出欧盟	-10.9191
有史以来	-10.9192
惊人的	-10.9194
▁但这种	-10.9195
最需要	-10.9196
我们正在	-10.9197
诉	-10.9198
对于那些	-10.9198
民用	-10.9198
能产生	-10.9199
出人意料	-10.9201
我相信	-10.9202
使之	-10.9202
缓	-10.9204
工资增长	-10.9208
这个数字	-10.9208
今日	-10.9208
这不是	-10.9209
一年前	-10.9213
▁这里	-10.9215
其余	-10.9216
额外的	-10.9217
1973	-10.9218
巴黎气候协定	-10.9218
硅谷	-10.9218
正因如此	-10.9218
波斯尼亚	-10.9218
撤离	-10.9218
资料	-10.9218
原始	-10.9218
蓝图	-10.9218
耶伦	-10.9219
迟早	-10.9219
捷克	-10.9219
布朗	-10.9219
是显而易见的	-10.922
短视	-10.922
民兵	-10.922
生物燃料	-10.922
信息技术	-10.9223
no	-10.9224
老年人	-10.9224
时间里	-10.9227
马克里	-10.9227
各项	-10.9229
捕获	-10.9229
零利率	-10.9232
1960	-10.9233
尤为	-10.9243
领导地位	-10.9244
▁比如说	-10.9247
同时也是	-10.9247
欧元债券	-10.9248
不能再	-10.9254
被捕	-10.9257
地球上	-10.9264
毫不奇怪	-10.9264
七年	-10.9269
伊朗人	-10.9271
经合组织国家	-10.9276
▁也就是说	-10.9278
宣布了	-10.9284
等到	-10.9285
发展中	-10.9295
某些人	-10.9295
层面上	-10.9296
最强	-10.9298
金融监管	-10.93
丝毫	-10.9301
拉美国家	-10.9307
适当的	-10.9307
这一决定	-10.931
的位置	-10.9313
引入了	-10.9315
一定会	-10.9315
大城市	-10.9327
坚	-10.9328
答	-10.9335
哈佛	-10.9335
割	-10.9335
纽	-10.9336
都不能	-10.9336
唯一一个	-10.9336
荣	-10.9336
惯	-10.9337
跃	-10.9337
蓝	-10.9337
三驾马车	-10.9338
奢	-10.9338
垂	-10.9338
热衷于	-10.9338
微不足道	-10.9338
匮乏	-10.9338
贿赂	-10.9338
约旦河西岸	-10.9338
可以追溯到	-10.9338
北美自由贸易协定	-10.9338
从长期看	-10.9338
剩下的	-10.9339
防卫	-10.9339
西岸	-10.934
强加	-10.934
核电站	-10.9341
四大	-10.9342
配合	-10.9343
远高于	-10.9343
第二轮	-10.9343
可以实现	-10.9344
另一场	-10.9345
核设施	-10.9347
波兰人	-10.9347
效率低下	-10.9348
不已	-10.9349
据此	-10.9351
总统竞选	-10.9353
名声	-10.9355
明确表示	-10.9355
est	-10.9356
每一	-10.9359
▁在英国	-10.9362
人权和	-10.9362
令人震惊的	-10.9363
▁如果不	-10.9365
34	-10.9367
同样也	-10.9367
这一现象	-10.9368
这一挑战	-10.9372
在明年	-10.9372
经济转型	-10.9372
大公司	-10.9376
已被	-10.9377
很少有人	-10.9379
ou	-10.9379
▁在一个	-10.9379
以避免	-10.9382
阿里	-10.9387
医疗体系	-10.939
般的	-10.9393
贸易协议	-10.9395
潜在增长	-10.9397
严峻的	-10.9403
情形中	-10.9404
认	-10.9406
报告中	-10.9406
必不可少	-10.9407
减小	-10.9407
动议	-10.9409
ton	-10.9409
▁如果说	-10.9409
一份报告	-10.941
带有	-10.941
ver	-10.9411
制造了	-10.9412
提醒我们	-10.9412
反犹主义	-10.9412
孤立主义	-10.9417
只不过	-10.9418
之多	-10.9419
这些机构	-10.9419
药方	-10.942
认为他们	-10.9421
一句	-10.9428
0.2	-10.943
▁Li	-10.943
▁De	-10.9431
15%	-10.9437
欧盟机构	-10.9441
不公	-10.9445
调和	-10.9449
错误地	-10.9452
有用的	-10.9453
收入水平	-10.9454
种类	-10.9455
威胁要	-10.9457
浪	-10.9457
暖	-10.9457
海平面	-10.9457
村	-10.9458
镇	-10.9459
劫	-10.9459
计价	-10.9459
科威特	-10.946
理所当然	-10.946
世卫组织	-10.946
哈梅内伊	-10.946
娱乐	-10.946
得益于	-10.946
丰厚	-10.946
简单地	-10.946
靠拢	-10.946
迁移	-10.946
算不上	-10.9461
缩短	-10.9461
违背	-10.9461
▁而尽管	-10.9461
变迁	-10.9461
反驳	-10.9462
货物	-10.9463
重演	-10.9464
顺利	-10.9464
潜	-10.9465
的产物	-10.9466
核弹	-10.9466
1.3	-10.9468
局部	-10.9469
合约	-10.9472
格局	-10.9473
美国和欧盟	-10.9473
不喜欢	-10.9475
发生变化	-10.9479
之举	-10.9482
苏联解体	-10.9484
▁但我	-10.9484
中介	-10.9484
过去几年	-10.9485
来进行	-10.9487
这个词	-10.9488
我所	-10.9493
ion	-10.9494
大幅提高	-10.9495
千万	-10.9498
良机	-10.9501
越大	-10.9503
中立	-10.9508
▁我们应该	-10.951
致使	-10.9511
输出	-10.9514
发现了	-10.9515
国内消费	-10.9516
不大	-10.9518
不好	-10.9518
就职	-10.9518
他们认为	-10.9519
相似的	-10.9524
理由是	-10.953
在巴黎	-10.9533
不允许	-10.9533
论者	-10.954
小企业	-10.9541
参与了	-10.9543
▁这需要	-10.9546
就业创造	-10.9552
的人都	-10.9553
har	-10.9556
世界观	-10.9559
其它国家	-10.956
新任	-10.9563
的口号	-10.9564
独特	-10.9567
破裂	-10.9571
让自己	-10.9572
Sa	-10.9573
市场力量	-10.9574
术	-10.9575
售	-10.9576
尼亚	-10.9579
忧	-10.9581
更有效的	-10.9581
香	-10.9583
阿拉法特	-10.9583
锡	-10.9583
背道而驰	-10.9583
振奋	-10.9583
相提并论	-10.9583
五分之一	-10.9583
剥削	-10.9583
熊	-10.9583
皆	-10.9583
技巧	-10.9583
挫折	-10.9584
批判	-10.9584
兑换	-10.9584
标题	-10.9584
抬头	-10.9584
阵线	-10.9585
转折点	-10.9585
某种形式的	-10.9586
何处	-10.9587
所得	-10.9588
典型的	-10.959
赞	-10.9591
转基因	-10.9592
主意	-10.9594
危及	-10.9603
过早	-10.9604
多年前	-10.9606
储备货币	-10.9606
公里	-10.9616
0.1	-10.9619
长久	-10.9624
不论是	-10.9625
部分是因为	-10.9628
利益集团	-10.9631
Jo	-10.9633
更小	-10.9647
中左翼	-10.965
广大	-10.9651
少数派	-10.9652
十二	-10.9653
900	-10.9656
丝	-10.9657
也不可能	-10.9659
的信念	-10.9666
如果不	-10.9667
有超过	-10.9667
分钟	-10.9672
的诱惑	-10.9672
中欧	-10.9674
表达了	-10.9675
海湾	-10.9682
十分重要	-10.9687
解决这一问题	-10.9688
找到了	-10.969
▁有些人	-10.9698
涉	-10.9703
近几十年来	-10.9705
春	-10.9706
只有一个	-10.9706
罚	-10.9707
奠定	-10.9707
堵	-10.9708
罗塞夫	-10.9708
居高不下	-10.9708
愈演愈烈	-10.9708
托马斯	-10.9708
先决条件	-10.9708
国大党	-10.9708
耻辱	-10.9708
筛查	-10.9709
援引	-10.9709
采访	-10.9709
征服	-10.9709
安置	-10.9712
本币	-10.9712
的边缘	-10.9714
比较优势	-10.9716
巨量	-10.9717
驱使	-10.9717
战场	-10.9719
说辞	-10.9719
数额	-10.9721
每次	-10.9723
刺	-10.9724
州长	-10.9724
po	-10.9725
▁在此	-10.9726
表面上	-10.9732
海湾国家	-10.9737
在这个问题上	-10.9743
消费支出	-10.9744
是至关重要的	-10.9753
它必须	-10.9754
和其他地区	-10.9756
也很	-10.976
源头	-10.9761
他自己	-10.9762
tor	-10.9763
八年	-10.9764
有大量	-10.9766
检察官	-10.9766
而在于	-10.9768
截然不同	-10.977
大气	-10.9771
共同货币	-10.9774
上学	-10.9775
界线	-10.9777
错了	-10.9778
暴露出	-10.9781
持久的	-10.9783
一轮	-10.9784
恰当	-10.9785
应有的	-10.9785
的忧虑	-10.9786
研究中心	-10.9787
观察到	-10.9787
生物学	-10.9796
120	-10.9798
知识和	-10.9798
的难度	-10.9801
龄	-10.9804
▁在这种情况下	-10.9809
全新的	-10.981
未经	-10.9811
上世纪	-10.9812
级别	-10.9814
中右翼	-10.9815
va	-10.9821
是多么	-10.9823
席	-10.9824
丰	-10.9825
空袭	-10.9828
必须得到	-10.9829
把持	-10.983
逼	-10.9832
熟	-10.9832
事先	-10.9832
饮	-10.9832
伐	-10.9833
民意	-10.9834
井	-10.9835
鸟	-10.9835
嘴	-10.9835
奔	-10.9835
纯粹的	-10.9835
搬	-10.9835
欧佩克	-10.9835
蒸	-10.9835
阿尔巴尼亚	-10.9835
TTIP	-10.9835
弗兰克	-10.9835
创纪录的	-10.9835
教科书	-10.9835
间谍	-10.9835
摩擦	-10.9835
幻觉	-10.9835
村庄	-10.9835
监测	-10.9835
攻势	-10.9836
广播	-10.9836
卫星	-10.9836
服装	-10.9836
反馈	-10.9837
心态	-10.9838
偏远	-10.9838
考量	-10.9839
一贯	-10.9839
欧亚	-10.9839
原理	-10.9839
经费	-10.9841
冲突中	-10.9842
政策制定者们	-10.9843
未来几年	-10.9844
涌现	-10.9845
SA	-10.9847
增量	-10.9848
远见	-10.9848
创始人	-10.9848
所发生的	-10.9848
越来越多地	-10.985
诱惑	-10.9851
欧盟委员会主席	-10.9852
暂时性	-10.986
集体行动	-10.986
支持率	-10.9862
罪犯	-10.9862
印度教	-10.9867
但我	-10.9868
让所有	-10.9868
触	-10.9871
的呼声	-10.9874
了吗	-10.9874
两年前	-10.988
新常态	-10.9881
健康状况	-10.9889
可不是	-10.9896
最小	-10.9896
不一定	-10.9901
▁他还	-10.9903
▁Pa	-10.9904
为零	-10.9908
能使	-10.9911
一致性	-10.9912
解决的问题	-10.9912
低通胀	-10.9916
善意	-10.9916
全球治理	-10.9924
约有	-10.9925
适当	-10.9925
all	-10.9927
生产国	-10.9927
经济停滞	-10.993
高额	-10.9931
任职	-10.9932
per	-10.9935
教条	-10.9941
令人震惊	-10.9941
小规模	-10.9943
既是	-10.9946
fi	-10.9947
▁但这样的	-10.9949
一切都	-10.9955
研究发现	-10.9956
恐	-10.9958
幻	-10.996
迁	-10.9961
冬	-10.9961
以内	-10.9961
择	-10.9962
甲	-10.9963
噩梦	-10.9963
喊	-10.9963
基督徒	-10.9963
枚	-10.9963
急切地	-10.9963
撒切尔	-10.9963
增值税	-10.9963
赞扬	-10.9963
背叛	-10.9963
弥合	-10.9964
救济	-10.9964
监禁	-10.9964
溢出效应	-10.9964
富豪	-10.9964
色彩	-10.9964
昔日	-10.9964
坚信	-10.9964
微软	-10.9964
徒劳	-10.9964
医药	-10.9965
微弱	-10.9965
的角度看	-10.9971
投票权	-10.9971
步入	-10.9972
精心	-10.9973
应该采取	-10.9973
受到威胁	-10.9976
的朋友	-10.9978
文学	-10.998
经常项目	-10.9984
十分困难	-10.9986
高级官员	-10.9987
大胆的	-10.9991
太少	-10.9994
原教旨主义	-10.9995
左翼联盟	-10.9995
ly	-10.9996
经济实力	-10.9998
con	-11.0003
生活中	-11.0006
以致	-11.0014
物流	-11.0018
党内	-11.0018
做出选择	-11.0034
所说的	-11.004
能给	-11.0044
▁他们认为	-11.0046
第一步	-11.0054
陷于	-11.0059
在今后	-11.0059
寻	-11.0061
受伤	-11.0062
也就是说	-11.0068
重创	-11.0071
最近几年	-11.0071
沿	-11.0074
国际货币	-11.0076
并以此	-11.0081
受到影响	-11.0083
所言	-11.0084
孟加拉	-11.0087
惠	-11.0088
疏	-11.0091
举行了	-11.0092
池	-11.0092
炼	-11.0092
棒	-11.0092
约束力	-11.0093
欺诈	-11.0093
侯赛因	-11.0093
令人印象深刻	-11.0093
圆	-11.0093
▁000	-11.0093
仅次于	-11.0093
自民党	-11.0093
铭记	-11.0093
令人惊讶	-11.0093
规避	-11.0093
高速公路	-11.0093
科研	-11.0094
累计	-11.0094
本世纪	-11.0094
包装	-11.0094
令人不安的	-11.0095
做些什么	-11.0095
攫取	-11.0095
极具	-11.0096
清单	-11.0097
随机	-11.0097
也有助于	-11.0097
机关	-11.0098
死亡人数	-11.0099
▁Sch	-11.0099
看出	-11.0099
1.7	-11.0101
乘	-11.0102
几次	-11.0103
进了	-11.0108
普通民众	-11.0112
开罗	-11.0116
实际上是	-11.0117
至少有	-11.0117
退化	-11.0118
意味着什么	-11.012
原来	-11.0123
三分之一的	-11.0124
已经有了	-11.0125
很简单	-11.0126
量化	-11.0128
军官	-11.0132
集中于	-11.0136
所面临的挑战	-11.0137
在许多国家	-11.0138
南美	-11.0142
投资项目	-11.0143
这样的结果	-11.0145
美国和中国	-11.0148
国家之间	-11.0148
民主党人	-11.0151
宝贵的	-11.0152
万个	-11.0153
不亚于	-11.0154
初期	-11.0158
有责任	-11.016
我们无法	-11.0162
来临	-11.0162
实际利率	-11.0162
出口商	-11.0178
名字	-11.0181
最贫穷	-11.0182
描述为	-11.0186
执政党	-11.0189
接近于	-11.0189
持续增长	-11.0194
Ben	-11.0201
甚至可以	-11.0201
涌	-11.0203
被允许	-11.0204
只是一个	-11.0208
律	-11.0213
欧盟预算	-11.0215
叛	-11.0215
永	-11.0218
腐	-11.0218
遗憾	-11.0224
页	-11.0225
韦	-11.0225
巴格达	-11.0225
唱	-11.0225
赴	-11.0225
奥斯陆	-11.0225
等同于	-11.0225
培育	-11.0225
沿岸	-11.0225
决裂	-11.0225
不对称	-11.0225
冷静	-11.0226
要实现	-11.0226
认真对待	-11.0226
必定	-11.0227
另	-11.0228
亲密	-11.0229
年代中期	-11.0232
意大利和西班牙	-11.0235
▁归根结底	-11.0237
体系中	-11.0238
急于	-11.0244
反击	-11.0245
44	-11.025
更糟	-11.0252
EC	-11.0253
依然存在	-11.0254
商业模式	-11.0256
狱	-11.0259
竞争者	-11.0259
外长	-11.0262
▁除此之外	-11.0263
胆	-11.0263
扩大到	-11.0271
两名	-11.0272
高速增长	-11.0275
对华	-11.0277
战略性	-11.0278
大得多	-11.028
损害了	-11.0283
在未来十年	-11.0283
一件	-11.0285
将达到	-11.0287
预防性	-11.0294
政府间	-11.0295
shi	-11.0295
希腊人	-11.0298
美国家庭	-11.0303
识	-11.0304
主权国家	-11.0309
将取决于	-11.031
这两个国家	-11.0314
在此	-11.0318
古老的	-11.0325
哪怕是	-11.0325
这一进程	-11.0338
诗	-11.0341
贫困国家	-11.0341
幅	-11.0343
私营	-11.0347
童	-11.0347
大坝	-11.0348
页岩	-11.0349
的研究表明	-11.0351
是否应该	-11.0354
陈	-11.0357
床	-11.0358
荒	-11.0358
摄	-11.0358
葬	-11.0358
戴高乐	-11.0358
闪	-11.0358
刀	-11.0358
肺结核	-11.0358
酸	-11.0358
灭绝	-11.0358
经通胀调整	-11.0358
脉	-11.0358
询问	-11.0358
加沙地带	-11.0359
股份	-11.0359
截至	-11.0359
测算	-11.036
春天	-11.0361
非常规货币政策	-11.0361
在全球范围内	-11.0362
很久	-11.0362
令人沮丧	-11.0362
光靠	-11.0365
优质	-11.0368
通货膨胀率	-11.037
摆脱贫困	-11.037
评论家	-11.0372
国内经济	-11.0375
管理层	-11.0376
抗击	-11.0377
公共资金	-11.0379
仅占	-11.038
合法化	-11.0389
移民政策	-11.0391
由此带来的	-11.0392
积极地	-11.0399
劳动力成本	-11.0404
曾经是	-11.0405
诊	-11.0405
坚持认为	-11.0405
的著作	-11.0406
发现自己	-11.0406
ian	-11.0407
一个事实	-11.0416
刺激经济	-11.0418
一周	-11.0422
亿人口	-11.0423
取消了	-11.0424
仅限于	-11.0428
不作为	-11.043
这段	-11.0433
浮现	-11.0436
可能发生	-11.0437
六个月	-11.0442
庭	-11.0451
更加复杂	-11.0454
大企业	-11.0468
无不	-11.0469
被杀	-11.0471
后代	-11.0474
捐助	-11.0482
学位	-11.0482
所说	-11.0485
并不像	-11.0488
触及	-11.0491
鼓	-11.0491
补助	-11.0492
虎	-11.0492
材	-11.0493
淘汰	-11.0493
懂	-11.0493
加勒比	-11.0493
勃	-11.0493
站不住脚	-11.0493
资本外逃	-11.0493
铜	-11.0493
▁Economic	-11.0493
中东和北非	-11.0493
清洗	-11.0493
召集	-11.0493
薄弱	-11.0494
减贫	-11.0494
言辞	-11.0495
以换取	-11.0495
王朝	-11.0495
购物	-11.0496
手术	-11.0496
挑起	-11.0497
结局	-11.0498
公私合作	-11.0498
奖金	-11.0498
解放军	-11.0498
运气	-11.0499
开明	-11.0499
很少有	-11.05
电信	-11.05
备受	-11.05
建筑业	-11.0501
角度讲	-11.0501
便已	-11.0503
使用武力	-11.0503
资本账户	-11.0503
斯蒂	-11.0504
他还	-11.0505
影响着	-11.0514
首先是	-11.0514
银行体系	-11.0516
贸易谈判	-11.0516
新时代	-11.0516
0.7	-11.0518
为了避免	-11.0518
敢	-11.0526
岸	-11.0532
自行	-11.0532
多数人	-11.0532
脱离欧盟	-11.0536
ance	-11.0542
合理性	-11.0542
不清	-11.0543
既有	-11.0543
集会	-11.0548
生活质量	-11.0549
主要由	-11.0549
op	-11.055
北欧国家	-11.0553
找出	-11.0556
暴力冲突	-11.056
发动了	-11.0561
如果不是	-11.0561
越发	-11.0561
有很大	-11.0567
常常被	-11.0572
官员们	-11.0575
反腐	-11.0577
其领导人	-11.0581
认为自己	-11.0598
是不可避免的	-11.0599
世界人口	-11.0604
▁Bo	-11.0612
统治下	-11.0615
日子	-11.0618
银	-11.0619
偶	-11.0625
牛津	-11.0626
竭	-11.0627
渔	-11.0627
洞	-11.0627
舆论	-11.0628
疾	-11.0628
隐含	-11.0629
撞	-11.063
实实在在的	-11.063
罗姆人	-11.063
哥斯达黎加	-11.063
寻求庇护者	-11.063
大相径庭	-11.063
硬着陆	-11.063
莎	-11.063
傲慢	-11.063
孟买	-11.063
治愈	-11.0631
福音	-11.0631
仇外	-11.0632
碳定价	-11.0632
老板	-11.0633
马丁	-11.0634
宽带	-11.0636
杀手	-11.0636
的前提下	-11.0636
头脑	-11.0636
打败	-11.0637
把握	-11.0638
亚太地区	-11.0639
改革派	-11.064
工作时间	-11.064
视频	-11.0641
形容	-11.0647
研究成果	-11.065
明天	-11.0651
伊朗核计划	-11.0653
附加	-11.0653
自满	-11.0655
标志性	-11.0656
可行性	-11.0657
呈现出	-11.0661
而这种	-11.0663
变得日益	-11.0663
针	-11.067
英国经济	-11.0673
开来	-11.0676
这一局面	-11.0676
许多人认为	-11.0677
揭示	-11.0677
俄罗斯和中国	-11.0678
并不会	-11.0679
这两大	-11.0679
以防止	-11.0681
的名字	-11.0685
流行病	-11.0691
通常会	-11.0697
继续下去	-11.07
退出欧元区	-11.0702
念	-11.0704
提出了一个	-11.0704
印度政府	-11.0705
国会议员	-11.0707
不一样	-11.0714
被用来	-11.0715
主要经济体	-11.0722
贫穷国家	-11.0725
还有很多	-11.0725
相符	-11.0726
共有	-11.0729
马克思	-11.073
要点	-11.0741
这方面	-11.0747
避税	-11.0748
缴	-11.0761
实证	-11.0761
个别	-11.0761
惨	-11.0765
污	-11.0766
刊	-11.0766
揭	-11.0767
纵	-11.0768
勤	-11.0768
牧	-11.0768
皮凯蒂	-11.0769
戏剧性	-11.0769
插	-11.0769
财阀	-11.0769
马杜罗	-11.0769
迈克尔	-11.0769
萨科齐	-11.0769
鲸	-11.0769
第二次世界大战	-11.0769
前瞻性	-11.0769
法律与正义党	-11.0769
乳腺癌	-11.0769
各不相同	-11.0769
疑虑	-11.0769
结婚	-11.077
现今	-11.077
司机	-11.077
回来	-11.077
叛军	-11.077
tr	-11.0771
黑客	-11.0771
还不如	-11.0771
平静	-11.0771
并确保	-11.0771
构想	-11.0772
主办	-11.0772
幸	-11.0772
顶级	-11.0772
买单	-11.0772
偶尔	-11.0773
和其他人	-11.0774
看护	-11.0775
耐药性	-11.0776
热带	-11.0777
公然	-11.0777
意在	-11.0779
他们应该	-11.0781
遗留	-11.0781
处方	-11.0782
局限性	-11.0782
罪名	-11.0782
很好	-11.0784
武装冲突	-11.0792
今年夏天	-11.0792
更有效地	-11.0794
南北	-11.0798
贸易顺差	-11.0798
审核	-11.0799
丧生	-11.0799
演变成	-11.0804
不断增长的	-11.0804
气温	-11.081
阿拉	-11.081
不负责任的	-11.0816
投资组合	-11.0818
忘	-11.0818
自从	-11.0823
进一步加剧	-11.0823
人口增长	-11.0824
1.2	-11.0824
究竟是	-11.0825
任何时候都	-11.0826
就是如此	-11.0829
融	-11.0829
可疑	-11.0829
核武	-11.0833
思想家	-11.0834
最优	-11.0835
所要求的	-11.0839
本已	-11.0842
令人担忧的	-11.0843
小学	-11.0843
教育体系	-11.0849
登上	-11.085
▁Institute	-11.0854
工业化国家	-11.0856
社会民主	-11.0859
ine	-11.0863
这种观点	-11.0865
0.3	-11.0866
解决这个问题	-11.0869
至少是	-11.0869
屋	-11.0873
▁这对于	-11.0877
其结果	-11.0886
希腊债务	-11.0889
同步	-11.0891
吞	-11.0893
数十亿	-11.0893
美国财政部	-11.0895
批准了	-11.0895
新成员国	-11.0896
一次性	-11.0898
已经证明	-11.0898
货币市场	-11.0899
有意义	-11.0903
典	-11.0904
促成了	-11.0905
关注点	-11.0906
外资	-11.0907
fe	-11.0907
Q	-11.0908
荷	-11.0909
垮	-11.0909
邮	-11.0909
绑	-11.091
塌	-11.091
受访者	-11.091
大规模杀伤性武器	-11.091
蛋白质	-11.091
50,000	-11.091
公务员	-11.091
区块链	-11.091
昆	-11.091
猪	-11.091
无家可归	-11.091
不复存在	-11.091
五星运动	-11.091
猩	-11.091
随处可见	-11.091
枯竭	-11.091
悲惨	-11.091
猛烈	-11.091
奋斗	-11.091
疫情	-11.091
短短	-11.091
卓越	-11.091
坚守	-11.091
跟踪	-11.0911
先锋	-11.0911
蚊子	-11.0911
表态	-11.0911
委托	-11.0911
赚取	-11.0911
营销	-11.0911
DNA	-11.0912
发育	-11.0912
冲动	-11.0913
坐视	-11.0913
远程	-11.0915
每天都	-11.0916
数十万	-11.0917
把他们	-11.0917
核试验	-11.0918
过度负债	-11.0918
论调	-11.092
末日	-11.0923
加起来	-11.0927
看不到	-11.0928
公共和私人	-11.0929
市场份额	-11.0929
不如说是	-11.0929
政治家们	-11.0929
与否	-11.093
每一次	-11.093
不必要的	-11.0931
乐于	-11.0933
摧毁了	-11.0933
出任	-11.0935
必须认识到	-11.0936
为止	-11.0936
中国企业	-11.0937
最基本的	-11.0938
最有效的	-11.0939
知情	-11.0941
幕后	-11.0944
遏制气候变化	-11.0947
增长战略	-11.0948
凸显了	-11.0951
学派	-11.0958
神圣	-11.0962
市民	-11.0966
ram	-11.0967
外交关系	-11.0968
中美洲	-11.0969
真是	-11.0976
经济模式	-11.0978
不仅限于	-11.0979
社会契约	-11.098
这一状况	-11.0982
低增长	-11.0983
够	-11.0985
有多大	-11.099
下一代	-11.1
2019	-11.1004
公私	-11.1007
能够实现	-11.1008
外国投资	-11.1011
民众对	-11.1012
粮食安全	-11.1014
革命性	-11.1028
前提是	-11.103
参与到	-11.1033
日本经济	-11.1034
一度	-11.1036
长期以来一直	-11.1038
名叫	-11.1038
等其他	-11.1041
大部分地区	-11.1042
建成	-11.1046
绿	-11.105
秘	-11.1051
孕	-11.1051
粮	-11.1052
迫在眉睫	-11.1053
两极分化	-11.1053
湖	-11.1053
1/3	-11.1053
灌溉	-11.1053
袋	-11.1053
困惑	-11.1053
弹道导弹	-11.1053
阻挡	-11.1053
擅长	-11.1053
抑郁症	-11.1053
呼吸	-11.1053
▁具体而言	-11.1053
还要多	-11.1053
霍乱	-11.1054
供给侧	-11.1055
护理	-11.1055
自然灾害	-11.1055
客观	-11.1055
照片	-11.1055
日趋	-11.1057
相容	-11.1057
可信度	-11.1057
之旅	-11.106
1914	-11.1061
抗议活动	-11.1064
挑选	-11.1065
男女	-11.1065
可供	-11.1065
仍未	-11.1067
尽量	-11.1072
名义利率	-11.1072
那次	-11.1074
ib	-11.1084
也不应该	-11.1084
一只	-11.1085
归属	-11.1087
七十	-11.1088
增长前景	-11.1097
拥有核武器	-11.1101
法西斯主义	-11.1119
气候政策	-11.1122
数据表明	-11.1126
总统奥巴马	-11.1126
共存	-11.1127
给出了	-11.1139
成百上千万	-11.1148
被剥夺	-11.1148
额度	-11.1152
昂	-11.116
严肃的	-11.1161
斯塔	-11.1163
外围	-11.1163
避	-11.117
解释是	-11.1171
重回	-11.1171
于此	-11.1175
lan	-11.1175
ga	-11.1177
En	-11.1179
克里	-11.118
育	-11.118
近一半	-11.1181
监	-11.1191
be	-11.1192
反恐	-11.1194
鼓舞	-11.1195
察	-11.1196
悲	-11.1196
国籍	-11.1196
厚	-11.1196
宫	-11.1197
伸	-11.1197
仓	-11.1198
孙	-11.1198
圣地亚哥	-11.1198
法兰克福	-11.1198
挤兑	-11.1198
借鉴	-11.1198
验证	-11.1198
虚拟	-11.1198
储户	-11.1198
付诸	-11.1198
热烈	-11.1198
民意调查	-11.1199
只有当	-11.1199
由此产生的	-11.1199
其主要	-11.1199
逃脱	-11.1199
种族隔离	-11.1199
群岛	-11.12
旅游业	-11.1201
感谢	-11.1201
法治精神	-11.1202
解散	-11.1202
付出代价	-11.1202
做到这一点	-11.1203
含量	-11.1203
空白	-11.1204
资产泡沫	-11.1204
有任何	-11.1205
西方人	-11.1205
划分	-11.1206
写入	-11.1208
欧美	-11.1208
联合起来	-11.1208
上面	-11.1209
世行	-11.1209
另一位	-11.1209
次级	-11.1209
提起	-11.1215
分类	-11.1215
叙利亚内战	-11.1216
国内需求	-11.1218
构	-11.1219
还不够	-11.1222
轻易地	-11.1222
拥	-11.1227
同期	-11.1229
舰	-11.1229
第一位	-11.123
来帮助	-11.1231
追随	-11.1235
这一方案	-11.124
不同于	-11.1241
杀人	-11.1242
讲述	-11.1242
不断上升	-11.1243
恶性	-11.1245
复杂性	-11.1252
太阳	-11.1253
两项	-11.1255
等级	-11.1258
流通	-11.127
政治精英	-11.1274
伙伴国	-11.1281
我们应当	-11.1283
发展出	-11.1284
上市	-11.1285
诊所	-11.1289
到处	-11.1291
体现出	-11.1292
产业政策	-11.1294
会发生什么	-11.1302
可比	-11.1304
统计数据	-11.1305
这些风险	-11.1306
整个世界	-11.1307
司	-11.1312
中受益	-11.1315
拉低	-11.1327
无法避免	-11.1327
其中之一	-11.1328
人工	-11.1329
收入差距	-11.1331
滞	-11.1331
续	-11.1331
▁这不仅	-11.1332
国际关系	-11.1336
只需	-11.1336
申	-11.1341
舞	-11.1344
反应堆	-11.1344
耻	-11.1345
猎	-11.1345
蓄	-11.1345
咒	-11.1345
有利可图	-11.1345
[	-11.1345
]	-11.1345
不惜一切代价	-11.1345
无处不在	-11.1345
枢纽	-11.1345
自上而下	-11.1345
ODA	-11.1345
掩饰	-11.1345
雪上加霜	-11.1345
鸦片	-11.1345
尊敬	-11.1345
恐吓	-11.1345
残忍	-11.1345
失踪	-11.1345
正好相反	-11.1346
装置	-11.1346
沙龙	-11.1346
买卖	-11.1347
女儿	-11.1347
流亡	-11.1347
点燃	-11.1349
迪拜	-11.135
相关性	-11.1351
第三大	-11.1352
达成共识	-11.1353
穿越	-11.1358
经历过	-11.136
新兴市场经济体	-11.1362
区间	-11.1364
化解	-11.1365
aw	-11.1365
正确地	-11.1367
麦克	-11.1369
本次	-11.1369
1930	-11.1372
多于	-11.1383
流出	-11.1388
政治权力	-11.1393
欧元区危机	-11.1393
金融改革	-11.1395
根本性的	-11.1396
印度和中国	-11.1397
基金组织	-11.1398
开启了	-11.1402
任由	-11.1406
适	-11.1408
克里斯	-11.1416
东方	-11.142
高增长	-11.1423
该项目	-11.1424
掩盖了	-11.1425
4.5	-11.1427
年期间	-11.1427
高位	-11.1429
的复杂性	-11.1432
天真	-11.1434
否	-11.1434
一路	-11.1437
所必须的	-11.1438
有一天	-11.1438
不完美	-11.1439
▁Ra	-11.1445
打破了	-11.1446
诱	-11.1448
职能	-11.1451
降临	-11.1451
十年期	-11.1451
非理性	-11.1452
男人	-11.1454
改革方案	-11.1458
容易受到	-11.1464
仍然没有	-11.1466
发挥了	-11.1467
始	-11.1476
金融动荡	-11.1485
曾说	-11.149
布雷顿森林	-11.149
诚	-11.149
卷	-11.1492
芬	-11.1493
斯洛伐克	-11.1494
愚	-11.1494
摄氏度	-11.1494
波士顿	-11.1494
阈值	-11.1494
谜	-11.1494
在一定程度上	-11.1494
皮克提	-11.1494
George	-11.1494
氦	-11.1494
倾斜	-11.1494
加密货币	-11.1494
萨尔科奇	-11.1494
排除在外	-11.1494
差不多	-11.1494
沙漠	-11.1494
大西洋两岸	-11.1494
印刷	-11.1494
翻番	-11.1494
初始	-11.1494
亨利	-11.1494
CCS	-11.1495
离岸	-11.1495
智库	-11.1496
仪式	-11.1496
求助	-11.1496
电视台	-11.1497
品质	-11.1497
男子	-11.1498
华盛顿特区	-11.1498
返回	-11.1499
绕过	-11.15
缩水	-11.15
很难想象	-11.15
他国	-11.1503
霍尔	-11.1503
终身	-11.1504
位居	-11.1504
身边	-11.1505
壮大	-11.1508
市场准入	-11.1508
新生	-11.151
做出贡献	-11.1511
更加糟糕	-11.1513
平价	-11.1515
过去二十年	-11.1519
总部	-11.1522
米尔	-11.1523
似乎正在	-11.1524
贸易壁垒	-11.1526
不佳	-11.1526
任何国家	-11.1528
发生的事情	-11.153
中低收入国家	-11.1539
社会安全网	-11.1539
银行贷款	-11.1539
公共利益	-11.1543
超越了	-11.1546
突	-11.1555
孩子们	-11.1556
so	-11.1558
大气中	-11.156
留在欧盟	-11.1567
最快	-11.157
再到	-11.1575
没有理由	-11.1581
读者	-11.1586
更强	-11.1592
战士	-11.1593
开战	-11.1596
2.2	-11.1606
此事	-11.1612
可能不会	-11.1613
介	-11.1614
du	-11.1614
之处在于	-11.1623
穆斯林国家	-11.1626
7.5	-11.1626
推出了	-11.1628
债权	-11.1631
家庭收入	-11.1632
ber	-11.1635
说话	-11.1637
蔓延到	-11.1638
细	-11.1641
召	-11.1642
鼠	-11.1644
扶	-11.1644
衷	-11.1645
兴奋	-11.1645
朔伊布勒	-11.1645
赤裸裸	-11.1645
喷	-11.1645
拉加德	-11.1645
AfD	-11.1645
David	-11.1645
伎俩	-11.1645
新西兰	-11.1645
赔偿	-11.1646
亏损	-11.1646
勉强	-11.1646
血液	-11.1646
防范	-11.1646
偶然	-11.1647
在过去十年中	-11.1647
背负	-11.1648
停留在	-11.1648
报导	-11.1648
关于如何	-11.165
▁Act	-11.165
清楚地表明	-11.1651
走私	-11.1652
获利	-11.1653
农产品	-11.1653
另一项	-11.1653
独裁政权	-11.1654
增强了	-11.1656
所指出的	-11.1658
劳动生产率	-11.166
三种	-11.1663
利差	-11.1666
相对较小	-11.1668
是否真的	-11.1669
所指出的那样	-11.1669
比现在	-11.167
市政	-11.1671
世界贸易	-11.1677
改革措施	-11.1679
法定	-11.1679
别国	-11.1683
体重	-11.1683
经济机会	-11.1688
影子银行	-11.1692
兑	-11.1696
减少贫困	-11.17
这并不意味着	-11.1704
助推	-11.1716
六个	-11.1718
所接受	-11.1722
叫做	-11.1722
教会	-11.1727
得起	-11.1728
爆发了	-11.1732
臭名昭著的	-11.1734
就业增长	-11.1734
令人担忧	-11.1734
后面	-11.1738
大大增加	-11.1739
影片	-11.174
毁掉	-11.174
5000	-11.1743
全球金融市场	-11.1744
激起	-11.1746
冠	-11.1746
纳税	-11.1751
多名	-11.1761
min	-11.1761
ive	-11.1764
核电	-11.1764
超国家	-11.1769
更加难以	-11.1769
全球卫生	-11.1769
闻	-11.1777
能源需求	-11.178
足以让	-11.1782
想让	-11.1785
里亚	-11.179
两位数	-11.1793
新政	-11.1793
绕	-11.1793
老年	-11.1793
成员资格	-11.1795
订	-11.1796
迹	-11.1797
讯	-11.1798
能源安全	-11.1798
伍	-11.1798
拘	-11.1799
泄	-11.1799
烦	-11.1799
基尼系数	-11.1799
AMR	-11.1799
分崩离析	-11.1799
寄希望于	-11.1799
恼	-11.1799
阿联酋	-11.1799
希拉克	-11.1799
辅之以	-11.1799
鲍	-11.1799
缝	-11.1799
佐	-11.1799
跨太平洋伙伴关系	-11.1799
2008—2009	-11.1799
政治化	-11.1799
黯淡	-11.1799
纽约时报	-11.1799
轴心	-11.18
囚犯	-11.18
篮子	-11.18
市值	-11.1801
赋权	-11.1801
1.4	-11.1802
谈话	-11.1802
房地产泡沫	-11.1802
根基	-11.1804
走势	-11.1805
戈尔	-11.1807
创造就业机会	-11.1808
区区	-11.1815
避开	-11.1819
政治和社会	-11.1821
萨尔	-11.1822
压力测试	-11.1822
困扰着	-11.1823
一个重要的	-11.1826
军力	-11.1829
可以理解	-11.183
政治压力	-11.1832
经济一体化	-11.1833
金融资产	-11.1837
过往	-11.1838
重要角色	-11.1839
才有可能	-11.1842
一波	-11.1843
走到	-11.1844
政治力量	-11.1847
极少数	-11.1851
结成	-11.1853
应该得到	-11.1853
芝加哥	-11.1858
可以利用	-11.1863
国际体系	-11.1864
两个月	-11.1867
老化	-11.1872
更加严重	-11.1874
年份	-11.1874
逃税	-11.1875
白俄罗斯	-11.1875
以一种	-11.1879
一本	-11.1888
不清楚	-11.1893
反美	-11.1894
多项	-11.191
讲话中	-11.1911
政治体制	-11.1911
75%	-11.1911
投资不足	-11.1916
这一次	-11.1919
度过	-11.1919
不平等状况	-11.1922
▁Ch	-11.1922
游客	-11.1923
定向	-11.1925
颇有	-11.1926
或许可以	-11.1928
的原因之一	-11.1932
人们认为	-11.1933
贸易政策	-11.1936
赞美	-11.1937
共同点	-11.1938
滑向	-11.1947
政治稳定	-11.1949
可言	-11.195
薪水	-11.1951
描述了	-11.1952
偿	-11.1953
遍	-11.1953
仪	-11.1953
乃	-11.1954
斥	-11.1955
下令	-11.1955
贸	-11.1955
1982	-11.1956
卡钦斯基	-11.1956
亚洲基础设施投资银行	-11.1956
旧金山	-11.1956
植根于	-11.1956
里程碑	-11.1956
骚扰	-11.1956
齐心协力	-11.1956
南中国海	-11.1956
稻	-11.1956
乌托邦	-11.1956
本月早些时候	-11.1956
挥霍	-11.1956
玉米	-11.1956
百姓	-11.1956
职业生涯	-11.1957
范例	-11.1957
遍布	-11.1957
曼德拉	-11.1957
裁定	-11.1957
创伤	-11.1957
渔业	-11.1958
罪恶	-11.1959
弱势群体	-11.196
金属	-11.1961
已知	-11.1966
优点	-11.1966
欧盟成员资格	-11.1967
这些公司	-11.1968
原则上	-11.1969
根深蒂固	-11.1969
埃尔	-11.1971
▁即便如此	-11.1971
物价稳定	-11.1972
ant	-11.1974
买家	-11.1974
高盛	-11.1974
尽力	-11.1978
IR	-11.198
货币操纵	-11.1981
极高的	-11.1982
甘地	-11.1985
2.7	-11.1987
永远无法	-11.1988
海域	-11.199
多边机构	-11.1991
这一切都	-11.1992
这种说法	-11.1994
并不总是	-11.2
严重威胁	-11.2001
死去	-11.2002
古老	-11.2003
我们认为	-11.2006
只有通过	-11.2009
比索	-11.2013
日常生活	-11.2013
激起了	-11.2016
物理学	-11.2022
这些改革	-11.2034
这一幕	-11.2038
网上	-11.2039
▁而当	-11.2041
债务融资	-11.2041
总统任期	-11.2043
有所增加	-11.2044
有人认为	-11.2045
毕业生	-11.205
33	-11.2052
此外还有	-11.2052
使人们	-11.2065
趋	-11.2067
担	-11.2068
三十	-11.2069
所拥有的	-11.207
美国消费者	-11.207
国民债务	-11.2071
最新研究	-11.2071
淡	-11.2071
应用于	-11.2072
靠近	-11.2074
政治改革	-11.2077
在华盛顿	-11.2077
很强	-11.2082
卫生工作者	-11.2083
这些数字	-11.2085
经济前景	-11.2086
爱国	-11.2087
十亿	-11.2088
其他部分	-11.2089
使我们	-11.2092
暴露了	-11.2095
降低利率	-11.2098
加利福尼亚	-11.2102
ran	-11.2105
越来越多的人	-11.2105
屈服	-11.2107
歉	-11.2109
疗	-11.211
泥	-11.2111
漫	-11.2111
阴	-11.2113
叙利亚总统巴沙尔	-11.2114
一夜之间	-11.2114
催化剂	-11.2114
文在寅	-11.2114
约瑟夫	-11.2114
联邦基金利率	-11.2114
寒	-11.2114
四分之三	-11.2114
巡	-11.2114
熟练	-11.2114
科尔宾	-11.2114
封锁	-11.2115
激怒	-11.2115
欠缺	-11.2115
健全	-11.2115
一定程度的	-11.2115
巧合	-11.2115
里斯本条约	-11.2115
齐聚	-11.2116
伊拉克人	-11.2116
鲜明	-11.2116
定律	-11.2116
政界	-11.2118
所说的那样	-11.2119
瓦解	-11.212
全球气候	-11.212
合格	-11.2121
关门	-11.2121
见证	-11.2122
退休基金	-11.2122
坝	-11.2127
货币宽松	-11.2127
忙于	-11.2128
科学研究	-11.2129
随时间	-11.2131
形成一致	-11.2134
重新思考	-11.2135
月以来	-11.2138
杰出	-11.2139
成立一个	-11.214
ani	-11.2141
做出反应	-11.2142
很明显	-11.2145
贫困线	-11.2146
就意味着	-11.2147
源自于	-11.215
基础设施建设	-11.2151
领导人们	-11.2152
几乎肯定会	-11.2158
军事实力	-11.2159
却依然	-11.2162
这种方式	-11.2163
也随之	-11.2168
银行监管	-11.2168
亿吨	-11.2177
迈出了	-11.2178
快于	-11.2184
两家	-11.2186
那就	-11.2191
大小	-11.2191
候选	-11.2191
ies	-11.2194
重新谈判	-11.2195
风能	-11.2202
新总统	-11.2206
所认为的	-11.2208
希腊退出	-11.2219
医疗卫生	-11.222
可能引发	-11.2222
比以前	-11.2223
就任	-11.2228
八个	-11.2228
从来不	-11.2229
精神病	-11.2231
后不久	-11.2231
市场参与者	-11.2232
bo	-11.2232
刺激增长	-11.2237
最早	-11.2243
摆在	-11.2254
AR	-11.2259
女童	-11.2264
lu	-11.2268
扮演着	-11.2272
堆	-11.2272
中国官员	-11.2273
右	-11.2273
怨	-11.2275
兼并	-11.2275
唤	-11.2275
呆	-11.2275
朴槿惠	-11.2276
聊	-11.2276
仲裁	-11.2276
Climate	-11.2276
▁从这个角度讲	-11.2276
换言之	-11.2276
巧妙	-11.2276
吞并克里米亚	-11.2276
垮台	-11.2276
土著	-11.2276
添加	-11.2277
坚实	-11.2277
对冲基金	-11.2277
大臣	-11.2277
略微	-11.2278
退休年龄	-11.2278
校园	-11.2278
处决	-11.2278
累进	-11.2279
彼得	-11.228
蔑视	-11.228
类别	-11.228
恶意	-11.2282
收取	-11.2282
▁其结果是	-11.2282
超额	-11.2283
华沙	-11.2283
核扩散	-11.2283
沿着	-11.2283
的帮助下	-11.2284
传统智慧	-11.2285
远大于	-11.2285
更深层次的	-11.2286
飞行	-11.2286
克劳	-11.2287
四倍	-11.2288
外围国家	-11.229
革新	-11.2296
贝尔	-11.2296
带领	-11.2297
遭遇了	-11.2302
危机期间	-11.2307
而是因为	-11.2311
象征性	-11.2313
特性	-11.2315
可持续增长	-11.2316
暴力活动	-11.2322
亿美元用于	-11.2323
这也许	-11.2326
临时性	-11.2328
分析家	-11.2329
什么时候	-11.233
我们看到	-11.2339
are	-11.2342
主要原因是	-11.2346
女人	-11.2349
这是一种	-11.2353
已经不再	-11.2353
67	-11.2353
手段来	-11.2357
资产购买	-11.2357
ish	-11.2358
为什么要	-11.2359
独一无二的	-11.2361
所处的	-11.2363
宝贵	-11.2366
与其说是	-11.2366
所领导的	-11.2375
可预测的	-11.2375
抑制了	-11.2378
1.8	-11.2386
次要	-11.2387
han	-11.2389
创造就业	-11.239
▁Br	-11.2396
发展战略	-11.2402
残疾	-11.2403
耗资	-11.2404
其他任何	-11.2407
不公正	-11.241
比起	-11.2413
形成一个	-11.2416
递	-11.242
快乐	-11.2424
ep	-11.2425
也面临着	-11.2426
zi	-11.2426
总共	-11.2428
▁Di	-11.2432
另一些	-11.2434
悬崖	-11.2435
奉	-11.2436
醒	-11.2437
一生	-11.2438
驾驶	-11.2439
仍能	-11.2439
隐瞒	-11.2439
史无前例	-11.2439
常任理事国	-11.2439
钦	-11.2439
不足为奇	-11.244
德黑兰	-11.244
的范畴	-11.244
World	-11.244
悬	-11.244
亚美尼亚	-11.244
喝	-11.244
螺旋	-11.244
饮用水	-11.244
一连串	-11.244
拥挤	-11.244
闹剧	-11.244
侵害	-11.244
纲领	-11.244
智能手机	-11.244
盯住	-11.244
脱贫	-11.244
宪政	-11.244
偏执	-11.2441
筹资	-11.2441
携手	-11.2441
达尔文	-11.2441
劳动密集型	-11.2441
改良	-11.2441
捕捉	-11.2441
已经过去了	-11.2441
社团	-11.2441
滋生	-11.2442
典范	-11.2442
原材料	-11.2442
脸书	-11.2442
祖先	-11.2442
礼物	-11.2443
拖入	-11.2443
暴动	-11.2444
比喻	-11.2444
敢于	-11.2448
收入和财富	-11.2449
4,000	-11.245
很多国家	-11.2452
国有化	-11.2455
英国选民	-11.2455
余额	-11.2455
感情	-11.2455
可以避免	-11.2457
精英阶层	-11.2458
完全不同的	-11.2461
变量	-11.2463
可以用来	-11.2463
唯有	-11.2466
数据库	-11.2467
竞争优势	-11.247
42	-11.2471
风险管理	-11.2488
新德里	-11.2488
很长时间	-11.2489
斗争中	-11.249
几千	-11.2491
第三种	-11.2494
自称	-11.2515
叙利亚难民	-11.2518
世人	-11.2533
低工资	-11.2536
经济学家们	-11.2539
变得更为	-11.255
大幅降低	-11.255
主要来自	-11.255
释放出	-11.2551
自己的国家	-11.2553
该条约	-11.2555
完全没有	-11.2559
能源政策	-11.2562
挤出	-11.2577
有三个	-11.2579
新闻媒体	-11.258
企	-11.2581
杯	-11.2587
41	-11.2588
劲	-11.2597
全球金融危机爆发	-11.2599
忍	-11.2601
湾	-11.2602
免遭	-11.2603
孔	-11.2604
谱	-11.2605
巧	-11.2605
核不扩散	-11.2605
须	-11.2605
牢	-11.2605
齐普拉斯	-11.2606
摸	-11.2606
颗	-11.2606
雾	-11.2606
摇摇欲坠	-11.2606
腰	-11.2606
渺茫	-11.2606
侮辱	-11.2606
抵挡	-11.2606
览	-11.2606
国民生产总值	-11.2606
游击队	-11.2606
施罗德	-11.2606
下一任	-11.2606
军备竞赛	-11.2606
萎靡不振	-11.2606
评判	-11.2607
延迟	-11.2607
参考	-11.2607
伪善	-11.2607
审议	-11.2607
业绩	-11.2607
景象	-11.2607
日本和韩国	-11.2608
冒犯	-11.2608
省份	-11.2608
维系	-11.2608
bi	-11.2608
谋求	-11.2609
引出了	-11.2609
极端天气	-11.2609
违法	-11.2609
低水平	-11.2609
过去三十年	-11.2613
听取	-11.2614
领取	-11.2614
华盛顿共识	-11.2614
怎么做	-11.2614
数据显示	-11.2615
正处在	-11.2615
1.9	-11.2616
船只	-11.2616
第三方	-11.2621
特朗普总统	-11.2626
下属	-11.2629
卡尼	-11.2633
专业化	-11.2633
不断恶化	-11.2634
误导性	-11.2634
低廉	-11.2635
持有者	-11.2635
服用	-11.2635
受教育	-11.2637
见到	-11.264
打着	-11.264
▁Pen	-11.2641
同行	-11.2641
目的地	-11.2642
最明显的	-11.2643
权势	-11.2644
欧盟和美国	-11.2644
相当大的	-11.2645
被动	-11.2649
事务上	-11.2649
科尔	-11.2653
公民权	-11.2653
如此多的	-11.2656
他的政府	-11.2656
les	-11.266
许多发展中国家	-11.2662
本能	-11.2663
五大	-11.2664
赶上	-11.2666
进口国	-11.2666
德斯	-11.2673
说出	-11.2675
民主政体	-11.2675
全球经济危机	-11.2676
预见到	-11.2679
发展模式	-11.2679
出身	-11.2681
激励机制	-11.2684
▁而事实上	-11.2688
法德	-11.2689
整个国家	-11.269
这一转变	-11.2692
之行	-11.2692
Le	-11.2693
货币扩张	-11.2702
把钱	-11.2703
落到	-11.2705
1.6	-11.2706
拿到	-11.2709
的唯一办法	-11.2713
波动性	-11.2718
感受	-11.272
180	-11.2727
重现	-11.2728
已经达到了	-11.2729
克莱	-11.2737
最终导致	-11.2738
欧洲货币联盟	-11.2739
单边	-11.2744
ry	-11.2746
创造一个	-11.2747
几乎肯定	-11.2755
余地	-11.2761
违	-11.2762
裁	-11.2766
互换	-11.2766
本可以	-11.2767
丧失了	-11.2767
这些目标	-11.2769
桌	-11.2772
竞	-11.2772
津	-11.2775
炸	-11.2775
赔	-11.2776
先发制人	-11.2776
NAFTA	-11.2776
劝	-11.2776
取而代之	-11.2776
搁置	-11.2776
腿	-11.2776
理查德	-11.2776
勘探	-11.2776
保加利亚	-11.2776
羊	-11.2776
齿	-11.2776
祸	-11.2776
晋	-11.2776
GCC	-11.2776
IPCC	-11.2776
迎合	-11.2776
宁愿	-11.2776
共担	-11.2776
侵入	-11.2777
宏观审慎	-11.2777
核裁军	-11.2778
入盟	-11.2778
炮制	-11.2779
令人鼓舞	-11.2779
频率	-11.278
球员	-11.278
处境	-11.278
推翻了	-11.2781
这笔钱	-11.2781
打消	-11.2782
固定汇率	-11.2782
万名	-11.2784
提供帮助	-11.2784
出路	-11.2785
自卫	-11.2785
▁这就是为什么	-11.2786
经济上的	-11.2788
四处	-11.2788
伊斯兰主义者	-11.2788
出口市场	-11.2789
安南	-11.279
会引发	-11.279
通道	-11.279
词汇	-11.2792
有核国家	-11.2795
不仅包括	-11.2796
下降至	-11.2801
更像是	-11.2803
IS	-11.2804
实用	-11.2806
投票率	-11.2807
面目	-11.2809
冷战结束	-11.281
泛欧洲	-11.2816
几乎不可能	-11.2817
专家们	-11.2818
gh	-11.2826
不容易	-11.2827
在此之前	-11.2827
无论如何	-11.2837
领导下的	-11.2837
go	-11.2838
0.4	-11.2839
增大	-11.2842
据称	-11.285
亚当	-11.2852
调查显示	-11.2858
He	-11.2863
军政府	-11.2865
远超	-11.2866
带来的好处	-11.2869
被证明是	-11.288
他本人	-11.2883
不属于	-11.2884
享受到	-11.2887
已经取得了	-11.2891
不相信	-11.2892
三个月	-11.2897
其中许多	-11.2903
ng	-11.2904
适应性	-11.2904
55	-11.2908
这一情况	-11.2909
我本人	-11.2913
这一回	-11.2916
你会	-11.2917
社会动荡	-11.2918
并将其	-11.2921
不是为了	-11.2922
中断	-11.2925
经济结构	-11.293
除外	-11.2932
更安全	-11.2939
lin	-11.2942
制度性	-11.2943
和平谈判	-11.2946
济	-11.2947
勾	-11.2947
珍	-11.2947
寄	-11.2948
午	-11.2948
妥	-11.2948
畏	-11.2948
墨	-11.2948
扯	-11.2948
瘾	-11.2948
或多或少	-11.2948
无动于衷	-11.2948
爵	-11.2948
甲烷	-11.2948
8,000	-11.2948
New	-11.2948
时至今日	-11.2948
畜	-11.2948
相关利益方	-11.2948
戈尔巴乔夫	-11.2948
顾虑	-11.2948
沙文主义	-11.2948
Center	-11.2948
幽灵	-11.2948
讽刺意味	-11.2948
威廉	-11.2948
拥护	-11.2948
浮动	-11.2949
终止	-11.2949
锁定	-11.2949
正规	-11.295
延缓	-11.295
初步	-11.2951
参选	-11.2951
观众	-11.2952
半岛	-11.2952
反腐运动	-11.2952
灾难性后果	-11.2953
所属	-11.2953
异见	-11.2955
捐款	-11.2956
牵涉到	-11.2956
阿萨德政权	-11.2956
回升	-11.2957
倡导	-11.2958
ism	-11.2958
商业周期	-11.2959
确切	-11.296
明确地	-11.2961
加利福尼亚州	-11.2962
更难	-11.2965
实力平衡	-11.2966
是一件	-11.2968
高官	-11.2972
资本要求	-11.2972
斯密	-11.2973
网络空间	-11.2974
保住	-11.2975
三次	-11.2976
第三次	-11.298
引向	-11.2982
矿产	-11.2986
无法再	-11.2987
规模最大的	-11.2987
2.4	-11.2988
金融危机爆发	-11.2989
千年	-11.2991
演变	-11.2991
斯托	-11.2994
欧洲工程	-11.2997
不但要	-11.2998
美元贬值	-11.3005
特别是考虑到	-11.3006
服从	-11.3006
保守主义	-11.3006
偿还债务	-11.3007
正面临	-11.302
突变	-11.3023
水电	-11.3039
附	-11.3048
之前就	-11.3048
并不足以	-11.3052
军事冲突	-11.3052
位列	-11.3055
获得成功	-11.3064
并非所有	-11.3068
当成	-11.3072
帝	-11.3077
ts	-11.3077
总体上	-11.3079
不合理	-11.308
付出的代价	-11.3083
不禁	-11.3086
才能够	-11.3102
多德	-11.3107
该机构	-11.3108
构建一个	-11.3111
陷	-11.3112
委员会主席	-11.3114
为了应对	-11.3117
生长	-11.3123
庆	-11.3123
卜	-11.3123
死灰复燃	-11.3123
尼加拉瓜	-11.3123
陪	-11.3123
Thomas	-11.3124
弗拉基米尔	-11.3124
鸿沟	-11.3124
杀虫剂	-11.3124
赞赏	-11.3124
车臣	-11.3124
透露	-11.3124
生殖	-11.3124
鼓动	-11.3125
疏远	-11.3126
骗局	-11.3126
聚焦于	-11.3127
1929	-11.3127
处置	-11.3127
听众	-11.3128
新疆	-11.3128
北爱尔兰	-11.3128
承担起	-11.3129
产品和服务	-11.3129
没有必要	-11.3129
美元计价	-11.3129
税务	-11.313
所做的那样	-11.313
盛行	-11.3131
布鲁	-11.3131
剧变	-11.3133
拉登	-11.3134
大豆	-11.3134
重获	-11.3134
直至	-11.3135
Su	-11.3137
解决这些问题	-11.3137
整个经济	-11.3144
贸易盈余	-11.315
承担责任	-11.3152
欧洲中央银行	-11.3152
之间的差距	-11.3152
反周期	-11.3154
明智地	-11.3154
高级别	-11.3161
相似之处	-11.3162
拒绝承认	-11.3162
仍处于	-11.3163
利益冲突	-11.3165
贸易自由化	-11.3166
出资者	-11.3171
开始实施	-11.3173
低位	-11.3175
这一方法	-11.3176
不仅要	-11.3177
新闻自由	-11.3181
第二种	-11.3181
开放社会	-11.3181
大幅削减	-11.3182
再融资	-11.3183
冠军	-11.3185
投向	-11.3187
哈拉	-11.3188
权重	-11.3191
为目标的	-11.3198
议案	-11.3204
gen	-11.3207
所做出的	-11.3208
么	-11.3208
大范围	-11.3209
阿布	-11.3221
其他因素	-11.3225
精英们	-11.3227
无条件	-11.3229
十年后	-11.323
样本	-11.3238
否决了	-11.3239
其他领域	-11.3247
三项	-11.3247
350	-11.3252
环境破坏	-11.3255
85	-11.3257
还未	-11.3265
框架下	-11.3271
观看	-11.3272
远远超过	-11.3273
首脑会议	-11.3275
党员	-11.3289
倡导者	-11.3292
常常会	-11.3292
抵	-11.3297
学界	-11.3297
洪	-11.3297
妇	-11.3299
勇	-11.33
裁军	-11.3301
伙	-11.3301
拼	-11.3301
遵	-11.3302
覆	-11.3302
艺	-11.3302
浅	-11.3302
覆辙	-11.3302
肝	-11.3302
相互依存	-11.3302
肺炎	-11.3302
卑	-11.3302
肿瘤	-11.3302
James	-11.3302
充其量	-11.3302
坠	-11.3302
珠	-11.3302
▁Health	-11.3302
斯诺登	-11.3302
微乎其微	-11.3302
挖掘	-11.3302
阿卜杜拉	-11.3302
发酵	-11.3302
▁举例来	-11.3302
规律	-11.3302
倾销	-11.3302
领衔	-11.3302
摇摆	-11.3303
二十国集团	-11.3303
连锁	-11.3303
暴涨	-11.3303
这样一来	-11.3303
虚弱	-11.3304
电池	-11.3304
伊始	-11.3304
代际	-11.3304
艾伦	-11.3304
▁而如今	-11.3304
书籍	-11.3304
放宽	-11.3305
mon	-11.3305
port	-11.3305
证实了	-11.3306
前夕	-11.3306
岁以下	-11.3307
物理学家	-11.3307
预先	-11.3308
卡特尔	-11.3308
普世	-11.3309
沃尔	-11.3309
起初	-11.3309
所实施的	-11.331
公职	-11.331
残暴	-11.3311
列入	-11.3313
系统重要性	-11.3314
变动	-11.3315
回收	-11.3315
发言人	-11.3315
所引起的	-11.3316
许	-11.3316
无序	-11.3317
几位	-11.3319
那场	-11.332
笔者	-11.3321
Nor	-11.3321
数十	-11.3324
诗人	-11.3325
即便在	-11.3325
以色列和巴勒斯坦	-11.3326
不满情绪	-11.3329
合并	-11.3329
简称	-11.3329
十个	-11.333
两难	-11.3331
隐性	-11.3331
去世	-11.3332
这一概念	-11.3335
两方面	-11.3337
自私	-11.3339
ty	-11.3339
教育机会	-11.3339
报告显示	-11.3339
日益增长的	-11.3346
商店	-11.3347
日益严重的	-11.3349
所有这一切	-11.3349
快速发展	-11.3357
重心	-11.3359
坚定地	-11.3363
1.1	-11.3364
一个例子	-11.3365
史上	-11.3368
相对较低	-11.3368
最紧迫的	-11.337
男孩	-11.3372
年末	-11.3376
世界范围内	-11.3382
正好	-11.3384
绿色能源	-11.3384
货币刺激	-11.3392
核武库	-11.3393
回国	-11.3396
za	-11.3397
纯属	-11.3397
教堂	-11.3401
占世界	-11.3401
所取代	-11.3407
被证明	-11.3407
或至少	-11.3408
压力下	-11.341
发展日程	-11.3412
保卫	-11.3416
地区内	-11.3416
留下了	-11.3418
共同努力	-11.3432
返	-11.3435
过去两年	-11.3436
秀	-11.344
这一模式	-11.3446
市场化	-11.3452
ast	-11.3453
wa	-11.3455
过度依赖	-11.346
来形容	-11.3463
抛弃了	-11.3463
不大可能	-11.3472
加入到	-11.3474
中期选举	-11.3477
莫迪政府	-11.3478
薄	-11.3483
抑郁	-11.3483
惩	-11.3484
躁	-11.3484
6,000	-11.3484
同僚	-11.3484
叶利钦	-11.3484
CDU	-11.3484
岌岌可危	-11.3484
ESM	-11.3484
哈里发	-11.3484
殆尽	-11.3484
四分五裂	-11.3484
波多黎各	-11.3484
内罗毕	-11.3484
无助于	-11.3484
替罪羊	-11.3484
针锋相对	-11.3484
钓鱼岛	-11.3484
1978	-11.3484
Council	-11.3484
无异于	-11.3484
毋庸置疑	-11.3484
艘	-11.3484
▁总而言之	-11.3484
更不要说	-11.3484
灰	-11.3484
振兴	-11.3484
裂痕	-11.3484
肆意	-11.3484
南斯拉夫	-11.3484
迟迟	-11.3484
西班牙和意大利	-11.3484
大使馆	-11.3484
复仇	-11.3484
▁这并不是说	-11.3484
警示	-11.3485
重蹈	-11.3485
神秘	-11.3485
补救	-11.3485
问题不在于	-11.3486
视野	-11.3486
协同	-11.3486
弊端	-11.3486
请求	-11.3486
禁运	-11.3486
重返	-11.3487
突发	-11.3487
这件事	-11.3487
盲目	-11.3487
信徒	-11.3487
法郎	-11.3487
也不例外	-11.3488
由此造成的	-11.3489
福岛	-11.3489
尤其重要	-11.3489
有活力的	-11.349
这部分	-11.349
平庸	-11.349
课税	-11.349
该行业	-11.3491
应急	-11.3492
伯格	-11.3492
游戏规则	-11.3493
陷入困境	-11.3497
扣除	-11.3499
1962	-11.3499
有缺陷的	-11.35
ke	-11.3501
深感	-11.3502
解释为何	-11.3503
泡沫破裂	-11.3503
无穷	-11.3503
中等收入国家	-11.3504
东乌克兰	-11.3505
▁Ho	-11.3505
带头	-11.3505
消极影响	-11.3506
不懈	-11.3506
债务上限	-11.3508
优化	-11.3508
强度	-11.3508
钞票	-11.3509
证券化	-11.351
发出了	-11.3513
建制派	-11.352
更严格的	-11.352
五十年	-11.3524
关乎	-11.3524
口头	-11.3524
最成功的	-11.3527
大跌	-11.3527
减免	-11.3529
独裁统治	-11.3532
好转	-11.3539
马德里	-11.3543
绝不会	-11.3544
被控	-11.3551
私人投资者	-11.3552
fa	-11.3553
人类活动	-11.3556
教义	-11.3557
殖民主义	-11.3557
水域	-11.3558
所创造的	-11.3558
决定因素	-11.3563
age	-11.3563
先前	-11.3566
波及	-11.3572
第六	-11.3572
右翼民粹主义	-11.3577
对准	-11.3581
严重依赖	-11.3585
正在快速	-11.3588
欧洲和日本	-11.3589
47	-11.3596
主权债务危机	-11.3603
这种现象	-11.3608
.0	-11.3609
仅靠	-11.3623
ok	-11.3623
原教旨主义者	-11.3623
多达	-11.3626
继续保持	-11.3628
大自然	-11.363
希腊危机	-11.3631
挑	-11.3646
尚不	-11.3647
不透明	-11.3647
身份政治	-11.3648
研究显示	-11.3652
中印	-11.3653
中等收入	-11.3656
可再生	-11.3657
▁但今天	-11.3659
表决	-11.366
全球经济增长	-11.366
保健	-11.3662
未来几十年	-11.3663
催	-11.3666
罢	-11.3667
培	-11.3668
愤	-11.3669
肺	-11.3669
烂	-11.3669
诈	-11.3669
彭	-11.3669
睡	-11.3669
囤积	-11.3669
腹	-11.3669
以失败告终	-11.3669
塞拉利昂	-11.3669
址	-11.3669
特拉维夫	-11.3669
罪魁祸首	-11.3669
悠久	-11.3669
被告知	-11.3669
AKP	-11.3669
重中之重	-11.3669
喜马拉雅	-11.3669
摊	-11.3669
辅助	-11.3669
冷漠	-11.3669
购买力平价	-11.3669
孕育	-11.3669
泄漏	-11.3669
▁Fund	-11.367
许诺	-11.367
丢掉	-11.367
监视	-11.367
安慰	-11.367
考试	-11.367
个基点	-11.3671
令人惊奇	-11.3671
附加值	-11.3671
九十年代	-11.3671
合乎	-11.3672
每桶	-11.3672
疑问	-11.3672
食品安全	-11.3672
吸纳	-11.3672
结算	-11.3673
现存	-11.3673
天堂	-11.3674
随意	-11.3676
代表团	-11.3677
自由贸易区	-11.3678
火车	-11.368
低碳能源	-11.368
两者都	-11.3682
这有助于	-11.3682
大体上	-11.3682
一大半	-11.3682
团结起来	-11.3683
潜能	-11.3684
小于	-11.3685
假新闻	-11.3686
政策工具	-11.3688
现场	-11.3693
带给	-11.3695
局长	-11.3697
强权	-11.3704
低得多	-11.3705
下一步	-11.3709
食用	-11.3709
十亿人	-11.371
深受	-11.3715
创新者	-11.3721
角度来看	-11.3722
输送	-11.3728
为中心的	-11.3728
持续性	-11.3733
历史记录	-11.3734
高通胀	-11.374
论据	-11.3744
更快地	-11.3747
所代表的	-11.3749
工作机会	-11.3755
固有	-11.3758
卖给	-11.3761
这就意味着	-11.3765
伊斯兰世界	-11.3767
部分原因是	-11.3772
时常	-11.3775
之间的冲突	-11.3777
约占	-11.3779
这些趋势	-11.378
蒙受	-11.3786
对俄	-11.3787
金融工具	-11.379
每月	-11.3792
揭示了	-11.3793
这篇	-11.3798
认为这是	-11.3798
区域性	-11.3803
Pr	-11.3804
发生改变	-11.3808
工资水平	-11.381
iv	-11.3813
来衡量	-11.3818
EP	-11.3819
评级机构	-11.3819
极高	-11.3821
免税	-11.3823
高失业	-11.3825
提供融资	-11.3832
方面取得了	-11.3836
正在日益	-11.384
强劲增长	-11.3841
豆	-11.3846
亿多	-11.3848
贩	-11.3849
应该考虑	-11.385
老人	-11.3851
度假	-11.3851
盲	-11.3853
霸	-11.3853
焦	-11.3854
洁	-11.3856
亚太	-11.3856
抑或	-11.3856
近几年	-11.3856
磨	-11.3857
填	-11.3858
市场失灵	-11.3858
详	-11.3858
天安门	-11.3858
Twitter	-11.3858
廷	-11.3858
国际原子能机构	-11.3858
在多大程度上	-11.3858
杆	-11.3858
县	-11.3858
炉	-11.3858
自由裁量	-11.3858
耀	-11.3858
与日俱增	-11.3858
只剩下	-11.3858
招聘	-11.3858
富兰克林	-11.3858
1971	-11.3858
滚	-11.3858
卢森堡	-11.3858
蕴	-11.3858
薄熙来	-11.3858
怨恨	-11.3858
卸任	-11.3858
仿效	-11.3858
丈夫	-11.3858
契合	-11.3858
连贯	-11.3858
临床试验	-11.3859
储蓄者	-11.3859
注资	-11.3859
匿名	-11.3859
预警	-11.3859
移动电话	-11.3859
装备	-11.3859
头寸	-11.3859
蒙蒂	-11.3859
审计	-11.386
作为一个整体	-11.386
图景	-11.386
警报	-11.386
理智	-11.3861
想象一下	-11.3861
童工	-11.3861
物价指数	-11.3861
街道	-11.3861
资本外流	-11.3861
联合国秘书长	-11.3861
无非是	-11.3861
曲线	-11.3862
恰好	-11.3862
追加	-11.3863
调节	-11.3863
心理学	-11.3863
und	-11.3863
武装分子	-11.3863
拙劣的	-11.3865
还远远不够	-11.3866
已不再是	-11.3866
的世界里	-11.3866
家庭消费	-11.3867
存款保险	-11.3867
ical	-11.3868
日本首相安倍晋三	-11.3869
全职	-11.3869
解决之道	-11.3869
民间社会	-11.387
被推翻	-11.3872
特质	-11.3873
独自	-11.3875
消除贫困	-11.3879
既定	-11.3879
所描述的	-11.388
捍卫者	-11.3881
九个	-11.3882
平均而言	-11.3885
怀疑派	-11.3886
注定要	-11.3886
两国方案	-11.3892
有多么	-11.3894
2.8	-11.3898
rry	-11.3901
节能	-11.3905
我们所有人	-11.3909
只有不到	-11.3909
民粹主义政党	-11.3915
废物	-11.3918
全球供应链	-11.3918
中国的崛起	-11.3919
巴尔	-11.3922
商业投资	-11.3924
UN	-11.3929
目前为止	-11.393
墨西哥城	-11.3933
58	-11.3934
个州	-11.3938
几乎完全	-11.3939
ka	-11.3939
制品	-11.3945
for	-11.3952
反犹	-11.3953
越来越高	-11.3955
可以肯定	-11.3956
法西斯	-11.3961
ev	-11.3964
该法案	-11.3966
有时甚至	-11.3966
东欧国家	-11.3969
拉里	-11.3974
要做的	-11.3975
可以说是	-11.3978
税制	-11.3981
一千	-11.3981
不会发生	-11.3989
希望看到	-11.3989
与其说	-11.3994
保持稳定	-11.3995
储	-11.3997
贫困率	-11.3997
最著名的	-11.3998
广受	-11.4004
财政规则	-11.4006
卫生设施	-11.4008
撤	-11.4009
▁而随着	-11.4012
长大	-11.4012
税收改革	-11.4013
加紧	-11.4018
两国都	-11.4019
未来十年	-11.4024
驱动力	-11.4034
教士	-11.4038
符	-11.4042
彼	-11.4044
意义重大	-11.4044
54	-11.4044
远远不够	-11.4044
一年后	-11.4046
这并非	-11.4046
练	-11.4049
逝	-11.4049
地产	-11.405
挺	-11.405
挖	-11.405
缠	-11.405
仗	-11.405
窄	-11.405
颂	-11.405
赦	-11.405
从某种程度上说	-11.405
伊斯坦布尔	-11.405
斯堪的纳维亚	-11.405
铀浓缩	-11.405
多哈回合	-11.405
提倡	-11.405
凌驾于	-11.405
束手无策	-11.405
自然而然	-11.405
跨太平洋合作伙伴关系	-11.405
非传染性疾病	-11.405
轻而易举	-11.405
迅猛	-11.405
拥抱	-11.405
▁讽刺的是	-11.405
Jose	-11.4051
贩毒	-11.4051
东北亚	-11.4051
修补	-11.4051
战役	-11.4051
行径	-11.4052
所看到的	-11.4052
浮动汇率	-11.4052
解释了为什么	-11.4053
迷失	-11.4053
ney	-11.4053
养活	-11.4053
他信	-11.4054
跟进	-11.4054
闻名	-11.4054
无限期	-11.4054
结合起来	-11.4054
欧洲议会选举	-11.4056
回购	-11.4056
写照	-11.4056
滞后	-11.4056
预期寿命	-11.4057
指南	-11.4058
过去五年	-11.4058
人口老龄化	-11.4062
100%	-11.4063
双边贸易	-11.4064
热门	-11.4064
下注	-11.4066
冒着	-11.4066
消化	-11.4068
军人	-11.4068
信用卡	-11.407
普通公民	-11.407
王国	-11.407
主人	-11.407
无形	-11.4074
科学家们	-11.4074
大面积	-11.4078
合力	-11.4078
重新分配	-11.4083
告诉我	-11.4088
日期	-11.4088
益处	-11.4089
消费量	-11.41
远远没有	-11.4105
价值链	-11.4105
更健康	-11.4106
板球	-11.4107
限额	-11.4108
爱国主义	-11.4112
重新统一	-11.4115
供水	-11.4123
官僚主义	-11.4133
pro	-11.4134
经常账户	-11.4136
这项工作	-11.4147
经常账户赤字	-11.4163
欧洲其他国家	-11.4167
燃煤	-11.417
此人	-11.4174
代表性	-11.4174
财政调整	-11.4178
2.3	-11.4181
面对着	-11.4187
政体	-11.4191
会怎样	-11.4195
治理结构	-11.4196
其中大部分	-11.4196
道德风险	-11.4206
欧元区外围	-11.4208
官僚机构	-11.4209
现已	-11.421
人质	-11.4218
库存	-11.4222
样子	-11.4229
奥运	-11.423
一种新的	-11.4232
所使用的	-11.4233
公认	-11.4233
受害	-11.4235
错过	-11.4236
启	-11.4236
认清	-11.4237
阳光	-11.4241
捷	-11.4243
受灾	-11.4244
赎	-11.4244
仰	-11.4245
榜	-11.4245
忌	-11.4246
深思熟虑	-11.4246
坦桑尼亚	-11.4246
达尔富尔	-11.4246
分水岭	-11.4246
瓶颈	-11.4246
罗纳德	-11.4246
莉	-11.4246
非营利	-11.4246
SPD	-11.4246
劳动力大军	-11.4246
欧洲央行行长德拉吉	-11.4246
汗	-11.4246
Michael	-11.4246
不动产	-11.4246
NCD	-11.4246
侨民	-11.4246
悬而未决	-11.4246
米歇尔	-11.4246
▁Commission	-11.4246
饭店	-11.4246
马斯特里赫特条约	-11.4247
钻石	-11.4247
存储	-11.4247
造就了	-11.4247
窗口	-11.4247
夫妇	-11.4248
火箭	-11.4248
轻微	-11.4248
消退	-11.4248
遇到了	-11.4249
发言权	-11.4249
民调显示	-11.4249
基辛格	-11.4249
在某些情况下	-11.4249
ICT	-11.425
激情	-11.425
算盘	-11.425
细分	-11.425
博士	-11.425
肉类	-11.425
在这样的环境下	-11.425
每个国家	-11.425
赚钱	-11.425
关切	-11.425
谈判桌	-11.4251
付费	-11.4251
长久以来	-11.4251
调停	-11.4252
心脏病	-11.4252
红线	-11.4252
剔除	-11.4253
恰	-11.4253
确认了	-11.4253
习近平主席	-11.4253
▁可以肯定的是	-11.4255
推理	-11.4256
每周	-11.4256
信条	-11.4257
巴勒斯坦权力机构	-11.4257
盈利能力	-11.4257
陷入停滞	-11.4258
能源供应	-11.4259
国际货币体系	-11.4261
展示了	-11.4261
蒙特	-11.4261
胜过	-11.4262
巴林	-11.4262
希尔	-11.4263
用作	-11.4264
ness	-11.4267
发生了变化	-11.427
上诉	-11.427
风险溢价	-11.4272
紧张关系	-11.4274
最强大的	-11.4275
战线	-11.4276
总值	-11.4278
身后	-11.4278
外汇市场	-11.4279
不可靠	-11.4282
长期存在的	-11.4283
ash	-11.4283
破坏力	-11.4285
少数人	-11.4286
ture	-11.4286
平衡预算	-11.4286
▁Sh	-11.4294
这么多	-11.4295
包容性增长	-11.4298
兑美元	-11.4299
不丹	-11.4299
重新评估	-11.4303
另有	-11.4304
案例中	-11.4315
后尘	-11.4315
托尼	-11.4324
继任者	-11.4326
房地产价格	-11.4326
是一个错误	-11.4334
ler	-11.4335
第十	-11.4349
负有	-11.4351
给定	-11.4351
重新定义	-11.4355
美国领导的	-11.4357
收支平衡	-11.4361
这也许是	-11.4366
有可能导致	-11.438
ern	-11.4386
普通人	-11.4389
品种	-11.4399
mer	-11.4401
延伸	-11.4402
不会再	-11.4404
多得多	-11.4411
网络安全	-11.4423
想象力	-11.4425
东扩	-11.4429
系列	-11.443
已经失去了	-11.4432
两周	-11.4432
技	-11.4434
赋	-11.4441
US	-11.4442
饱	-11.4442
仇	-11.4442
京	-11.4444
滋	-11.4444
妻	-11.4444
踪	-11.4444
窃	-11.4445
纺织	-11.4445
涅	-11.4445
辨	-11.4446
挣	-11.4446
饭	-11.4446
恒	-11.4446
亿万富翁	-11.4446
笼	-11.4446
管理不善	-11.4446
逾	-11.4446
醉	-11.4446
雕	-11.4446
Martin	-11.4446
各自为政	-11.4446
爱因斯坦	-11.4446
吞噬	-11.4446
1987	-11.4446
资不抵债	-11.4446
瑟	-11.4446
诺贝尔和平奖	-11.4446
革命卫队	-11.4446
受制于	-11.4446
流氓	-11.4446
荣誉	-11.4446
讨厌	-11.4446
驳斥	-11.4446
诉诸	-11.4447
酒店	-11.4447
种姓	-11.4447
抽象	-11.4447
指挥官	-11.4447
常识	-11.4447
慢性病	-11.4448
赌博	-11.4448
得出结论	-11.4448
接近于零	-11.4448
罢工	-11.4448
创设	-11.4448
法国和意大利	-11.4448
沃伦	-11.4448
1985	-11.4448
入学率	-11.4448
在短短	-11.4449
可贸易部门	-11.4449
明朗	-11.4449
假装	-11.4449
新来者	-11.4449
宏伟	-11.445
失效	-11.445
3.2	-11.445
而这正是	-11.4451
100,000	-11.4452
输入	-11.4453
对其进行	-11.4453
2.1	-11.4454
小农	-11.4455
屈服于	-11.4456
无所作为	-11.4456
联合国可持续发展目标	-11.4456
面临的挑战	-11.4457
的最佳方式	-11.4458
列强	-11.4459
伯特	-11.4461
趣	-11.4463
0.8	-11.4463
ina	-11.4464
世界上最大的	-11.4465
精神疾病	-11.4466
在现实中	-11.4469
吞并	-11.447
Mark	-11.447
放心	-11.4473
出人意料地	-11.4473
资本重组	-11.4475
健康保险	-11.4484
慢性	-11.4485
美国总统大选	-11.4487
全欧洲	-11.4489
单边主义	-11.4489
更多的钱	-11.4493
预料到	-11.4494
大谈	-11.4495
之手	-11.45
低效率	-11.4501
bra	-11.4506
大片	-11.4508
是可能的	-11.4511
短期利率	-11.4517
谁会	-11.452
农地	-11.4523
保护自己	-11.4523
第四个	-11.4525
对冲	-11.4535
只关注	-11.4536
不平等现象	-11.4537
长期失业	-11.4539
基本权利	-11.4539
一件事	-11.4542
交易成本	-11.4543
之战	-11.4544
甚于	-11.4545
关键领域	-11.4551
有义务	-11.4552
无法想象	-11.4556
经济减速	-11.4556
130	-11.4556
球队	-11.456
翼	-11.4564
公司治理	-11.4583
一党	-11.4583
更严重的	-11.4584
准确地	-11.4587
加工	-11.4588
送到	-11.4589
▁可是	-11.4592
私人资本	-11.4597
核心问题	-11.4598
经济萧条	-11.4599
最近几个月	-11.4604
欧洲统一	-11.4604
▁Com	-11.4606
这是一场	-11.461
童婚	-11.4612
滥	-11.4621
5.5	-11.4623
方面发挥	-11.4627
驱	-11.4632
新生儿	-11.4641
会员	-11.4643
兰德	-11.4644
献	-11.4646
保有	-11.4647
愈	-11.4648
这两者	-11.4648
荡	-11.4648
尖	-11.4649
钞	-11.4649
仿	-11.4649
马利基	-11.465
囊	-11.465
夹	-11.465
浓缩	-11.465
猫	-11.465
小儿麻痹症	-11.465
权宜之计	-11.465
阿里巴巴	-11.465
最大限度地	-11.465
相去甚远	-11.465
已久的	-11.465
迷你电网	-11.465
1984	-11.465
▁Bank	-11.465
莫拉莱斯	-11.465
刘晓波	-11.465
心目中	-11.465
Jean	-11.465
麦肯锡	-11.465
濒临	-11.465
所起的作用	-11.465
大手笔	-11.465
旱灾	-11.465
表演	-11.4651
Marine	-11.4651
互补	-11.4651
兴建	-11.4651
从现在开始	-11.4652
马琳	-11.4652
抵押品	-11.4652
激活	-11.4652
名誉	-11.4653
蒙受损失	-11.4653
附带	-11.4654
氧化	-11.4654
商界领袖	-11.4654
美国总统唐纳德	-11.4654
货币和财政政策	-11.4655
▁总之	-11.4655
2.0	-11.4655
弗雷	-11.4655
崇高	-11.4656
在实践中	-11.4658
推断	-11.4659
伊斯兰共和国	-11.4659
一个简单的	-11.4659
压抑	-11.4659
含有	-11.4659
五年前	-11.4659
原因很简单	-11.4661
布托	-11.4661
yn	-11.4664
试点	-11.4666
执政期间	-11.4666
更糟糕的	-11.4668
成本效益	-11.4669
民族主义情绪	-11.4669
议会选举	-11.4671
不可接受的	-11.4672
去年夏天	-11.4672
事项	-11.4674
人民币汇率	-11.4674
一致同意	-11.4675
数万亿美元	-11.4675
主权债券	-11.4677
十分有限	-11.4682
▁但这并不意味着	-11.4683
银行账户	-11.4686
几个世纪	-11.4692
以此为	-11.4693
暗中	-11.4695
外币	-11.4698
马克思主义	-11.4709
经常会	-11.4711
基础之上	-11.4711
的速度增长	-11.4713
合成	-11.4716
消费品	-11.4718
财政扩张	-11.4719
莱恩	-11.4721
外交手段	-11.4725
人力资源	-11.4735
国际援助	-11.4738
土地使用	-11.4739
uk	-11.4746
ary	-11.4746
生意	-11.4747
unt	-11.4749
可用于	-11.4757
萨克	-11.4765
危险性	-11.4768
债券收益率	-11.4769
卡斯	-11.477
大体	-11.4772
两者之间	-11.4774
忘了	-11.4784
宏观经济稳定	-11.4785
而与此同时	-11.4786
驻军	-11.4792
政治进程	-11.4792
资源配置	-11.4794
即所谓的	-11.4798
番	-11.4803
更长时间	-11.4804
入狱	-11.4804
过渡期	-11.481
政治人物	-11.4813
进一步增加	-11.4816
萨德	-11.4817
低技能	-11.4817
世界其他地方	-11.4818
十九	-11.4821
亚洲金融危机	-11.4822
国防部	-11.4825
人口数量	-11.483
印钞	-11.4831
tive	-11.4838
这座	-11.484
谁能	-11.4842
140	-11.4843
烈	-11.4851
ham	-11.4852
金融包容	-11.4854
资金用于	-11.4857
患有	-11.4857
纲	-11.4858
钻	-11.4858
饰	-11.4858
丑	-11.4858
焚	-11.4858
卡斯特罗	-11.4859
气氛	-11.4859
肾	-11.4859
无济于事	-11.4859
金正日	-11.4859
沉迷于	-11.4859
2/3	-11.4859
斩	-11.4859
腐蚀	-11.4859
英国独立党	-11.4859
各种各样的	-11.4859
1986	-11.4859
▁Summers	-11.4859
可支配收入	-11.4859
骑	-11.4859
1988	-11.4859
谬误	-11.4859
不情愿	-11.4859
不无道理	-11.4859
脱钩	-11.4859
流域	-11.4859
泛滥	-11.4859
基辅	-11.4859
相悖	-11.4859
挽回	-11.4859
抗拒	-11.4859
泄露	-11.4859
演习	-11.4859
互惠	-11.4859
天主教徒	-11.4859
引爆	-11.486
压缩	-11.486
▁有鉴于	-11.486
农作物	-11.486
文盲	-11.486
泰勒	-11.4861
正逢	-11.4861
博客	-11.4861
表述	-11.4862
寿命预期	-11.4862
脱节	-11.4862
推测	-11.4862
保密	-11.4862
救命	-11.4863
基于规则的	-11.4863
十足	-11.4864
缺点	-11.4864
立足	-11.4867
没人知道	-11.4869
打印	-11.487
1968	-11.487
足够多的	-11.487
引力	-11.4871
低收入家庭	-11.4871
调动	-11.4872
人道主义援助	-11.4873
朝鲜政权	-11.4874
保持沉默	-11.4876
与会者	-11.4878
发生了什么	-11.4878
很长	-11.4879
诱人	-11.4884
水源	-11.4884
大幅上升	-11.4885
通行	-11.4885
分解	-11.4885
往常	-11.4888
重新获得	-11.489
开出	-11.4893
更早	-11.4895
支出削减	-11.4895
从来就	-11.4899
if	-11.49
伊斯兰革命	-11.4901
通胀压力	-11.4904
刚刚结束	-11.4906
假说	-11.4908
管理局	-11.491
有时会	-11.4911
视作	-11.4912
最坏的	-11.4914
信用评级	-11.4914
远远超过了	-11.4915
赖以	-11.4916
食品价格	-11.4925
是唯一一个	-11.4929
贸易逆差	-11.4937
离婚	-11.4942
这一步	-11.4944
最富有的	-11.4944
量化宽松政策	-11.4946
国土	-11.4949
高价	-11.4951
实际情况	-11.4954
入侵伊拉克	-11.4955
下调	-11.4962
些什么	-11.4966
特使	-11.4968
170	-11.4969
内心	-11.4982
实时	-11.4982
PA	-11.4983
主席国	-11.4997
已经超过了	-11.4998
太高	-11.4998
全国性	-11.5
英国和美国	-11.5009
最为重要的	-11.5014
地区和全球	-11.5021
自主权	-11.5024
温家宝	-11.5026
顺差	-11.5029
的主要目标	-11.5047
融化	-11.5049
命名	-11.5051
调低	-11.5055
首相安倍晋三	-11.506
强行	-11.5062
券	-11.5066
国际制裁	-11.5067
加重	-11.5067
凝聚	-11.5069
欢	-11.507
窗	-11.507
抹	-11.507
酷	-11.507
前工业化水平	-11.5071
屡	-11.5071
全方位	-11.5071
好莱坞	-11.5071
瓜	-11.5071
腹泻	-11.5071
1972	-11.5071
▁纽黑文	-11.5071
博科圣地	-11.5071
贯彻	-11.5071
野生动物	-11.5071
单枪匹马	-11.5071
民主刚果	-11.5071
虔诚	-11.5071
追溯	-11.5071
息息相关	-11.5071
李克强	-11.5071
砍伐	-11.5071
悲哀	-11.5071
蚊帐	-11.5071
在可预见的未来	-11.5072
大不相同	-11.5072
绩效	-11.5072
心脏	-11.5072
牢记	-11.5072
禁忌	-11.5072
收拾	-11.5072
女权主义	-11.5072
陈述	-11.5072
悲伤	-11.5072
倾听	-11.5072
订立	-11.5072
鲁棒	-11.5072
须知	-11.5072
霸主	-11.5073
粒子	-11.5073
迟缓	-11.5073
整顿	-11.5073
异议	-11.5074
1947	-11.5074
环节	-11.5074
发言	-11.5074
马里奥	-11.5075
尼古拉斯	-11.5075
核反应堆	-11.5075
留欧	-11.5075
资深	-11.5076
财政悬崖	-11.5077
布雷顿森林体系	-11.5077
远景	-11.5078
夺回	-11.5079
否决权	-11.508
入学	-11.5081
原先	-11.5081
远远低于	-11.5082
起源	-11.5082
将军们	-11.5082
Inter	-11.5082
集权	-11.5083
趋向	-11.5084
核查	-11.5084
枪支	-11.5086
▁Bu	-11.5087
10,000	-11.5087
空军	-11.5088
第一轮	-11.509
出访	-11.5092
增长最快的	-11.5092
ick	-11.5093
现时代	-11.5097
每位	-11.51
陷入衰退	-11.51
议会选举中	-11.5101
EM	-11.5102
集合	-11.5106
看见	-11.5106
平均每年	-11.5109
值得关注	-11.5116
贸易平衡	-11.512
卖出	-11.5123
生物技术	-11.5125
法制	-11.5128
最后一次	-11.5129
一直处于	-11.5129
Ru	-11.513
ight	-11.513
达尔	-11.5131
良性	-11.5137
这一情景	-11.5139
斯顿	-11.5156
销毁	-11.516
每当	-11.5166
本身就是	-11.517
公共健康	-11.5174
为核心的	-11.5177
结果就是	-11.518
全球金融体系	-11.5193
惜	-11.5196
金融产品	-11.5201
政治僵局	-11.5204
十倍	-11.5206
六十年	-11.5208
尘	-11.5213
美国和日本	-11.5218
.6%	-11.5222
一丝	-11.5226
沦	-11.5232
一组	-11.5233
mar	-11.5242
实际工资	-11.5247
3000	-11.5252
三位	-11.5254
军事化	-11.5262
联盟党	-11.5263
创始	-11.5267
伟	-11.5269
被纳入	-11.527
剩	-11.5281
轨	-11.5283
却未能	-11.5285
罗斯	-11.5285
秘书长	-11.5285
里斯本	-11.5287
闹	-11.5288
猜	-11.5288
川	-11.5288
姑	-11.5289
BJP	-11.5289
绘	-11.5289
出租车	-11.5289
菲利普	-11.5289
国际刑事法庭	-11.5289
潘	-11.5289
CDS	-11.5289
慕	-11.5289
危地马拉	-11.5289
国会预算办公室	-11.5289
国际足联	-11.5289
挂	-11.5289
摘	-11.5289
旷日持久	-11.5289
梯	-11.5289
塞内加尔	-11.5289
NPT	-11.5289
克什米尔	-11.5289
鄙	-11.5289
层出不穷	-11.5289
乌里韦	-11.5289
严苛	-11.5289
奥斯本	-11.5289
公顷	-11.5289
Trans	-11.5289
貌似	-11.5289
永恒	-11.5289
不切实际	-11.5289
含糊	-11.5289
淹没	-11.5289
严酷	-11.5289
勾结	-11.5289
经常账户盈余	-11.529
申根	-11.529
鹰派	-11.529
尖端	-11.529
渔民	-11.529
贵族	-11.529
替换	-11.5291
密度	-11.5291
光荣	-11.5291
1933	-11.5291
草根	-11.5291
南苏丹	-11.5292
彰显出	-11.5292
初选	-11.5292
鱼类	-11.5293
公园	-11.5293
税收优惠	-11.5293
马歇尔计划	-11.5293
安娜	-11.5294
刻意	-11.5294
果实	-11.5294
▁反之	-11.5295
这么一个	-11.5296
收费	-11.5298
强健	-11.5298
这个星球	-11.5299
亲信	-11.53
终将	-11.53
面包	-11.53
分销	-11.5301
在这一点上	-11.5301
宗教信仰	-11.5301
助力	-11.5302
受过教育的	-11.5303
内陆	-11.5305
力求	-11.5305
作斗争	-11.5307
ley	-11.5307
西亚	-11.5308
率先	-11.5314
构成威胁	-11.5317
35%	-11.5321
默认	-11.5322
习惯于	-11.5323
高压	-11.5324
东非	-11.5328
眼里	-11.5333
民营企业	-11.5334
跨国企业	-11.5336
正面临着	-11.5336
深远影响	-11.5337
延伸到	-11.5337
特区	-11.5338
非法移民	-11.5341
所进行的	-11.5341
专属	-11.5342
侵略性	-11.5343
但它也	-11.5344
一番	-11.5346
也有一些	-11.5351
政治学家	-11.5351
安全部队	-11.5351
商业利益	-11.536
越过	-11.5364
ven	-11.5371
私营企业	-11.5371
突破性	-11.5372
另外一种	-11.5377
取得了成功	-11.5377
que	-11.5377
全球气温	-11.5381
收入不平等性	-11.5385
两年后	-11.5389
深远的影响	-11.5392
剂量	-11.5408
ath	-11.5408
天才	-11.5414
学历	-11.5416
民主体制	-11.5428
结构调整	-11.5428
Bar	-11.5429
不易	-11.5431
结构变化	-11.5437
根本不可能	-11.544
候	-11.5442
这两项	-11.5446
▁Str	-11.5447
人造	-11.546
为了防止	-11.5466
谈到	-11.5472
近邻	-11.5473
接触到	-11.5474
流量	-11.5491
宜	-11.5504
很清楚	-11.5505
骤	-11.5506
扰	-11.5507
郎	-11.5507
丢	-11.5509
搜	-11.551
鬼	-11.551
安倍晋三	-11.551
轰	-11.5511
第一次世界大战	-11.5511
嫁	-11.5511
郊	-11.5511
撒切尔夫人	-11.5511
畸	-11.5511
盐	-11.5511
秒	-11.5511
阿塞拜疆	-11.5511
青少年	-11.5511
基什内尔	-11.5511
洛杉矶	-11.5511
瞻	-11.5511
出口导向型	-11.5511
拿破仑	-11.5511
诺贝尔奖	-11.5511
笃	-11.5511
诡	-11.5511
第四次工业革命	-11.5511
谦	-11.5511
这句话	-11.5511
劳动力参与率	-11.5511
数以百万计	-11.5511
袖手旁观	-11.5511
▁Foundation	-11.5511
僵尸	-11.5511
听上去	-11.5511
波罗的海	-11.5511
潜艇	-11.5511
麦凯恩	-11.5511
技术转让	-11.5511
嘲笑	-11.5511
个性化	-11.5511
挤压	-11.5511
优先事项	-11.5512
强奸	-11.5512
筹码	-11.5512
涅托	-11.5512
捷克共和国	-11.5512
浓度	-11.5512
海峡	-11.5512
真诚	-11.5512
天赋	-11.5512
怎么办	-11.5512
税基	-11.5513
代孕	-11.5513
降雨	-11.5513
空缺	-11.5513
偿债能力	-11.5513
艰巨的挑战	-11.5513
现成的	-11.5513
怒火	-11.5514
这座城市	-11.5514
Law	-11.5515
年下半年	-11.5516
性别差距	-11.5516
2.5%	-11.5516
水泥	-11.5516
部族	-11.5517
多元主义	-11.5517
困难重重	-11.5517
▁Na	-11.5517
硬实力	-11.5518
矿业	-11.5518
别处	-11.5518
借入	-11.5519
核威慑	-11.5519
角落	-11.5519
财长	-11.552
供给端	-11.5523
统计数字	-11.5524
默许	-11.5524
五倍	-11.5525
山区	-11.5528
为导向的	-11.553
专业知识	-11.553
反对意见	-11.5537
坦克	-11.5541
新保守主义	-11.5543
卢比	-11.5544
带来了巨大的	-11.5545
弱化	-11.5552
公司税率	-11.5555
所持有的	-11.5557
时间表	-11.556
所支持的	-11.5575
Sha	-11.5576
并不容易	-11.5578
第二天	-11.5594
悲剧性	-11.5615
任何形式的	-11.5623
的方向发展	-11.5623
困局	-11.5632
证据证明	-11.5636
哈德	-11.5638
变异	-11.5649
享	-11.5651
背上	-11.5652
不稳定性	-11.5654
再次发生	-11.5654
首个	-11.566
社会保险	-11.5674
影子	-11.5677
其他形式的	-11.5679
高薪	-11.5683
美元升值	-11.5688
发达世界	-11.5709
ett	-11.5717
尊	-11.5722
倾	-11.5727
履	-11.5728
是错的	-11.5729
专注	-11.5732
表面上看	-11.5733
拒	-11.5734
权限	-11.5735
况	-11.5735
最低水平	-11.5737
译	-11.5738
滴	-11.5738
陌	-11.5738
BRCA	-11.5738
公立学校	-11.5738
兽	-11.5738
清真寺	-11.5738
泡	-11.5738
难以置信	-11.5738
笼罩	-11.5738
话语权	-11.5738
不结盟运动	-11.5738
凑	-11.5738
因果关系	-11.5738
随心所欲	-11.5738
敛	-11.5738
李光耀	-11.5738
犹太复国主义	-11.5738
自力更生	-11.5738
高加索	-11.5738
Social	-11.5738
掏	-11.5738
汤	-11.5738
发病率	-11.5738
国际清算银行	-11.5738
悟	-11.5738
夭折	-11.5738
狼	-11.5738
奴役	-11.5738
赞誉	-11.5738
左倾	-11.5738
兴旺	-11.5738
魔鬼	-11.5738
灵魂	-11.5738
冰川	-11.5738
罪魁	-11.5739
一书中	-11.5739
挫败	-11.5739
盖茨基金会	-11.5739
竟然	-11.5739
玛丽	-11.5739
最低限度	-11.574
慢慢	-11.574
劫持	-11.574
错觉	-11.574
Abd	-11.574
演员	-11.5741
指示	-11.5741
马拉维	-11.5741
枪击	-11.5741
1975	-11.5742
缺位	-11.5742
许下	-11.5742
使用化学武器	-11.5742
火灾	-11.5742
总的来说	-11.5742
未可知	-11.5744
实例	-11.5744
首席经济学家	-11.5746
化肥	-11.5746
安装	-11.5747
职场	-11.5747
入境	-11.5747
见解	-11.5748
智力	-11.5748
二氧化碳排放量	-11.5749
一辆	-11.5749
皇家	-11.5749
通知	-11.575
税负	-11.575
新闻报道	-11.575
艺术家	-11.575
加息	-11.5751
伊拉克和叙利亚	-11.5753
公平竞争	-11.5754
最近一次	-11.5754
军事政变	-11.5754
水准	-11.5755
主任	-11.5757
卡车	-11.5758
情报机构	-11.576
网络攻击	-11.5763
递交	-11.5763
维度	-11.5766
吉尔	-11.5766
El	-11.5772
上扬	-11.5777
热点	-11.5777
小得多	-11.5778
商业领袖	-11.5779
二世	-11.578
借用	-11.578
西方民主国家	-11.5784
限定	-11.5785
法律框架	-11.5792
私人消费	-11.5793
联合行动	-11.5795
争相	-11.5798
所面对的	-11.5798
结构转型	-11.5805
排挤	-11.5807
ence	-11.5811
自由党	-11.5816
人的生命	-11.5822
one	-11.5823
Am	-11.5825
少量	-11.5826
决策过程	-11.584
反感	-11.5843
抛出	-11.5852
人口结构	-11.5853
两场	-11.5855
的最佳办法	-11.5856
技术变革	-11.5887
忠于	-11.5911
要归功于	-11.592
糟	-11.5921
其背后	-11.5922
从来都	-11.5926
该协定	-11.5926
挤	-11.5941
基因工程	-11.5948
威权	-11.595
单个	-11.5952
退休者	-11.5952
热爱	-11.5963
实质上	-11.5965
驳	-11.5966
截	-11.5968
距	-11.5969
敏	-11.5969
竟	-11.5969
档	-11.597
屈	-11.597
漂	-11.597
羞	-11.5971
摒弃	-11.5971
卵	-11.5971
马尔代夫	-11.5971
瓶	-11.5971
欧尔班	-11.5971
巴解组织	-11.5971
直升机撒钱	-11.5971
1981	-11.5971
始作俑者	-11.5971
营商环境	-11.5971
跨大西洋贸易和投资伙伴关系	-11.5971
▁Front	-11.5971
▁Group	-11.5971
自相矛盾	-11.5971
铝	-11.5971
麦肯锡全球研究所	-11.5971
安哥拉	-11.5971
汉密尔顿	-11.5971
不可思议	-11.5971
贿	-11.5971
咖啡	-11.5971
性价比	-11.5971
波斯湾	-11.5971
躲避	-11.5971
卓著	-11.5971
灌输	-11.5971
▁更糟的是	-11.5971
人们普遍认为	-11.5971
惨遭	-11.5971
电子商务	-11.5971
纵容	-11.5971
小泉	-11.5971
FDI	-11.5971
撤退	-11.5972
菲永	-11.5972
汇聚	-11.5972
松散	-11.5972
扶持	-11.5972
纵观	-11.5972
提炼	-11.5973
乱象	-11.5973
空洞	-11.5973
原料	-11.5973
持怀疑态度	-11.5973
夺取	-11.5973
航班	-11.5974
器官	-11.5974
做得更好	-11.5974
招致	-11.5974
看成是	-11.5974
放贷	-11.5975
略高于	-11.5975
减支	-11.5975
海平面上升	-11.5975
非正规	-11.5976
韧性	-11.5976
削减支出	-11.5976
观察员	-11.5977
美丽	-11.5977
收买	-11.5977
自尊	-11.5977
商务	-11.5978
qui	-11.5978
患病	-11.5978
最后贷款人	-11.5978
凯利	-11.5979
伊斯兰教徒	-11.598
最佳实践	-11.5981
拯救生命	-11.5981
提取	-11.5982
不断变化的	-11.5983
讨好	-11.5983
指导原则	-11.5984
套利	-11.5985
不振	-11.5986
任何人都	-11.5987
慈善机构	-11.5989
财政契约	-11.5991
演说	-11.5991
发声	-11.5995
情报部门	-11.5995
西奥	-11.5997
公式	-11.5997
创业企业	-11.6
发动战争	-11.6
able	-11.6002
sion	-11.6004
国家和地区	-11.6005
东德	-11.6006
对中国来说	-11.6013
实现这些目标	-11.6014
签署国	-11.6015
世纪中叶	-11.6017
有史以来最	-11.6021
归功于	-11.6021
可控	-11.6022
波斯	-11.6028
两天	-11.6031
归还	-11.6039
电站	-11.6047
0.0	-11.6052
就越大	-11.6062
land	-11.6086
外流	-11.609
世俗主义	-11.6108
庞	-11.611
而导致的	-11.6118
只有少数	-11.6123
但仍有	-11.6125
Yo	-11.6131
大幅减少	-11.6141
东海	-11.6142
扩展到	-11.6146
人人都	-11.6159
跟随	-11.6159
被判	-11.6168
Gu	-11.6175
定罪	-11.6177
政局	-11.6178
予	-11.618
绝不能	-11.6182
高油价	-11.6184
体内	-11.6184
幼儿	-11.6189
适度	-11.619
彼此之间	-11.6192
夸	-11.6195
孤	-11.6201
亏	-11.6202
孩	-11.6205
束	-11.6206
添	-11.6207
毕	-11.6207
遥	-11.6207
虽	-11.6208
训	-11.6208
指出的那样	-11.6208
障	-11.6208
厄	-11.6208
挪	-11.6208
撑	-11.6208
督	-11.6209
拙	-11.6209
踢	-11.6209
妹	-11.6209
议定书	-11.6209
中央情报局	-11.6209
惟	-11.6209
蜂	-11.6209
驾	-11.6209
奢侈品	-11.6209
垫	-11.6209
产油国	-11.6209
壁	-11.6209
坡	-11.6209
纳米比亚	-11.6209
胡锦涛	-11.6209
苦苦挣扎	-11.6209
漠不关心	-11.6209
盼	-11.6209
HIV	-11.6209
所扮演的角色	-11.6209
瘟疫	-11.6209
去核化	-11.6209
殴打	-11.6209
查尔斯	-11.6209
麻省理工学院	-11.6209
几代人	-11.6209
ISIS	-11.6209
桑托斯	-11.6209
觉醒	-11.6209
囚禁	-11.6209
电子邮件	-11.6209
共鸣	-11.6209
碰撞	-11.6209
是一回事	-11.6209
辨别	-11.621
牧师	-11.621
顺序	-11.621
珍视	-11.621
顾客	-11.621
不至于	-11.621
沙特王国	-11.621
惯例	-11.621
汇集	-11.621
去监管化	-11.6211
投诉	-11.6211
辍学	-11.6211
愈加	-11.6211
叫停	-11.6211
穆勒	-11.6211
全民公投	-11.6212
防治	-11.6212
国家安全顾问	-11.6212
素质	-11.6212
官方发展援助	-11.6213
不安全感	-11.6213
理想主义	-11.6214
胜选	-11.6215
孤独	-11.6215
术语	-11.6215
德国和法国	-11.6216
直观	-11.6216
激进分子	-11.6217
远远高于	-11.6217
降级	-11.6218
领土主张	-11.6218
精明	-11.6218
夺去	-11.6219
没收	-11.6219
几项	-11.622
没有理由认为	-11.6221
的关键要素	-11.6221
页岩油	-11.6222
进口品	-11.6223
线索	-11.6224
低油价	-11.6224
不可行	-11.6224
私利	-11.6225
恐怖活动	-11.6227
带动	-11.6227
业务模式	-11.6228
反响	-11.623
vel	-11.623
战火	-11.6231
力图	-11.6232
之初	-11.6232
选手	-11.6232
0.6	-11.6233
凸显	-11.6236
捐助者	-11.6237
非洲开发银行	-11.6237
小学教育	-11.6239
货币升值	-11.6241
太空	-11.6242
国内和国际	-11.6246
资金来源	-11.6251
ade	-11.6258
反垄断	-11.6258
真实利率	-11.6261
传说	-11.6263
鼓吹者	-11.6265
经济基本面	-11.6265
下个月	-11.6265
3.6	-11.627
外部需求	-11.6274
如此巨大	-11.6274
运送	-11.6281
证明了这一点	-11.6282
付款	-11.6292
年上半年	-11.6295
微生物	-11.6296
通胀预期	-11.6301
做的事	-11.6303
数字时代	-11.6311
是必不可少的	-11.6313
增长引擎	-11.6314
顺从	-11.6316
阳	-11.6323
从本质上	-11.6328
积极参与	-11.6332
筑	-11.6334
▁Ri	-11.6345
清算所	-11.6349
私人和公共	-11.6357
发电厂	-11.6363
成立了一个	-11.6363
一点都不	-11.6372
圣经	-11.6373
除此之外	-11.6382
以免	-11.6383
非盟	-11.6407
2.6	-11.6429
American	-11.6431
反叛	-11.644
犹	-11.6441
僵	-11.6443
星球	-11.6444
一幅	-11.6444
崇	-11.6445
捐助国	-11.6446
儒	-11.6449
役	-11.6451
拍	-11.6452
渴	-11.6452
厉	-11.6452
疯	-11.6452
哀	-11.6453
NGO	-11.6453
碳氢化合物	-11.6453
奎	-11.6453
娅	-11.6453
昧	-11.6453
拳	-11.6453
礁	-11.6453
肌	-11.6453
阿姆斯特丹	-11.6453
浸	-11.6453
盎格鲁	-11.6453
青睐	-11.6453
债务纾困	-11.6453
寄生虫	-11.6453
悄悄	-11.6453
联邦调查局	-11.6453
金氏政权	-11.6453
可卡因	-11.6453
噪	-11.6453
大获全胜	-11.6453
涡	-11.6453
Financial	-11.6453
喀	-11.6453
备忘录	-11.6453
麻疹	-11.6453
Frank	-11.6453
月中旬	-11.6453
纠缠	-11.6453
图书馆	-11.6453
联合国秘书长潘基文	-11.6453
归结为	-11.6453
碎片化	-11.6453
巴以冲突	-11.6453
从历史上看	-11.6453
漂亮	-11.6453
仿佛	-11.6453
欢呼	-11.6453
很长一段时间	-11.6453
行不通	-11.6453
足迹	-11.6453
汉堡	-11.6453
颜色	-11.6453
忠实	-11.6454
消亡	-11.6454
冰盖	-11.6454
引渡	-11.6454
签字	-11.6454
暗杀	-11.6454
构造	-11.6454
细致	-11.6454
不容忽视	-11.6455
3.8	-11.6455
护士	-11.6455
牛肉	-11.6455
转折	-11.6456
油田	-11.6456
活跃分子	-11.6456
联网	-11.6456
塞族	-11.6457
期刊	-11.6457
3.3	-11.6457
输掉	-11.6457
生物医学	-11.6458
对他们来说	-11.6458
演进	-11.6459
Bern	-11.6459
思路	-11.6459
侵犯人权	-11.646
美韩	-11.6461
债务减免	-11.6461
第一批	-11.6462
预定	-11.6464
开设	-11.6464
冷战期间	-11.6464
节制	-11.6466
军事基地	-11.6468
原子	-11.6473
母国	-11.6475
得势	-11.6479
驱逐出	-11.6479
生理	-11.6481
撒哈拉以南非洲地区	-11.6482
司法系统	-11.6483
岁以上	-11.6486
民权	-11.6489
凯恩斯主义者	-11.6489
二十年前	-11.6489
从中受益	-11.6491
哈特	-11.6493
20,000	-11.6495
善于	-11.6496
这片	-11.6512
碳排放量	-11.6517
司法部	-11.6517
相比较	-11.6525
坐等	-11.6532
佛教	-11.6532
安全保障	-11.6545
幸免	-11.6552
闲	-11.6556
大学毕业生	-11.6558
提名人	-11.6564
赶出	-11.6571
在道德上	-11.6581
单靠	-11.6582
这一做法	-11.6585
难以想象	-11.6586
扩	-11.6591
促	-11.6622
零售商	-11.6623
所得到的	-11.6623
7000	-11.6627
呼声	-11.663
非常有限	-11.6635
同理	-11.6644
款项	-11.6644
概	-11.6674
下限	-11.6675
紧密合作	-11.6686
氧	-11.6698
府	-11.6699
锁	-11.67
摇	-11.67
完整性	-11.67
鼎	-11.6702
循	-11.6702
掩	-11.6702
躲	-11.6703
凌	-11.6703
贫民窟	-11.6703
迭	-11.6703
7,000	-11.6703
不遗余力	-11.6703
自下而上	-11.6703
逍遥法外	-11.6703
鞋	-11.6703
肆无忌惮	-11.6703
胃	-11.6703
太大而不能倒	-11.6703
没完没了的	-11.6703
珀	-11.6703
FOMC	-11.6703
利益相关方	-11.6703
双管齐下	-11.6703
挥之不去	-11.6703
承包商	-11.6703
幼稚	-11.6703
有所助益	-11.6703
犬	-11.6703
脂	-11.6703
不出所料	-11.6703
标准普尔	-11.6703
克罗地亚	-11.6703
聆听	-11.6703
愧	-11.6703
金融时报	-11.6703
眼睛	-11.6703
震荡	-11.6703
有损于	-11.6703
奥斯曼帝国	-11.6703
闲置	-11.6703
启示	-11.6703
兴奋剂	-11.6703
扰乱	-11.6703
圣诞节	-11.6703
症候	-11.6703
抗生素耐药性	-11.6704
象牙	-11.6704
诚信	-11.6704
比以往任何时候都更加	-11.6705
无可否认	-11.6705
沃尔夫	-11.6705
许可证	-11.6705
旗号	-11.6705
热浪	-11.6705
资质	-11.6706
Do	-11.6706
远不止于	-11.6706
做生意	-11.6706
收容	-11.6706
杜绝	-11.6706
医疗补助	-11.6707
错配	-11.6707
总有一天	-11.6707
公众舆论	-11.6707
朝圣	-11.6707
加税	-11.6707
洗钱	-11.6708
仍旧	-11.6708
灵感	-11.6708
另一方	-11.6709
算计	-11.6709
集中营	-11.6709
牛津大学	-11.671
湿地	-11.6711
ital	-11.6711
公告	-11.6711
三角	-11.6711
核野心	-11.6714
施加压力	-11.6714
终点	-11.6716
今年晚些时候	-11.6716
美俄	-11.6716
几种	-11.6717
▁Ad	-11.6718
冷战时期	-11.6718
在技术上	-11.6718
up	-11.6719
航空公司	-11.6719
另一次	-11.672
涌向	-11.6721
年轻女性	-11.6722
舒适	-11.6727
石油产量	-11.673
民事	-11.6731
重叠	-11.6731
失利	-11.6733
关税联盟	-11.6733
外部冲击	-11.6734
高尚	-11.6739
热量	-11.6739
城市规划	-11.6742
vin	-11.6749
每一项	-11.6753
为代表的	-11.6755
淡水	-11.6764
每个国家都	-11.6765
周末	-11.6766
协	-11.6769
增长和发展	-11.6769
简单化	-11.6779
免除	-11.6785
vo	-11.6789
欧洲投资银行	-11.6793
认识到这一点	-11.6807
尽管存在	-11.6814
有充分的理由	-11.6817
顾及	-11.6831
高潮	-11.6832
实用主义	-11.684
所追求的	-11.6842
根本就不	-11.6867
七个	-11.6874
新一届	-11.6878
pre	-11.6881
比其他任何	-11.6886
任何时候	-11.6886
溢价	-11.6926
侵	-11.6939
非常清楚	-11.6941
怕	-11.6953
外交部	-11.6954
锋	-11.6958
乍	-11.6959
厅	-11.6959
赏	-11.6959
肤	-11.6959
狭	-11.6959
裹	-11.6959
罗兴亚	-11.6959
磁	-11.6959
颠	-11.6959
直升机	-11.6959
溃	-11.6959
舌	-11.6959
莫桑比克	-11.6959
克格勃	-11.6959
嗤之以鼻	-11.6959
斯蒂格利茨	-11.6959
偏袒	-11.6959
僧	-11.6959
曼彻斯特	-11.6959
肿	-11.6959
难以为继	-11.6959
古兰经	-11.6959
帖	-11.6959
干脆	-11.6959
淫	-11.6959
远见卓识	-11.6959
马纳福特	-11.6959
伊曼纽尔	-11.6959
宇	-11.6959
乌拉圭	-11.6959
博物馆	-11.6959
缔造者	-11.6959
首当其冲	-11.6959
大错特错	-11.6959
诺基亚	-11.6959
卡尔德隆	-11.6959
敏锐	-11.6959
Andre	-11.6959
捏	-11.6959
藉	-11.6959
▁Security	-11.6959
去碳化	-11.6959
堡垒	-11.6959
新奥尔良	-11.6959
PiS	-11.6959
砸	-11.6959
轮值主席	-11.6959
迷惑	-11.6959
ker	-11.6959
获益良多	-11.6959
涨幅	-11.6959
走廊	-11.6959
钻井	-11.6959
牢牢	-11.6959
过滤	-11.6959
察觉	-11.696
化学武器	-11.696
灭亡	-11.696
由来已久	-11.696
虚伪	-11.696
双轨	-11.696
寄望	-11.696
深渊	-11.696
育儿	-11.696
转基因作物	-11.696
惨痛	-11.696
索罗斯	-11.696
兴盛	-11.696
脱盟	-11.696
世界第一大	-11.6961
尚不清楚	-11.6961
▁第一种	-11.6961
迁往	-11.6961
圣保罗	-11.6961
埃博拉病毒	-11.6961
远远超出	-11.6962
惨重	-11.6962
事宜	-11.6962
冰岛	-11.6963
举债	-11.6963
沃尔克	-11.6963
推销	-11.6964
租金	-11.6964
副主席	-11.6965
场景	-11.6965
手握	-11.6965
学术界	-11.6965
乱局	-11.6967
紧张局面	-11.6967
天皇	-11.6967
感到失望	-11.6967
条例	-11.6967
商学院	-11.6968
心理学家	-11.6968
联合声明	-11.6968
错失	-11.6969
外衣	-11.6969
紧急状态	-11.697
工人阶级	-11.6972
施行	-11.6974
感知	-11.6977
按揭贷款	-11.6977
碳税	-11.698
制药企业	-11.698
媒体报道	-11.6983
赫尔	-11.6984
武装力量	-11.6984
回合	-11.6984
犹太教	-11.6988
强加给	-11.6988
财富效应	-11.6989
宪法条约	-11.6993
第三国	-11.6993
萨拉	-11.6994
先生	-11.6994
之间的差异	-11.6995
年轻人失业率	-11.6996
占据着	-11.6997
司法体系	-11.6999
本文	-11.7008
所经历的	-11.7008
退回	-11.7011
助手	-11.7022
协调一致	-11.7027
生存威胁	-11.7039
要大得多	-11.7071
1900	-11.7077
不恰当	-11.7079
▁Mi	-11.7102
展现出	-11.7113
小麦	-11.7124
纽约市	-11.713
八十	-11.7141
径	-11.7152
债务可持续性	-11.7152
核心利益	-11.7156
百分之	-11.7166
NA	-11.7172
民营	-11.7172
峰	-11.7179
收成	-11.7179
层级	-11.7179
民族身份	-11.7186
伦理学	-11.7191
乘数	-11.7203
其他欧洲国家	-11.7208
牵涉	-11.721
Hu	-11.7215
阅	-11.7219
厌	-11.7221
究	-11.7222
赤	-11.7222
颜	-11.7222
悉	-11.7222
忧心忡忡	-11.7222
蛋糕	-11.7222
贝鲁特	-11.7222
博茨瓦纳	-11.7222
惹	-11.7222
MGI	-11.7222
赫鲁晓夫	-11.7222
曾几何时	-11.7222
泛美开发银行	-11.7222
亲眼目睹	-11.7222
砖	-11.7222
赫尔辛基	-11.7222
铺平了道路	-11.7222
埃克森美孚	-11.7222
墓	-11.7222
形成了鲜明对比	-11.7222
亚历山大	-11.7222
扔	-11.7222
锚	-11.7222
昂山素季	-11.7222
犹豫不决	-11.7222
▁Initiative	-11.7222
债务积压	-11.7222
蛇	-11.7222
饲养	-11.7222
无核化	-11.7222
炒	-11.7222
百分比	-11.7222
纳米技术	-11.7222
栏	-11.7222
西雅图	-11.7222
CSU	-11.7222
全要素生产率	-11.7222
想一想	-11.7222
从那以后	-11.7222
军国主义	-11.7223
贯穿	-11.7223
雄厚	-11.7223
牢固	-11.7223
跌幅	-11.7223
纠结	-11.7223
翻译	-11.7223
王储	-11.7223
大厦	-11.7223
拍卖	-11.7223
拼命	-11.7223
救世主	-11.7223
推崇	-11.7223
追逐	-11.7223
年龄段	-11.7224
捕鱼	-11.7224
自卫队	-11.7224
欲望	-11.7224
走上街头	-11.7224
古典	-11.7224
怪异	-11.7224
拉詹	-11.7224
储蓄和投资	-11.7224
集群	-11.7224
民间团体	-11.7225
暴乱	-11.7225
文献	-11.7225
伊拉克和阿富汗	-11.7225
球迷	-11.7225
暴政	-11.7225
护照	-11.7225
运转良好的	-11.7225
税收减免	-11.7226
空气质量	-11.7226
影响深远的	-11.7227
大亨	-11.7227
坏账	-11.7227
主角	-11.7227
版图	-11.7228
储蓄过剩	-11.7228
黑色	-11.7228
财政大臣	-11.7228
安保	-11.7228
牵头	-11.7228
那段	-11.7228
欧洲经济区	-11.7229
军备	-11.7229
选举产生的	-11.7229
幸福感	-11.7229
多亏	-11.7229
淡化	-11.723
创意	-11.723
明证	-11.7231
▁Con	-11.7234
战败	-11.7235
趋于	-11.7235
物品	-11.7235
指明	-11.7236
阳性	-11.7239
公报	-11.7239
推论	-11.7239
大幅贬值	-11.724
不管你	-11.724
起源于	-11.724
达不到	-11.7242
团结一致	-11.7244
预算盈余	-11.7245
学费	-11.7245
密切合作	-11.7247
公共开支	-11.7249
最顶层	-11.7249
撤回	-11.7251
数目	-11.7252
系统性风险	-11.7252
伊朗核协议	-11.7253
供应量	-11.7254
幸存者	-11.7254
相一致	-11.7255
比不上	-11.7255
最大经济体	-11.7255
分散化	-11.7256
流感	-11.726
工资税	-11.7262
每一位	-11.7264
尤为重要	-11.7266
判处	-11.7269
诱使	-11.7271
东北	-11.7276
遗传学	-11.7296
old	-11.7298
从根本上改变	-11.7306
非常相似	-11.7325
将其视为	-11.7348
衍生	-11.7356
极左翼	-11.7362
ron	-11.7393
所依赖的	-11.7393
继任	-11.7396
有争议的	-11.7416
全球价值链	-11.7434
反建制	-11.7439
伯克利	-11.745
95%	-11.7466
幸运的是	-11.7469
收场	-11.7484
收支	-11.7485
信托	-11.7489
挫	-11.7492
油气	-11.7492
披	-11.7492
斐	-11.7493
盾	-11.7493
维生素	-11.7493
切尔诺贝利	-11.7493
芝	-11.7493
赠	-11.7493
兜售	-11.7493
威尔逊	-11.7493
á	-11.7493
不堪重负	-11.7493
丛	-11.7493
巴拿马	-11.7493
―	-11.7493
国际刑警组织	-11.7493
斯德哥尔摩	-11.7493
固定资产投资	-11.7493
小心翼翼	-11.7493
布宜诺斯艾利斯	-11.7493
雀	-11.7493
奥林匹克	-11.7493
才刚刚开始	-11.7493
梅德韦杰夫	-11.7493
▁Policy	-11.7493
谢里夫	-11.7493
缔约国	-11.7493
隐蔽	-11.7493
艾哈迈迪内贾德	-11.7493
颓势	-11.7493
撒谎	-11.7493
构筑	-11.7493
抵触	-11.7493
利益相关者	-11.7493
寻租	-11.7493
原子弹	-11.7493
午餐	-11.7493
翻一番	-11.7493
割裂	-11.7493
刊登	-11.7493
国务卿希拉里	-11.7493
纸币	-11.7493
聘用	-11.7494
本世纪末	-11.7494
父辈	-11.7494
车辆	-11.7494
窃取	-11.7494
粗暴	-11.7494
8000	-11.7494
登记	-11.7495
深厚	-11.7495
陈旧	-11.7495
辩解	-11.7495
尾声	-11.7495
接替	-11.7495
还有很长的路要走	-11.7495
酒精	-11.7495
怀疑论者	-11.7496
甚微	-11.7496
坦白	-11.7496
墨西哥湾	-11.7496
传输	-11.7496
面孔	-11.7497
意欲	-11.7497
0.5%	-11.7497
周年纪念日	-11.7497
▁同样重要的是	-11.7497
溢出	-11.7497
冬天	-11.7498
忧心	-11.7498
6.5	-11.7499
贩卖	-11.7501
在很大程度上取决于	-11.7501
每一美元	-11.7502
列举	-11.7503
神奇	-11.7503
少女	-11.7503
油价下跌	-11.7503
现阶段	-11.7503
正确方向	-11.7504
航天	-11.7507
上市公司	-11.7507
主流政党	-11.7508
底线	-11.7508
首任	-11.7508
这段时间	-11.7512
至关重要的作用	-11.7512
了不起的	-11.7513
联手	-11.7514
些许	-11.7515
促增长	-11.7517
走进	-11.7518
起步	-11.7521
的严重性	-11.7522
所遭受的	-11.7524
象征意义	-11.7534
引进	-11.7536
平常	-11.7549
一大步	-11.7553
效忠	-11.7569
的名言	-11.7572
当初	-11.7576
先知	-11.7623
取得的成就	-11.763
这条路	-11.7642
告终	-11.7656
8.5	-11.7696
横行	-11.7709
人丧生	-11.7713
输出国	-11.7724
out	-11.7727
辆	-11.7757
宝座	-11.7767
周年纪念	-11.7767
挥	-11.7767
阶	-11.7768
黎	-11.7768
描	-11.777
意味	-11.777
顽	-11.777
圣诞	-11.777
蠢	-11.777
阿勒颇	-11.777
栋	-11.777
阿亚图拉	-11.777
Africa	-11.777
哈耶克	-11.777
坚定不移	-11.777
盆	-11.777
芒	-11.777
一厢情愿	-11.777
卡尔扎伊	-11.777
扎克伯格	-11.777
中华人民共和国	-11.777
弟	-11.777
晨	-11.777
一席之地	-11.777
兀鹫	-11.777
厌倦	-11.777
弗朗西斯	-11.777
金砖四国	-11.777
1/4	-11.777
í	-11.777
–	-11.777
假以时日	-11.777
吻	-11.777
屈从于	-11.777
屈辱	-11.777
爪	-11.777
的温床	-11.777
翻了一番	-11.777
令人吃惊	-11.777
墨尔本	-11.777
局外人	-11.777
缉	-11.777
铸	-11.777
陈词滥调	-11.777
Richard	-11.777
如出一辙	-11.777
方方面面	-11.777
泪	-11.777
高规格	-11.777
咬	-11.777
还有待观察	-11.777
骂	-11.777
OMT	-11.777
意料之外的	-11.777
阿卜杜勒	-11.777
COP	-11.777
帽	-11.777
路易斯	-11.777
裙	-11.777
诺贝尔奖获得者	-11.777
尼日尔	-11.777
枝	-11.7771
以巴冲突	-11.7771
三角洲	-11.7771
赤贫	-11.7771
监察	-11.7771
乡村	-11.7771
肥料	-11.7771
厄运	-11.7771
不可逆转的	-11.7771
刑讯	-11.7771
木材	-11.7771
取悦	-11.7771
1.25	-11.7772
伪装	-11.7772
产妇	-11.7772
认证	-11.7772
废止	-11.7772
双赢	-11.7772
散播	-11.7772
民意调查显示	-11.7773
薪资	-11.7773
两件事	-11.7773
驻扎	-11.7773
竞相	-11.7773
艺术品	-11.7774
理顺	-11.7774
绿党	-11.7774
解释了为何	-11.7774
硬件	-11.7774
夫斯基	-11.7775
领土纠纷	-11.7775
陆军	-11.7775
公决	-11.7775
服务提供商	-11.7776
例证	-11.7776
删除	-11.7777
国际象棋	-11.7778
退步	-11.7778
重新审视	-11.7779
在未来五年	-11.7779
决意	-11.7782
领先地位	-11.7782
早期阶段	-11.7783
深度衰退	-11.7783
值得欢迎	-11.7783
零排放	-11.7785
手脚	-11.7785
以致于	-11.7787
变得更加困难	-11.7788
密切相关	-11.7792
带入	-11.7792
关系密切	-11.7793
克鲁	-11.7795
断言	-11.7797
亚洲开发银行	-11.78
其中也包括	-11.7802
所达成的	-11.7802
根本不存在	-11.781
Tim	-11.781
诱惑力	-11.7818
年轻一代	-11.7824
潜在增长率	-11.7833
茶党	-11.7837
高质量教育	-11.7845
雅克	-11.7851
Man	-11.7857
致富	-11.7885
麦加	-11.7889
国际收支	-11.7903
这也意味着	-11.7905
域内	-11.7907
紧急情况	-11.7918
国旗	-11.799
廉	-11.8006
遇刺	-11.8018
叠	-11.8024
归根结底	-11.8029
深层	-11.803
史上最	-11.8031
回落	-11.8037
耐药	-11.8043
喻	-11.8048
复发	-11.8048
誉	-11.8051
丧	-11.8052
粒	-11.8054
稀	-11.8054
甩	-11.8056
糊	-11.8056
剑	-11.8056
妮	-11.8056
巾	-11.8056
罗格夫	-11.8056
1949	-11.8056
仙	-11.8056
掷	-11.8056
芯片	-11.8056
1974	-11.8056
30,000	-11.8056
昌	-11.8056
不合时宜	-11.8056
周永康	-11.8056
哥伦比亚革命武装力量	-11.8056
纤	-11.8056
侦	-11.8056
拦	-11.8056
鲍威尔	-11.8056
TFP	-11.8056
合情合理	-11.8056
弯	-11.8056
淋	-11.8056
爬	-11.8056
联合国儿童基金会	-11.8056
胸	-11.8056
▁Investment	-11.8056
关塔那摩	-11.8056
少之又少	-11.8056
小额信贷	-11.8056
万灵丹	-11.8056
代议制	-11.8056
债券持有人	-11.8056
和平共处	-11.8056
精诚合作	-11.8056
宴	-11.8056
瓦哈比	-11.8056
默多克	-11.8056
诺贝尔经济学奖获得者	-11.8056
下议院	-11.8056
侨汇	-11.8056
生机勃勃	-11.8056
玻	-11.8056
重商主义	-11.8056
是件好事	-11.8056
当权者	-11.8056
暴君	-11.8056
皇帝	-11.8056
中欧和东欧	-11.8057
扶贫	-11.8057
涉嫌	-11.8057
公寓	-11.8057
执掌	-11.8057
构架	-11.8057
中等收入陷阱	-11.8057
警觉	-11.8057
夏季	-11.8057
勾勒	-11.8057
惨败	-11.8057
颁发	-11.8057
开辟	-11.8058
物联网	-11.8058
发掘	-11.8058
让位给	-11.8058
样板	-11.8058
面貌	-11.8058
另类	-11.8058
急速	-11.8058
季节	-11.8059
决赛	-11.8059
彩票	-11.8059
奋力	-11.8059
老虎	-11.8059
环保主义者	-11.8059
表象	-11.8059
Matt	-11.8059
超导	-11.806
复原	-11.806
法国总统马克龙	-11.806
领土争端	-11.8061
干净	-11.8064
▁现在的问题是	-11.8065
道义	-11.8065
名列第	-11.8065
志愿者	-11.8066
利息支付	-11.8066
腐败丑闻	-11.8067
的一员	-11.8067
古代	-11.8067
财力	-11.8069
不平等性加剧	-11.8069
陷入麻烦	-11.8069
计入	-11.807
分红	-11.807
出生率	-11.807
认真考虑	-11.8071
极低利率	-11.8073
杠杆率	-11.8074
大约一半	-11.8076
全额	-11.8077
对外援助	-11.8077
货币互换	-11.8078
严峻的挑战	-11.808
著称	-11.8084
令人瞩目	-11.8094
新成立的	-11.81
邻邦	-11.8116
两类	-11.8207
berg	-11.8217
想必	-11.8234
2.9	-11.8245
修正主义	-11.8262
零碳	-11.8298
老布什	-11.8321
携	-11.8322
振	-11.8327
鉴	-11.8336
亲欧	-11.8346
寸	-11.8348
厘	-11.8349
匹	-11.835
艇	-11.835
费舍尔	-11.835
喀拉拉邦	-11.835
沼	-11.835
&	-11.835
驾驭	-11.835
伞	-11.835
捧	-11.835
CPI	-11.835
黄热病	-11.835
持不同政见者	-11.835
达赖喇嘛	-11.835
欧安组织	-11.835
Gordon	-11.835
Kenne	-11.835
伦敦金融城	-11.835
United	-11.835
世界货币基金组织	-11.835
摧残	-11.835
概括	-11.835
的代名词	-11.835
为时尚早	-11.835
叉	-11.835
谅解	-11.835
Research	-11.835
基督教民主联盟	-11.835
巴切莱特	-11.835
昨	-11.835
连通性	-11.835
Wolf	-11.835
堤	-11.835
安格拉	-11.835
尼古丁	-11.835
▁Friedman	-11.835
刘	-11.835
狭窄	-11.835
下行风险	-11.835
弥漫	-11.835
苛刻	-11.835
友谊	-11.835
违规	-11.835
餐厅	-11.8351
欧洲稳定机制	-11.8351
稀土	-11.8351
美国及其盟友	-11.8351
虚构	-11.8351
遗忘	-11.8351
洪灾	-11.8351
贫富差距	-11.8351
符号	-11.8351
误判	-11.8351
米尔顿	-11.8351
温暖	-11.8351
移植	-11.8351
海滩	-11.8351
拘留	-11.8352
边际税率	-11.8352
冲销	-11.8352
注射	-11.8352
八国集团	-11.8352
先驱	-11.8352
0.9	-11.8353
左翼和右翼	-11.8353
抗争	-11.8353
惊奇	-11.8353
院校	-11.8353
一篇文章	-11.8353
拜登	-11.8353
斯特恩	-11.8354
奠定基础	-11.8354
病菌	-11.8355
管治	-11.8355
告别	-11.8355
直指	-11.8356
教室	-11.8356
亲属	-11.8356
污点	-11.8357
评论员	-11.8358
微型	-11.8359
邻近	-11.8359
宽松货币政策	-11.836
拉宾	-11.836
保持不变	-11.836
更具竞争力	-11.8361
每小时	-11.8362
创造就业岗位	-11.8363
交接	-11.8364
财政纪律	-11.8364
不可否认	-11.8364
圈子	-11.8365
投入品	-11.8366
产值	-11.8366
流传	-11.8368
市中心	-11.8369
医疗和教育	-11.837
抬高	-11.837
可接受的	-11.8376
广阔	-11.84
的基本原则	-11.8408
不可或缺	-11.841
所制定的	-11.8429
发生的事件	-11.8441
保存	-11.8443
筹集资金	-11.845
q	-11.8471
单单	-11.8493
亿英镑	-11.8518
太久	-11.8524
第九	-11.8533
金融危机期间	-11.8538
Ju	-11.8553
假消息	-11.8576
遣	-11.8584
研	-11.8634
偿债	-11.8638
发布了一份	-11.8642
奋	-11.8647
尼古拉	-11.8648
诞	-11.865
琳	-11.8651
措	-11.8652
拾	-11.8652
孟	-11.8653
欺	-11.8653
募	-11.8653
锐	-11.8653
mission	-11.8653
毫不犹豫地	-11.8653
劳伦斯	-11.8653
正义与发展党	-11.8653
自那以后	-11.8653
以色列总理内塔尼亚胡	-11.8653
菲尔德	-11.8653
初创企业	-11.8653
坑	-11.8653
纾	-11.8653
霉	-11.8653
两次世界大战	-11.8653
几内亚	-11.8653
欢欣鼓舞	-11.8653
陶	-11.8653
马哈茂德	-11.8653
公信力	-11.8653
拷	-11.8653
放射性	-11.8653
梵蒂冈	-11.8653
遥不可及	-11.8653
亚的斯亚贝巴	-11.8653
十八世纪	-11.8653
病原体	-11.8653
入主白宫	-11.8653
十字路口	-11.8653
巴伐利亚	-11.8653
骇人听闻的	-11.8653
勋	-11.8653
想方设法	-11.8653
摩根大通	-11.8653
罗德里克	-11.8653
巢	-11.8653
非关税壁垒	-11.8653
无与伦比	-11.8653
饼	-11.8653
受过良好教育	-11.8653
猿	-11.8653
被占领土	-11.8653
争吵	-11.8653
仰仗	-11.8653
悄然	-11.8653
告诫	-11.8653
礼貌	-11.8654
化合物	-11.8654
嵌入	-11.8654
铲除	-11.8654
鼓舞人心	-11.8654
和平与繁荣	-11.8654
柴油	-11.8654
丧命	-11.8654
乘客	-11.8654
丢失	-11.8654
急迫	-11.8654
洁净	-11.8655
请愿	-11.8655
支援	-11.8655
靠谱	-11.8655
裁员	-11.8655
拖欠	-11.8655
暴徒	-11.8655
增幅	-11.8655
导师	-11.8655
某种程度的	-11.8655
福克斯	-11.8655
村民	-11.8656
怎么样	-11.8656
大佬	-11.8656
扫清	-11.8656
印度和巴基斯坦	-11.8656
敌视	-11.8657
组装	-11.8657
号决议	-11.8657
哥本哈根共识	-11.8657
铁幕	-11.8657
贩子	-11.8657
参照	-11.8657
肯尼	-11.8658
正轨	-11.8658
所隐含的	-11.8658
疫苗接种	-11.8658
两岸	-11.8658
总统宝座	-11.8659
弗林	-11.8659
专员	-11.8659
教育和培训	-11.8661
4.2	-11.8661
叙利亚和伊拉克	-11.8661
改写	-11.8661
优越	-11.8662
收紧货币政策	-11.8662
中美两国	-11.8662
在他们看来	-11.8662
巴沙尔政权	-11.8663
移民和难民	-11.8663
电台	-11.8663
诺言	-11.8663
式微	-11.8664
代价高昂	-11.8664
门户	-11.8664
马蒂	-11.8664
画面	-11.8665
证据显示	-11.8665
快速变化的	-11.8665
机密	-11.8666
二战期间	-11.8667
韩国和日本	-11.8667
最常见的	-11.8673
石油出口国	-11.8693
阿富汗和伊拉克	-11.8708
遣返	-11.872
所受到的	-11.8736
描绘成	-11.875
为他们提供	-11.8763
有竞争力的	-11.8804
赤字和债务	-11.8817
种群	-11.8872
气温升高	-11.8873
万人的生命	-11.8887
圣战主义	-11.8894
阔	-11.8913
屠	-11.8935
上个世纪	-11.8941
抬	-11.8943
准入	-11.8946
贯	-11.8955
阁	-11.8961
媒	-11.8962
免不了	-11.8962
貌	-11.8963
汽	-11.8964
疫	-11.8964
盯	-11.8964
旱	-11.8965
纷	-11.8965
谨	-11.8966
濒	-11.8966
琐	-11.8966
祝	-11.8966
萨尔瓦多	-11.8966
乙	-11.8966
麦德林	-11.8966
巴菲特	-11.8966
马萨诸塞州	-11.8966
华盛顿邮报	-11.8966
葡	-11.8966
总部设在	-11.8966
MENA	-11.8966
哈塔米	-11.8966
嘉	-11.8966
充裕	-11.8966
司法辖区	-11.8966
巫	-11.8966
氮	-11.8966
浮出水面	-11.8966
脱颖而出	-11.8966
自给自足	-11.8966
若非如此	-11.8966
剖	-11.8966
宠	-11.8966
所表现出来的	-11.8966
执委会	-11.8966
浩	-11.8966
爱德华	-11.8966
瓦尔斯	-11.8966
等量齐观	-11.8966
感到惊讶	-11.8966
Alliance	-11.8966
▁Stability	-11.8966
棉	-11.8966
欣赏	-11.8966
爱沙尼亚	-11.8966
FARC	-11.8966
叹	-11.8966
安德鲁	-11.8966
▁Krugman	-11.8966
溪	-11.8966
ü	-11.8966
▁Change	-11.8966
祭	-11.8966
贪污	-11.8966
晶	-11.8966
烂摊子	-11.8966
痕迹	-11.8966
浓厚	-11.8966
一整套	-11.8966
着重于	-11.8966
重蹈覆辙	-11.8966
法国大革命	-11.8966
喘息	-11.8966
舞弊	-11.8966
Peter	-11.8966
幻灭	-11.8966
军阀	-11.8966
暗淡	-11.8966
英尺	-11.8966
确切地说	-11.8966
的大部分时间里	-11.8966
警钟	-11.8967
敞开	-11.8967
抹黑	-11.8967
尸体	-11.8967
佛罗里达州	-11.8967
过剩产能	-11.8967
稀少	-11.8967
教练	-11.8967
冗长	-11.8967
贬低	-11.8968
处罚	-11.8969
赎金	-11.8969
巴希尔	-11.8969
的几率	-11.8969
身陷	-11.8969
集中精力	-11.8969
借债	-11.8969
从未有过	-11.897
英国退欧公投	-11.897
国民大会	-11.8971
儒家	-11.8971
正常运转	-11.8971
特许	-11.8971
3.4	-11.8971
正确地指出	-11.8972
出手干预	-11.8972
陷入瘫痪	-11.8972
司令	-11.8972
教益	-11.8972
起伏	-11.8973
声望	-11.8973
▁这就是为何	-11.8973
救市	-11.8973
一段时期	-11.8974
担当	-11.8974
说明了这一点	-11.8974
投降	-11.8974
镜头	-11.8974
诺华	-11.8975
的一点是	-11.8975
交谈	-11.8975
全盘	-11.8976
老师	-11.8976
公共和私人部门	-11.8976
究竟是什么	-11.8976
更紧密的	-11.8977
世代	-11.8977
持续不断的	-11.8977
可预测性	-11.8978
离任	-11.898
风潮	-11.898
信托基金	-11.898
私有部门	-11.8981
幼	-11.8992
所形成的	-11.9001
为目的的	-11.9004
所包含的	-11.9005
最关键的	-11.9008
调解	-11.9013
所作出的	-11.9016
总理温家宝	-11.9033
雄心勃勃	-11.9042
生产率的提高	-11.9046
Mario	-11.9055
dge	-11.9063
损伤	-11.9073
是可以理解的	-11.9089
3.7	-11.9133
▁No	-11.9201
十五年	-11.9207
第七	-11.9211
兼职	-11.9215
德国和意大利	-11.9269
志愿	-11.9278
合规	-11.9283
遏	-11.9285
册	-11.9286
慰	-11.9287
撰	-11.9287
拢	-11.9288
冻	-11.9288
饥	-11.9288
旺	-11.9288
搅	-11.9288
诺贝尔奖得主	-11.9288
古吉拉特邦	-11.9288
咄咄逼人	-11.9288
冈	-11.9288
渐行渐远	-11.9288
穆兄会	-11.9288
巴塞罗那	-11.9288
戚	-11.9288
趁	-11.9288
踩	-11.9288
AAA	-11.9288
新闻发布会	-11.9288
马其顿	-11.9288
克里斯蒂娜	-11.9288
榨	-11.9288
肢	-11.9288
蛊惑	-11.9288
从长远来看	-11.9288
政权更迭	-11.9288
曼努埃尔	-11.9288
Jeff	-11.9288
William	-11.9288
霍梅尼	-11.9288
Project	-11.9288
俘虏	-11.9288
匪	-11.9288
占据上风	-11.9288
抗衡	-11.9288
挟	-11.9288
鼻	-11.9288
Jerem	-11.9288
工薪阶层	-11.9288
截然相反	-11.9288
扑	-11.9288
熊彼特	-11.9288
祈祷	-11.9288
▁Education	-11.9288
▁Union	-11.9288
米切尔	-11.9288
耶鲁大学	-11.9288
泳	-11.9288
秘诀	-11.9288
丰裕	-11.9288
歇	-11.9288
金融交易税	-11.9288
▁Bernanke	-11.9288
庇隆	-11.9288
意想不到的	-11.9288
陈光诚	-11.9288
▁State	-11.9288
立陶宛	-11.9288
原谅	-11.9288
所表明的那样	-11.9288
羞耻	-11.9288
措辞	-11.9289
研讨会	-11.9289
就职演说	-11.9289
行之有效	-11.9289
拍摄	-11.9289
粉饰	-11.9289
驯服	-11.9289
宽松的货币政策	-11.9289
适龄	-11.9289
狂欢	-11.9289
孤儿	-11.9289
抹杀	-11.9289
抛售	-11.9289
泰米尔	-11.9289
春季	-11.9289
漫画	-11.9289
合资	-11.9289
有赖于	-11.9289
癌细胞	-11.929
洪森	-11.929
阵痛	-11.929
赶下台	-11.929
问鼎	-11.929
横跨	-11.929
研制	-11.929
隐患	-11.929
如是说	-11.929
紧缺	-11.929
配备	-11.9291
北大西洋	-11.9291
艰巨的任务	-11.9291
信赖	-11.9291
启蒙运动	-11.9291
奋起	-11.9291
损失惨重	-11.9291
取暖	-11.9291
立法机关	-11.9291
美国总统巴拉克	-11.9291
预想的	-11.9291
沉重代价	-11.9291
奖牌	-11.9292
叛乱分子	-11.9292
PAS	-11.9292
抱负	-11.9292
誓言	-11.9292
隔绝	-11.9292
偏爱	-11.9292
低技能工人	-11.9293
由此导致的	-11.9293
谷物	-11.9293
难怪	-11.9293
载体	-11.9294
的唯一途径	-11.9294
第一个任期	-11.9294
其余部分	-11.9294
接待	-11.9294
我的祖国	-11.9294
折合	-11.9294
放慢	-11.9295
紧紧	-11.9295
逼近	-11.9297
卫生保健	-11.9298
知晓	-11.9301
侵占	-11.9302
的推动下	-11.9303
领土完整	-11.9331
随之而来	-11.9409
十六	-11.9489
雇	-11.951
纠	-11.9613
绩	-11.9617
逢	-11.9618
拓	-11.9619
宰	-11.962
谎	-11.962
敦	-11.9621
屏	-11.9621
慎	-11.9621
>	-11.9622
氢	-11.9622
腺	-11.9622
株	-11.9622
<	-11.9622
柔	-11.9622
钉	-11.9622
捆	-11.9622
饶	-11.9622
俱	-11.9622
翁	-11.9622
臭	-11.9622
遮	-11.9622
粘	-11.9622
剪	-11.9622
楚	-11.9946
庸	-11.9955
旦	-11.9955
忠	-11.9958
君	-11.9965
岗	-11.9965
忽	-11.9965
询	-11.9965
刷	-11.9966
捞	-11.9966
辱	-11.9966
丘	-11.9966
瞬	-11.9966
喉	-11.9966
娘	-11.9966
浴	-11.9966
涂	-11.9966
琴	-11.9966
飘	-11.9966
倚	-11.9966
绥	-11.9966
庙	-11.9966
棍	-11.9966
稿	-11.9966
羁	-11.9966
钓	-11.9966
谕	-11.9967
啊	-11.9967
珊	-11.9967
窥	-11.9967
蓬	-11.9967
殿	-11.9967
滨	-11.9967
魏	-11.9967
验	-12.01
迎	-12.0261
捐	-12.0306
臣	-12.0312
夕	-12.0316
殊	-12.0321
叙	-12.0321
奸	-12.0322
罕	-12.0322
囚	-12.0322
渊	-12.0323
撕	-12.0323
崩	-12.0323
挡	-12.0323
虐	-12.0323
幽	-12.0323
瘤	-12.0324
懒	-12.0324
昏	-12.0324
妨	-12.0324
磅	-12.0324
凿	-12.0324
俘	-12.0324
衬	-12.0324
帅	-12.0324
矩	-12.0324
铅	-12.0324
琼	-12.0324
蜜	-12.0324
觅	-12.0324
茶	-12.0606
健	-12.0675
毫	-12.0691
炎	-12.0693
悦	-12.0693
宅	-12.0693
柴	-12.0693
魁	-12.0693
辖	-12.0693
壳	-12.0694
绳	-12.0694
惧	-12.0694
串	-12.0694
剥	-12.0694
炭	-12.0694
贡	-12.0694
砍	-12.0694
吐	-12.0694
妈	-12.0694
砂	-12.0694
肠	-12.0694
崎	-12.0694
羽	-12.0694
鞭	-12.0694
竖	-12.0694
桩	-12.0694
熬	-12.0694
澳	-12.0694
甜	-12.0694
筋	-12.0694
衍	-12.0885
塑	-12.1044
辜	-12.1073
映	-12.1074
掘	-12.1076
彻	-12.1078
唐	-12.1078
饿	-12.1078
苗	-12.1079
凉	-12.1079
晦	-12.1079
亩	-12.1079
泊	-12.1079
盒	-12.1079
毅	-12.1079
梭	-12.1079
郁	-12.1079
硕	-12.1079
蔑	-12.1467
捉	-12.1474
卓	-12.1477
欣	-12.1478
骚	-12.1478
痴	-12.1478
枯	-12.1478
驶	-12.1478
掠	-12.1478
矛	-12.1478
扮	-12.1479
揽	-12.1479
纹	-12.1479
熔	-12.1479
赵	-12.1479
穴	-12.1479
绵	-12.1479
哮	-12.1479
刃	-12.1479
茫	-12.1479
裤	-12.1479
哦	-12.1479
氯	-12.1479
魄	-12.1479
圭	-12.1479
睁	-12.1479
浦	-12.1479
ö	-12.1479
暂	-12.1881
溢	-12.1885
蚊	-12.1893
滩	-12.1893
峡	-12.1893
绪	-12.1894
奏	-12.1894
攀	-12.1895
慈	-12.1895
擦	-12.1895
贺	-12.1895
拐	-12.1895
婉	-12.1895
昭	-12.1895
禽	-12.1895
俭	-12.1895
耿	-12.1895
沾	-12.1895
铎	-12.1895
唾	-12.1895
喂	-12.1895
恳	-12.1895
吕	-12.1895
篱	-12.1895
旨	-12.2259
宏	-12.2276
晓	-12.2313
酬	-12.2327
寡	-12.2328
姓	-12.2328
尺	-12.2329
腕	-12.233
溯	-12.233
铀	-12.233
苍	-12.233
吊	-12.233
熄	-12.233
烙	-12.233
寂	-12.233
诘	-12.233
艳	-12.233
吝	-12.233
喧	-12.233
斑	-12.233
惶	-12.233
沥	-12.233
矫	-12.233
睦	-12.233
哭	-12.233
椅	-12.233
哨	-12.233
煎	-12.233
薯	-12.233
革	-12.2721
馈	-12.2779
契	-12.2779
匿	-12.2781
冗	-12.2782
浓	-12.2782
尸	-12.2783
弥	-12.2783
衔	-12.2784
鸣	-12.2784
睹	-12.2784
脊	-12.2785
冯	-12.2785
厕	-12.2785
啦	-12.2785
猴	-12.2785
淀	-12.2785
臂	-12.2785
裸	-12.2785
牟	-12.2785
鸽	-12.2785
郭	-12.2785
梳	-12.2785
肖	-12.2785
逞	-12.2785
姐	-12.2785
帷	-12.2785
疚	-12.2785
谓	-12.3169
赐	-12.3248
殖	-12.3257
析	-12.3258
婴	-12.326
邪	-12.326
怎	-12.326
窘	-12.326
驯	-12.326
傲	-12.326
狐	-12.326
灌	-12.326
框	-12.3261
贪	-12.3261
慌	-12.3261
窝	-12.3261
傻	-12.3261
痒	-12.3261
坊	-12.3261
佣	-12.3261
萌	-12.3261
钚	-12.3261
撇	-12.3261
殃	-12.3261
隙	-12.3261
_	-12.3261
缪	-12.3261
瘦	-12.3261
逸	-12.3261
祥	-12.3261
蒋	-12.3261
胶	-12.3261
乞	-12.3261
湿	-12.3745
韧	-12.3749
颁	-12.3757
詹	-12.3757
蹈	-12.3758
辟	-12.3758
篮	-12.3758
虑	-12.376
喘	-12.376
胁	-12.376
筛	-12.376
亟	-12.376
痕	-12.376
魂	-12.376
凝	-12.3761
邀	-12.3761
靡	-12.3761
爽	-12.3761
稽	-12.3761
茅	-12.3761
柜	-12.3761
浑	-12.3761
锈	-12.3761
蚕	-12.3761
寨	-12.3761
瞎	-12.3761
篷	-12.3761
绞	-12.3761
拱	-12.3761
闷	-12.3761
缄	-12.3761
罐	-12.3761
钝	-12.3761
冤	-12.3761
盈	-12.4219
坛	-12.4285
奠	-12.4285
辅	-12.4286
丈	-12.4286
扼	-12.4287
嘲	-12.4287
岩	-12.4287
蛮	-12.4287
绍	-12.4287
躺	-12.4287
爸	-12.4287
溶	-12.4287
朴	-12.4287
芭	-12.4287
函	-12.4287
倦	-12.4287
蕾	-12.4287
蜡	-12.4287
沈	-12.4287
沛	-12.4287
浆	-12.4287
讳	-12.4287
寺	-12.4287
呕	-12.4287
舟	-12.4287
溜	-12.4287
锅	-12.4287
屁	-12.4287
悼	-12.4287
疼	-12.4287
鸠	-12.4287
怯	-12.4287
揣	-12.4287
朵	-12.4287
焉	-12.4287
粪	-12.4287
钥	-12.4287
邸	-12.4287
恪	-12.4287
寿	-12.4821
润	-12.4831
昔	-12.4838
织	-12.484
鹰	-12.484
柏	-12.4842
惑	-12.4842
尝	-12.4842
钩	-12.4842
吵	-12.4842
兄	-12.4843
弦	-12.4843
廓	-12.4843
巷	-12.4843
扇	-12.4843
坪	-12.4843
烛	-12.4843
卧	-12.4843
恕	-12.4843
夷	-12.4843
坟	-12.4843
焕	-12.4843
焰	-12.4843
侯	-12.4843
洒	-12.4843
眉	-12.4843
苟	-12.4843
沸	-12.4843
硫	-12.4843
酶	-12.4843
婆	-12.4843
狸	-12.4843
凄	-12.4843
坍	-12.4843
簿	-12.4843
鹅	-12.4843
唉	-12.4843
竹	-12.4843
绊	-12.4843
懈	-12.5359
贬	-12.5426
斤	-12.543
寓	-12.543
柱	-12.543
碍	-12.543
迦	-12.5431
慨	-12.5431
窍	-12.5431
聋	-12.5431
悍	-12.5431
#	-12.5431
刮	-12.5431
搏	-12.5431
噤	-12.5431
掺	-12.5431
镀	-12.5431
柄	-12.5431
贼	-12.5431
捣	-12.5431
狠	-12.5431
亵	-12.5431
谚	-12.5431
锦	-12.5431
橡	-12.5431
瑰	-12.5431
篡	-12.5431
仆	-12.5431
妒	-12.5431
旬	-12.5431
缅	-12.5431
胀	-12.6055
蔽	-12.6055
匠	-12.6056
鸭	-12.6056
侍	-12.6056
嗜	-12.6056
龟	-12.6056
吟	-12.6056
芜	-12.6056
丙	-12.6056
泵	-12.6056
杨	-12.6056
矮	-12.6056
秃	-12.6056
邓	-12.6056
闯	-12.6056
拧	-12.6056
伽	-12.6056
涓	-12.6056
吠	-12.6056
灶	-12.6056
碌	-12.6056
丸	-12.6056
咎	-12.6056
槽	-12.6056
腔	-12.6056
剃	-12.6056
煞	-12.6056
嚷	-12.6056
孜	-12.6056
哄	-12.6056
藤	-12.6056
厨	-12.6056
荫	-12.6056
棕	-12.6056
瑙	-12.6056
陡	-12.6056
溺	-12.6056
扁	-12.6056
亨	-12.6708
歧	-12.6714
淹	-12.6721
硅	-12.6722
鹿	-12.6722
冉	-12.6722
吴	-12.6722
兜	-12.6722
郑	-12.6722
勿	-12.6722
陋	-12.6722
矢	-12.6723
碗	-12.6723
洼	-12.6723
懦	-12.6723
洽	-12.6723
扳	-12.6723
缸	-12.6723
矣	-12.6723
è	-12.6723
藻	-12.6723
尿	-12.6723
锤	-12.6723
霾	-12.6723
暑	-12.6723
屑	-12.6723
恭	-12.6723
翘	-12.6723
靶	-12.6723
盎	-12.6723
娼	-12.6723
髓	-12.6723
唇	-12.6723
啬	-12.6723
歹	-12.6723
爷	-12.6723
剔	-12.7411
董	-12.7434
卸	-12.7434
抚	-12.7435
械	-12.7435
妓	-12.7436
诫	-12.7436
谬	-12.7436
碑	-12.7437
疹	-12.7437
梁	-12.7437
诀	-12.7437
睬	-12.7437
舶	-12.7437
觊	-12.7437
紫	-12.7437
俩	-12.7437
祈	-12.7437
妆	-12.7437
缚	-12.7437
卒	-12.7437
漆	-12.7437
肇	-12.7437
绷	-12.7437
膏	-12.7437
娃	-12.7437
菅	-12.7437
趸	-12.7437
仑	-12.7437
翅	-12.7437
芽	-12.7437
毙	-12.7437
躯	-12.7437
斜	-12.7437
弛	-12.7437
耍	-12.7437
茄	-12.7437
弧	-12.7437
硝	-12.7437
碱	-12.7437
颖	-12.7437
嫖	-12.7437
抄	-12.7437
碾	-12.7437
嘎	-12.7437
俯	-12.7437
棵	-12.7437
烹	-12.7437
涛	-12.7437
诵	-12.7437
磷	-12.7437
疟	-12.8164
疆	-12.8187
曝	-12.8204
勉	-12.8205
玉	-12.8205
眠	-12.8206
彰	-12.8206
肃	-12.8206
螺	-12.8206
戳	-12.8206
殉	-12.8206
膜	-12.8206
唆	-12.8206
罩	-12.8206
嗅	-12.8206
衫	-12.8206
陀	-12.8206
栖	-12.8206
讥	-12.8206
仲	-12.8206
厥	-12.8206
夥	-12.8206
攒	-12.8206
兔	-12.8206
匈	-12.8206
黛	-12.8206
叔	-12.8206
舵	-12.8206
躬	-12.8206
傅	-12.8206
赈	-12.8206
徐	-12.8206
泼	-12.8206
舱	-12.8206
黜	-12.8206
恃	-12.8206
咸	-12.8206
燎	-12.8206
癖	-12.8206
胺	-12.8206
壕	-12.8206
悯	-12.8206
眩	-12.8206
蔗	-12.8206
磕	-12.8206
挨	-12.8206
毯	-12.8206
褒	-12.8206
嫉	-12.8206
殷	-12.8206
粟	-12.8206
膀	-12.8206
删	-12.9018
肆	-12.9027
挽	-12.9033
悖	-12.9036
键	-12.9039
夭	-12.9039
吁	-12.9039
秉	-12.9039
棚	-12.9039
驴	-12.9039
讽	-12.9039
跋	-12.9039
谙	-12.9039
隧	-12.9039
咳	-12.9039
蛾	-12.9039
哗	-12.9039
氰	-12.9039
蕉	-12.9039
椎	-12.9039
肋	-12.9039
钳	-12.9039
韵	-12.9039
骆	-12.9039
肚	-12.9039
铃	-12.9039
鹤	-12.9039
冀	-12.9039
挚	-12.9039
栽	-12.9039
氟	-12.9039
膝	-12.9039
蚁	-12.9039
贤	-12.9039
狄	-12.9039
谟	-12.9039
禅	-12.9039
豹	-12.904
柳	-12.904
媚	-12.904
叮	-12.904
臆	-12.904
炫	-12.904
抑	-12.9914
削	-12.9947
泻	-12.9948
咽	-12.9948
斋	-12.9948
姿	-12.9948
橙	-12.9948
滕	-12.9948
熙	-12.9948
ó	-12.9948
缆	-12.9948
臻	-12.9948
弓	-12.9948
ł	-12.9948
贻	-12.9948
骇	-12.9948
伺	-12.9948
蜕	-12.9948
怂	-12.9949
滔	-12.9949
燕	-12.9949
褪	-12.9949
趟	-12.9949
蜗	-12.9949
赘	-12.9949
汞	-12.9949
孽	-12.9949
弘	-12.9949
窜	-12.9949
摔	-12.9949
臼	-12.9949
窟	-12.9949
敞	-13.0946
漠	-13.0947
阀	-13.0947
扭	-13.0947
谣	-13.0947
袖	-13.0948
苛	-13.0948
颓	-13.0948
御	-13.0948
朋	-13.0948
谊	-13.0948
虾	-13.0948
胖	-13.0948
侄	-13.0948
蠕	-13.0948
戟	-13.0948
蚀	-13.0948
纬	-13.0948
跪	-13.0948
乒	-13.0948
皂	-13.0948
耽	-13.0948
疤	-13.0948
芙	-13.0948
蹲	-13.0948
雌	-13.0948
僻	-13.0948
眨	-13.0948
秽	-13.0948
羹	-13.0948
蚂	-13.0948
袍	-13.0948
庶	-13.0948
懊	-13.0948
跛	-13.0948
琉	-13.0949
桃	-13.0949
祟	-13.0949
嫩	-13.0949
沧	-13.0949
狡	-13.0949
岔	-13.0949
酪	-13.0949
棺	-13.0949
愁	-13.0949
涝	-13.0949
旷	-13.0949
峭	-13.0949
冥	-13.0949
泉	-13.2056
沟	-13.2058
铭	-13.2059
悠	-13.2059
峻	-13.2059
枢	-13.2059
牍	-13.2059
垒	-13.2059
噬	-13.2059
鳄	-13.2059
孰	-13.206
蔚	-13.206
驰	-13.206
贞	-13.206
渺	-13.206
玄	-13.206
赃	-13.206
鳍	-13.206
ğ	-13.206
'	-13.206
讷	-13.206
氨	-13.206
竿	-13.206
缮	-13.206
罄	-13.206
甫	-13.206
骸	-13.206
î	-13.206
亘	-13.206
嚼	-13.206
岑	-13.206
楔	-13.206
淌	-13.206
诧	-13.206
颤	-13.206
怠	-13.206
梵	-13.206
骄	-13.206
泌	-13.206
猝	-13.206
腻	-13.206
迂	-13.206
郡	-13.206
咋	-13.206
擂	-13.206
汁	-13.206
烬	-13.206
穹	-13.206
锯	-13.206
剿	-13.206
捡	-13.206
厢	-13.206
畔	-13.206
饵	-13.206
忆	-13.3307
翰	-13.3308
悄	-13.3308
饲	-13.3309
凸	-13.3309
鲨	-13.3309
戛	-13.3309
萎	-13.3309
ä	-13.3309
仔	-13.3309
缕	-13.3309
仕	-13.331
醇	-13.331
鞠	-13.331
忿	-13.331
酮	-13.331
烯	-13.331
叨	-13.331
瞥	-13.331
耸	-13.331
寇	-13.331
烤	-13.331
袁	-13.331
铉	-13.331
驼	-13.331
抖	-13.331
晃	-13.331
缀	-13.331
肴	-13.331
芦	-13.331
锌	-13.331
俏	-13.331
枉	-13.331
梗	-13.331
禄	-13.331
翩	-13.331
掂	-13.331
晴	-13.331
曰	-13.331
糜	-13.331
茧	-13.331
莲	-13.331
孚	-13.331
辽	-13.331
锰	-13.331
拣	-13.331
铐	-13.331
吼	-13.331
挞	-13.331
伎	-13.331
麓	-13.331
踞	-13.331
闸	-13.331
浇	-13.331
络	-13.3642
佬	-13.4724
哲	-13.4728
擅	-13.4736
轴	-13.4736
棘	-13.4736
嵌	-13.4737
萧	-13.4737
贱	-13.4737
庇	-13.4737
飙	-13.4738
迅	-13.4738
噩	-13.4738
撮	-13.4738
辣	-13.4738
淘	-13.4738
‐	-13.4738
逗	-13.4738
沓	-13.4738
孢	-13.4738
俊	-13.4738
喙	-13.4738
嘱	-13.4738
琢	-13.4738
翔	-13.4738
蔡	-13.4738
钨	-13.4738
盔	-13.4738
贮	-13.4738
轧	-13.4738
砥	-13.4738
@	-13.4738
呃	-13.4738
渣	-13.4738
瘁	-13.4738
晾	-13.4738
踯	-13.4738
酌	-13.4738
釜	-13.4738
碘	-13.4738
搀	-13.4738
杖	-13.4738
$	-13.4738
冶	-13.4738
镖	-13.4738
涎	-13.4738
黏	-13.4738
帆	-13.4738
宛	-13.4738
偕	-13.4738
掀	-13.6383
戮	-13.6402
纱	-13.6402
煽	-13.6403
裕	-13.6404
聪	-13.6404
汲	-13.6404
鸦	-13.6404
腊	-13.6404
筒	-13.6404
宋	-13.6404
掐	-13.6405
歪	-13.6405
碧	-13.6405
岐	-13.6405
卦	-13.6405
瞒	-13.6405
扛	-13.6405
癣	-13.6405
咯	-13.6405
岳	-13.6405
棱	-13.6405
狮	-13.6405
Ö	-13.6405
佑	-13.6405
槟	-13.6405
蝉	-13.6405
骎	-13.6405
匝	-13.6405
妖	-13.6405
ć	-13.6405
碟	-13.6405
皱	-13.6405
曹	-13.6405
乖	-13.6405
撩	-13.6405
疽	-13.6405
唬	-13.6405
砷	-13.6405
稚	-13.6405
ñ	-13.6405
於	-13.6405
栈	-13.6405
毋	-13.6405
烫	-13.6405
鳞	-13.6405
凤	-13.6405
垦	-13.6405
崔	-13.6405
斟	-13.6405
遂	-13.6405
佼	-13.6405
啃	-13.6405
晒	-13.6405
沪	-13.6405
胰	-13.6405
侠	-13.6405
湛	-13.6405
簧	-13.6405
茜	-13.6405
谲	-13.6405
恙	-13.6405
纂	-13.6405
侃	-13.6405
惺	-13.6405
蝗	-13.6405
茂	-13.6405
聘	-13.8396
啸	-13.8403
渠	-13.8403
侨	-13.8404
镑	-13.8404
莽	-13.8404
娱	-13.8404
钴	-13.8404
弈	-13.8404
辑	-13.8404
括	-13.8405
侮	-13.8405
黯	-13.8405
樟	-13.8405
儆	-13.8405
疱	-13.8405
腮	-13.8405
苯	-13.8405
荧	-13.8405
跷	-13.8405
靴	-13.8405
卉	-13.8405
恤	-13.8405
晕	-13.8405
炽	-13.8405
砌	-13.8405
螂	-13.8405
蟑	-13.8405
镶	-13.8405
嘛	-13.8405
嚎	-13.8405
彦	-13.8405
拗	-13.8405
耄	-13.8405
耋	-13.8405
蹄	-13.8405
酯	-13.8405
隅	-13.8405
颈	-13.8405
吏	-13.8405
弋	-13.8405
沐	-13.8405
盏	-13.8405
腑	-13.8405
菱	-13.8405
觑	-13.8405
堑	-13.8405
〔	-13.8405
焖	-13.8405
辙	-13.8405
兮	-13.8405
怼	-13.8405
祷	-13.8405
簇	-13.8405
虹	-13.8405
诬	-13.8405
饷	-13.8405
坤	-13.8405
姨	-13.8405
桂	-13.8405
灼	-13.8405
岭	-13.8405
庐	-13.8405
揪	-13.8405
泯	-13.8405
芋	-13.8405
荆	-13.8405
钽	-13.8405
霆	-13.8405
靓	-13.8405
颅	-13.8405
鲑	-13.8405
怡	-13.8405
拈	-13.8405
刁	-13.8405
熏	-13.8405
绅	-13.8405
锥	-13.8405
〕	-13.8405
嗓	-13.8405
宵	-13.8405
猥	-13.8405
筝	-13.8405
羸	-13.8405
虞	-13.8405
锂	-13.8405
陲	-13.8405
谄	-13.8405
逡	-13.8405
拂	-13.8405
蟒	-13.8405
戎	-13.8405
暮	-13.8405
濑	-13.8405
犷	-13.8405
谛	-13.8405
膺	-13.8405
涯	-14.0415
攫	-14.0861
艰	-14.0882
酵	-14.0903
殴	-14.0903
氓	-14.0903
谅	-14.0903
廊	-14.0903
刹	-14.0904
顷	-14.0904
聆	-14.0904
榻	-14.0904
搁	-14.0904
挠	-14.0904
蝠	-14.0904
帘	-14.0904
勘	-14.0905
慧	-14.0905
亥	-14.0905
痰	-14.0905
菇	-14.0905
蘑	-14.0905
诃	-14.0905
锻	-14.0905
痉	-14.0905
斧	-14.0905
ú	-14.0905
哇	-14.0905
嫡	-14.0905
挛	-14.0905
芥	-14.0905
霖	-14.0905
杠	-14.0905
缰	-14.0905
惭	-14.0905
揉	-14.0905
炊	-14.0905
蹊	-14.0905
遐	-14.0905
薛	-14.0905
臀	-14.0905
莠	-14.0905
馁	-14.0905
鸿	-14.0905
叩	-14.0905
彗	-14.0905
杉	-14.0905
瓷	-14.0905
舔	-14.0905
蚱	-14.0905
谆	-14.0905
豚	-14.0905
钮	-14.0905
镉	-14.0905
镌	-14.0905
鹫	-14.0905
ø	-14.0905
涣	-14.0905
瀚	-14.0905
腓	-14.0905
阑	-14.0905
咙	-14.0905
嘀	-14.0905
壶	-14.0905
惴	-14.0905
愕	-14.0905
栗	-14.0905
淤	-14.0905
煮	-14.0905
熵	-14.0905
砝	-14.0905
咕	-14.0905
啼	-14.0905
婊	-14.0905
槃	-14.0905
焊	-14.0905
熨	-14.0905
蛙	-14.0905
谭	-14.0905
髋	-14.0905
*	-14.0905
=	-14.0905
š	-14.0905
噱	-14.0905
捶	-14.0905
眺	-14.0905
羔	-14.0905
茎	-14.0905
蛰	-14.0905
踝	-14.0905
醋	-14.0905
奚	-14.0905
裴	-14.0905
婶	-14.0905
媳	-14.0905
搪	-14.0905
撷	-14.0905
擢	-14.0905
湮	-14.0905
葱	-14.0905
蒲	-14.0905
蹿	-14.0905
辰	-14.0905
酱	-14.0905
镁	-14.0905
馑	-14.0905
ş	-14.0905
雳	-14.0905
呵	-14.0905
孀	-14.0905
帑	-14.0905
敝	-14.0905
霹	-14.0905
瞧	-14.0905
刨	-14.0905
媛	-14.0905
脓	-14.0905
钧	-14.0905
ε	-14.0905
倔	-14.0905
蛀	-14.0905
钾	-14.0905
镣	-14.0905
逛	-14.0905
抒	-14.0905
啡	-14.0905
孝	-14.0905
癫	-14.0905
笛	-14.0905
瞰	-14.0905
丐	-14.0905
捅	-14.0905
蜒	-14.0905
蜿	-14.0905
谐	-14.4127
央	-14.4203
糕	-14.4227
恢	-14.4228
滤	-14.4232
谍	-14.4236
睛	-14.4237
瑜	-14.4238
摒	-14.4238
嘈	-14.4238
蔓	-14.4238
卯	-14.4238
搔	-14.4238
钛	-14.4238
莓	-14.4238
邵	-14.4238
吾	-14.4238
宕	-14.4238
杏	-14.4238
汝	-14.4238
皎	-14.4238
稠	-14.4238
蜱	-14.4238
憾	-14.4238
袒	-14.4238
ľ	-14.4238
【	-14.4238
哂	-14.4238
舅	-14.4238
褐	-14.4238
镍	-14.4238
坞	-14.4238
浙	-14.4238
淳	-14.4238
鳃	-14.4238
ï	-14.4238
‧	-14.4238
嗽	-14.4238
梢	-14.4238
炙	-14.4238
瘸	-14.4238
笞	-14.4238
糅	-14.4238
脯	-14.4238
舐	-14.4238
葵	-14.4238
鞥	-14.4238
鹉	-14.4238
鹏	-14.4238
鹦	-14.4238
徙	-14.4238
筱	-14.4238
佯	-14.4238
厩	-14.4238
呻	-14.4238
啥	-14.4238
孳	-14.4238
寞	-14.4238
屯	-14.4238
幢	-14.4238
忒	-14.4238
捂	-14.4238
滇	-14.4238
睾	-14.4238
稔	-14.4238
谶	-14.4238
迸	-14.4238
飚	-14.4238
骷	-14.4238
髅	-14.4238
鳕	-14.4238
垢	-14.4238
薰	-14.4238
跄	-14.4238
陨	-14.4238
­	-14.4238
à	-14.4238
ç	-14.4238
倭	-14.4238
岂	-14.4238
幡	-14.4238
幺	-14.4238
曳	-14.4238
歼	-14.4238
浊	-14.4238
渝	-14.4238
犁	-14.4238
砾	-14.4238
秦	-14.4238
绌	-14.4238
羚	-14.4238
茹	-14.4238
踉	-14.4238
逅	-14.4238
遁	-14.4238
邂	-14.4238
钠	-14.4238
铰	-14.4238
馊	-14.4238
鳐	-14.4238
昵	-14.4238
呜	-14.4238
哑	-14.4238
惋	-14.4238
枕	-14.4238
铂	-14.4238
铬	-14.4238
勺	-14.4238
卤	-14.4238
忐	-14.4238
忑	-14.4238
懵	-14.4238
窑	-14.4238
竣	-14.4238
篝	-14.4238
茬	-14.4238
茱	-14.4238
鞅	-14.4238
▪	-14.4238
樊	-14.4238
烘	-14.4238
眷	-14.4238
篓	-14.4238
薇	-14.4238
蹭	-14.4238
酣	-14.4238
陵	-14.4238
烷	-14.4238
惬	-14.4238
ē	-14.4238
恍	-14.4238
檀	-14.4238
粱	-14.4238
暨	-14.4238
喋	-14.4239
疴	-14.4239
娇	-14.4239
揄	-14.4239
揶	-14.4239
亢	-14.4239
祀	-14.4239
徽	-14.4239
辍	-14.9189
厦	-14.9226
怖	-14.9231
铲	-14.9232
魅	-14.9235
豁	-14.9235
崛	-14.9236
撬	-14.9237
舆	-14.9237
倡	-14.9237
肼	-14.9237
励	-14.9237
磺	-14.9237
蝾	-14.9237
恺	-14.9238
拯	-14.9238
摧	-14.9238
腥	-14.9238
俟	-14.9238
朊	-14.9238
螈	-14.9238
酰	-14.9238
鲼	-14.9238
荏	-14.9238
莞	-14.9238
慷	-14.9238
僭	-14.9238
吭	-14.9238
咀	-14.9238
彬	-14.9238
瓣	-14.9238
維	-14.9238
苔	-14.9238
跎	-14.9238
麋	-14.9238
垠	-14.9238
娓	-14.9238
沽	-14.9238
篪	-14.9238
褥	-14.9238
陕	-14.9238
黝	-14.9238
囤	-14.9238
捍	-14.9238
唁	-14.9238
镐	-14.9238
骰	-14.9238
崴	-14.9238
幄	-14.9238
悴	-14.9238
憔	-14.9238
扈	-14.9238
拎	-14.9238
栅	-14.9238
椒	-14.9238
椰	-14.9238
牡	-14.9238
痞	-14.9238
矜	-14.9238
祇	-14.9238
绣	-14.9238
缥	-14.9238
萃	-14.9238
萸	-14.9238
蒜	-14.9238
蛎	-14.9238
蜢	-14.9238
蟾	-14.9238
蠵	-14.9238
蹉	-14.9238
颌	-14.9238
砺	-14.9238
潭	-14.9238
崖	-14.9238
芯	-14.9238
衅	-14.9238
喳	-14.9238
喽	-14.9238
娶	-14.9238
尹	-14.9238
徳	-14.9238
悸	-14.9238
淅	-14.9238
獭	-14.9238
玺	-14.9238
瓢	-14.9238
竽	-14.9238
芳	-14.9238
蜷	-14.9238
蹋	-14.9238
蹑	-14.9238
颦	-14.9238
沫	-14.9238
凹	-14.9238
呛	-14.9238
尧	-14.9238
惘	-14.9238
涮	-14.9238
缈	-14.9238
翌	-14.9238
鸩	-14.9238
甸	-14.9238
纺	-14.9238
ı	-14.9238
寅	-14.9238
É	-14.9238
×	-14.9238
β	-14.9238
】	-14.9238
・	-14.9238
亭	-14.9238
侏	-14.9238
俎	-14.9238
凰	-14.9238
匍	-14.9238
匐	-14.9238
叽	-14.9238
咧	-14.9238
啄	-14.9238
啧	-14.9238
嘟	-14.9238
囔	-14.9238
婢	-14.9238
孺	-14.9238
寝	-14.9238
寮	-14.9238
尉	-14.9238
徉	-14.9238
抠	-14.9238
搡	-14.9238
旭	-14.9238
泱	-14.9238
溴	-14.9238
炖	-14.9238
炯	-14.9238
狒	-14.9238
甥	-14.9238
疡	-14.9238
瘪	-14.9238
皑	-14.9238
硒	-14.9238
磊	-14.9238
秧	-14.9238
秸	-14.9238
絮	-14.9238
綏	-14.9238
绦	-14.9238
翠	-14.9238
耙	-14.9238
膊	-14.9238
荟	-14.9238
荦	-14.9238
蜥	-14.9238
蜴	-14.9238
襄	-14.9238
赊	-14.9238
趄	-14.9238
趔	-14.9238
蹦	-14.9238
邑	-14.9238
邱	-14.9238
锣	-14.9238
霓	-14.9238
鞍	-14.9238
韪	-14.9238
颐	-14.9238
龃	-14.9238
龉	-14.9238
瘟	-14.9238
č	-14.9238
啰	-14.9238
嗟	-14.9238
攥	-14.9238
箍	-14.9238
胱	-14.9238
轫	-14.9238
铛	-14.9238
汰	-14.9238
å	-14.9238
岱	-14.9238
嵘	-14.9238
帚	-14.9238
徇	-14.9238
徜	-14.9238
拴	-14.9238
晖	-14.9238
杓	-14.9238
桓	-14.9238
檄	-14.9238
烃	-14.9238
痫	-14.9238
纰	-14.9238
蔻	-14.9238
襟	-14.9238
诙	-14.9238
诿	-14.9238
趾	-14.9238
轶	-14.9238
锒	-14.9238
霜	-14.9238
髙	-14.9238
鲣	-14.9238
嚏	-14.9238
擎	-14.9238
堰	-14.9238
峥	-14.9238
扒	-14.9238
拮	-14.9238
擒	-14.9238
昼	-14.9238
楠	-14.9238
琦	-14.9238
纣	-14.9238
胳	-14.9238
葺	-14.9238
跤	-14.9238
蹬	-14.9238
钋	-14.9238
钶	-14.9238
闺	-14.9238
嗡	-14.9239
姬	-14.9239
柠	-14.9239
檬	-14.9239
衮	-14.9239
颧	-14.9239
壹	-14.9239
绒	-14.9239
钼	-14.9239
桅	-14.9239
轩	-14.9239
蚤	-14.9239
奕	-14.9239
驮	-14.9239
阮	-14.924
祢	-15.8802
帙	-15.8803
孛	-15.8804
ž	-15.8805
Ž	-15.8806
～	-15.8807
铩	-15.8808
赳	-15.8809
蕞	-15.881
舛	-15.8811
粤	-15.8812
籁	-15.8813
磐	-15.8814
瞠	-15.8815
淮	-15.8816
斓	-15.8817
恬	-15.8818
忾	-15.8819
黩	-15.882
麟	-15.8821
鲔	-15.8822
貉	-15.8823
篑	-15.8824
稷	-15.8825
珑	-15.8826
珉	-15.8827
玲	-15.8828
熠	-15.8829
潦	-15.883
湎	-15.8831
殚	-15.8832
榭	-15.8833
啉	-15.8834
唳	-15.8835
偃	-15.8836
黔	-15.8837
魇	-15.8838
骛	-15.8839
锏	-15.884
谑	-15.8841
菁	-15.8842
臬	-15.8843
膦	-15.8844
肓	-15.8845
琅	-15.8846
灿	-15.8847
瀣	-15.8848
澎	-15.8849
漪	-15.885
湃	-15.8851
涤	-15.8852
涟	-15.8853
沆	-15.8854
毡	-15.8855
柿	-15.8856
愎	-15.8857
孪	-15.8858
奂	-15.8859
夯	-15.886
囱	-15.8861
嘶	-15.8862
叭	-15.8863
ã	-15.8864
麾	-15.8865
鸵	-15.8866
骼	-15.8867
馏	-15.8868
铢	-15.8869
辗	-15.887
躅	-15.8871
觞	-15.8872
蝶	-15.8873
蝴	-15.8874
葫	-15.8875
莹	-15.8876
苷	-15.8877
脖	-15.8878
纫	-15.8879
箴	-15.888
笆	-15.8881
澡	-15.8882
汪	-15.8883
汐	-15.8884
屹	-15.8885
寰	-15.8886
寐	-15.8887
娴	-15.8888
凋	-15.8889
馅	-15.889
豢	-15.8891
痊	-15.8892
狈	-15.8893
瀑	-15.8894
沌	-15.8895
榴	-15.8896
摈	-15.8897
懑	-15.8898
岿	-15.8899
俨	-15.89
ń	-15.8901
鱿	-15.8902
霄	-15.8903
阂	-15.8904
醛	-15.8905
踊	-15.8906
谩	-15.8907
诲	-15.8908
讹	-15.8909
譬	-15.891
蜃	-15.8911
胥	-15.8912
罂	-15.8913
矗	-15.8914
睽	-15.8915
狙	-15.8916
攘	-15.8917
掮	-15.8918
剽	-15.8919
傍	-15.892
蜘	-15.8921
胧	-15.8922
聩	-15.8923
窿	-15.8924
窠	-15.8925
睢	-15.8926
瘠	-15.8927
痍	-15.8928
渲	-15.8929
沂	-15.893
朦	-15.8931
擘	-15.8932
拭	-15.8933
岖	-15.8934
媾	-15.8935
乓	-15.8936
饽	-15.8937
鞑	-15.8938
靼	-15.8939
阉	-15.894
镕	-15.8941
茵	-15.8942
芸	-15.8943
脾	-15.8944
脔	-15.8945
聒	-15.8946
缭	-15.8947
眈	-15.8948
泣	-15.8949
棣	-15.895
恿	-15.8951
忱	-15.8952
糙	-15.8953
笋	-15.8954
烩	-15.8955
烁	-15.8956
渭	-15.8957
泾	-15.8958
昙	-15.8959
啤	-15.896
呐	-15.8961
鹜	-15.8962
鳌	-15.8963
铤	-15.8964
邃	-15.8965
蹩	-15.8966
襁	-15.8967
褓	-15.8968
膳	-15.8969
绽	-15.897
痼	-15.8971
猬	-15.8972
牒	-15.8973
楷	-15.8974
塘	-15.8975
喹	-15.8976
啮	-15.8977
骜	-15.8978
饪	-15.8979
觎	-15.898
簸	-15.8981
疵	-15.8982
瑕	-15.8983
桀	-15.8984
恫	-15.8985
婿	-15.8986
侥	-15.8987
锢	-15.8988
蛛	-15.8989
绎	-15.899
甄	-15.8991
玫	-15.8992
漓	-15.8993
榈	-15.8994
枷	-15.8995
徕	-15.8996
镳	-15.8997
讧	-15.8998
狩	-15.8999
杞	-15.9
敷	-15.9001
弩	-15.9002
娠	-15.9003
妊	-15.9004
墉	-15.9005
咫	-15.9006
咆	-15.9007
匀	-15.9008
髦	-15.9009
阪	-15.901
酗	-15.9011
辄	-15.9012
诩	-15.9013
诛	-15.9014
藩	-15.9015
涸	-15.9016
椭	-15.9017
梏	-15.9018
桎	-15.9019
墅	-15.902
圄	-15.9021
囿	-15.9022
囹	-15.9023
雏	-15.9024
赡	-15.9025
汶	-15.9026
毗	-15.9027
惫	-15.9028
悚	-15.9029
匙	-15.903
轿	-15.9031
萦	-15.9032
茁	-15.9033
缛	-15.9034
皈	-15.9035
疮	-15.9036
淖	-15.9037
坷	-15.9038
冕	-15.9039
兢	-15.904
赅	-15.9041
纭	-15.9042
燥	-15.9043
弭	-15.9044
蹴	-15.9045
蝇	-15.9046
绰	-15.9047
睿	-15.9048
痢	-15.9049
渥	-15.905
浏	-15.9051
枭	-15.9052
遑	-15.9053
赁	-15.9054
讦	-15.9055
孵	-15.9056
钵	-15.9057
辕	-15.9058
紊	-15.9059
犀	-15.906
炬	-15.9061
漩	-15.9062
湄	-15.9063
奄	-15.9064
禀	-15.9065
璃	-15.9066
榷	-15.9067
恣	-15.9068
忏	-15.9069
蹶	-15.907
诟	-15.9071
藐	-15.9072
蒿	-15.9073
萝	-15.9074
稣	-15.9075
暧	-15.9076
儡	-15.9077
傀	-15.9078
幌	-15.9079
玷	-15.908
巅	-15.9081
迥	-15.9082
袱	-15.9083
瑚	-15.9084
沁	-15.9085
扪	-15.9086
姊	-15.9087
圳	-15.9088
侪	-15.9089
诋	-15.909
朽	-15.9091
攸	-15.9092
挝	-15.9093
壑	-15.9094
踌	-15.9095
杭	-15.9096
斡	-15.9097
躇	-15.9098
荼	-15.9099
肪	-15.91
橄	-15.9101
榄	-15.9102
惰	-15.9103
汀	-15.9104
暇	-15.9105
臃	-15.9106
窒	-15.9107
蹒	-15.9108
踵	-15.9109
跚	-15.911
诠	-15.9111
袤	-15.9112
羡	-15.9113
罔	-15.9114
禧	-15.9115
哺	-15.9116
诅	-15.9117
胚	-15.9118
嘘	-15.9119
倪	-15.912
涩	-15.9121
娩	-15.9122
遴	-15.9123
荐	-15.9124
笨	-15.9125
獗	-15.9126
猖	-15.9127
媲	-15.9128
孱	-15.9129
蔬	-15.913
煌	-15.9131
矶	-15.9132
曙	-15.9133
汹	-15.9134
倘	-15.9135
逍	-15.9136
渎	-15.9137
憬	-15.9138
憧	-15.9139
喇	-15.914
帜	-15.9141
辐	-15.9142
稼	-15.9143
抉	-15.9144
崭	-15.9145
躏	-15.9146
蹂	-15.9147
肮	-15.9148
姗	-15.9149
劾	-15.915
匆	-15.9151
跻	-15.9152
磋	-15.9153
澜	-15.9154
惮	-15.9155
痹	-15.9156
槿	-15.9157
墟	-15.9158
嚣	-15.9159
啻	-15.916
澄	-15.9161
酝	-15.9162
掣	-15.9163
愉	-15.9164
睫	-15.9165
溉	-15.9166
咄	-15.9167
靖	-15.9168
罹	-15.9169
淆	-15.917
谤	-15.9171
诽	-15.9172
忡	-15.9173
尴	-15.9174
尬	-15.9175
怜	-15.9176
憎	-15.9177
侣	-15.9178
徘	-15.9179
徊	-15.918
屿	-15.9181
赂	-15.9182
匮	-15.9183
峙	-15.9184
姻	-15.9185
垃	-15.9186
圾	-15.9187
槛	-15.9188
肘	-15.9189
侈	-15.919
裨	-15.9191
隶	-15.9192
酋	-15.9193
渗	-15.9194
阐	-15.9195
宙	-15.9196
岌	-15.9197
婪	-15.9198
畴	-15.9199
绸	-15.92
埔	-15.9201
苹	-15.9202
堕	-15.9203
讶	-15.9204
咨	-15.9205
抨	-15.9206
晤	-15.9207
壤	-15.9208
豫	-15.9209
卿	-15.921
祉	-15.9211
⁄	-15.9212
飓	-15.9213
缔	-15.9214
沮	-15.9215
涵	-15.9216
瞩	-15.9217
慑	-15.9218
隘	-15.9219
迄	-15.922
阱	-15.9221
综	-15.9222
衡	-15.9223
晰	-15.9223
萄	-15.9224
胞	-15.9225
逻	-15.9226
牺	-15.9227
践	-15.9228
讼	-15.9229
垄	-15.9229
巩	-15.923
牲	-15.9231
膨	-15.9232
秩	-15.9233
允	-15.9234
僚	-15.9235
粹	-15.9235
估	-15.9236
氛	-15.9236
娑	-15.9237
恸	-15.9237
梨	-15.9237
蝙	-15.9237
钕	-15.9237
镝	-15.9237
撼	-15.9237
阈	-15.9237
脆	-15.9237
佚	-15.9237
俚	-15.9237
刈	-15.9237
嗣	-15.9237
坩	-15.9237
嫂	-15.9237
掴	-15.9237
殆	-15.9237
泮	-15.9237
牦	-15.9237
狞	-15.9237
猕	-15.9237
讫	-15.9237
铯	-15.9237
鳗	-15.9237
鸷	-15.9237
龈	-15.9237
宣	-15.9237
疙	-15.9237
瘩	-15.9237
馨	-15.9237
谴	-15.9237
咖	-15.9238
伥	-15.9238
俳	-15.9238
凛	-15.9238
刽	-15.9238
叵	-15.9238
唠	-15.9238
埚	-15.9238
増	-15.9238
姚	-15.9238
嬴	-15.9238
孑	-15.9238
孓	-15.9238
屉	-15.9238
抡	-15.9238
掰	-15.9238
揠	-15.9238
敕	-15.9238
昉	-15.9238
栉	-15.9238
楞	-15.9238
橘	-15.9238
汜	-15.9238
渍	-15.9238
湍	-15.9238
澈	-15.9238
狍	-15.9238
珐	-15.9238
疝	-15.9238
痘	-15.9238
窖	-15.9238
笠	-15.9238
糯	-15.9238
羟	-15.9238
耘	-15.9238
肱	-15.9238
萊	-15.9238
葆	-15.9238
蕊	-15.9238
藓	-15.9238
藜	-15.9238
蛉	-15.9238
蝌	-15.9238
蟀	-15.9238
蟊	-15.9238
蟋	-15.9238
衲	-15.9238
袂	-15.9238
谧	-15.9238
蹼	-15.9238
辫	-15.9238
遢	-15.9238
邋	-15.9238
鄢	-15.9238
钌	-15.9238
铒	-15.9238
铱	-15.9238
镓	-15.9238
霞	-15.9238
鳏	-15.9238
鹬	-15.9238
瞄	-15.9238
哟	-15.9238
の	-15.9238
佃	-15.9238
呗	-15.9238
哉	-15.9238
喑	-15.9238
噶	-15.9238
娄	-15.9238
慵	-15.9238
掖	-15.9238
揩	-15.9238
橹	-15.9238
氡	-15.9238
泞	-15.9238
琏	-15.9238
瘘	-15.9238
瞟	-15.9238
聂	-15.9238
虱	-15.9238
讣	-15.9238
豺	-15.9238
轱	-15.9238
辘	-15.9238
遨	-15.9238
醍	-15.9238
醐	-15.9238
铆	-15.9238
雍	-15.9238
颚	-15.9238
饴	-15.9238
驽	-15.9238
魯	-15.9238
鵟	-15.9238
鼬	-15.9238
惕	-15.9238
逮	-15.9238
â	-15.9238
刍	-15.9238
喔	-15.9238
寥	-15.9238
廖	-15.9238
拌	-15.9238
疥	-15.9238
眶	-15.9238
缢	-15.9238
肽	-15.9238
雁	-15.9238
龌	-15.9238
驭	-15.9238
忝	-15.9238
虏	-15.9238
猾	-15.9238
±	-15.9238
Å	-15.9238
Ò	-15.9238
ë	-15.9238
İ	-15.9238
‰	-15.9238
€	-15.9238
乾	-15.9238
佗	-15.9238
侬	-15.9238
俑	-15.9238
俦	-15.9238
俸	-15.9238
俺	-15.9238
俾	-15.9238
冢	-15.9238
凳	-15.9238
剐	-15.9238
剞	-15.9238
劂	-15.9238
劈	-15.9238
匣	-15.9238
叼	-15.9238
呱	-15.9238
哩	-15.9238
哼	-15.9238
哽	-15.9238
唔	-15.9238
啕	-15.9238
啜	-15.9238
嗔	-15.9238
嗖	-15.9238
嗝	-15.9238
嗤	-15.9238
嘻	-15.9238
噎	-15.9238
囫	-15.9238
囵	-15.9238
圜	-15.9238
堙	-15.9238
壬	-15.9238
奧	-15.9238
妪	-15.9238
娟	-15.9238
嬉	-15.9238
屎	-15.9238
屐	-15.9238
幂	-15.9238
庖	-15.9238
彷	-15.9238
怩	-15.9238
愠	-15.9238
憋	-15.9238
憩	-15.9238
戾	-15.9238
扉	-15.9238
拄	-15.9238
拇	-15.9238
挈	-15.9238
捋	-15.9238
捭	-15.9238
掳	-15.9238
揿	-15.9238
摹	-15.9238
撸	-15.9238
斌	-15.9238
旃	-15.9238
晷	-15.9238
暄	-15.9238
杳	-15.9238
杵	-15.9238
枞	-15.9238
柬	-15.9238
栓	-15.9238
椟	-15.9238
檐	-15.9238
殒	-15.9238
氘	-15.9238
泗	-15.9238
淇	-15.9238
渤	-15.9238
溅	-15.9238
溘	-15.9238
滓	-15.9238
濡	-15.9238
灸	-15.9238
烽	-15.9238
焙	-15.9238
燧	-15.9238
牾	-15.9238
犸	-15.9238
猁	-15.9238
猞	-15.9238
琛	-15.9238
琵	-15.9238
璜	-15.9238
璧	-15.9238
環	-15.9238
痂	-15.9238
痪	-15.9238
瘫	-15.9238
瘴	-15.9238
癔	-15.9238
皓	-15.9238
皿	-15.9238
盅	-15.9238
盥	-15.9238
砰	-15.9238
硼	-15.9238
碲	-15.9238
祠	-15.9238
秣	-15.9238
稅	-15.9238
竺	-15.9238
笈	-15.9238
粕	-15.9238
粥	-15.9238
繽	-15.9238
绚	-15.9238
缎	-15.9238
羌	-15.9238
翡	-15.9238
脍	-15.9238
脐	-15.9238
腱	-15.9238
膛	-15.9238
舀	-15.9238
舷	-15.9238
艮	-15.9238
艿	-15.9238
茉	-15.9238
荚	-15.9238
菊	-15.9238
葚	-15.9238
葩	-15.9238
薩	-15.9238
蚪	-15.9238
蛔	-15.9238
蛹	-15.9238
蜍	-15.9238
螃	-15.9238
蟹	-15.9238
蠹	-15.9238
觐	-15.9238
訇	-15.9238
诤	-15.9238
谔	-15.9238
豌	-15.9238
赭	-15.9238
趴	-15.9238
跬	-15.9238
踱	-15.9238
蹙	-15.9238
蹚	-15.9238
遛	-15.9238
鄂	-15.9238
鏖	-15.9238
钙	-15.9238
铈	-15.9238
铍	-15.9238
锄	-15.9238
锗	-15.9238
闽	-15.9238
阖	-15.9238
阙	-15.9238
雉	-15.9238
靈	-15.9238
韬	-15.9238
顸	-15.9238
颊	-15.9238
颞	-15.9238
饺	-15.9238
鲠	-15.9238
黠	-15.9238
龊	-15.9238
础	-15.9238
Ó	-15.9238
咱	-15.9238
札	-15.9238
虔	-15.9238
œ	-15.9238
Š	-15.9238
嗦	-15.9238
妃	-15.9238
娿	-15.9238
樽	-15.9238
苒	-15.9238
萩	-15.9238
谘	-15.9238
镯	-15.9238
颟	-15.9238
蛊	-15.9238
睐	-15.9238
哎	-15.9238
囧	-15.9238
姣	-15.9238
帼	-15.9238
忸	-15.9238
拽	-15.9238
捱	-15.9238
敖	-15.9238
朔	-15.9238
殍	-15.9238
浃	-15.9238
涕	-15.9238
瞪	-15.9238
碜	-15.9238
禾	-15.9238
秤	-15.9238
笹	-15.9238
筏	-15.9238
籽	-15.9238
纶	-15.9238
缤	-15.9238
肛	-15.9238
芹	-15.9238
莅	-15.9238
蔼	-15.9238
藕	-15.9238
蜚	-15.9238
裆	-15.9238
诶	-15.9238
谀	-15.9238
镰	-15.9238
阡	-15.9238
陴	-15.9238
馋	-15.9238
ō	-15.9239
佞	-15.9239
夙	-15.9239
峋	-15.9239
嶙	-15.9239
弑	-15.9239
戕	-15.9239
搓	-15.9239
洄	-15.9239
睥	-15.9239
睨	-15.9239
笫	-15.9239
耷	-15.9239
蜓	-15.9239
蜻	-15.9239
赓	-15.9239
骐	-15.9239
麽	-15.9239
兀	-15.9239
怙	-15.9239
悛	-15.9239
佰	-15.9239
倨	-15.9239
呲	-15.9239
模	-15.9239
爹	-15.9239
诣	-15.9239
